{"!": 0, "\"": 1, "#": 2, "$": 3, "%": 4, "&": 5, "'": 6, "(": 7, ")": 8, "*": 9, "+": 10, ",": 11, "-": 12, ".": 13, "/": 14, "0": 15, "1": 16, "2": 17, "3": 18, "4": 19, "5": 20, "6": 21, "7": 22, "8": 23, "9": 24, ":": 25, ";": 26, "<": 27, "=": 28, ">": 29, "?": 30, "@": 31, "A": 32, "B": 33, "C": 34, "D": 35, "E": 36, "F": 37, "G": 38, "H": 39, "I": 40, "J": 41, "K": 42, "L": 43, "M": 44, "N": 45, "O": 46, "P": 47, "Q": 48, "R": 49, "S": 50, "T": 51, "U": 52, "V": 53, "W": 54, "X": 55, "Y": 56, "Z": 57, "[": 58, "\\": 59, "]": 60, "^": 61, "_": 62, "`": 63, "a": 64, "b": 65, "c": 66, "d": 67, "e": 68, "f": 69, "g": 70, "h": 71, "i": 72, "j": 73, "k": 74, "l": 75, "m": 76, "n": 77, "o": 78, "p": 79, "q": 80, "r": 81, "s": 82, "t": 83, "u": 84, "v": 85, "w": 86, "x": 87, "y": 88, "z": 89, "{": 90, "|": 91, "}": 92, "~": 93, "\u00a1": 94, "\u00a2": 95, "\u00a3": 96, "\u00a4": 97, "\u00a5": 98, "\u00a6": 99, "\u00a7": 100, "\u00a8": 101, "\u00a9": 102, "\u00aa": 103, "\u00ab": 104, "\u00ac": 105, "\u00ae": 106, "\u00af": 107, "\u00b0": 108, "\u00b1": 109, "\u00b2": 110, "\u00b3": 111, "\u00b4": 112, "\u00b5": 113, "\u00b6": 114, "\u00b7": 115, "\u00b8": 116, "\u00b9": 117, "\u00ba": 118, "\u00bb": 119, "\u00bc": 120, "\u00bd": 121, "\u00be": 122, "\u00bf": 123, "\u00c0": 124, "\u00c1": 125, "\u00c2": 126, "\u00c3": 127, "\u00c4": 128, "\u00c5": 129, "\u00c6": 130, "\u00c7": 131, "\u00c8": 132, "\u00c9": 133, "\u00ca": 134, "\u00cb": 135, "\u00cc": 136, "\u00cd": 137, "\u00ce": 138, "\u00cf": 139, "\u00d0": 140, "\u00d1": 141, "\u00d2": 142, "\u00d3": 143, "\u00d4": 144, "\u00d5": 145, "\u00d6": 146, "\u00d7": 147, "\u00d8": 148, "\u00d9": 149, "\u00da": 150, "\u00db": 151, "\u00dc": 152, "\u00dd": 153, "\u00de": 154, "\u00df": 155, "\u00e0": 156, "\u00e1": 157, "\u00e2": 158, "\u00e3": 159, "\u00e4": 160, "\u00e5": 161, "\u00e6": 162, "\u00e7": 163, "\u00e8": 164, "\u00e9": 165, "\u00ea": 166, "\u00eb": 167, "\u00ec": 168, "\u00ed": 169, "\u00ee": 170, "\u00ef": 171, "\u00f0": 172, "\u00f1": 173, "\u00f2": 174, "\u00f3": 175, "\u00f4": 176, "\u00f5": 177, "\u00f6": 178, "\u00f7": 179, "\u00f8": 180, "\u00f9": 181, "\u00fa": 182, "\u00fb": 183, "\u00fc": 184, "\u00fd": 185, "\u00fe": 186, "\u00ff": 187, "\u0100": 188, "\u0101": 189, "\u0102": 190, "\u0103": 191, "\u0104": 192, "\u0105": 193, "\u0106": 194, "\u0107": 195, "\u0108": 196, "\u0109": 197, "\u010a": 198, "\u010b": 199, "\u010c": 200, "\u010d": 201, "\u010e": 202, "\u010f": 203, "\u0110": 204, "\u0111": 205, "\u0112": 206, "\u0113": 207, "\u0114": 208, "\u0115": 209, "\u0116": 210, "\u0117": 211, "\u0118": 212, "\u0119": 213, "\u011a": 214, "\u011b": 215, "\u011c": 216, "\u011d": 217, "\u011e": 218, "\u011f": 219, "\u0120": 220, "\u0121": 221, "\u0122": 222, "\u0123": 223, "\u0124": 224, "\u0125": 225, "\u0126": 226, "\u0127": 227, "\u0128": 228, "\u0129": 229, "\u012a": 230, "\u012b": 231, "\u012c": 232, "\u012d": 233, "\u012e": 234, "\u012f": 235, "\u0130": 236, "\u0131": 237, "\u0132": 238, "\u0133": 239, "\u0134": 240, "\u0135": 241, "\u0136": 242, "\u0137": 243, "\u0138": 244, "\u0139": 245, "\u013a": 246, "\u013b": 247, "\u013c": 248, "\u013d": 249, "\u013e": 250, "\u013f": 251, "\u0140": 252, "\u0141": 253, "\u0142": 254, "\u0143": 255, "\u0120t": 256, "\u0120a": 257, "he": 258, "in": 259, "re": 260, "on": 261, "\u0120the": 262, "er": 263, "\u0120s": 264, "at": 265, "\u0120w": 266, "\u0120o": 267, "en": 268, "\u0120c": 269, "it": 270, "is": 271, "an": 272, "or": 273, "es": 274, "\u0120b": 275, "ed": 276, "\u0120f": 277, "ing": 278, "\u0120p": 279, "ou": 280, "\u0120an": 281, "al": 282, "ar": 283, "\u0120to": 284, "\u0120m": 285, "\u0120of": 286, "\u0120in": 287, "\u0120d": 288, "\u0120h": 289, "\u0120and": 290, "ic": 291, "as": 292, "le": 293, "\u0120th": 294, "ion": 295, "om": 296, "ll": 297, "ent": 298, "\u0120n": 299, "\u0120l": 300, "st": 301, "\u0120re": 302, "ve": 303, "\u0120e": 304, "ro": 305, "ly": 306, "\u0120be": 307, "\u0120g": 308, "\u0120T": 309, "ct": 310, "\u0120S": 311, "id": 312, "ot": 313, "\u0120I": 314, "ut": 315, "et": 316, "\u0120A": 317, "\u0120is": 318, "\u0120on": 319, "im": 320, "am": 321, "ow": 322, "ay": 323, "ad": 324, "se": 325, "\u0120that": 326, "\u0120C": 327, "ig": 328, "\u0120for": 329, "ac": 330, "\u0120y": 331, "ver": 332, "ur": 333, "\u0120u": 334, "ld": 335, "\u0120st": 336, "\u0120M": 337, "'s": 338, "\u0120he": 339, "\u0120it": 340, "ation": 341, "ith": 342, "ir": 343, "ce": 344, "\u0120you": 345, "il": 346, "\u0120B": 347, "\u0120wh": 348, "ol": 349, "\u0120P": 350, "\u0120with": 351, "\u01201": 352, "ter": 353, "ch": 354, "\u0120as": 355, "\u0120we": 356, "\u0120(": 357, "nd": 358, "ill": 359, "\u0120D": 360, "if": 361, "\u01202": 362, "ag": 363, "ers": 364, "ke": 365, "\u0120\"": 366, "\u0120H": 367, "em": 368, "\u0120con": 369, "\u0120W": 370, "\u0120R": 371, "her": 372, "\u0120was": 373, "\u0120r": 374, "od": 375, "\u0120F": 376, "ul": 377, "ate": 378, "\u0120at": 379, "ri": 380, "pp": 381, "ore": 382, "\u0120The": 383, "\u0120se": 384, "us": 385, "\u0120pro": 386, "\u0120ha": 387, "um": 388, "\u0120are": 389, "\u0120de": 390, "ain": 391, "and": 392, "\u0120or": 393, "igh": 394, "est": 395, "ist": 396, "ab": 397, "rom": 398, "\u0120N": 399, "th": 400, "\u0120com": 401, "\u0120G": 402, "un": 403, "op": 404, "00": 405, "\u0120L": 406, "\u0120not": 407, "ess": 408, "\u0120ex": 409, "\u0120v": 410, "res": 411, "\u0120E": 412, "ew": 413, "ity": 414, "ant": 415, "\u0120by": 416, "el": 417, "os": 418, "ort": 419, "oc": 420, "qu": 421, "\u0120from": 422, "\u0120have": 423, "\u0120su": 424, "ive": 425, "ould": 426, "\u0120sh": 427, "\u0120this": 428, "nt": 429, "ra": 430, "pe": 431, "ight": 432, "art": 433, "ment": 434, "\u0120al": 435, "ust": 436, "end": 437, "--": 438, "all": 439, "\u0120O": 440, "ack": 441, "\u0120ch": 442, "\u0120le": 443, "ies": 444, "red": 445, "ard": 446, "\u00e2\u0122": 447, "out": 448, "\u0120J": 449, "\u0120ab": 450, "ear": 451, "iv": 452, "ally": 453, "our": 454, "ost": 455, "gh": 456, "pt": 457, "\u0120pl": 458, "ast": 459, "\u0120can": 460, "ak": 461, "ome": 462, "ud": 463, "The": 464, "\u0120his": 465, "\u0120do": 466, "\u0120go": 467, "\u0120has": 468, "ge": 469, "'t": 470, "\u0120U": 471, "rou": 472, "\u0120sa": 473, "\u0120j": 474, "\u0120but": 475, "\u0120wor": 476, "\u0120all": 477, "ect": 478, "\u0120k": 479, "ame": 480, "\u0120will": 481, "ok": 482, "\u0120whe": 483, "\u0120they": 484, "ide": 485, "01": 486, "ff": 487, "ich": 488, "pl": 489, "ther": 490, "\u0120tr": 491, "..": 492, "\u0120int": 493, "ie": 494, "ure": 495, "age": 496, "\u0120ne": 497, "ial": 498, "ap": 499, "ine": 500, "ice": 501, "\u0120me": 502, "\u0120out": 503, "ans": 504, "one": 505, "ong": 506, "ions": 507, "\u0120who": 508, "\u0120K": 509, "\u0120up": 510, "\u0120their": 511, "\u0120ad": 512, "\u01203": 513, "\u0120us": 514, "ated": 515, "ous": 516, "\u0120more": 517, "ue": 518, "og": 519, "\u0120St": 520, "ind": 521, "ike": 522, "\u0120so": 523, "ime": 524, "per": 525, ".\"": 526, "ber": 527, "iz": 528, "act": 529, "\u0120one": 530, "\u0120said": 531, "\u0120-": 532, "are": 533, "\u0120your": 534, "cc": 535, "\u0120Th": 536, "\u0120cl": 537, "ep": 538, "ake": 539, "able": 540, "ip": 541, "\u0120cont": 542, "\u0120which": 543, "ia": 544, "\u0120im": 545, "\u0120about": 546, "\u0120were": 547, "very": 548, "ub": 549, "\u0120had": 550, "\u0120en": 551, "\u0120comp": 552, ",\"": 553, "\u0120In": 554, "\u0120un": 555, "\u0120ag": 556, "ire": 557, "ace": 558, "au": 559, "ary": 560, "\u0120would": 561, "ass": 562, "ry": 563, "\u0120\u00e2\u0122": 564, "cl": 565, "ook": 566, "ere": 567, "so": 568, "\u0120V": 569, "ign": 570, "ib": 571, "\u0120off": 572, "\u0120te": 573, "ven": 574, "\u0120Y": 575, "ile": 576, "ose": 577, "ite": 578, "orm": 579, "\u0120201": 580, "\u0120res": 581, "\u0120man": 582, "\u0120per": 583, "\u0120other": 584, "ord": 585, "ult": 586, "\u0120been": 587, "\u0120like": 588, "ase": 589, "ance": 590, "ks": 591, "ays": 592, "own": 593, "ence": 594, "\u0120dis": 595, "ction": 596, "\u0120any": 597, "\u0120app": 598, "\u0120sp": 599, "int": 600, "ress": 601, "ations": 602, "ail": 603, "\u01204": 604, "ical": 605, "\u0120them": 606, "\u0120her": 607, "ount": 608, "\u0120Ch": 609, "\u0120ar": 610, "\u0120if": 611, "\u0120there": 612, "\u0120pe": 613, "\u0120year": 614, "av": 615, "\u0120my": 616, "\u0120some": 617, "\u0120when": 618, "ough": 619, "ach": 620, "\u0120than": 621, "ru": 622, "ond": 623, "ick": 624, "\u0120over": 625, "vel": 626, "\u0120qu": 627, "\u010a\u010a": 628, "\u0120sc": 629, "reat": 630, "ree": 631, "\u0120It": 632, "ound": 633, "port": 634, "\u0120also": 635, "\u0120part": 636, "fter": 637, "\u0120kn": 638, "\u0120bec": 639, "\u0120time": 640, "ens": 641, "\u01205": 642, "ople": 643, "\u0120what": 644, "\u0120no": 645, "du": 646, "mer": 647, "ang": 648, "\u0120new": 649, "----": 650, "\u0120get": 651, "ory": 652, "ition": 653, "ings": 654, "\u0120just": 655, "\u0120into": 656, "\u01200": 657, "ents": 658, "ove": 659, "te": 660, "\u0120people": 661, "\u0120pre": 662, "\u0120its": 663, "\u0120rec": 664, "\u0120tw": 665, "ian": 666, "irst": 667, "ark": 668, "ors": 669, "\u0120work": 670, "ade": 671, "ob": 672, "\u0120she": 673, "\u0120our": 674, "wn": 675, "ink": 676, "lic": 677, "\u012019": 678, "\u0120He": 679, "ish": 680, "nder": 681, "ause": 682, "\u0120him": 683, "ons": 684, "\u0120[": 685, "\u0120ro": 686, "form": 687, "ild": 688, "ates": 689, "vers": 690, "\u0120only": 691, "oll": 692, "\u0120spe": 693, "ck": 694, "ell": 695, "amp": 696, "\u0120acc": 697, "\u0120bl": 698, "ious": 699, "urn": 700, "ft": 701, "ood": 702, "\u0120how": 703, "hed": 704, "\u0120'": 705, "\u0120after": 706, "aw": 707, "\u0120att": 708, "ov": 709, "ne": 710, "\u0120play": 711, "erv": 712, "ict": 713, "\u0120could": 714, "itt": 715, "\u0120am": 716, "\u0120first": 717, "\u01206": 718, "\u0120act": 719, "\u0120$": 720, "ec": 721, "hing": 722, "ual": 723, "ull": 724, "\u0120comm": 725, "oy": 726, "old": 727, "ces": 728, "ater": 729, "\u0120fe": 730, "\u0120bet": 731, "we": 732, "iff": 733, "\u0120two": 734, "ock": 735, "\u0120back": 736, ").": 737, "ident": 738, "\u0120under": 739, "rough": 740, "sel": 741, "xt": 742, "\u0120may": 743, "round": 744, "\u0120po": 745, "ph": 746, "iss": 747, "\u0120des": 748, "\u0120most": 749, "\u0120did": 750, "\u0120add": 751, "ject": 752, "\u0120inc": 753, "fore": 754, "\u0120pol": 755, "ont": 756, "\u0120again": 757, "clud": 758, "tern": 759, "\u0120know": 760, "\u0120need": 761, "\u0120cons": 762, "\u0120co": 763, "\u0120.": 764, "\u0120want": 765, "\u0120see": 766, "\u01207": 767, "ning": 768, "iew": 769, "\u0120This": 770, "ced": 771, "\u0120even": 772, "\u0120ind": 773, "ty": 774, "\u0120We": 775, "ath": 776, "\u0120these": 777, "\u0120pr": 778, "\u0120use": 779, "\u0120because": 780, "\u0120fl": 781, "ng": 782, "\u0120now": 783, "\u0120\u00e2\u0122\u0135": 784, "com": 785, "ise": 786, "\u0120make": 787, "\u0120then": 788, "ower": 789, "\u0120every": 790, "\u0120Un": 791, "\u0120sec": 792, "oss": 793, "uch": 794, "\u0120em": 795, "\u0120=": 796, "\u0120Re": 797, "ied": 798, "rit": 799, "\u0120inv": 800, "lect": 801, "\u0120supp": 802, "ating": 803, "\u0120look": 804, "man": 805, "pect": 806, "\u01208": 807, "row": 808, "\u0120bu": 809, "\u0120where": 810, "ific": 811, "\u0120years": 812, "ily": 813, "\u0120diff": 814, "\u0120should": 815, "\u0120rem": 816, "Th": 817, "In": 818, "\u0120ev": 819, "day": 820, "'re": 821, "rib": 822, "\u0120rel": 823, "ss": 824, "\u0120def": 825, "\u0120right": 826, "\u0120sy": 827, "),": 828, "les": 829, "000": 830, "hen": 831, "\u0120through": 832, "\u0120Tr": 833, "__": 834, "\u0120way": 835, "\u0120don": 836, "\u0120,": 837, "\u012010": 838, "ased": 839, "\u0120ass": 840, "ublic": 841, "\u0120reg": 842, "\u0120And": 843, "ix": 844, "\u0120very": 845, "\u0120includ": 846, "other": 847, "\u0120imp": 848, "oth": 849, "\u0120sub": 850, "\u0120\u00e2\u0122\u0136": 851, "\u0120being": 852, "arg": 853, "\u0120Wh": 854, "==": 855, "ible": 856, "\u0120does": 857, "ange": 858, "ram": 859, "\u01209": 860, "ert": 861, "ps": 862, "ited": 863, "ational": 864, "\u0120br": 865, "\u0120down": 866, "\u0120many": 867, "aking": 868, "\u0120call": 869, "uring": 870, "ities": 871, "\u0120ph": 872, "ics": 873, "als": 874, "\u0120dec": 875, "ative": 876, "ener": 877, "\u0120before": 878, "ility": 879, "\u0120well": 880, "\u0120much": 881, "erson": 882, "\u0120those": 883, "\u0120such": 884, "\u0120ke": 885, "\u0120end": 886, "\u0120But": 887, "ason": 888, "ting": 889, "\u0120long": 890, "ef": 891, "\u0120think": 892, "ys": 893, "\u0120bel": 894, "\u0120sm": 895, "its": 896, "ax": 897, "\u0120own": 898, "\u0120prov": 899, "\u0120set": 900, "ife": 901, "ments": 902, "ble": 903, "ward": 904, "\u0120show": 905, "\u0120pres": 906, "ms": 907, "omet": 908, "\u0120ob": 909, "\u0120say": 910, "\u0120Sh": 911, "ts": 912, "ful": 913, "\u0120eff": 914, "\u0120gu": 915, "\u0120inst": 916, "und": 917, "ren": 918, "cess": 919, "\u0120ent": 920, "\u0120You": 921, "\u0120good": 922, "\u0120start": 923, "ince": 924, "\u0120made": 925, "tt": 926, "stem": 927, "olog": 928, "up": 929, "\u0120|": 930, "ump": 931, "\u0120hel": 932, "vern": 933, "ular": 934, "ually": 935, "\u0120ac": 936, "\u0120mon": 937, "\u0120last": 938, "\u0120200": 939, "10": 940, "\u0120stud": 941, "ures": 942, "\u0120Ar": 943, "self": 944, "ars": 945, "meric": 946, "ues": 947, "cy": 948, "\u0120min": 949, "ollow": 950, "\u0120col": 951, "io": 952, "\u0120mod": 953, "\u0120count": 954, "\u0120Com": 955, "hes": 956, "\u0120fin": 957, "air": 958, "ier": 959, "\u00e2\u0122\u0136": 960, "read": 961, "ank": 962, "atch": 963, "ever": 964, "\u0120str": 965, "\u0120point": 966, "ork": 967, "\u0120New": 968, "\u0120sur": 969, "ool": 970, "alk": 971, "ement": 972, "\u0120used": 973, "ract": 974, "ween": 975, "\u0120same": 976, "oun": 977, "\u0120Al": 978, "ci": 979, "\u0120differe": 980, "\u0120while": 981, "--------": 982, "\u0120game": 983, "cept": 984, "\u0120sim": 985, "...": 986, "\u0120inter": 987, "ek": 988, "\u0120report": 989, "\u0120produ": 990, "\u0120still": 991, "led": 992, "ah": 993, "\u0120here": 994, "\u0120world": 995, "\u0120though": 996, "\u0120num": 997, "arch": 998, "imes": 999, "ale": 1000, "\u0120Se": 1001, "\u0120If": 1002, "//": 1003, "\u0120Le": 1004, "\u0120ret": 1005, "\u0120ref": 1006, "\u0120trans": 1007, "ner": 1008, "ution": 1009, "ters": 1010, "\u0120take": 1011, "\u0120Cl": 1012, "\u0120conf": 1013, "way": 1014, "ave": 1015, "\u0120going": 1016, "\u0120sl": 1017, "ug": 1018, "\u0120Americ": 1019, "\u0120spec": 1020, "\u0120hand": 1021, "\u0120between": 1022, "ists": 1023, "\u0120De": 1024, "oot": 1025, "It": 1026, "\u0120ear": 1027, "\u0120against": 1028, "\u0120high": 1029, "gan": 1030, "az": 1031, "ather": 1032, "\u0120exp": 1033, "\u0120op": 1034, "\u0120ins": 1035, "\u0120gr": 1036, "\u0120help": 1037, "\u0120requ": 1038, "ets": 1039, "ins": 1040, "\u0120Pro": 1041, "ism": 1042, "\u0120found": 1043, "land": 1044, "ata": 1045, "uss": 1046, "ames": 1047, "\u0120person": 1048, "\u0120great": 1049, "pr": 1050, "\u0120sign": 1051, "\u0120An": 1052, "'ve": 1053, "\u0120somet": 1054, "\u0120ser": 1055, "hip": 1056, "\u0120run": 1057, "\u0120:": 1058, "\u0120ter": 1059, "irect": 1060, "\u0120follow": 1061, "\u0120det": 1062, "ices": 1063, "\u0120find": 1064, "12": 1065, "\u0120mem": 1066, "\u0120cr": 1067, "ered": 1068, "ex": 1069, "\u0120ext": 1070, "uth": 1071, "ense": 1072, "co": 1073, "\u0120team": 1074, "ving": 1075, "ouse": 1076, "ash": 1077, "att": 1078, "ved": 1079, "\u0120system": 1080, "\u0120As": 1081, "der": 1082, "ives": 1083, "min": 1084, "\u0120lead": 1085, "\u0120Bl": 1086, "cent": 1087, "\u0120around": 1088, "\u0120govern": 1089, "\u0120cur": 1090, "velop": 1091, "any": 1092, "\u0120cour": 1093, "alth": 1094, "ages": 1095, "ize": 1096, "\u0120car": 1097, "ode": 1098, "\u0120law": 1099, "\u0120read": 1100, "'m": 1101, "con": 1102, "\u0120real": 1103, "\u0120support": 1104, "\u012012": 1105, "....": 1106, "\u0120really": 1107, "ness": 1108, "\u0120fact": 1109, "\u0120day": 1110, "\u0120both": 1111, "ying": 1112, "\u0120serv": 1113, "\u0120For": 1114, "\u0120three": 1115, "\u0120wom": 1116, "\u0120med": 1117, "ody": 1118, "\u0120They": 1119, "50": 1120, "\u0120exper": 1121, "ton": 1122, "\u0120each": 1123, "akes": 1124, "\u0120che": 1125, "\u0120cre": 1126, "ines": 1127, "\u0120rep": 1128, "19": 1129, "gg": 1130, "illion": 1131, "\u0120grou": 1132, "ute": 1133, "ik": 1134, "We": 1135, "get": 1136, "ER": 1137, "\u0120met": 1138, "\u0120says": 1139, "ox": 1140, "\u0120during": 1141, "ern": 1142, "ized": 1143, "ared": 1144, "\u0120fam": 1145, "ically": 1146, "\u0120happ": 1147, "\u0120Is": 1148, "\u0120char": 1149, "med": 1150, "vent": 1151, "\u0120gener": 1152, "ient": 1153, "ple": 1154, "iet": 1155, "rent": 1156, "11": 1157, "ves": 1158, "ption": 1159, "\u012020": 1160, "formation": 1161, "\u0120cor": 1162, "\u0120offic": 1163, "ield": 1164, "\u0120too": 1165, "ision": 1166, "\u0120inf": 1167, "\u0120Z": 1168, "the": 1169, "oad": 1170, "\u0120public": 1171, "\u0120prog": 1172, "ric": 1173, "**": 1174, "\u0120war": 1175, "\u0120power": 1176, "view": 1177, "\u0120few": 1178, "\u0120loc": 1179, "\u0120different": 1180, "\u0120state": 1181, "\u0120head": 1182, "'ll": 1183, "\u0120poss": 1184, "\u0120stat": 1185, "ret": 1186, "ants": 1187, "\u0120val": 1188, "\u0120iss": 1189, "\u0120cle": 1190, "ivers": 1191, "anc": 1192, "\u0120expl": 1193, "\u0120another": 1194, "\u0120Q": 1195, "\u0120av": 1196, "thing": 1197, "nce": 1198, "Wh": 1199, "\u0120child": 1200, "\u0120since": 1201, "ired": 1202, "less": 1203, "\u0120life": 1204, "\u0120develop": 1205, "ittle": 1206, "\u0120dep": 1207, "\u0120pass": 1208, "\u00e3\u0125": 1209, "\u0120turn": 1210, "orn": 1211, "This": 1212, "bers": 1213, "ross": 1214, "\u0120Ad": 1215, "\u0120fr": 1216, "\u0120resp": 1217, "\u0120second": 1218, "oh": 1219, "\u0120/": 1220, "\u0120disc": 1221, "\u0120&": 1222, "\u0120something": 1223, "\u0120comple": 1224, "\u0120ed": 1225, "\u0120fil": 1226, "\u0120month": 1227, "aj": 1228, "uc": 1229, "\u0120government": 1230, "\u0120without": 1231, "\u0120leg": 1232, "\u0120dist": 1233, "\u0120put": 1234, "\u0120quest": 1235, "ann": 1236, "\u0120prot": 1237, "20": 1238, "\u0120never": 1239, "ience": 1240, "\u0120level": 1241, "\u0120art": 1242, "\u0120things": 1243, "\u0120might": 1244, "\u0120effect": 1245, "\u0120contro": 1246, "\u0120cent": 1247, "\u012018": 1248, "\u0120allow": 1249, "\u0120belie": 1250, "chool": 1251, "ott": 1252, "\u0120incre": 1253, "\u0120feel": 1254, "\u0120result": 1255, "\u0120lot": 1256, "\u0120fun": 1257, "ote": 1258, "\u0120ty": 1259, "erest": 1260, "\u0120contin": 1261, "\u0120using": 1262, "\u0120big": 1263, "201": 1264, "\u0120ask": 1265, "\u0120best": 1266, "\u0120)": 1267, "IN": 1268, "\u0120opp": 1269, "30": 1270, "\u0120number": 1271, "iness": 1272, "St": 1273, "lease": 1274, "\u0120ca": 1275, "\u0120must": 1276, "\u0120direct": 1277, "\u0120gl": 1278, "\u0120<": 1279, "\u0120open": 1280, "\u0120post": 1281, "\u0120come": 1282, "\u0120seem": 1283, "ording": 1284, "\u0120week": 1285, "ately": 1286, "ital": 1287, "\u0120el": 1288, "riend": 1289, "\u0120far": 1290, "\u0120tra": 1291, "inal": 1292, "\u0120pri": 1293, "\u0120US": 1294, "\u0120place": 1295, "\u0120form": 1296, "\u0120told": 1297, "\":": 1298, "ains": 1299, "ature": 1300, "\u0120Trump": 1301, "\u0120stand": 1302, "\u0120#": 1303, "ider": 1304, "\u0120Fr": 1305, "\u0120next": 1306, "\u0120soc": 1307, "\u0120pur": 1308, "\u0120let": 1309, "\u0120little": 1310, "\u0120hum": 1311, "\u0120i": 1312, "ron": 1313, "15": 1314, "\u012015": 1315, "\u0120commun": 1316, "\u0120mark": 1317, "\u0120There": 1318, "\u0120wr": 1319, "\u0120That": 1320, "\u0120information": 1321, "ways": 1322, "\u0120bus": 1323, "app": 1324, "\u0120invest": 1325, "me": 1326, "\u0120hard": 1327, "ained": 1328, "ead": 1329, "\u0120import": 1330, "\u0120appro": 1331, "\u0120test": 1332, "\u0120tri": 1333, "\u0120rest": 1334, "osed": 1335, "\u0120full": 1336, "\u0120care": 1337, "\u0120Sp": 1338, "\u0120case": 1339, "ON": 1340, "\u0120sk": 1341, "\u0120less": 1342, "\u0120+": 1343, "\u0120partic": 1344, "\u0120Pl": 1345, "ably": 1346, "uck": 1347, "ished": 1348, "chn": 1349, "be": 1350, "\u0120list": 1351, "ator": 1352, "\u0120top": 1353, "\u0120adv": 1354, "\u0120Be": 1355, "ruct": 1356, "\u0120dem": 1357, "ration": 1358, "ling": 1359, "gy": 1360, "reen": 1361, "ger": 1362, "\u0120home": 1363, "\u0120left": 1364, "\u0120better": 1365, "\u0120data": 1366, "\u012011": 1367, "\u0120attack": 1368, "\u0120proble": 1369, "line": 1370, "ards": 1371, "\u0120beh": 1372, "ral": 1373, "\u0120How": 1374, "\u0120She": 1375, "arge": 1376, "\u0120--": 1377, "://": 1378, "\u0120bro": 1379, "\u0120Ph": 1380, "ats": 1381, "\u0120build": 1382, "ww": 1383, "ided": 1384, "aim": 1385, "ases": 1386, "ency": 1387, "\u0120main": 1388, "ined": 1389, "\u0120including": 1390, "\u0120{": 1391, "\u0120got": 1392, "\u0120interest": 1393, "\u0120keep": 1394, "\u0120X": 1395, "\u0120eas": 1396, "aining": 1397, "\u0120class": 1398, "\u00e2\u0122\u00a6": 1399, "\u0120No": 1400, "\u0120var": 1401, "\u0120small": 1402, "ample": 1403, "AT": 1404, "\u0120ide": 1405, "\u0120So": 1406, "\u0120rece": 1407, "\u0120polit": 1408, "\u0120mov": 1409, "\u0120plan": 1410, "\u0120percent": 1411, "iving": 1412, "\u0120camp": 1413, "\u0120pay": 1414, "14": 1415, "sc": 1416, "ised": 1417, "\u0120unt": 1418, "oney": 1419, "ploy": 1420, "====": 1421, "\u0120didn": 1422, "\u0120Ind": 1423, "els": 1424, "ertain": 1425, "\u0120pos": 1426, "____": 1427, "iver": 1428, "\u0120process": 1429, "\u0120program": 1430, "ified": 1431, "\u0120Rep": 1432, "16": 1433, "uro": 1434, "ology": 1435, "atter": 1436, "ina": 1437, "\u0120name": 1438, "\u0120All": 1439, "\u0120four": 1440, "\u0120return": 1441, "vious": 1442, "bs": 1443, "\u0120called": 1444, "\u0120move": 1445, "\u0120Sc": 1446, "ird": 1447, "\u0120group": 1448, "\u0120bre": 1449, "\u0120men": 1450, "\u0120cap": 1451, "ten": 1452, "ee": 1453, "\u0120dri": 1454, "leg": 1455, "here": 1456, "uthor": 1457, "\u0120pat": 1458, "\u0120current": 1459, "ides": 1460, "\u0120pop": 1461, "to": 1462, "ention": 1463, "\u0120always": 1464, "\u0120mil": 1465, "\u0120women": 1466, "\u012016": 1467, "\u0120old": 1468, "iven": 1469, "raph": 1470, "\u0120Or": 1471, "ror": 1472, "ently": 1473, "\u0120near": 1474, "\u0120Ex": 1475, "ream": 1476, "sh": 1477, "\u012014": 1478, "\u0120free": 1479, "ission": 1480, "stand": 1481, "\u0120Con": 1482, "ality": 1483, "used": 1484, "13": 1485, "\u0120design": 1486, "\u0120change": 1487, "\u0120chang": 1488, "\u0120bo": 1489, "\u0120vis": 1490, "ember": 1491, "\u0120book": 1492, "ready": 1493, "\u0120kill": 1494, "25": 1495, "pped": 1496, "\u0120away": 1497, "\u0120able": 1498, "\u0120country": 1499, "\u0120const": 1500, "arn": 1501, "\u0120order": 1502, "AR": 1503, "ior": 1504, "ium": 1505, "orth": 1506, "18": 1507, "ailable": 1508, "\u0120sw": 1509, "\u0120million": 1510, "\u012013": 1511, "atic": 1512, "ted": 1513, "\u0120Go": 1514, "\u0120oper": 1515, "eng": 1516, "\u0120thing": 1517, "ajor": 1518, "conom": 1519, "\u0120Comm": 1520, "\u0120why": 1521, "ured": 1522, "ural": 1523, "\u0120school": 1524, "by": 1525, "\u0120Mar": 1526, "\u0120aff": 1527, "\u0120days": 1528, "\u0120ann": 1529, "ush": 1530, "ane": 1531, "If": 1532, "eg": 1533, "\u0120prof": 1534, "\u0120health": 1535, "outh": 1536, "But": 1537, "ional": 1538, ".,": 1539, "\u0120sol": 1540, "\u0120already": 1541, "\u012030": 1542, "\u0120charact": 1543, "He": 1544, "\u0120friend": 1545, "ES": 1546, "ians": 1547, "icle": 1548, "'d": 1549, "\u0120On": 1550, "\u0120least": 1551, "\u0120prom": 1552, "\u0120dr": 1553, "\u0120hist": 1554, "ither": 1555, "\u0120est": 1556, "iqu": 1557, "17": 1558, "son": 1559, "\u0120tell": 1560, "\u0120talk": 1561, "ohn": 1562, "oint": 1563, "lection": 1564, "AN": 1565, "\u0120until": 1566, "augh": 1567, "\u0120later": 1568, "\u0120ve": 1569, "\u0120view": 1570, "ending": 1571, "ived": 1572, "\u0120word": 1573, "ware": 1574, "\u0120cost": 1575, "\u0120enough": 1576, "\u0120give": 1577, "\u0120United": 1578, "\u0120techn": 1579, "arent": 1580, "OR": 1581, "\u0120par": 1582, "\u0120Dr": 1583, "\u01202016": 1584, "rist": 1585, "ering": 1586, "\u0120\u00c2": 1587, "\u0120large": 1588, "side": 1589, "acy": 1590, "ccess": 1591, "\u0120win": 1592, "\u0120important": 1593, "\u0120199": 1594, "\u0120doesn": 1595, "\u012017": 1596, "\u0120business": 1597, "\u0120clear": 1598, "\u0120rese": 1599, "\",": 1600, "ury": 1601, "\u0120equ": 1602, "aster": 1603, "alf": 1604, "\u0120American": 1605, "nect": 1606, "\u0120expect": 1607, "iversity": 1608, "\u0120occ": 1609, "\u0120Fl": 1610, "\u0120kind": 1611, "\u0120mean": 1612, "\u0120past": 1613, "\u0120dev": 1614, "\u0120bas": 1615, "let": 1616, "raft": 1617, "\u0120organ": 1618, "\u0120del": 1619, "\u0120perform": 1620, "\u0120story": 1621, "\u0120season": 1622, "\u0120Col": 1623, "\u0120claim": 1624, "\u0120came": 1625, "\u0120within": 1626, "\u0120line": 1627, "\u0120project": 1628, "\u0120At": 1629, "\u0120control": 1630, "ended": 1631, "\u0120Sy": 1632, "\u0120air": 1633, "ization": 1634, "\u0120*": 1635, "ley": 1636, "\u0120money": 1637, "idd": 1638, "You": 1639, "for": 1640, "\u0120family": 1641, "\u0120making": 1642, "\u0120bit": 1643, "\u0120police": 1644, "\u0120happen": 1645, "\u0120vers": 1646, "ony": 1647, "uff": 1648, "\u0120When": 1649, "\u0120sit": 1650, "ideo": 1651, "lf": 1652, "ison": 1653, "\u0120sure": 1654, "gin": 1655, "\u0120appear": 1656, "\u0120light": 1657, "\u0120es": 1658, "of": 1659, "\u0120water": 1660, "\u0120times": 1661, "not": 1662, "\u0120grow": 1663, "\u0120company": 1664, "\u0120Te": 1665, "ows": 1666, "\u0120mar": 1667, "ource": 1668, "iol": 1669, "arm": 1670, "br": 1671, "\u0120example": 1672, "\u0120conc": 1673, "\u0120fore": 1674, "\u0120To": 1675, "pro": 1676, "EN": 1677, "ries": 1678, "\u012025": 1679, "\u0120Can": 1680, "ney": 1681, "\u0120actually": 1682, "\u0120ever": 1683, "urity": 1684, "aken": 1685, "aps": 1686, "\u0120tax": 1687, "\u0120major": 1688, "ama": 1689, "\u0120often": 1690, "eral": 1691, "\u0120human": 1692, "\u0120job": 1693, "ister": 1694, "\u0120available": 1695, "ocr": 1696, "enn": 1697, "aid": 1698, "ivid": 1699, "\u0120record": 1700, "?\"": 1701, "\u0120sing": 1702, "\u0120Am": 1703, "idence": 1704, "\u0120news": 1705, "ster": 1706, "\u0120econom": 1707, "\u0120following": 1708, "\u0120Br": 1709, "ising": 1710, "\u0120hour": 1711, "most": 1712, "ument": 1713, "\u0120sex": 1714, "\u0120desc": 1715, "\u0120become": 1716, "\u0120Ed": 1717, "\u0120took": 1718, "\u0120having": 1719, "\u0120product": 1720, "ault": 1721, "As": 1722, "aring": 1723, "\u0120means": 1724, "\u0120hop": 1725, "une": 1726, "\u0120cho": 1727, "\u0120certain": 1728, "\u0120non": 1729, "\u0120deal": 1730, "24": 1731, "lement": 1732, "oci": 1733, "ene": 1734, "\u0120side": 1735, "\u0120Pr": 1736, "\u0120May": 1737, "\u0120reason": 1738, "ued": 1739, "ched": 1740, "ulation": 1741, "\u0120elect": 1742, "\u0120official": 1743, "\u0120possible": 1744, "\u0120hold": 1745, "ands": 1746, "ots": 1747, "\u0120city": 1748, "ories": 1749, "\u0120sever": 1750, "\u0120children": 1751, "\u0120once": 1752, "\u0120activ": 1753, "ler": 1754, "\u0120night": 1755, "itions": 1756, "\u0120John": 1757, "ape": 1758, "play": 1759, "\u0120done": 1760, "\u0120lim": 1761, "\u0120working": 1762, "\u0120Pres": 1763, "orld": 1764, "eb": 1765, "\u0120Co": 1766, "\u0120body": 1767, "ails": 1768, "utes": 1769, "\u0120Mr": 1770, "\u0120whether": 1771, "\u0120author": 1772, "rop": 1773, "\u0120proper": 1774, "\u0120seen": 1775, ");": 1776, "\u0120fac": 1777, "\u0120Su": 1778, "\u0120cond": 1779, "iting": 1780, "\u0120course": 1781, "\u0120}": 1782, "----------------": 1783, "aign": 1784, "\u0120event": 1785, "\u0120eng": 1786, "\u0120pot": 1787, "\u0120intern": 1788, "iam": 1789, "\u0120short": 1790, "empt": 1791, "\u00e3\u0124": 1792, "\u0120God": 1793, "ilar": 1794, "80": 1795, "\u0120orig": 1796, "IS": 1797, "ourn": 1798, "ability": 1799, "itive": 1800, "\u0120dam": 1801, "\u0120100": 1802, "\u0120press": 1803, "\u0120doing": 1804, "\u0120protect": 1805, "ring": 1806, "\u0120thought": 1807, "\u0120question": 1808, "rew": 1809, "\u0120War": 1810, "\u0120several": 1811, "\u0120State": 1812, "\u0120given": 1813, "\u0120fund": 1814, "\u0120Tw": 1815, "\u0120went": 1816, "ances": 1817, "work": 1818, "por": 1819, "my": 1820, "40": 1821, "\u0120arg": 1822, "artment": 1823, "ustom": 1824, "\u0120polic": 1825, "\u0120meet": 1826, "\u0120creat": 1827, "22": 1828, "\u0120States": 1829, "\u0120games": 1830, "raw": 1831, "uture": 1832, "\u0120understand": 1833, "urs": 1834, "\u0120Ob": 1835, "lish": 1836, "sy": 1837, "\u0120makes": 1838, "\u0120won": 1839, "agon": 1840, "\u0120htt": 1841, "\u0120love": 1842, "ential": 1843, "\u0120complete": 1844, "par": 1845, "\u0120Im": 1846, "AL": 1847, "\u0120account": 1848, "\u00c2\u0142": 1849, "ored": 1850, "vert": 1851, "\u0120ident": 1852, "\u01202015": 1853, "\u0120others": 1854, "\u0120Min": 1855, "iber": 1856, "verage": 1857, "There": 1858, "itional": 1859, "dd": 1860, "\u0120prob": 1861, "\u0120young": 1862, "\u0120along": 1863, "\u0120according": 1864, "\u0120yet": 1865, "\u0120members": 1866, "\u0120What": 1867, "oid": 1868, "\u0120Man": 1869, "And": 1870, "\u0120among": 1871, "ai": 1872, "\u0120employ": 1873, "\u0120Res": 1874, "\u0120>": 1875, "\u0120invol": 1876, "\u0120low": 1877, "af": 1878, "\u0120Car": 1879, "\u0120hig": 1880, "\u0120One": 1881, "\u0120Sec": 1882, "ination": 1883, "\u0120likely": 1884, "\u0120ant": 1885, "aged": 1886, "\u0120Russ": 1887, "\u0120ben": 1888, "\u0120rele": 1889, "For": 1890, "back": 1891, "\u0120Not"