{"!": 0, "\"": 1, "#": 2, "$": 3, "%": 4, "&": 5, "'": 6, "(": 7, ")": 8, "*": 9, "+": 10, ",": 11, "-": 12, ".": 13, "/": 14, "0": 15, "1": 16, "2": 17, "3": 18, "4": 19, "5": 20, "6": 21, "7": 22, "8": 23, "9": 24, ":": 25, ";": 26, "<": 27, "=": 28, ">": 29, "?": 30, "@": 31, "A": 32, "B": 33, "C": 34, "D": 35, "E": 36, "F": 37, "G": 38, "H": 39, "I": 40, "J": 41, "K": 42, "L": 43, "M": 44, "N": 45, "O": 46, "P": 47, "Q": 48, "R": 49, "S": 50, "T": 51, "U": 52, "V": 53, "W": 54, "X": 55, "Y": 56, "Z": 57, "[": 58, "\\": 59, "]": 60, "^": 61, "_": 62, "`": 63, "a": 64, "b": 65, "c": 66, "d": 67, "e": 68, "f": 69, "g": 70, "h": 71, "i": 72, "j": 73, "k": 74, "l": 75, "m": 76, "n": 77, "o": 78, "p": 79, "q": 80, "r": 81, "s": 82, "t": 83, "u": 84, "v": 85, "w": 86, "x": 87, "y": 88, "z": 89, "{": 90, "|": 91, "}": 92, "~": 93, "\u00a1": 94, "\u00a2": 95, "\u00a3": 96, "\u00a4": 97, "\u00a5": 98, "\u00a6": 99, "\u00a7": 100, "\u00a8": 101, "\u00a9": 102, "\u00aa": 103, "\u00ab": 104, "\u00ac": 105, "\u00ae": 106, "\u00af": 107, "\u00b0": 108, "\u00b1": 109, "\u00b2": 110, "\u00b3": 111, "\u00b4": 112, "\u00b5": 113, "\u00b6": 114, "\u00b7": 115, "\u00b8": 116, "\u00b9": 117, "\u00ba": 118, "\u00bb": 119, "\u00bc": 120, "\u00bd": 121, "\u00be": 122, "\u00bf": 123, "\u00c0": 124, "\u00c1": 125, "\u00c2": 126, "\u00c3": 127, "\u00c4": 128, "\u00c5": 129, "\u00c6": 130, "\u00c7": 131, "\u00c8": 132, "\u00c9": 133, "\u00ca": 134, "\u00cb": 135, "\u00cc": 136, "\u00cd": 137, "\u00ce": 138, "\u00cf": 139, "\u00d0": 140, "\u00d1": 141, "\u00d2": 142, "\u00d3": 143, "\u00d4": 144, "\u00d5": 145, "\u00d6": 146, "\u00d7": 147, "\u00d8": 148, "\u00d9": 149, "\u00da": 150, "\u00db": 151, "\u00dc": 152, "\u00dd": 153, "\u00de": 154, "\u00df": 155, "\u00e0": 156, "\u00e1": 157, "\u00e2": 158, "\u00e3": 159, "\u00e4": 160, "\u00e5": 161, "\u00e6": 162, "\u00e7": 163, "\u00e8": 164, "\u00e9": 165, "\u00ea": 166, "\u00eb": 167, "\u00ec": 168, "\u00ed": 169, "\u00ee": 170, "\u00ef": 171, "\u00f0": 172, "\u00f1": 173, "\u00f2": 174, "\u00f3": 175, "\u00f4": 176, "\u00f5": 177, "\u00f6": 178, "\u00f7": 179, "\u00f8": 180, "\u00f9": 181, "\u00fa": 182, "\u00fb": 183, "\u00fc": 184, "\u00fd": 185, "\u00fe": 186, "\u00ff": 187, "\u0100": 188, "\u0101": 189, "\u0102": 190, "\u0103": 191, "\u0104": 192, "\u0105": 193, "\u0106": 194, "\u0107": 195, "\u0108": 196, "\u0109": 197, "\u010a": 198, "\u010b": 199, "\u010c": 200, "\u010d": 201, "\u010e": 202, "\u010f": 203, "\u0110": 204, "\u0111": 205, "\u0112": 206, "\u0113": 207, "\u0114": 208, "\u0115": 209, "\u0116": 210, "\u0117": 211, "\u0118": 212, "\u0119": 213, "\u011a": 214, "\u011b": 215, "\u011c": 216, "\u011d": 217, "\u011e": 218, "\u011f": 219, "\u0120": 220, "\u0121": 221, "\u0122": 222, "\u0123": 223, "\u0124": 224, "\u0125": 225, "\u0126": 226, "\u0127": 227, "\u0128": 228, "\u0129": 229, "\u012a": 230, "\u012b": 231, "\u012c": 232, "\u012d": 233, "\u012e": 234, "\u012f": 235, "\u0130": 236, "\u0131": 237, "\u0132": 238, "\u0133": 239, "\u0134": 240, "\u0135": 241, "\u0136": 242, "\u0137": 243, "\u0138": 244, "\u0139": 245, "\u013a": 246, "\u013b": 247, "\u013c": 248, "\u013d": 249, "\u013e": 250, "\u013f": 251, "\u0140": 252, "\u0141": 253, "\u0142": 254, "\u0143": 255, "\u0120t": 256, "\u0120a": 257, "he": 258, "in": 259, "re": 260, "on": 261, "\u0120the": 262, "er": 263, "\u0120s": 264, "at": 265, "\u0120w": 266, "\u0120o": 267, "en": 268, "\u0120c": 269, "it": 270, "is": 271, "an": 272, "or": 273, "es": 274, "\u0120b": 275, "ed": 276, "\u0120f": 277, "ing": 278, "\u0120p": 279, "ou": 280, "\u0120an": 281, "al": 282, "ar": 283, "\u0120to": 284, "\u0120m": 285, "\u0120of": 286, "\u0120in": 287, "\u0120d": 288, "\u0120h": 289, "\u0120and": 290, "ic": 291, "as": 292, "le": 293, "\u0120th": 294, "ion": 295, "om": 296, "ll": 297, "ent": 298, "\u0120n": 299, "\u0120l": 300, "st": 301, "\u0120re": 302, "ve": 303, "\u0120e": 304, "ro": 305, "ly": 306, "\u0120be": 307, "\u0120g": 308, "\u0120T": 309, "ct": 310, "\u0120S": 311, "id": 312, "ot": 313, "\u0120I": 314, "ut": 315, "et": 316, "\u0120A": 317, "\u0120is": 318, "\u0120on": 319, "im": 320, "am": 321, "ow": 322, "ay": 323, "ad": 324, "se": 325, "\u0120that": 326, "\u0120C": 327, "ig": 328, "\u0120for": 329, "ac": 330, "\u0120y": 331, "ver": 332, "ur": 333, "\u0120u": 334, "ld": 335, "\u0120st": 336, "\u0120M": 337, "'s": 338, "\u0120he": 339, "\u0120it": 340, "ation": 341, "ith": 342, "ir": 343, "ce": 344, "\u0120you": 345, "il": 346, "\u0120B": 347, "\u0120wh": 348, "ol": 349, "\u0120P": 350, "\u0120with": 351, "\u01201": 352, "ter": 353, "ch": 354, "\u0120as": 355, "\u0120we": 356, "\u0120(": 357, "nd": 358, "ill": 359, "\u0120D": 360, "if": 361, "\u01202": 362, "ag": 363, "ers": 364, "ke": 365, "\u0120\"": 366, "\u0120H": 367, "em": 368, "\u0120con": 369, "\u0120W": 370, "\u0120R": 371, "her": 372, "\u0120was": 373, "\u0120r": 374, "od": 375, "\u0120F": 376, "ul": 377, "ate": 378, "\u0120at": 379, "ri": 380, "pp": 381, "ore": 382, "\u0120The": 383, "\u0120se": 384, "us": 385, "\u0120pro": 386, "\u0120ha": 387, "um": 388, "\u0120are": 389, "\u0120de": 390, "ain": 391, "and": 392, "\u0120or": 393, "igh": 394, "est": 395, "ist": 396, "ab": 397, "rom": 398, "\u0120N": 399, "th": 400, "\u0120com": 401, "\u0120G": 402, "un": 403, "op": 404, "00": 405, "\u0120L": 406, "\u0120not": 407, "ess": 408, "\u0120ex": 409, "\u0120v": 410, "res": 411, "\u0120E": 412, "ew": 413, "ity": 414, "ant": 415, "\u0120by": 416, "el": 417, "os": 418, "ort": 419, "oc": 420, "qu": 421, "\u0120from": 422, "\u0120have": 423, "\u0120su": 424, "ive": 425, "ould": 426, "\u0120sh": 427, "\u0120this": 428, "nt": 429, "ra": 430, "pe": 431, "ight": 432, "art": 433, "ment": 434, "\u0120al": 435, "ust": 436, "end": 437, "--": 438, "all": 439, "\u0120O": 440, "ack": 441, "\u0120ch": 442, "\u0120le": 443, "ies": 444, "red": 445, "ard": 446, "\u00e2\u0122": 447, "out": 448, "\u0120J": 449, "\u0120ab": 450, "ear": 451, "iv": 452, "ally": 453, "our": 454, "ost": 455, "gh": 456, "pt": 457, "\u0120pl": 458, "ast": 459, "\u0120can": 460, "ak": 461, "ome": 462, "ud": 463, "The": 464, "\u0120his": 465, "\u0120do": 466, "\u0120go": 467, "\u0120has": 468, "ge": 469, "'t": 470, "\u0120U": 471, "rou": 472, "\u0120sa": 473, "\u0120j": 474, "\u0120but": 475, "\u0120wor": 476, "\u0120all": 477, "ect": 478, "\u0120k": 479, "ame": 480, "\u0120will": 481, "ok": 482, "\u0120whe": 483, "\u0120they": 484, "ide": 485, "01": 486, "ff": 487, "ich": 488, "pl": 489, "ther": 490, "\u0120tr": 491, "..": 492, "\u0120int": 493, "ie": 494, "ure": 495, "age": 496, "\u0120ne": 497, "ial": 498, "ap": 499, "ine": 500, "ice": 501, "\u0120me": 502, "\u0120out": 503, "ans": 504, "one": 505, "ong": 506, "ions": 507, "\u0120who": 508, "\u0120K": 509, "\u0120up": 510, "\u0120their": 511, "\u0120ad": 512, "\u01203": 513, "\u0120us": 514, "ated": 515, "ous": 516, "\u0120more": 517, "ue": 518, "og": 519, "\u0120St": 520, "ind": 521, "ike": 522, "\u0120so": 523, "ime": 524, "per": 525, ".\"": 526, "ber": 527, "iz": 528, "act": 529, "\u0120one": 530, "\u0120said": 531, "\u0120-": 532, "are": 533, "\u0120your": 534, "cc": 535, "\u0120Th": 536, "\u0120cl": 537, "ep": 538, "ake": 539, "able": 540, "ip": 541, "\u0120cont": 542, "\u0120which": 543, "ia": 544, "\u0120im": 545, "\u0120about": 546, "\u0120were": 547, "very": 548, "ub": 549, "\u0120had": 550, "\u0120en": 551, "\u0120comp": 552, ",\"": 553, "\u0120In": 554, "\u0120un": 555, "\u0120ag": 556, "ire": 557, "ace": 558, "au": 559, "ary": 560, "\u0120would": 561, "ass": 562, "ry": 563, "\u0120\u00e2\u0122": 564, "cl": 565, "ook": 566, "ere": 567, "so": 568, "\u0120V": 569, "ign": 570, "ib": 571, "\u0120off": 572, "\u0120te": 573, "ven": 574, "\u0120Y": 575, "ile": 576, "ose": 577, "ite": 578, "orm": 579, "\u0120201": 580, "\u0120res": 581, "\u0120man": 582, "\u0120per": 583, "\u0120other": 584, "ord": 585, "ult": 586, "\u0120been": 587, "\u0120like": 588, "ase": 589, "ance": 590, "ks": 591, "ays": 592, "own": 593, "ence": 594, "\u0120dis": 595, "ction": 596, "\u0120any": 597, "\u0120app": 598, "\u0120sp": 599, "int": 600, "ress": 601, "ations": 602, "ail": 603, "\u01204": 604, "ical": 605, "\u0120them": 606, "\u0120her": 607, "ount": 608, "\u0120Ch": 609, "\u0120ar": 610, "\u0120if": 611, "\u0120there": 612, "\u0120pe": 613, "\u0120year": 614, "av": 615, "\u0120my": 616, "\u0120some": 617, "\u0120when": 618, "ough": 619, "ach": 620, "\u0120than": 621, "ru": 622, "ond": 623, "ick": 624, "\u0120over": 625, "vel": 626, "\u0120qu": 627, "\u010a\u010a": 628, "\u0120sc": 629, "reat": 630, "ree": 631, "\u0120It": 632, "ound": 633, "port": 634, "\u0120also": 635, "\u0120part": 636, "fter": 637, "\u0120kn": 638, "\u0120bec": 639, "\u0120time": 640, "ens": 641, "\u01205": 642, "ople": 643, "\u0120what": 644, "\u0120no": 645, "du": 646, "mer": 647, "ang": 648, "\u0120new": 649, "----": 650, "\u0120get": 651, "ory": 652, "ition": 653, "ings": 654, "\u0120just": 655, "\u0120into": 656, "\u01200": 657, "ents": 658, "ove": 659, "te": 660, "\u0120people": 661, "\u0120pre": 662, "\u0120its": 663, "\u0120rec": 664, "\u0120tw": 665, "ian": 666, "irst": 667, "ark": 668, "ors": 669, "\u0120work": 670, "ade": 671, "ob": 672, "\u0120she": 673, "\u0120our": 674, "wn": 675, "ink": 676, "lic": 677, "\u012019": 678, "\u0120He": 679, "ish": 680, "nder": 681, "ause": 682, "\u0120him": 683, "ons": 684, "\u0120[": 685, "\u0120ro": 686, "form": 687, "ild": 688, "ates": 689, "vers": 690, "\u0120only": 691, "oll": 692, "\u0120spe": 693, "ck": 694, "ell": 695, "amp": 696, "\u0120acc": 697, "\u0120bl": 698, "ious": 699, "urn": 700, "ft": 701, "ood": 702, "\u0120how": 703, "hed": 704, "\u0120'": 705, "\u0120after": 706, "aw": 707, "\u0120att": 708, "ov": 709, "ne": 710, "\u0120play": 711, "erv": 712, "ict": 713, "\u0120could": 714, "itt": 715, "\u0120am": 716, "\u0120first": 717, "\u01206": 718, "\u0120act": 719, "\u0120$": 720, "ec": 721, "hing": 722, "ual": 723, "ull": 724, "\u0120comm": 725, "oy": 726, "old": 727, "ces": 728, "ater": 729, "\u0120fe": 730, "\u0120bet": 731, "we": 732, "iff": 733, "\u0120two": 734, "ock": 735, "\u0120back": 736, ").": 737, "ident": 738, "\u0120under": 739, "rough": 740, "sel": 741, "xt": 742, "\u0120may": 743, "round": 744, "\u0120po": 745, "ph": 746, "iss": 747, "\u0120des": 748, "\u0120most": 749, "\u0120did": 750, "\u0120add": 751, "ject": 752, "\u0120inc": 753, "fore": 754, "\u0120pol": 755, "ont": 756, "\u0120again": 757, "clud": 758, "tern": 759, "\u0120know": 760, "\u0120need": 761, "\u0120cons": 762, "\u0120co": 763, "\u0120.": 764, "\u0120want": 765, "\u0120see": 766, "\u01207": 767, "ning": 768, "iew": 769, "\u0120This": 770, "ced": 771, "\u0120even": 772, "\u0120ind": 773, "ty": 774, "\u0120We": 775, "ath": 776, "\u0120these": 777, "\u0120pr": 778, "\u0120use": 779, "\u0120because": 780, "\u0120fl": 781, "ng": 782, "\u0120now": 783, "\u0120\u00e2\u0122\u0135": 784, "com": 785, "ise": 786, "\u0120make": 787, "\u0120then": 788, "ower": 789, "\u0120every": 790, "\u0120Un": 791, "\u0120sec": 792, "oss": 793, "uch": 794, "\u0120em": 795, "\u0120=": 796, "\u0120Re": 797, "ied": 798, "rit": 799, "\u0120inv": 800, "lect": 801, "\u0120supp": 802, "ating": 803, "\u0120look": 804, "man": 805, "pect": 806, "\u01208": 807, "row": 808, "\u0120bu": 809, "\u0120where": 810, "ific": 811, "\u0120years": 812, "ily": 813, "\u0120diff": 814, "\u0120should": 815, "\u0120rem": 816, "Th": 817, "In": 818, "\u0120ev": 819, "day": 820, "'re": 821, "rib": 822, "\u0120rel": 823, "ss": 824, "\u0120def": 825, "\u0120right": 826, "\u0120sy": 827, "),": 828, "les": 829, "000": 830, "hen": 831, "\u0120through": 832, "\u0120Tr": 833, "__": 834, "\u0120way": 835, "\u0120don": 836, "\u0120,": 837, "\u012010": 838, "ased": 839, "\u0120ass": 840, "ublic": 841, "\u0120reg": 842, "\u0120And": 843, "ix": 844, "\u0120very": 845, "\u0120includ": 846, "other": 847, "\u0120imp": 848, "oth": 849, "\u0120sub": 850, "\u0120\u00e2\u0122\u0136": 851, "\u0120being": 852, "arg": 853, "\u0120Wh": 854, "==": 855, "ible": 856, "\u0120does": 857, "ange": 858, "ram": 859, "\u01209": 860, "ert": 861, "ps": 862, "ited": 863, "ational": 864, "\u0120br": 865, "\u0120down": 866, "\u0120many": 867, "aking": 868, "\u0120call": 869, "uring": 870, "ities": 871, "\u0120ph": 872, "ics": 873, "als": 874, "\u0120dec": 875, "ative": 876, "ener": 877, "\u0120before": 878, "ility": 879, "\u0120well": 880, "\u0120much": 881, "erson": 882, "\u0120those": 883, "\u0120such": 884, "\u0120ke": 885, "\u0120end": 886, "\u0120But": 887, "ason": 888, "ting": 889, "\u0120long": 890, "ef": 891, "\u0120think": 892, "ys": 893, "\u0120bel": 894, "\u0120sm": 895, "its": 896, "ax": 897, "\u0120own": 898, "\u0120prov": 899, "\u0120set": 900, "ife": 901, "ments": 902, "ble": 903, "ward": 904, "\u0120show": 905, "\u0120pres": 906, "ms": 907, "omet": 908, "\u0120ob": 909, "\u0120say": 910, "\u0120Sh": 911, "ts": 912, "ful": 913, "\u0120eff": 914, "\u0120gu": 915, "\u0120inst": 916, "und": 917, "ren": 918, "cess": 919, "\u0120ent": 920, "\u0120You": 921, "\u0120good": 922, "\u0120start": 923, "ince": 924, "\u0120made": 925, "tt": 926, "stem": 927, "olog": 928, "up": 929, "\u0120|": 930, "ump": 931, "\u0120hel": 932, "vern": 933, "ular": 934, "ually": 935, "\u0120ac": 936, "\u0120mon": 937, "\u0120last": 938, "\u0120200": 939, "10": 940, "\u0120stud": 941, "ures": 942, "\u0120Ar": 943, "self": 944, "ars": 945, "meric": 946, "ues": 947, "cy": 948, "\u0120min": 949, "ollow": 950, "\u0120col": 951, "io": 952, "\u0120mod": 953, "\u0120count": 954, "\u0120Com": 955, "hes": 956, "\u0120fin": 957, "air": 958, "ier": 959, "\u00e2\u0122\u0136": 960, "read": 961, "ank": 962, "atch": 963, "ever": 964, "\u0120str": 965, "\u0120point": 966, "ork": 967, "\u0120New": 968, "\u0120sur": 969, "ool": 970, "alk": 971, "ement": 972, "\u0120used": 973, "ract": 974, "ween": 975, "\u0120same": 976, "oun": 977, "\u0120Al": 978, "ci": 979, "\u0120differe": 980, "\u0120while": 981, "--------": 982, "\u0120game": 983, "cept": 984, "\u0120sim": 985, "...": 986, "\u0120inter": 987, "ek": 988, "\u0120report": 989, "\u0120produ": 990, "\u0120still": 991, "led": 992, "ah": 993, "\u0120here": 994, "\u0120world": 995, "\u0120though": 996, "\u0120num": 997, "arch": 998, "imes": 999, "ale": 1000, "\u0120Se": 1001, "\u0120If": 1002, "//": 1003, "\u0120Le": 1004, "\u0120ret": 1005, "\u0120ref": 1006, "\u0120trans": 1007, "ner": 1008, "ution": 1009, "ters": 1010, "\u0120take": 1011, "\u0120Cl": 1012, "\u0120conf": 1013, "way": 1014, "ave": 1015, "\u0120going": 1016, "\u0120sl": 1017, "ug": 1018, "\u0120Americ": 1019, "\u0120spec": 1020, "\u0120hand": 1021, "\u0120between": 1022, "ists": 1023, "\u0120De": 1024, "oot": 1025, "It": 1026, "\u0120ear": 1027, "\u0120against": 1028, "\u0120high": 1029, "gan": 1030, "az": 1031, "ather": 1032, "\u0120exp": 1033, "\u0120op": 1034, "\u0120ins": 1035, "\u0120gr": 1036, "\u0120help": 1037, "\u0120requ": 1038, "ets": 1039, "ins": 1040, "\u0120Pro": 1041, "ism": 1042, "\u0120found": 1043, "land": 1044, "ata": 1045, "uss": 1046, "ames": 1047, "\u0120person": 1048, "\u0120great": 1049, "pr": 1050, "\u0120sign": 1051, "\u0120An": 1052, "'ve": 1053, "\u0120somet": 1054, "\u0120ser": 1055, "hip": 1056, "\u0120run": 1057, "\u0120:": 1058, "\u0120ter": 1059, "irect": 1060, "\u0120follow": 1061, "\u0120det": 1062, "ices": 1063, "\u0120find": 1064, "12": 1065, "\u0120mem": 1066, "\u0120cr": 1067, "ered": 1068, "ex": 1069, "\u0120ext": 1070, "uth": 1071, "ense": 1072, "co": 1073, "\u0120team": 1074, "ving": 1075, "ouse": 1076, "ash": 1077, "att": 1078, "ved": 1079, "\u0120system": 1080, "\u0120As": 1081, "der": 1082, "ives": 1083, "min": 1084, "\u0120lead": 1085, "\u0120Bl": 1086, "cent": 1087, "\u0120around": 1088, "\u0120govern": 1089, "\u0120cur": 1090, "velop": 1091, "any": 1092, "\u0120cour": 1093, "alth": 1094, "ages": 1095, "ize": 1096, "\u0120car": 1097, "ode": 1098, "\u0120law": 1099, "\u0120read": 1100, "'m": 1101, "con": 1102, "\u0120real": 1103, "\u0120support": 1104, "\u012012": 1105, "....": 1106, "\u0120really": 1107, "ness": 1108, "\u0120fact": 1109, "\u0120day": 1110, "\u0120both": 1111, "ying": 1112, "\u0120serv": 1113, "\u0120For": 1114, "\u0120three": 1115, "\u0120wom": 1116, "\u0120med": 1117, "ody": 1118, "\u0120They": 1119, "50": 1120, "\u0120exper": 1121, "ton": 1122, "\u0120each": 1123, "akes": 1124, "\u0120che": 1125, "\u0120cre": 1126, "ines": 1127, "\u0120rep": 1128, "19": 1129, "gg": 1130, "illion": 1131, "\u0120grou": 1132, "ute": 1133, "ik": 1134, "We": 1135, "get": 1136, "ER": 1137, "\u0120met": 1138, "\u0120says": 1139, "ox": 1140, "\u0120during": 1141, "ern": 1142, "ized": 1143, "ared": 1144, "\u0120fam": 1145, "ically": 1146, "\u0120happ": 1147, "\u0120Is": 1148, "\u0120char": 1149, "med": 1150, "vent": 1151, "\u0120gener": 1152, "ient": 1153, "ple": 1154, "iet": 1155, "rent": 1156, "11": 1157, "ves": 1158, "ption": 1159, "\u012020": 1160, "formation": 1161, "\u0120cor": 1162, "\u0120offic": 1163, "ield": 1164, "\u0120too": 1165, "ision": 1166, "\u0120inf": 1167, "\u0120Z": 1168, "the": 1169, "oad": 1170, "\u0120public": 1171, "\u0120prog": 1172, "ric": 1173, "**": 1174, "\u0120war": 1175, "\u0120power": 1176, "view": 1177, "\u0120few": 1178, "\u0120loc": 1179, "\u0120different": 1180, "\u0120state": 1181, "\u0120head": 1182, "'ll": 1183, "\u0120poss": 1184, "\u0120stat": 1185, "ret": 1186, "ants": 1187, "\u0120val": 1188, "\u0120iss": 1189, "\u0120cle": 1190, "ivers": 1191, "anc": 1192, "\u0120expl": 1193, "\u0120another": 1194, "\u0120Q": 1195, "\u0120av": 1196, "thing": 1197, "nce": 1198, "Wh": 1199, "\u0120child": 1200, "\u0120since": 1201, "ired": 1202, "less": 1203, "\u0120life": 1204, "\u0120develop": 1205, "ittle": 1206, "\u0120dep": 1207, "\u0120pass": 1208, "\u00e3\u0125": 1209, "\u0120turn": 1210, "orn": 1211, "This": 1212, "bers": 1213, "ross": 1214, "\u0120Ad": 1215, "\u0120fr": 1216, "\u0120resp": 1217, "\u0120second": 1218, "oh": 1219, "\u0120/": 1220, "\u0120disc": 1221, "\u0120&": 1222, "\u0120something": 1223, "\u0120comple": 1224, "\u0120ed": 1225, "\u0120fil": 1226, "\u0120month": 1227, "aj": 1228, "uc": 1229, "\u0120government": 1230, "\u0120without": 1231, "\u0120leg": 1232, "\u0120dist": 1233, "\u0120put": 1234, "\u0120quest": 1235, "ann": 1236, "\u0120prot": 1237, "20": 1238, "\u0120never": 1239, "ience": 1240, "\u0120level": 1241, "\u0120art": 1242, "\u0120things": 1243, "\u0120might": 1244, "\u0120effect": 1245, "\u0120contro": 1246, "\u0120cent": 1247, "\u012018": 1248, "\u0120allow": 1249, "\u0120belie": 1250, "chool": 1251, "ott": 1252, "\u0120incre": 1253, "\u0120feel": 1254, "\u0120result": 1255, "\u0120lot": 1256, "\u0120fun": 1257, "ote": 1258, "\u0120ty": 1259, "erest": 1260, "\u0120contin": 1261, "\u0120using": 1262, "\u0120big": 1263, "201": 1264, "\u0120ask": 1265, "\u0120best": 1266, "\u0120)": 1267, "IN": 1268, "\u0120opp": 1269, "30": 1270, "\u0120number": 1271, "iness": 1272, "St": 1273, "lease": 1274, "\u0120ca": 1275, "\u0120must": 1276, "\u0120direct": 1277, "\u0120gl": 1278, "\u0120<": 1279, "\u0120open": 1280, "\u0120post": 1281, "\u0120come": 1282, "\u0120seem": 1283, "ording": 1284, "\u0120week": 1285, "ately": 1286, "ital": 1287, "\u0120el": 1288, "riend": 1289, "\u0120far": 1290, "\u0120tra": 1291, "inal": 1292, "\u0120pri": 1293, "\u0120US": 1294, "\u0120place": 1295, "\u0120form": 1296, "\u0120told": 1297, "\":": 1298, "ains": 1299, "ature": 1300, "\u0120Trump": 1301, "\u0120stand": 1302, "\u0120#": 1303, "ider": 1304, "\u0120Fr": 1305, "\u0120next": 1306, "\u0120soc": 1307, "\u0120pur": 1308, "\u0120let": 1309, "\u0120little": 1310, "\u0120hum": 1311, "\u0120i": 1312, "ron": 1313, "15": 1314, "\u012015": 1315, "\u0120commun": 1316, "\u0120mark": 1317, "\u0120There": 1318, "\u0120wr": 1319, "\u0120That": 1320, "\u0120information": 1321, "ways": 1322, "\u0120bus": 1323, "app": 1324, "\u0120invest": 1325, "me": 1326, "\u0120hard": 1327, "ained": 1328, "ead": 1329, "\u0120import": 1330, "\u0120appro": 1331, "\u0120test": 1332, "\u0120tri": 1333, "\u0120rest": 1334, "osed": 1335, "\u0120full": 1336, "\u0120care": 1337, "\u0120Sp": 1338, "\u0120case": 1339, "ON": 1340, "\u0120sk": 1341, "\u0120less": 1342, "\u0120+": 1343, "\u0120partic": 1344, "\u0120Pl": 1345, "ably": 1346, "uck": 1347, "ished": 1348, "chn": 1349, "be": 1350, "\u0120list": 1351, "ator": 1352, "\u0120top": 1353, "\u0120adv": 1354, "\u0120Be": 1355, "ruct": 1356, "\u0120dem": 1357, "ration": 1358, "ling": 1359, "gy": 1360, "reen": 1361, "ger": 1362, "\u0120home": 1363, "\u0120left": 1364, "\u0120better": 1365, "\u0120data": 1366, "\u012011": 1367, "\u0120attack": 1368, "\u0120proble": 1369, "line": 1370, "ards": 1371, "\u0120beh": 1372, "ral": 1373, "\u0120How": 1374, "\u0120She": 1375, "arge": 1376, "\u0120--": 1377, "://": 1378, "\u0120bro": 1379, "\u0120Ph": 1380, "ats": 1381, "\u0120build": 1382, "ww": 1383, "ided": 1384, "aim": 1385, "ases": 1386, "ency": 1387, "\u0120main": 1388, "ined": 1389, "\u0120including": 1390, "\u0120{": 1391, "\u0120got": 1392, "\u0120interest": 1393, "\u0120keep": 1394, "\u0120X": 1395, "\u0120eas": 1396, "aining": 1397, "\u0120class": 1398, "\u00e2\u0122\u00a6": 1399, "\u0120No": 1400, "\u0120var": 1401, "\u0120small": 1402, "ample": 1403, "AT": 1404, "\u0120ide": 1405, "\u0120So": 1406, "\u0120rece": 1407, "\u0120polit": 1408, "\u0120mov": 1409, "\u0120plan": 1410, "\u0120percent": 1411, "iving": 1412, "\u0120camp": 1413, "\u0120pay": 1414, "14": 1415, "sc": 1416, "ised": 1417, "\u0120unt": 1418, "oney": 1419, "ploy": 1420, "====": 1421, "\u0120didn": 1422, "\u0120Ind": 1423, "els": 1424, "ertain": 1425, "\u0120pos": 1426, "____": 1427, "iver": 1428, "\u0120process": 1429, "\u0120program": 1430, "ified": 1431, "\u0120Rep": 1432, "16": 1433, "uro": 1434, "ology": 1435, "atter": 1436, "ina": 1437, "\u0120name": 1438, "\u0120All": 1439, "\u0120four": 1440, "\u0120return": 1441, "vious": 1442, "bs": 1443, "\u0120called": 1444, "\u0120move": 1445, "\u0120Sc": 1446, "ird": 1447, "\u0120group": 1448, "\u0120bre": 1449, "\u0120men": 1450, "\u0120cap": 1451, "ten": 1452, "ee": 1453, "\u0120dri": 1454, "leg": 1455, "here": 1456, "uthor": 1457, "\u0120pat": 1458, "\u0120current": 1459, "ides": 1460, "\u0120pop": 1461, "to": 1462, "ention": 1463, "\u0120always": 1464, "\u0120mil": 1465, "\u0120women": 1466, "\u012016": 1467, "\u0120old": 1468, "iven": 1469, "raph": 1470, "\u0120Or": 1471, "ror": 1472, "ently": 1473, "\u0120near": 1474, "\u0120Ex": 1475, "ream": 1476, "sh": 1477, "\u012014": 1478, "\u0120free": 1479, "ission": 1480, "stand": 1481, "\u0120Con": 1482, "ality": 1483, "used": 1484, "13": 1485, "\u0120design": 1486, "\u0120change": 1487, "\u0120chang": 1488, "\u0120bo": 1489, "\u0120vis": 1490, "ember": 1491, "\u0120book": 1492, "ready": 1493, "\u0120kill": 1494, "25": 1495, "pped": 1496, "\u0120away": 1497, "\u0120able": 1498, "\u0120country": 1499, "\u0120const": 1500, "arn": 1501, "\u0120order": 1502, "AR": 1503, "ior": 1504, "ium": 1505, "orth": 1506, "18": 1507, "ailable": 1508, "\u0120sw": 1509, "\u0120million": 1510, "\u012013": 1511, "atic": 1512, "ted": 1513, "\u0120Go": 1514, "\u0120oper": 1515, "eng": 1516, "\u0120thing": 1517, "ajor": 1518, "conom": 1519, "\u0120Comm": 1520, "\u0120why": 1521, "ured": 1522, "ural": 1523, "\u0120school": 1524, "by": 1525, "\u0120Mar": 1526, "\u0120aff": 1527, "\u0120days": 1528, "\u0120ann": 1529, "ush": 1530, "ane": 1531, "If": 1532, "eg": 1533, "\u0120prof": 1534, "\u0120health": 1535, "outh": 1536, "But": 1537, "ional": 1538, ".,": 1539, "\u0120sol": 1540, "\u0120already": 1541, "\u012030": 1542, "\u0120charact": 1543, "He": 1544, "\u0120friend": 1545, "ES": 1546, "ians": 1547, "icle": 1548, "'d": 1549, "\u0120On": 1550, "\u0120least": 1551, "\u0120prom": 1552, "\u0120dr": 1553, "\u0120hist": 1554, "ither": 1555, "\u0120est": 1556, "iqu": 1557, "17": 1558, "son": 1559, "\u0120tell": 1560, "\u0120talk": 1561, "ohn": 1562, "oint": 1563, "lection": 1564, "AN": 1565, "\u0120until": 1566, "augh": 1567, "\u0120later": 1568, "\u0120ve": 1569, "\u0120view": 1570, "ending": 1571, "ived": 1572, "\u0120word": 1573, "ware": 1574, "\u0120cost": 1575, "\u0120enough": 1576, "\u0120give": 1577, "\u0120United": 1578, "\u0120techn": 1579, "arent": 1580, "OR": 1581, "\u0120par": 1582, "\u0120Dr": 1583, "\u01202016": 1584, "rist": 1585, "ering": 1586, "\u0120\u00c2": 1587, "\u0120large": 1588, "side": 1589, "acy": 1590, "ccess": 1591, "\u0120win": 1592, "\u0120important": 1593, "\u0120199": 1594, "\u0120doesn": 1595, "\u012017": 1596, "\u0120business": 1597, "\u0120clear": 1598, "\u0120rese": 1599, "\",": 1600, "ury": 1601, "\u0120equ": 1602, "aster": 1603, "alf": 1604, "\u0120American": 1605, "nect": 1606, "\u0120expect": 1607, "iversity": 1608, "\u0120occ": 1609, "\u0120Fl": 1610, "\u0120kind": 1611, "\u0120mean": 1612, "\u0120past": 1613, "\u0120dev": 1614, "\u0120bas": 1615, "let": 1616, "raft": 1617, "\u0120organ": 1618, "\u0120del": 1619, "\u0120perform": 1620, "\u0120story": 1621, "\u0120season": 1622, "\u0120Col": 1623, "\u0120claim": 1624, "\u0120came": 1625, "\u0120within": 1626, "\u0120line": 1627, "\u0120project": 1628, "\u0120At": 1629, "\u0120control": 1630, "ended": 1631, "\u0120Sy": 1632, "\u0120air": 1633, "ization": 1634, "\u0120*": 1635, "ley": 1636, "\u0120money": 1637, "idd": 1638, "You": 1639, "for": 1640, "\u0120family": 1641, "\u0120making": 1642, "\u0120bit": 1643, "\u0120police": 1644, "\u0120happen": 1645, "\u0120vers": 1646, "ony": 1647, "uff": 1648, "\u0120When": 1649, "\u0120sit": 1650, "ideo": 1651, "lf": 1652, "ison": 1653, "\u0120sure": 1654, "gin": 1655, "\u0120appear": 1656, "\u0120light": 1657, "\u0120es": 1658, "of": 1659, "\u0120water": 1660, "\u0120times": 1661, "not": 1662, "\u0120grow": 1663, "\u0120company": 1664, "\u0120Te": 1665, "ows": 1666, "\u0120mar": 1667, "ource": 1668, "iol": 1669, "arm": 1670, "br": 1671, "\u0120example": 1672, "\u0120conc": 1673, "\u0120fore": 1674, "\u0120To": 1675, "pro": 1676, "EN": 1677, "ries": 1678, "\u012025": 1679, "\u0120Can": 1680, "ney": 1681, "\u0120actually": 1682, "\u0120ever": 1683, "urity": 1684, "aken": 1685, "aps": 1686, "\u0120tax": 1687, "\u0120major": 1688, "ama": 1689, "\u0120often": 1690, "eral": 1691, "\u0120human": 1692, "\u0120job": 1693, "ister": 1694, "\u0120available": 1695, "ocr": 1696, "enn": 1697, "aid": 1698, "ivid": 1699, "\u0120record": 1700, "?\"": 1701, "\u0120sing": 1702, "\u0120Am": 1703, "idence": 1704, "\u0120news": 1705, "ster": 1706, "\u0120econom": 1707, "\u0120following": 1708, "\u0120Br": 1709, "ising": 1710, "\u0120hour": 1711, "most": 1712, "ument": 1713, "\u0120sex": 1714, "\u0120desc": 1715, "\u0120become": 1716, "\u0120Ed": 1717, "\u0120took": 1718, "\u0120having": 1719, "\u0120product": 1720, "ault": 1721, "As": 1722, "aring": 1723, "\u0120means": 1724, "\u0120hop": 1725, "une": 1726, "\u0120cho": 1727, "\u0120certain": 1728, "\u0120non": 1729, "\u0120deal": 1730, "24": 1731, "lement": 1732, "oci": 1733, "ene": 1734, "\u0120side": 1735, "\u0120Pr": 1736, "\u0120May": 1737, "\u0120reason": 1738, "ued": 1739, "ched": 1740, "ulation": 1741, "\u0120elect": 1742, "\u0120official": 1743, "\u0120possible": 1744, "\u0120hold": 1745, "ands": 1746, "ots": 1747, "\u0120city": 1748, "ories": 1749, "\u0120sever": 1750, "\u0120children": 1751, "\u0120once": 1752, "\u0120activ": 1753, "ler": 1754, "\u0120night": 1755, "itions": 1756, "\u0120John": 1757, "ape": 1758, "play": 1759, "\u0120done": 1760, "\u0120lim": 1761, "\u0120working": 1762, "\u0120Pres": 1763, "orld": 1764, "eb": 1765, "\u0120Co": 1766, "\u0120body": 1767, "ails": 1768, "utes": 1769, "\u0120Mr": 1770, "\u0120whether": 1771, "\u0120author": 1772, "rop": 1773, "\u0120proper": 1774, "\u0120seen": 1775, ");": 1776, "\u0120fac": 1777, "\u0120Su": 1778, "\u0120cond": 1779, "iting": 1780, "\u0120course": 1781, "\u0120}": 1782, "----------------": 1783, "aign": 1784, "\u0120event": 1785, "\u0120eng": 1786, "\u0120pot": 1787, "\u0120intern": 1788, "iam": 1789, "\u0120short": 1790, "empt": 1791, "\u00e3\u0124": 1792, "\u0120God": 1793, "ilar": 1794, "80": 1795, "\u0120orig": 1796, "IS": 1797, "ourn": 1798, "ability": 1799, "itive": 1800, "\u0120dam": 1801, "\u0120100": 1802, "\u0120press": 1803, "\u0120doing": 1804, "\u0120protect": 1805, "ring": 1806, "\u0120thought": 1807, "\u0120question": 1808, "rew": 1809, "\u0120War": 1810, "\u0120several": 1811, "\u0120State": 1812, "\u0120given": 1813, "\u0120fund": 1814, "\u0120Tw": 1815, "\u0120went": 1816, "ances": 1817, "work": 1818, "por": 1819, "my": 1820, "40": 1821, "\u0120arg": 1822, "artment": 1823, "ustom": 1824, "\u0120polic": 1825, "\u0120meet": 1826, "\u0120creat": 1827, "22": 1828, "\u0120States": 1829, "\u0120games": 1830, "raw": 1831, "uture": 1832, "\u0120understand": 1833, "urs": 1834, "\u0120Ob": 1835, "lish": 1836, "sy": 1837, "\u0120makes": 1838, "\u0120won": 1839, "agon": 1840, "\u0120htt": 1841, "\u0120love": 1842, "ential": 1843, "\u0120complete": 1844, "par": 1845, "\u0120Im": 1846, "AL": 1847, "\u0120account": 1848, "\u00c2\u0142": 1849, "ored": 1850, "vert": 1851, "\u0120ident": 1852, "\u01202015": 1853, "\u0120others": 1854, "\u0120Min": 1855, "iber": 1856, "verage": 1857, "There": 1858, "itional": 1859, "dd": 1860, "\u0120prob": 1861, "\u0120young": 1862, "\u0120along": 1863, "\u0120according": 1864, "\u0120yet": 1865, "\u0120members": 1866, "\u0120What": 1867, "oid": 1868, "\u0120Man": 1869, "And": 1870, "\u0120among": 1871, "ai": 1872, "\u0120employ": 1873, "\u0120Res": 1874, "\u0120>": 1875, "\u0120invol": 1876, "\u0120low": 1877, "af": 1878, "\u0120Car": 1879, "\u0120hig": 1880, "\u0120One": 1881, "\u0120Sec": 1882, "ination": 1883, "\u0120likely": 1884, "\u0120ant": 1885, "aged": 1886, "\u0120Russ": 1887, "\u0120ben": 1888, "\u0120rele": 1889, "For": 1890, "back": 1891, "\u0120Not": 1892, "\u0120president": 1893, "ball": 1894, "\u0120access": 1895, "ividual": 1896, "\u0120Dem": 1897, "\u0120Euro": 1898, "60": 1899, "\u0120known": 1900, "irl": 1901, "\u0120Gr": 1902, "\u0120early": 1903, "use": 1904, "iety": 1905, "\u00e2\u0122\u0135": 1906, "\u0120fight": 1907, "\u0120sent": 1908, "\u0120today": 1909, "\u0120market": 1910, "\".": 1911, "\u0120based": 1912, "\u0120strong": 1913, "urther": 1914, "\u0120deb": 1915, "mber": 1916, "\u0120problem": 1917, "\u0120death": 1918, "\u0120social": 1919, "imate": 1920, "AS": 1921, "ortun": 1922, "\u0120campaign": 1923, "ery": 1924, "Ch": 1925, "\u0120ey": 1926, "ially": 1927, "\u0120mus": 1928, "wh": 1929, "pos": 1930, "\u0120er": 1931, "\u0120saf": 1932, "\u0120months": 1933, "iron": 1934, "\u0120viol": 1935, "\u0120five": 1936, "\u0120stre": 1937, "\u0120players": 1938, "inc": 1939, "ald": 1940, "year": 1941, "aun": 1942, "\u0120success": 1943, "\u0120present": 1944, "erence": 1945, "\u01202014": 1946, "\u0120sugg": 1947, "\u0120particular": 1948, "\u0120try": 1949, "\u0120suggest": 1950, "\u0120Christ": 1951, "ones": 1952, "\u0120priv": 1953, "23": 1954, "\u0120crit": 1955, "\u0120land": 1956, "\u0120local": 1957, "ify": 1958, "29": 1959, "\u0120aut": 1960, "ED": 1961, "\u0120Gu": 1962, "\u0120mult": 1963, "\u0120political": 1964, "\u0120asked": 1965, "\u0120former": 1966, "itter": 1967, "ript": 1968, "\u0120close": 1969, "\u0120pract": 1970, "\u0120York": 1971, "\u0120getting": 1972, "\u0120across": 1973, "\u0120comb": 1974, "\u0120believe": 1975, "\u0120z": 1976, "\u0120toget": 1977, "\u0120together": 1978, "\u0120Cent": 1979, "irc": 1980, "\u0120individual": 1981, "\u0120Mc": 1982, "27": 1983, "isk": 1984, "\u0120Eng": 1985, "\u0120face": 1986, "\u012024": 1987, "\u0120value": 1988, "\u0120area": 1989, "ev": 1990, "\u0120writ": 1991, "\u0120President": 1992, "\u0120vot": 1993, "\u0120key": 1994, "\u0120mom": 1995, "put": 1996, "\u0120anything": 1997, "\u0120experience": 1998, "attle": 1999, "\u0120mind": 2000, "aff": 2001, "omm": 2002, "\u0120future": 2003, "ged": 2004, "\u0120cut": 2005, "\u0120tot": 2006, "itch": 2007, "\u0120video": 2008, "\u0120investig": 2009, "\u0120net": 2010, "\u0120My": 2011, "rict": 2012, "ien": 2013, ".)": 2014, "\u0120impro": 2015, "though": 2016, "wards": 2017, "\u0120connect": 2018, "\u0120Med": 2019, "selves": 2020, "ensive": 2021, "mb": 2022, "ober": 2023, "ators": 2024, "An": 2025, "\u012050": 2026, "\u0120redu": 2027, "resent": 2028, "\u0120above": 2029, "\u0120fre": 2030, "\u0120Europe": 2031, "sw": 2032, "\u0120amount": 2033, "\u0120App": 2034, "\u0120either": 2035, "\u0120milit": 2036, "\u0120anal": 2037, "\u0120fail": 2038, "\u0120En": 2039, "ales": 2040, "\u0120special": 2041, "\u0120black": 2042, "IT": 2043, "cher": 2044, "\u0120looking": 2045, "\u0120fire": 2046, "yn": 2047, "\u0120almost": 2048, "oon": 2049, "\u0120study": 2050, "\u0120miss": 2051, "ches": 2052, "rown": 2053, "\u0120tre": 2054, "\u0120community": 2055, "\u0120media": 2056, "\u0120food": 2057, "\u0120comes": 2058, "\u0120University": 2059, "\u0120single": 2060, "What": 2061, "uly": 2062, "\u0120half": 2063, "ague": 2064, "hod": 2065, "\u0120Republic": 2066, "\u0120started": 2067, "\u0120quick": 2068, "oto": 2069, "book": 2070, "\u0120issue": 2071, "itor": 2072, "\u0120else": 2073, "\u0120consider": 2074, "26": 2075, "rodu": 2076, "\u0120taken": 2077, "28": 2078, "99": 2079, "\u0120With": 2080, "\u0120true": 2081, "\u0120wa": 2082, "\u0120trad": 2083, "\u0120ago": 2084, "\u0120mess": 2085, "ief": 2086, "\u0120added": 2087, "oke": 2088, "\u0120bad": 2089, "\u0120fav": 2090, "33": 2091, "\u0120similar": 2092, "ask": 2093, "\u0120Don": 2094, "\u0120character": 2095, "orts": 2096, "\u0120House": 2097, "\u0120reported": 2098, "\u0120type": 2099, "val": 2100, "iod": 2101, "\u0120However": 2102, "\u0120targ": 2103, "\u0120entire": 2104, "pping": 2105, "\u0120history": 2106, "\u0120live": 2107, "ffic": 2108, "........": 2109, "ederal": 2110, "\u0120trying": 2111, "\u0120discuss": 2112, "\u0120Har": 2113, "aces": 2114, "lished": 2115, "\u0120self": 2116, "osp": 2117, "rest": 2118, "\u0120room": 2119, "elt": 2120, "\u0120fall": 2121, "olution": 2122, "\u0120et": 2123, "\u0120x": 2124, "\u0120isn": 2125, "\u0120idea": 2126, "bo": 2127, "\u0120sound": 2128, "\u0120Dep": 2129, "\u0120someone": 2130, "cially": 2131, "ully": 2132, "\u0120foc": 2133, "\u0120object": 2134, "ift": 2135, "aper": 2136, "\u0120player": 2137, "\u0120rather": 2138, "\u0120service": 2139, "ashing": 2140, "\u0120Do": 2141, "\u0120Part": 2142, "rug": 2143, "mon": 2144, "ply": 2145, "\u0120mor": 2146, "\u0120nothing": 2147, "\u0120provide": 2148, "IC": 2149, "ung": 2150, "\u0120party": 2151, "\u0120exist": 2152, "\u0120mag": 2153, "70": 2154, "\u0120rul": 2155, "\u0120house": 2156, "\u0120behind": 2157, "\u0120however": 2158, "\u0120World": 2159, "\u0120sum": 2160, "\u0120applic": 2161, "\u0120;": 2162, "\u0120function": 2163, "gr": 2164, "\u0120Pol": 2165, "\u0120front": 2166, "200": 2167, "\u0120series": 2168, "\u0120tem": 2169, "\u0120typ": 2170, "ills": 2171, "\u0120opt": 2172, "\u0120points": 2173, "\u0120below": 2174, "itted": 2175, "\u0120specific": 2176, "\u01202017": 2177, "umb": 2178, "\u0120ra": 2179, "\u0120previous": 2180, "\u0120pret": 2181, "reme": 2182, "\u0120custom": 2183, "\u0120court": 2184, "\u0120Me": 2185, "\u0120repl": 2186, "\u0120whole": 2187, "go": 2188, "cer": 2189, "\u0120treat": 2190, "\u0120Act": 2191, "\u0120probably": 2192, "\u0120learn": 2193, "ender": 2194, "\u0120Ass": 2195, "\u0120version": 2196, "now": 2197, "\u0120check": 2198, "\u0120Cal": 2199, "RE": 2200, "minist": 2201, "On": 2202, "ources": 2203, "\u0120benef": 2204, "\u0120doc": 2205, "\u0120deter": 2206, "\u0120enc": 2207, "\u0120super": 2208, "\u0120address": 2209, "\u0120vict": 2210, "\u01202013": 2211, "\u0120meas": 2212, "tr": 2213, "\u0120field": 2214, "When": 2215, "\u0120signific": 2216, "uge": 2217, "\u0120feat": 2218, "\u0120common": 2219, "load": 2220, "\u0120begin": 2221, "\u0120bring": 2222, "\u0120action": 2223, "erman": 2224, "\u0120describ": 2225, "\u0120indust": 2226, "\u0120wanted": 2227, "ried": 2228, "ming": 2229, "\u0120attempt": 2230, "45": 2231, "fer": 2232, "\u0120due": 2233, "ression": 2234, "##": 2235, "\u0120shall": 2236, "\u0120six": 2237, "oo": 2238, "\u0120step": 2239, "\u0120pub": 2240, "\u0120himself": 2241, "\u012023": 2242, "\u0120cop": 2243, "\u0120dest": 2244, "\u0120stop": 2245, "AC": 2246, "ibility": 2247, "\u0120lab": 2248, "icult": 2249, "\u0120hours": 2250, "\u0120create": 2251, "\u0120further": 2252, "\u0120America": 2253, "\u0120City": 2254, "\u0120dou": 2255, "head": 2256, "ST": 2257, "\u0120North": 2258, "cing": 2259, "\u0120national": 2260, "ule": 2261, "\u0120Inst": 2262, "\u0120taking": 2263, "\u0120Qu": 2264, "irt": 2265, "\u0120red": 2266, "\u0120research": 2267, "viron": 2268, "\u0120Ge": 2269, "\u0120break": 2270, "ana": 2271, "\u0120space": 2272, "aterial": 2273, "\u0120recent": 2274, "\u0120Ab": 2275, "\u0120general": 2276, "\u0120hit": 2277, "\u0120period": 2278, "\u0120everything": 2279, "ively": 2280, "\u0120phys": 2281, "\u0120saying": 2282, "anks": 2283, "\u0120cou": 2284, "\u0120cult": 2285, "aced": 2286, "eal": 2287, "uation": 2288, "\u0120coun": 2289, "lu": 2290, "\u0120include": 2291, "\u0120position": 2292, "\u0120After": 2293, "\u0120Canad": 2294, "\u0120Em": 2295, "\u0120imm": 2296, "\u0120Red": 2297, "\u0120pick": 2298, "\u0120compl": 2299, "\u0120matter": 2300, "reg": 2301, "ext": 2302, "angu": 2303, "isc": 2304, "ole": 2305, "aut": 2306, "\u0120compet": 2307, "eed": 2308, "fect": 2309, "\u012021": 2310, "\u0120Sen": 2311, "\u0120These": 2312, "asing": 2313, "\u0120cannot": 2314, "\u0120init": 2315, "\u0120relations": 2316, "ached": 2317, "\u0120bar": 2318, "\u012040": 2319, "\u0120TH": 2320, "\u01202012": 2321, "\u0120vol": 2322, "\u0120ground": 2323, "\u0120security": 2324, "\u0120upd": 2325, "ilt": 2326, "35": 2327, "\u0120concern": 2328, "\u0120Just": 2329, "\u0120white": 2330, "\u0120seems": 2331, "\u0120Her": 2332, "pecially": 2333, "ients": 2334, "\u0120announ": 2335, "\u0120fig": 2336, "ights": 2337, "\u0120stri": 2338, "like": 2339, "ids": 2340, "\u0120sus": 2341, "\u0120watch": 2342, "\u0120\u00e2": 2343, "\u0120wind": 2344, "\u0120Cont": 2345, "\u0120itself": 2346, "\u0120mass": 2347, "Al": 2348, "yle": 2349, "ique": 2350, "\u0120National": 2351, "\u0120abs": 2352, "\u0120pack": 2353, "\u0120outside": 2354, "\u0120anim": 2355, "\u0120pain": 2356, "eter": 2357, "\u0120manag": 2358, "duct": 2359, "ogn": 2360, "\u0120]": 2361, "\u0120Sept": 2362, "sec": 2363, "off": 2364, "\u0120Jan": 2365, "\u0120foot": 2366, "ades": 2367, "\u0120third": 2368, "\u0120mot": 2369, "\u0120evidence": 2370, "inton": 2371, "\u0120threat": 2372, "apt": 2373, "ples": 2374, "cle": 2375, "\u0120lo": 2376, "\u0120decl": 2377, "\u0120item": 2378, "medi": 2379, "\u0120represent": 2380, "omb": 2381, "amer": 2382, "\u0120significant": 2383, "ograph": 2384, "su": 2385, "\u0120cal": 2386, "ires": 2387, "0000": 2388, "ID": 2389, "AM": 2390, "\u0120simply": 2391, "\u0120longer": 2392, "\u0120file": 2393, "OT": 2394, "che": 2395, "So": 2396, "ateg": 2397, "org": 2398, "\u0120His": 2399, "\u0120ener": 2400, "\u0120dom": 2401, "\u0120upon": 2402, "ili": 2403, "\":\"": 2404, "\u0120themselves": 2405, "\u0120coming": 2406, "\u0120quite": 2407, "\u0120difficult": 2408, "\u0120Bar": 2409, "ilities": 2410, "rel": 2411, "ends": 2412, "cial": 2413, "64": 2414, "\u0120woman": 2415, "rap": 2416, "yr": 2417, "\u0120necess": 2418, "ips": 2419, "\u0120text": 2420, "\u0120require": 2421, "\u0120military": 2422, "\u0120review": 2423, "\u0120respons": 2424, "75": 2425, "\u0120subject": 2426, "\u0120instead": 2427, "\u0120issues": 2428, "\u0120gen": 2429, "\",\"": 2430, "\u0120minutes": 2431, "\u0120weap": 2432, "ray": 2433, "amed": 2434, "time": 2435, "bl": 2436, "How": 2437, "\u0120code": 2438, "\u0120Sm": 2439, "\u0120higher": 2440, "\u0120Ste": 2441, "ris": 2442, "\u0120page": 2443, "\u0120students": 2444, "\u0120Intern": 2445, "\u0120method": 2446, "\u0120Aug": 2447, "\u0120Per": 2448, "\u0120Ag": 2449, "\u0120policy": 2450, "\u0120Sw": 2451, "\u0120exec": 2452, "\u0120accept": 2453, "ume": 2454, "ribut": 2455, "\u0120words": 2456, "\u0120final": 2457, "\u0120changes": 2458, "\u0120Democr": 2459, "\u0120friends": 2460, "\u0120respect": 2461, "\u0120ep": 2462, "\u0120compan": 2463, "ivil": 2464, "\u0120damage": 2465, "****": 2466, "ogle": 2467, "vironment": 2468, "\u0120neg": 2469, "ental": 2470, "\u0120ap": 2471, "\u0120total": 2472, "ival": 2473, "!\"": 2474, "lim": 2475, "\u0120needs": 2476, "\u0120agre": 2477, "\u0120development": 2478, "\u0120age": 2479, "iple": 2480, "21": 2481, "\u0120results": 2482, "\u0120Af": 2483, "Sh": 2484, "\u0120gun": 2485, "\u0120Obama": 2486, "roll": 2487, "\u0120@": 2488, "\u0120rights": 2489, "\u0120Brit": 2490, "\u0120running": 2491, "\u0120wasn": 2492, "\u0120port": 2493, "\u0120rate": 2494, "\u0120pretty": 2495, "\u0120target": 2496, "\u0120saw": 2497, "\u0120circ": 2498, "\u0120works": 2499, "icro": 2500, "alt": 2501, "over": 2502, "www": 2503, "That": 2504, "lier": 2505, "\u0120everyone": 2506, "ude": 2507, "\u0120pie": 2508, "iddle": 2509, "rael": 2510, "\u0120rad": 2511, "\u0120block": 2512, "\u0120walk": 2513, "To": 2514, "\u00e3\u0123": 2515, "nes": 2516, "\u0120Aust": 2517, "aul": 2518, "rote": 2519, "\u0120South": 2520, "ession": 2521, "oph": 2522, "\u0120shows": 2523, "\u0120site": 2524, "\u0120jo": 2525, "\u0120risk": 2526, "clus": 2527, "lt": 2528, "\u0120inj": 2529, "iding": 2530, "\u0120Spe": 2531, "\u0120chall": 2532, "irm": 2533, "\u012022": 2534, "itting": 2535, "str": 2536, "\u0120hy": 2537, "LE": 2538, "key": 2539, "\u0120began": 2540, "atur": 2541, "ashington": 2542, "lam": 2543, "\u0120Dav": 2544, "bit": 2545, "\u0120size": 2546, "\u0120Par": 2547, "38": 2548, "ournal": 2549, "face": 2550, "\u0120decision": 2551, "\u0120larg": 2552, "\u0120jud": 2553, "rect": 2554, "\u0120continue": 2555, "\u0120Oct": 2556, "overed": 2557, "\u0120Int": 2558, "========": 2559, "\u0120parent": 2560, "\u0120Will": 2561, "\u0120easy": 2562, "\u0120drug": 2563, "anger": 2564, "\u0120sense": 2565, "\u0120di": 2566, "iday": 2567, "\u0120energy": 2568, "istic": 2569, "\u0120associ": 2570, "arter": 2571, "obal": 2572, "eks": 2573, "\u0120El": 2574, "urch": 2575, "\u0120girl": 2576, "oe": 2577, "itle": 2578, "\u012028": 2579, "\u0120Che": 2580, "\u0120request": 2581, "\u0120soon": 2582, "\u0120host": 2583, "ky": 2584, "\u0120states": 2585, "omes": 2586, "\u0120material": 2587, "lex": 2588, "\u0120moment": 2589, "\u0120answ": 2590, "onse": 2591, "\u0120especially": 2592, "\u0120norm": 2593, "\u0120services": 2594, "pite": 2595, "ran": 2596, "\u0120role": 2597, "44": 2598, "):": 2599, "\u0120cred": 2600, "Cl": 2601, "________": 2602, "\u0120mat": 2603, "\u0120log": 2604, "\u0120Clinton": 2605, "OU": 2606, "\u0120office": 2607, "\u012026": 2608, "\u0120charg": 2609, "\u0120track": 2610, "ma": 2611, "\u0120heart": 2612, "\u0120ball": 2613, "\u0120personal": 2614, "\u0120building": 2615, "na": 2616, "set": 2617, "body": 2618, "\u0120Black": 2619, "\u0120increase": 2620, "itten": 2621, "\u0120needed": 2622, "36": 2623, "32": 2624, "=\"": 2625, "\u0120lost": 2626, "\u0120became": 2627, "\u0120groups": 2628, "\u0120Mus": 2629, "\u0120wrote": 2630, "\u0120Pe": 2631, "\u0120prop": 2632, "joy": 2633, "\u00c3\u00a9": 2634, "\u0120White": 2635, "\u0120dead": 2636, ".'": 2637, "\u0120http": 2638, "\u0120webs": 2639, "OS": 2640, "\u0120inside": 2641, "\u0120wrong": 2642, "\u0120statement": 2643, "\u0120...": 2644, "yl": 2645, "\u0120film": 2646, "\u0120music": 2647, "\u0120share": 2648, "ification": 2649, "\u0120release": 2650, "\u0120forward": 2651, "\u0120stay": 2652, "\u0120comput": 2653, "itte": 2654, "ser": 2655, "\u0120original": 2656, "\u0120card": 2657, "\u0120cand": 2658, "\u0120div": 2659, "atural": 2660, "\u0120favor": 2661, "OM": 2662, "\u0120cases": 2663, "uses": 2664, "\u0120section": 2665, "\u0120leave": 2666, "ging": 2667, "oved": 2668, "\u0120Washington": 2669, "39": 2670, "\u0120Gl": 2671, "\u0120required": 2672, "action": 2673, "apan": 2674, "oor": 2675, "iter": 2676, "\u0120King": 2677, "\u0120countries": 2678, "\u0120German": 2679, "lling": 2680, "\u012027": 2681, "34": 2682, "\u0120questions": 2683, "\u0120prim": 2684, "\u0120cell": 2685, "\u0120shoot": 2686, "\u0120anyone": 2687, "\u0120West": 2688, "\u0120affect": 2689, "epend": 2690, "\u0120online": 2691, "\u0120Israel": 2692, "\u0120September": 2693, "\u0120ability": 2694, "\u0120content": 2695, "ises": 2696, "\u0120reve": 2697, "\u0120laun": 2698, "\u0120indic": 2699, "\u0120force": 2700, "cast": 2701, "\u0120sold": 2702, "aving": 2703, "fl": 2704, "\u0120soft": 2705, "\u0120companies": 2706, "ceed": 2707, "\u0120article": 2708, "\u0120aud": 2709, "\u0120rev": 2710, "\u0120educ": 2711, "\u0120playing": 2712, "05": 2713, "\u0120held": 2714, "ctor": 2715, "\u0120released": 2716, "\u0120federal": 2717, "37": 2718, "\u0120administ": 2719, "\u0120interview": 2720, "\u0120install": 2721, "\u0120received": 2722, "\u0120source": 2723, "uk": 2724, "Ph": 2725, "\u0120serious": 2726, "\u0120created": 2727, "\u0120cause": 2728, "\u0120immedi": 2729, "\u0120defin": 2730, "uel": 2731, "\u0120Department": 2732, "ctions": 2733, "\u0120Cour": 2734, "\u0120Now": 2735, "ze": 2736, "ites": 2737, "itution": 2738, "\u0120late": 2739, "\u0120speak": 2740, "ners": 2741, "\u0120legal": 2742, "ari": 2743, "\u0120Cor": 2744, "\u0120weeks": 2745, "\u0120model": 2746, "\u0120pred": 2747, "\u0120exact": 2748, "BC": 2749, "\u0120By": 2750, "ING": 2751, "osing": 2752, "\u0120takes": 2753, "\u0120regard": 2754, "\u0120opportun": 2755, "\u0120price": 2756, "\u0120198": 2757, "\u0120Apr": 2758, "fully": 2759, "\u0120ord": 2760, "\u0120problems": 2761, "ruction": 2762, "ham": 2763, "\u0120Count": 2764, "lege": 2765, "\u0120leaders": 2766, "ET": 2767, "lev": 2768, "\u0120deep": 2769, "ological": 2770, "ese": 2771, "haps": 2772, "\u0120Some": 2773, "\u0120pers": 2774, "\u0120contract": 2775, "\u0120relationship": 2776, "sp": 2777, "oud": 2778, "\u0120base": 2779, "48": 2780, "mit": 2781, "Ad": 2782, "ancial": 2783, "\u0120consum": 2784, "\u0120potential": 2785, "\u0120langu": 2786, "rem": 2787, "eth": 2788, "\u0120relig": 2789, "ressed": 2790, "66": 2791, "\u0120link": 2792, "\u0120lower": 2793, "ayer": 2794, "\u0120June": 2795, "\u0120fem": 2796, "unt": 2797, "erc": 2798, "urd": 2799, "\u0120contact": 2800, "\u0120ill": 2801, "\u0120mother": 2802, "\u0120estab": 2803, "htt": 2804, "\u0120March": 2805, "\u0120Bro": 2806, "\u0120China": 2807, "\u012029": 2808, "\u0120squ": 2809, "\u0120provided": 2810, "\u0120average": 2811, "asons": 2812, "\u01202011": 2813, "\u0120exam": 2814, "lin": 2815, "55": 2816, "ned": 2817, "\u0120perfect": 2818, "\u0120tou": 2819, "alse": 2820, "ux": 2821, "\u0120buy": 2822, "\u0120shot": 2823, "\u0120collect": 2824, "\u0120phot": 2825, "\u0120played": 2826, "\u0120surpr": 2827, "\u0120officials": 2828, "\u0120simple": 2829, "avy": 2830, "\u0120industry": 2831, "\u0120hands": 2832, "ground": 2833, "\u0120pull": 2834, "\u0120round": 2835, "\u0120user": 2836, "\u0120range": 2837, "uary": 2838, "\u0120private": 2839, "ops": 2840, "ees": 2841, "\u0120ways": 2842, "\u0120Mich": 2843, "\u0120veh": 2844, "\u0120except": 2845, "\u0120terms": 2846, "imum": 2847, "pper": 2848, "ION": 2849, "ores": 2850, "\u0120Dragon": 2851, "oul": 2852, "\u0120den": 2853, "\u0120performance": 2854, "\u0120bill": 2855, "cil": 2856, "47": 2857, "\u0120environment": 2858, "\u0120exc": 2859, "add": 2860, "\u0120worth": 2861, "\u0120pict": 2862, "\u0120chance": 2863, "\u01202018": 2864, "bor": 2865, "\u0120speed": 2866, "iction": 2867, "\u0120alleg": 2868, "\u0120Japan": 2869, "atory": 2870, "reet": 2871, "\u0120match": 2872, "\u0120II": 2873, "\u0120stru": 2874, "order": 2875, "\u0120ste": 2876, "\u0120living": 2877, "\u0120struct": 2878, "ino": 2879, "\u0120separ": 2880, "hern": 2881, "\u0120response": 2882, "\u0120enjoy": 2883, "\u0120via": 2884, "AD": 2885, "uments": 2886, "acebook": 2887, "\u0120member": 2888, "ibr": 2889, "izing": 2890, "\u0120tool": 2891, "\u0120Mon": 2892, "\u0120While": 2893, "hood": 2894, "\u0120Ang": 2895, "\u0120Def": 2896, "\u0120offer": 2897, "Tr": 2898, "aur": 2899, "\u0120turned": 2900, "\u0120July": 2901, "down": 2902, "anced": 2903, "\u0120recently": 2904, "\u0120Ear": 2905, "\u0120ce": 2906, "\u0120Star": 2907, "\u0120Cong": 2908, "rought": 2909, "\u0120blood": 2910, "\u0120hope": 2911, "\u0120comment": 2912, "aint": 2913, "\u0120arri": 2914, "iles": 2915, "\u0120particip": 2916, "ought": 2917, "ription": 2918, "08": 2919, "49": 2920, "\u0120gave": 2921, "\u0120select": 2922, "\u0120killed": 2923, "sych": 2924, "\u0120goes": 2925, "ij": 2926, "\u0120coll": 2927, "\u0120impact": 2928, "atives": 2929, "\u0120Ser": 2930, "09": 2931, "\u0120August": 2932, "\u0120boy": 2933, "de": 2934, "\u0120Des": 2935, "\u0120felt": 2936, "US": 2937, "\u0120expected": 2938, "\u0120image": 2939, "\u0120Mark": 2940, "ccording": 2941, "oice": 2942, "EC": 2943, "\u0120Mag": 2944, "ened": 2945, "hold": 2946, "\u0120Post": 2947, "\u0120prevent": 2948, "No": 2949, "\u0120involved": 2950, "\u0120eyes": 2951, "\u0120quickly": 2952, "At": 2953, "unk": 2954, "\u0120behav": 2955, "\u0120ur": 2956, "\u0120led": 2957, "come": 2958, "ey": 2959, "\u0120candid": 2960, "\u0120earlier": 2961, "\u0120focus": 2962, "ety": 2963, "Pro": 2964, "ledge": 2965, "ixed": 2966, "illed": 2967, "\u0120popular": 2968, "AP": 2969, "\u0120sett": 2970, "light": 2971, "\u0120various": 2972, "inks": 2973, "\u0120levels": 2974, "\u0120road": 2975, "ellig": 2976, "ables": 2977, "hel": 2978, "ittee": 2979, "\u0120Gener": 2980, "ype": 2981, "\u0120heard": 2982, "icles": 2983, "\u0120mis": 2984, "\u0120users": 2985, "\u0120San": 2986, "\u0120improve": 2987, "\u0120father": 2988, "\u0120search": 2989, "They": 2990, "vil": 2991, "\u0120profess": 2992, "\u0120knew": 2993, "\u0120loss": 2994, "\u0120events": 2995, "65": 2996, "\u0120billion": 2997, "07": 2998, "02": 2999, "\u0120News": 3000, "\u0120AM": 3001, "\u0120cover": 3002, "where": 3003, "ension": 3004, "\u0120bott": 3005, "\u0120areas": 3006, "ences": 3007, "ope": 3008, "\u0120Twitter": 3009, "ael": 3010, "\u0120gets": 3011, "\u0120Google": 3012, "\u0120sn": 3013, "iant": 3014, "\u0120vote": 3015, "\u0120nearly": 3016, "\u0120included": 3017, "\u0120recogn": 3018, "zz": 3019, "mm": 3020, "aled": 3021, "\u0120happened": 3022, "04": 3023, "\u0120hot": 3024, "\u0120whose": 3025, "\u0120civil": 3026, "\u0120suff": 3027, "oes": 3028, "itiz": 3029, "\u0120Syri": 3030, "\u0120respond": 3031, "\u0120hon": 3032, "\u0120features": 3033, "\u0120economic": 3034, "\u0120April": 3035, "rim": 3036, "\u0120technology": 3037, "\u0120option": 3038, "aging": 3039, "\u0120purch": 3040, "Re": 3041, "\u0120lat": 3042, "chie": 3043, "isl": 3044, "\u0120recomm": 3045, "uf": 3046, "\u0120training": 3047, "\u0120effects": 3048, "\u0120fast": 3049, "\u01202010": 3050, "\u0120occur": 3051, "\u0120website": 3052, "\u0120email": 3053, "\u0120sens": 3054, "ech": 3055, "\u0120oil": 3056, "\u0120influ": 3057, "\u0120currently": 3058, "\u0120Sch": 3059, "\u0120Add": 3060, "\u0120goal": 3061, "\u0120scient": 3062, "\u0120conv": 3063, "100": 3064, "emy": 3065, "\u0120decided": 3066, "\u0120travel": 3067, "\u0120mention": 3068, "LL": 3069, "03": 3070, "\u0120election": 3071, "\u0120phone": 3072, "\u0120looks": 3073, "\u0120situation": 3074, "\u0120cy": 3075, "\u0120hor": 3076, "bed": 3077, "\u0120Court": 3078, "aily": 3079, "aves": 3080, "\u0120quality": 3081, "\u0120Comp": 3082, "wise": 3083, "\u0120table": 3084, "\u0120staff": 3085, "\u0120Wind": 3086, "ett": 3087, "\u0120tried": 3088, "idered": 3089, "\u0120addition": 3090, "\u0120box": 3091, "\u0120lack": 3092, "arily": 3093, "\u0120wide": 3094, "\u0120mid": 3095, "\u0120board": 3096, "ysis": 3097, "\u0120anti": 3098, "ha": 3099, "\u0120dig": 3100, "ening": 3101, "\u0120dro": 3102, "Con": 3103, "68": 3104, "\u0120slow": 3105, "based": 3106, "sequ": 3107, "\u0120path": 3108, "Ex": 3109, "aker": 3110, "\u0120worked": 3111, "\u0120pen": 3112, "\u0120engine": 3113, "\u0120looked": 3114, "\u0120Super": 3115, "\u0120Serv": 3116, "\u0120victim": 3117, "Un": 3118, "\u0120property": 3119, "\u0120introdu": 3120, "\u0120execut": 3121, "\u0120PM": 3122, "Le": 3123, "\u0120color": 3124, "\u0120More": 3125, "\u012060": 3126, "\u0120network": 3127, "\u0120date": 3128, "cul": 3129, "idge": 3130, "\u0120extra": 3131, "31": 3132, "\u0120sle": 3133, "67": 3134, "\u0120wond": 3135, "\u0120reports": 3136, "just": 3137, "\u0120Austral": 3138, "\u0120capital": 3139, "\u0120ens": 3140, "\u0120command": 3141, "\u0120allowed": 3142, "\u0120prep": 3143, "\u0120capt": 3144, "hib": 3145, "\u0120numbers": 3146, "chan": 3147, "\u0120fair": 3148, "mp": 3149, "oms": 3150, "\u0120reach": 3151, "With": 3152, "tain": 3153, "\u0120broad": 3154, "\u0120couple": 3155, "ecause": 3156, "lying": 3157, "\u0120Feb": 3158, "\u0120screen": 3159, "\u0120lives": 3160, "\u0120prior": 3161, "\u0120Congress": 3162, "Ar": 3163, "\u0120approach": 3164, "\u0120emer": 3165, "aries": 3166, "\u0120Dis": 3167, "serv": 3168, "\u0120Ne": 3169, "\u0120built": 3170, "cies": 3171, "\u0120repe": 3172, "\u0120rules": 3173, "force": 3174, "\u0120Pal": 3175, "\u0120financial": 3176, "\u0120considered": 3177, "\u0120Char": 3178, "nces": 3179, "\u0120IS": 3180, "\u0120brought": 3181, "\u0120bi": 3182, "iers": 3183, "\u0120Sim": 3184, "OP": 3185, "\u0120products": 3186, "\u0120visit": 3187, "\u0120document": 3188, "\u0120conduct": 3189, "\u0120completely": 3190, "ining": 3191, "\u0120Calif": 3192, "ibly": 3193, "\u0120written": 3194, "\u0120TV": 3195, "ements": 3196, "\u0120draw": 3197, "One": 3198, "\u0120published": 3199, "\u0120secret": 3200, "rain": 3201, "het": 3202, "\u0120Facebook": 3203, "onday": 3204, "\u0120Up": 3205, "\u0120sexual": 3206, "\u0120thous": 3207, "\u0120Pat": 3208, "\u0120ess": 3209, "\u0120standard": 3210, "\u0120arm": 3211, "ges": 3212, "ection": 3213, "\u0120fell": 3214, "\u0120foreign": 3215, "ani": 3216, "\u0120Friday": 3217, "\u0120regular": 3218, "inary": 3219, "\u0120increased": 3220, "\u0120usually": 3221, "\u0120demon": 3222, "\u0120dark": 3223, "\u0120additional": 3224, "rol": 3225, "\u0120Of": 3226, "\u0120production": 3227, "!!": 3228, "undred": 3229, "\u0120international": 3230, "idents": 3231, "\u0120Free": 3232, "roup": 3233, "\u0120race": 3234, "\u0120mach": 3235, "\u0120huge": 3236, "All": 3237, "lear": 3238, "ovember": 3239, "\u0120town": 3240, "\u0120attention": 3241, "\u0120Off": 3242, "yond": 3243, "\u0120Then": 3244, "field": 3245, "\u0120terror": 3246, "raz": 3247, "\u0120Bo": 3248, "\u0120meeting": 3249, "\u0120Park": 3250, "\u0120arrest": 3251, "\u0120fear": 3252, "\u0120aw": 3253, "\u0120Val": 3254, "oring": 3255, "',": 3256, "\u0120extreme": 3257, "arr": 3258, "\u0120workers": 3259, "After": 3260, "\u012031": 3261, "net": 3262, "ament": 3263, "\u0120directly": 3264, "\u0120population": 3265, "ube": 3266, "\u0120October": 3267, "\u0120IN": 3268, "\u0120January": 3269, "59": 3270, "\u0120David": 3271, "\u0120cross": 3272, "cember": 3273, "\u0120First": 3274, "\u0120message": 3275, "irit": 3276, "\u0120nation": 3277, "\u0120poll": 3278, "isions": 3279, "\u0120answer": 3280, "ny": 3281, "isode": 3282, "\u0120carry": 3283, "\u0120Russia": 3284, "\u0120hear": 3285, "ength": 3286, "roy": 3287, "\u0120natural": 3288, "inally": 3289, "\u0120dog": 3290, "mitted": 3291, "\u0120trade": 3292, "\u0120subst": 3293, "\u0120multiple": 3294, "\u0120Afric": 3295, "\u0120fans": 3296, "\u0120sort": 3297, "\u0120global": 3298, "ication": 3299, "\u0120Wed": 3300, "ara": 3301, "\u0120achie": 3302, "\u0120language": 3303, "vey": 3304, "\u0120tal": 3305, "\u0120necessary": 3306, "\u0120details": 3307, "\u0120sen": 3308, "\u0120Sund": 3309, "\u0120Reg": 3310, "\u0120Rec": 3311, "06": 3312, "\u0120sil": 3313, "ressive": 3314, "\u0120medical": 3315, "unch": 3316, "ornia": 3317, "\u0120und": 3318, "fort": 3319, "ocks": 3320, "\u0120Monday": 3321, "uesday": 3322, "craft": 3323, "77": 3324, "urt": 3325, "\u0120ver": 3326, "\u0120Hill": 3327, "\u0120receive": 3328, "\u0120morning": 3329, "estern": 3330, "\u0120bank": 3331, "\u0120sat": 3332, "irth": 3333, "\u0120High": 3334, "\u0120device": 3335, "\u0120THE": 3336, "\u0120Center": 3337, "\u0120safe": 3338, "\u0120ple": 3339, "\u0120Canada": 3340, "\u0120systems": 3341, "\u0120assist": 3342, "\u0120surv": 3343, "\u0120battle": 3344, "\u0120Soc": 3345, "vertis": 3346, "She": 3347, "\u0120paper": 3348, "\u0120growth": 3349, "\u0120cast": 3350, "Sc": 3351, "\u0120plans": 3352, "lled": 3353, "\u0120parts": 3354, "\u0120wall": 3355, "\u0120movement": 3356, "\u0120practice": 3357, "imately": 3358, "\u0120display": 3359, "\u0120sometimes": 3360, "omp": 3361, "\u0120Paul": 3362, "\u0120Yes": 3363, "king": 3364, "58": 3365, "oly": 3366, "\u0120son": 3367, "\u0120avoid": 3368, "okes": 3369, "\u0120Jew": 3370, "\u0120towards": 3371, "asc": 3372, "\u0120//": 3373, "\u0120Kore": 3374, "\u0120talking": 3375, "\u0120correct": 3376, "\u0120spent": 3377, "icks": 3378, "iable": 3379, "eared": 3380, "\u0120term": 3381, "\u0120wants": 3382, "oming": 3383, "\u0120ut": 3384, "\u0120doub": 3385, "\u0120forces": 3386, "\u0120please": 3387, "69": 3388, "\u0120November": 3389, "atform": 3390, "ondon": 3391, "\u0120ones": 3392, "\u0120immediately": 3393, "\u0120Russian": 3394, "\u0120Met": 3395, "\u0120deg": 3396, "\u0120parents": 3397, "CH": 3398, "\u0120Americans": 3399, "aly": 3400, "\u0120Mod": 3401, "\u0120shown": 3402, "\u0120conditions": 3403, "\u0120stuff": 3404, "\u0120reb": 3405, "\u0120Your": 3406, "\u0120includes": 3407, "nown": 3408, "\u0120Sam": 3409, "\u0120experien": 3410, "mission": 3411, "\u0120Even": 3412, "aught": 3413, "\u0120announced": 3414, "\u0120Republican": 3415, "\u0120determin": 3416, "\u0120described": 3417, "\u0120County": 3418, "()": 3419, "\u0120door": 3420, "\u0120changed": 3421, "\u0120neigh": 3422, "\u0120Here": 3423, "\u0120clean": 3424, "\u0120pan": 3425, "\u0120December": 3426, "\u0120European": 3427, "iring": 3428, "apter": 3429, "\u0120club": 3430, "\u0120Tuesday": 3431, "\u0120paid": 3432, "\u0120Net": 3433, "\u0120attacks": 3434, "\u0120characters": 3435, "\u0120alone": 3436, "\u0120director": 3437, "dom": 3438, "\u012035": 3439, "\u0120load": 3440, "\u0120rout": 3441, "\u0120California": 3442, "\u0120finally": 3443, "\u0120rac": 3444, "\u0120contr": 3445, "\u0120exactly": 3446, "resh": 3447, "pri": 3448, "\u0120Islam": 3449, "\u0120nature": 3450, "\u0120career": 3451, "\u0120latest": 3452, "\u0120convers": 3453, "\u0120Sl": 3454, "pose": 3455, "cient": 3456, "\u0120Inc": 3457, "ivity": 3458, "88": 3459, "\u0120Att": 3460, "\u0120Mor": 3461, "nesday": 3462, "\u0120weight": 3463, "ken": 3464, "\u0120note": 3465, "\u0120teams": 3466, "\u0120\\": 3467, "airs": 3468, "\u0120Green": 3469, "\u0120hundred": 3470, "onent": 3471, "\u0120streng": 3472, "\u0120consist": 3473, "icated": 3474, "\u0120regul": 3475, "\u0120lic": 3476, "astic": 3477, "\u0120ten": 3478, "ursday": 3479, "elligence": 3480, "ously": 3481, "\u0120UK": 3482, "BI": 3483, "\u0120costs": 3484, "\u0120independ": 3485, "\u0120AP": 3486, "\u0120normal": 3487, "\u0120hom": 3488, "\u0120obvious": 3489, "\u0120swe": 3490, "\u0120star": 3491, "\u0120ready": 3492, "acher": 3493, "\u0120implement": 3494, "gest": 3495, "\u0120song": 3496, "\u0120Get": 3497, "\u0120Lab": 3498, "\u0120interesting": 3499, "using": 3500, "\u0120giving": 3501, "\u0120Sunday": 3502, "\u0120etc": 3503, "\u0120middle": 3504, "\u0120remember": 3505, "right": 3506, "osition": 3507, "utions": 3508, "\u0120max": 3509, "46": 3510, "\u0120yourself": 3511, "\u0120demand": 3512, "\u0120treatment": 3513, "\u0120danger": 3514, "\u0120Cons": 3515, "\u0120guy": 3516, "\u0120British": 3517, "\u0120physical": 3518, "\u0120related": 3519, "\u0120remain": 3520, "\u0120couldn": 3521, "\u0120refer": 3522, "\u0120citiz": 3523, "box": 3524, "ENT": 3525, "board": 3526, "\u0120inn": 3527, "IG": 3528, "ero": 3529, "\u0120Street": 3530, "ospital": 3531, "rench": 3532, "chers": 3533, "\u0120stra": 3534, "OL": 3535, "ager": 3536, "\u0120AN": 3537, "\u0120easily": 3538, "IA": 3539, "enge": 3540, "iny": 3541, "\u0120clos": 3542, "ocked": 3543, "\u0120uses": 3544, "\u0120Coun": 3545, "Im": 3546, "uild": 3547, "??": 3548, "more": 3549, "\u0120ang": 3550, "\u0120write": 3551, "olute": 3552, "57": 3553, "\u0120leader": 3554, "\u0120reading": 3555, "</": 3556, "\u0120autom": 3557, "ests": 3558, "43": 3559, "\u0120legisl": 3560, "\u0120Gold": 3561, "\u0120designed": 3562, "\u0120ST": 3563, "\u0120Leg": 3564, "ares": 3565, "\u0120beaut": 3566, "\u0120Tex": 3567, "\u0120appears": 3568, "\u0120strugg": 3569, "\u0120Rom": 3570, "\u012000": 3571, "\u0120choice": 3572, "\u0120particularly": 3573, "\u0120From": 3574, "oper": 3575, "\u0120London": 3576, "anned": 3577, "\u0120allows": 3578, "obile": 3579, "\u0120difference": 3580, "\u00e2\u0122\u00a2": 3581, "\u0120View": 3582, "\u0120Wednesday": 3583, "\u0120although": 3584, "\u0120relative": 3585, "\u0120application": 3586, "atever": 3587, "\u0120aren": 3588, "\u0120myself": 3589, "\u0120imag": 3590, "\u0120dise": 3591, "\u0120society": 3592, "\u0120frequ": 3593, "\u0120English": 3594, "\u0120poor": 3595, "\u0120Day": 3596, "\u0120writing": 3597, "\u0120seven": 3598, "\u0120starting": 3599, "\u0120bud": 3600, "\u0120print": 3601, "\u0120Trans": 3602, "ufact": 3603, "\u0120Stud": 3604, "new": 3605, "\u0120crim": 3606, "\u0120gives": 3607, "\u0120cool": 3608, "ae": 3609, "iance": 3610, "\u0120General": 3611, "\u0120thinking": 3612, "\u0120save": 3613, "\u0120limited": 3614, "\u0120Party": 3615, "\u0120meaning": 3616, "pen": 3617, "owers": 3618, "\u0120Jack": 3619, "EM": 3620, "\u0120nice": 3621, "rupt": 3622, "\u0120gas": 3623, "\u0120eight": 3624, "\u0120feet": 3625, "\u0120effort": 3626, "\u0120ign": 3627, "icit": 3628, "Bl": 3629, "coin": 3630, "\u0120opin": 3631, "\u0120brain": 3632, "While": 3633, "hest": 3634, "\u0120Thursday": 3635, "\u0120wouldn": 3636, "aughter": 3637, "\u0120touch": 3638, "lements": 3639, "\u0120studies": 3640, "\u0120center": 3641, "cont": 3642, "orge": 3643, "\u0120computer": 3644, "\u0120investigation": 3645, "Pl": 3646, "orks": 3647, "\u01202008": 3648, "\u0120increasing": 3649, "\u0120store": 3650, "\u0120comments": 3651, "\u0120bal": 3652, "men": 3653, "\u0120doll": 3654, "\u0120liber": 3655, "\u0120wife": 3656, "\u0120laws": 3657, "aturday": 3658, "itness": 3659, "\u0120modern": 3660, "\u0120Sk": 3661, "\u0120administration": 3662, "\u0120opportunity": 3663, "\u0120sal": 3664, "\u0120powerful": 3665, "My": 3666, "\u0120claims": 3667, "\u0120Earth": 3668, "ords": 3669, "\u0120title": 3670, "\u0120esc": 3671, "name": 3672, "Not": 3673, "omen": 3674, "\u0120beyond": 3675, "\u0120camer": 3676, "\u0120sell": 3677, "itute": 3678, "earch": 3679, "\u0120appl": 3680, "iment": 3681, "42": 3682, "\u0120Art": 3683, "\u0120unf": 3684, "\u0120violence": 3685, "urg": 3686, "\u0120East": 3687, "\u0120compared": 3688, "\u0120options": 3689, "\u0120throughout": 3690, "\u0120vs": 3691, "igr": 3692, ".[": 3693, "aches": 3694, "78": 3695, "\u0120files": 3696, "FL": 3697, "EL": 3698, "arian": 3699, "\u0120James": 3700, "\u0120Air": 3701, "anch": 3702, "\u0120detail": 3703, "\u0120piece": 3704, "PS": 3705, "\u0120named": 3706, "\u0120education": 3707, "\u0120drive": 3708, "\u0120items": 3709, "\u0120student": 3710, "iced": 3711, "::": 3712, "ico": 3713, "\u0120throw": 3714, "\u0120scene": 3715, "\u0120complex": 3716, "\u01202009": 3717, "\u0120prec": 3718, "\u0120Bre": 3719, "79": 3720, "\u0120concept": 3721, "\u0120status": 3722, "aming": 3723, "\u0120died": 3724, "\u0120knowledge": 3725, "\u0120beginning": 3726, "OD": 3727, "ruary": 3728, "\u0120certainly": 3729, "\u0120guys": 3730, "\u0120slight": 3731, "inn": 3732, "ounds": 3733, "\u0120fine": 3734, "\u0120fat": 3735, "ications": 3736, "\u0120perhaps": 3737, "\u0120Ant": 3738, "\u0120income": 3739, "\u0120https": 3740, "\u0120majority": 3741, "ports": 3742, "ston": 3743, "\u0120greater": 3744, "\u0120feed": 3745, "entially": 3746, "\u0120safety": 3747, "\u0120unique": 3748, "andom": 3749, "\u0120gone": 3750, "\u0120showed": 3751, "\u0120histor": 3752, "\u0120counter": 3753, "ius": 3754, "ida": 3755, "\u0120leading": 3756, "ipe": 3757, "\u0120send": 3758, "\u0120Donald": 3759, "erve": 3760, "\u0120defense": 3761, "inese": 3762, "\u0120yes": 3763, "\u0120Fire": 3764, "\u0120Muslim": 3765, "raq": 3766, "\u0120continued": 3767, "osh": 3768, "\u0120provides": 3769, "\u0120prison": 3770, "\u0120Pre": 3771, "\u0120happy": 3772, "\u0120economy": 3773, "\u0120trust": 3774, "ags": 3775, "\u0120Game": 3776, "\u0120weapons": 3777, "uman": 3778, "\u0120Cle": 3779, "itation": 3780, "\u0120analysis": 3781, "\u0120Times": 3782, "\u0120science": 3783, "->": 3784, "\u0120figure": 3785, "\u0120disapp": 3786, "enty": 3787, "\u0120software": 3788, "\u0120ult": 3789, "\u0120officers": 3790, "New": 3791, "Is": 3792, "\u0120remains": 3793, "\u0120India": 3794, "\u0120psych": 3795, "rief": 3796, "\u0120cat": 3797, "esc": 3798, "\u0120observ": 3799, "\u0120stage": 3800, "\u0120Dark": 3801, "\u0120enter": 3802, "change": 3803, "\u0120passed": 3804, "\u0120despite": 3805, "\u0120Out": 3806, "\u0120movie": 3807, "rs": 3808, "\u0120voice": 3809, "mine": 3810, "\u0120Play": 3811, "\u0120toward": 3812, "\u0120Ter": 3813, "\u0120region": 3814, "\u0120values": 3815, "orters": 3816, "\u0120mount": 3817, "\u0120officer": 3818, "\u0120Other": 3819, "ban": 3820, "\u0120hous": 3821, "wood": 3822, "room": 3823, "IV": 3824, "\u0120Sun": 3825, "see": 3826, "\u0120Over": 3827, "rog": 3828, "90": 3829, "\u0120lay": 3830, "\u0120Tur": 3831, "awn": 3832, "\u0120pressure": 3833, "\u0120Sub": 3834, "\u0120books": 3835, "edom": 3836, "\u0120Sand": 3837, "AA": 3838, "ago": 3839, "\u0120reasons": 3840, "ford": 3841, "\u0120activity": 3842, "UT": 3843, "Now": 3844, "\u0120Senate": 3845, "cell": 3846, "night": 3847, "\u0120calls": 3848, "inter": 3849, "\u0120letter": 3850, "\u0120Rob": 3851, "\u0120Je": 3852, "\u0120choose": 3853, "\u0120Law": 3854, "Get": 3855, "Be": 3856, "\u0120rob": 3857, "\u0120types": 3858, "\u0120platform": 3859, "\u0120quarter": 3860, "RA": 3861, "\u0120Time": 3862, "\u0120maybe": 3863, "\u0120Cr": 3864, "95": 3865, "pre": 3866, "\u0120moving": 3867, "\u0120lif": 3868, "\u0120gold": 3869, "\u0120som": 3870, "\u0120patients": 3871, "\u0120truth": 3872, "\u0120Ke": 3873, "urance": 3874, "antly": 3875, "mar": 3876, "\u0120charge": 3877, "\u0120Great": 3878, "\u0120cele": 3879, "--------------------------------": 3880, "\u0120rock": 3881, "roid": 3882, "ancy": 3883, "\u0120credit": 3884, "aud": 3885, "By": 3886, "\u0120Every": 3887, "\u0120moved": 3888, "inger": 3889, "ribution": 3890, "\u0120names": 3891, "\u0120straight": 3892, "\u0120Health": 3893, "\u0120Well": 3894, "\u0120feature": 3895, "\u0120rule": 3896, "\u0120sche": 3897, "inated": 3898, "\u0120Michael": 3899, "berg": 3900, "41": 3901, "iled": 3902, "band": 3903, "\u0120click": 3904, "\u0120Angel": 3905, "onents": 3906, "\u00c2\u0143": 3907, "\u0120Iraq": 3908, "\u0120Saturday": 3909, "\u0120aware": 3910, "part": 3911, "\u0120pattern": 3912, "OW": 3913, "\u0120Let": 3914, "\u0120grad": 3915, "igned": 3916, "\u0120associated": 3917, "\u0120style": 3918, "no": 3919, "iation": 3920, "aith": 3921, "ilies": 3922, "\u0120stories": 3923, "uration": 3924, "\u0120individuals": 3925, "\u0120\u00e2\u0122\u00a6": 3926, "miss": 3927, "\u0120Associ": 3928, "ishing": 3929, "aby": 3930, "\u0120summer": 3931, "\u0120Ben": 3932, "\u012032": 3933, "\u0120arch": 3934, "uty": 3935, "\u0120Texas": 3936, "hol": 3937, "\u0120fully": 3938, "\u0120mill": 3939, "\u0120followed": 3940, "\u0120Bill": 3941, "\u0120Indian": 3942, "\u0120Secret": 3943, "\u0120Bel": 3944, "\u0120February": 3945, "\u0120jobs": 3946, "\u0120seemed": 3947, "\u0120Govern": 3948, "ipped": 3949, "\u0120reality": 3950, "\u0120lines": 3951, "\u0120park": 3952, "\u0120measure": 3953, "\u0120Our": 3954, "IM": 3955, "\u0120brother": 3956, "\u0120growing": 3957, "\u0120ban": 3958, "\u0120estim": 3959, "\u0120cry": 3960, "\u0120School": 3961, "\u0120mechan": 3962, "\u0120OF": 3963, "\u0120Windows": 3964, "\u0120rates": 3965, "\u0120Oh": 3966, "\u0120positive": 3967, "\u0120culture": 3968, "istics": 3969, "ica": 3970, "\u0120har": 3971, "ya": 3972, "itely": 3973, "ipp": 3974, "\u0120map": 3975, "encies": 3976, "\u0120William": 3977, "II": 3978, "akers": 3979, "56": 3980, "\u0120Mart": 3981, "\u0120Rem": 3982, "\u0120altern": 3983, "itude": 3984, "\u0120coach": 3985, "rowd": 3986, "Don": 3987, "\u0120kids": 3988, "\u0120journal": 3989, "\u0120corpor": 3990, "\u0120false": 3991, "\u0120web": 3992, "\u0120sleep": 3993, "\u0120contain": 3994, "\u0120sto": 3995, "\u0120bed": 3996, "iverse": 3997, "\u0120Rich": 3998, "\u0120Chinese": 3999, "\u0120pun": 4000, "\u0120meant": 4001, "known": 4002, "\u0120notice": 4003, "\u0120favorite": 4004, "aven": 4005, "\u0120condition": 4006, "\u0120purpose": 4007, "))": 4008, "\u0120organization": 4009, "\u0120challeng": 4010, "\u0120manufact": 4011, "\u0120susp": 4012, "\u0120Ac": 4013, "\u0120critic": 4014, "unes": 4015, "uclear": 4016, "\u0120mer": 4017, "vention": 4018, "\u012080": 4019, "\u0120mist": 4020, "\u0120Us": 4021, "\u0120Tor": 4022, "http": 4023, "olf": 4024, "\u0120larger": 4025, "\u0120advant": 4026, "\u0120resear": 4027, "\u0120actions": 4028, "ml": 4029, "\u0120kept": 4030, "\u0120aim": 4031, ",'": 4032, "col": 4033, "\u0120benefits": 4034, "ifying": 4035, "\u0120actual": 4036, "\u0120International": 4037, "\u0120vehicle": 4038, "\u0120chief": 4039, "\u0120efforts": 4040, "\u0120League": 4041, "\u0120Most": 4042, "\u0120wait": 4043, "\u0120adult": 4044, "\u0120overall": 4045, "\u0120speech": 4046, "\u0120highly": 4047, "\u0120female": 4048, "\u0120error": 4049, "\u0120effective": 4050, "54": 4051, "\u0120encour": 4052, "well": 4053, "\u0120failed": 4054, "\u0120conserv": 4055, "\u0120programs": 4056, "\u0120trou": 4057, "\u0120ahead": 4058, "500": 4059, "vertisement": 4060, "IP": 4061, "\u0120Found": 4062, "pir": 4063, "\u0120%": 4064, "\u0120crime": 4065, "ander": 4066, "\u0120location": 4067, "\u0120Iran": 4068, "\u0120behavior": 4069, "azing": 4070, "\u0120rare": 4071, "\u0120emb": 4072, "\u0120caused": 4073, "\u0120ship": 4074, "\u0120active": 4075, "\u0120contribut": 4076, "\u0120green": 4077, "\u0120acqu": 4078, "\u0120reflect": 4079, "venue": 4080, "\u0120firm": 4081, "\u0120birth": 4082, "].": 4083, "\u0120clearly": 4084, "\u0120emot": 4085, "\u0120agency": 4086, "riage": 4087, "\u0120memory": 4088, "98": 4089, "SA": 4090, "\u0120See": 4091, "acing": 4092, "CC": 4093, "\u0120biggest": 4094, "\u0120rap": 4095, "\u0120basic": 4096, "\u0120band": 4097, "eat": 4098, "\u0120suspect": 4099, "\u0120Mac": 4100, "\u012090": 4101, "mark": 4102, "istan": 4103, "\u0120spread": 4104, "ams": 4105, "ki": 4106, "asy": 4107, "rav": 4108, "\u0120Rober": 4109, "\u0120demonstr": 4110, "rated": 4111, "\u0120absolute": 4112, "\u0120places": 4113, "\u0120impl": 4114, "ibrary": 4115, "\u0120cards": 4116, "\u0120destroy": 4117, "\u0120virt": 4118, "vere": 4119, "\u0120appeared": 4120, "yan": 4121, "point": 4122, "\u0120beg": 4123, "\u0120temper": 4124, "spe": 4125, "anted": 4126, "ears": 4127, "\u0120Direct": 4128, "\u0120length": 4129, "\u0120blog": 4130, "amb": 4131, "\u0120integ": 4132, "\u0120resources": 4133, "acc": 4134, "iful": 4135, "\u0120spot": 4136, "\u0120forced": 4137, "\u0120thousands": 4138, "\u0120Minister": 4139, "\u0120qual": 4140, "\u0120French": 4141, "atically": 4142, "\u0120generally": 4143, "\u0120drink": 4144, "\u0120thus": 4145, "IL": 4146, "odes": 4147, "\u0120appropri": 4148, "\u0120Read": 4149, "\u0120whom": 4150, "\u0120eye": 4151, "\u0120college": 4152, "\u012045": 4153, "irection": 4154, "\u0120ensure": 4155, "\u0120apparent": 4156, "iders": 4157, "\u0120religious": 4158, "\u0120minor": 4159, "olic": 4160, "\u0120tro": 4161, "\u0120Why": 4162, "ribute": 4163, "met": 4164, "\u0120primary": 4165, "\u0120developed": 4166, "\u0120peace": 4167, "\u0120skin": 4168, "ste": 4169, "ava": 4170, "\u0120blue": 4171, "\u0120families": 4172, "\u0120ir": 4173, "\u0120apply": 4174, "\u0120inform": 4175, "\u0120Smith": 4176, "CT": 4177, "ii": 4178, "\u0120limit": 4179, "\u0120resist": 4180, "................": 4181, "umn": 4182, "\u0120conflic": 4183, "\u0120twe": 4184, "udd": 4185, "\u0120Tom": 4186, "\u0120liter": 4187, "que": 4188, "bon": 4189, "\u0120hair": 4190, "\u0120eventually": 4191, "\u0120pus": 4192, "\u0120helped": 4193, "\u0120agg": 4194, "orney": 4195, "\u0120Apple": 4196, "\u0120fit": 4197, "\u0120Sur": 4198, "\u0120prem": 4199, "\u0120sales": 4200, "\u0120seconds": 4201, "\u0120strength": 4202, "\u0120feeling": 4203, "\u00bf\u00bd": 4204, "\u0120tour": 4205, "\u0120knows": 4206, "oom": 4207, "\u0120exerc": 4208, "\u0120somew": 4209, "\u00ef\u00bf\u00bd": 4210, ">>": 4211, "\u0120spokes": 4212, "\u0120ideas": 4213, "\u0120regist": 4214, "soft": 4215, "\u0120Del": 4216, "\u0120PC": 4217, "\u0120propos": 4218, "\u0120launch": 4219, "\u0120bottom": 4220, "TH": 4221, "\u0120Please": 4222, "vest": 4223, "itz": 4224, "\u0120Inter": 4225, "\u0120script": 4226, "\u0120rat": 4227, "arning": 4228, "\u0120il": 4229, "\u0120Jer": 4230, "\u0120Are": 4231, "\u0120whatever": 4232, "oken": 4233, "cience": 4234, "\u0120mode": 4235, "\u0120agree": 4236, "\u0120sources": 4237, "\u0120initial": 4238, "\u0120restrict": 4239, "\u0120wonder": 4240, "usion": 4241, "####": 4242, "\u0120Sil": 4243, "ville": 4244, "\u0120burn": 4245, "tw": 4246, "asion": 4247, "\u0120\u00c2\u00a3": 4248, "\u0120nor": 4249, "uing": 4250, "\u0120reached": 4251, "\u0120sun": 4252, "\u0120categ": 4253, "igration": 4254, "\u0120cook": 4255, "\u0120promot": 4256, "\u0120male": 4257, "\u0120climate": 4258, "\u0120fix": 4259, "\u0120alleged": 4260, "UR": 4261, "alled": 4262, "\u0120images": 4263, "Cont": 4264, "ota": 4265, "\u0120schools": 4266, "ios": 4267, "\u0120drop": 4268, "\u0120stream": 4269, "\u0120Mo": 4270, "\u0120previously": 4271, "aling": 4272, "\u0120pet": 4273, "\u0120double": 4274, "\u0120(@": 4275, "annel": 4276, "\u0120default": 4277, "ties": 4278, "\u0120rank": 4279, "\u0120Dec": 4280, "\u0120Council": 4281, "\u0120weapon": 4282, "\u0120stock": 4283, "\u0120analy": 4284, "\u0120Str": 4285, "\u0120picture": 4286, "\u0120Police": 4287, "ference": 4288, "\u0120century": 4289, "\u0120citizens": 4290, "\u0120onto": 4291, "\u0120expand": 4292, "\u0120hero": 4293, "\u0120Sol": 4294, "\u0120wild": 4295, "\u0120update": 4296, "\u0120customers": 4297, "ront": 4298, "def": 4299, "\u0120lik": 4300, "\u0120criminal": 4301, "\u0120Christian": 4302, "SP": 4303, "76": 4304, "\u0120leaving": 4305, "\u0120otherwise": 4306, "\u0120Dist": 4307, "\u0120basis": 4308, "52": 4309, "53": 4310, "icip": 4311, "\u0120Ber": 4312, "\u0120recommend": 4313, "\u0120floor": 4314, "\u0120crowd": 4315, "oles": 4316, "\u012070": 4317, "\u0120central": 4318, "\u0120Ev": 4319, "\u0120dream": 4320, "\u0120download": 4321, "\u0120confir": 4322, "\u0120Thom": 4323, "\u0120window": 4324, "\u0120happens": 4325, "\u0120unit": 4326, "\u0120tend": 4327, "\u0120spl": 4328, "\u0120becomes": 4329, "\u0120fighting": 4330, "\u0120predict": 4331, "\u0120Press": 4332, "\u0120Power": 4333, "\u0120heavy": 4334, "aked": 4335, "\u0120fan": 4336, "orter": 4337, "ategy": 4338, "BA": 4339, "izes": 4340, "\u0120spend": 4341, "Here": 4342, "\u01202007": 4343, "\u0120adop": 4344, "\u0120Ham": 4345, "\u0120football": 4346, "\u0120Port": 4347, "oday": 4348, "51": 4349, "ampions": 4350, "\u0120transfer": 4351, "ht": 4352, "\u012038": 4353, "term": 4354, "acity": 4355, "\u0120bur": 4356, "],": 4357, "ternal": 4358, "rig": 4359, "but": 4360, "\u0120therefore": 4361, "\u0120Because": 4362, "resp": 4363, "rey": 4364, "\u0120mission": 4365, "Some": 4366, "\u0120noted": 4367, "\u0120assum": 4368, "\u0120disease": 4369, "\u0120edit": 4370, "\u0120progress": 4371, "rd": 4372, "\u0120Brown": 4373, "ocal": 4374, "\u0120adding": 4375, "\u0120raised": 4376, "\u0120Any": 4377, "\u0120tick": 4378, "\u0120seeing": 4379, "\u0120People": 4380, "\u0120agreement": 4381, "\u0120server": 4382, "\u0120wat": 4383, "\u0120debate": 4384, "\u0120supposed": 4385, "iling": 4386, "\u0120largest": 4387, "\u0120successful": 4388, "\u0120Pri": 4389, "\u0120Democratic": 4390, "\u0120jump": 4391, "\u0120Syria": 4392, "\u0120owners": 4393, "\u0120offers": 4394, "\u0120shooting": 4395, "\u0120effic": 4396, "sey": 4397, "\u0120haven": 4398, "verse": 4399, "tered": 4400, "\u0120Light": 4401, "imal": 4402, "\u0120Big": 4403, "\u0120defend": 4404, "\u0120beat": 4405, "\u0120records": 4406, "%)": 4407, "\u0120scen": 4408, "\u0120employees": 4409, "\u0120devices": 4410, "hem": 4411, "\u0120commer": 4412, "\u0120Mex": 4413, "\u0120benefit": 4414, "\u0120Prof": 4415, "\u0120illeg": 4416, "\u0120surface": 4417, "\u0120Also": 4418, "\u0120harm": 4419, "ingly": 4420, "wide": 4421, "\u0120Alex": 4422, "\u0120shut": 4423, "\u0120Cur": 4424, "\u0120lose": 4425, "pm": 4426, "\u0120challenge": 4427, "semb": 4428, "\u0120station": 4429, "\u0120intelligence": 4430, "\u0120accur": 4431, "\u0120Flor": 4432, "\u0120requires": 4433, "\u0120Mal": 4434, "bum": 4435, "\u0120hospital": 4436, "\u0120spirit": 4437, "\u0120offered": 4438, "\u0120produce": 4439, "\u0120Commun": 4440, "\u0120creating": 4441, "\u0120cris": 4442, "spect": 4443, "\u0120ended": 4444, "\u0120daily": 4445, "\u0120voters": 4446, "lands": 4447, "ias": 4448, "ih": 4449, "ona": 4450, "\u0120smart": 4451, "\u0120Office": 4452, "\u0120Lord": 4453, "rial": 4454, "\u0120Internet": 4455, "\u0120circum": 4456, "\u0120extremely": 4457, "'.": 4458, "\u0120opinion": 4459, "\u0120Mil": 4460, "\u0120gain": 4461, "BS": 4462, "\u0120Fin": 4463, "yp": 4464, "\u0120useful": 4465, "\u0120budget": 4466, "\u0120comfort": 4467, "isf": 4468, "\u0120background": 4469, "eline": 4470, "\u0120episode": 4471, "\u0120enemy": 4472, "\u0120trial": 4473, "\u0120establish": 4474, "date": 4475, "\u0120Cap": 4476, "\u0120continues": 4477, "\u0120showing": 4478, "\u0120Union": 4479, "with": 4480, "\u0120posted": 4481, "\u0120System": 4482, "\u0120eat": 4483, "rian": 4484, "\u0120rise": 4485, "\u0120Germany": 4486, "ils": 4487, "\u0120signed": 4488, "\u0120vill": 4489, "\u0120grand": 4490, "mor": 4491, "\u0120England": 4492, "\u0120projects": 4493, "umber": 4494, "\u0120conference": 4495, "za": 4496, "\u0120responsible": 4497, "\u0120Arab": 4498, "\u0120learned": 4499, "\u00e2\u0122\u0136\u00e2\u0122\u0136": 4500, "ipping": 4501, "\u0120George": 4502, "OC": 4503, "\u0120returned": 4504, "\u0120Australia": 4505, "\u0120brief": 4506, "Qu": 4507, "\u0120brand": 4508, "illing": 4509, "abled": 4510, "\u0120highest": 4511, "\u0120train": 4512, "\u0120Commission": 4513, "while": 4514, "\u0120nom": 4515, "ception": 4516, "\u0120mut": 4517, "\u0120Blue": 4518, "\u0120incident": 4519, "vant": 4520, "86": 4521, "\u0120ID": 4522, "\u0120nuclear": 4523, "74": 4524, "\u0120Like": 4525, "\u0120RE": 4526, "\u0120Micro": 4527, "li": 4528, "mail": 4529, "\u0120charges": 4530, "89": 4531, "\u0120adjust": 4532, "ado": 4533, "\u0120earth": 4534, "NA": 4535, "\u0120prices": 4536, "PA": 4537, "\u0120draft": 4538, "\u0120runs": 4539, "\u0120candidate": 4540, "enses": 4541, "\u0120management": 4542, "\u0120Phil": 4543, "\u0120Miss": 4544, "\u0120teach": 4545, "gram": 4546, "\u0120understanding": 4547, "ait": 4548, "icago": 4549, "Add": 4550, "\u0120Ep": 4551, "secut": 4552, "\u0120separate": 4553, "\u0120instance": 4554, "\u0120eth": 4555, "\u0120unless": 4556, "********": 4557, "\u0120Fore": 4558, "inate": 4559, "\u0120operations": 4560, "Sp": 4561, "\u0120faith": 4562, "gar": 4563, "\u0120Church": 4564, "ronic": 4565, "\u0120config": 4566, "osure": 4567, "\u0120activities": 4568, "\u0120traditional": 4569, "\u012036": 4570, "\u0120direction": 4571, "\u0120machine": 4572, "\u0120surround": 4573, "\u0120push": 4574, "unction": 4575, "\u0120EU": 4576, "\u0120easier": 4577, "\u0120argument": 4578, "GB": 4579, "\u0120micro": 4580, "\u0120spending": 4581, "izations": 4582, "\u0120theory": 4583, "adow": 4584, "\u0120calling": 4585, "\u0120Last": 4586, "\u0120der": 4587, "\u0120influence": 4588, "\u0120commit": 4589, "\u0120photo": 4590, "\u0120unc": 4591, "istry": 4592, "gn": 4593, "aste": 4594, "acks": 4595, "\u0120disp": 4596, "ady": 4597, "do": 4598, "\u0120Good": 4599, "\u0120`": 4600, "\u0120wish": 4601, "\u0120revealed": 4602, "\u00c2\u0142\u00c2\u0142": 4603, "lig": 4604, "\u0120enforce": 4605, "\u0120Committee": 4606, "\u0120chem": 4607, "\u0120miles": 4608, "\u0120interested": 4609, "\u0120solution": 4610, "icy": 4611, "inct": 4612, "\u0120->": 4613, "\u0120Det": 4614, "\u0120removed": 4615, "\u0120compar": 4616, "eah": 4617, "\u0120plant": 4618, "\u0120Since": 4619, "\u0120achieve": 4620, "\u0120advantage": 4621, "\u0120slightly": 4622, "bing": 4623, "\u0120placed": 4624, "under": 4625, "2015": 4626, "\u0120Mad": 4627, "\u0120tim": 4628, "oses": 4629, "\u0120cru": 4630, "\u0120Rock": 4631, "\u0120mostly": 4632, "\u0120negative": 4633, "\u0120setting": 4634, "\u0120produced": 4635, "\u0120mur": 4636, "\u0120connection": 4637, "\u0120Mer": 4638, "\u0120driver": 4639, "\u0120executive": 4640, "\u0120assault": 4641, "\u0120born": 4642, "\u0120Ver": 4643, "tained": 4644, "\u0120structure": 4645, "\u0120reduce": 4646, "\u0120decades": 4647, "\u0120ded": 4648, "uke": 4649, "\u0120Many": 4650, "idden": 4651, "\u0120league": 4652, "Se": 4653, "\u0120join": 4654, "\u0120disco": 4655, "\u0120die": 4656, "cks": 4657, "actions": 4658, "\u0120assess": 4659, "agn": 4660, "\u0120goals": 4661, "ours": 4662, "IR": 4663, "\u0120senior": 4664, "iller": 4665, "mod": 4666, "ipment": 4667, "ocol": 4668, "uy": 4669, "\u0120Que": 4670, "\u0120parties": 4671, "irgin": 4672, "\u0120learning": 4673, "itable": 4674, "\u0120street": 4675, "\u0120camera": 4676, "App": 4677, "\u0120skills": 4678, "bre": 4679, "cious": 4680, "\u0120celebr": 4681, "\u0120Franc": 4682, "\u0120existing": 4683, "\u0120willing": 4684, "lor": 4685, "\u0120id": 4686, "\u0120Space": 4687, "\u0120critical": 4688, "\u0120La": 4689, "ortunately": 4690, "\u0120serve": 4691, "\u0120cold": 4692, "\u0120species": 4693, "TS": 4694, "\u0120animals": 4695, "\u0120Bay": 4696, "\u0120older": 4697, "\u0120Under": 4698, "estic": 4699, "\u0120Tre": 4700, "\u0120teacher": 4701, "\u0120prefer": 4702, "vis": 4703, "\u0120thread": 4704, "\u0120Matt": 4705, "\u0120manager": 4706, "\u00e3\u0125\u00bb": 4707, "\u0120professional": 4708, "\u0120Vol": 4709, "\u0120notes": 4710, "These": 4711, "ula": 4712, "\u0120fresh": 4713, "ented": 4714, "uzz": 4715, "edy": 4716, "clusion": 4717, "\u0120Rel": 4718, "\u0120doubt": 4719, "EO": 4720, "\u0120opened": 4721, "\u0120Bit": 4722, "Advertisement": 4723, "\u0120guess": 4724, "\u0120UN": 4725, "\u0120sequ": 4726, "\u0120explain": 4727, "otten": 4728, "\u0120attract": 4729, "aks": 4730, "\u0120string": 4731, "\u0120context": 4732, "ossible": 4733, "\u0120Republicans": 4734, "\u0120solid": 4735, "\u0120cities": 4736, "\u0120asking": 4737, "\u0120random": 4738, "ups": 4739, "uries": 4740, "arant": 4741, "dden": 4742, "gl": 4743, "\u0120Florida": 4744, "\u0120depend": 4745, "\u0120Scott": 4746, "\u012033": 4747, "\u0120iT": 4748, "icon": 4749, "\u0120mentioned": 4750, "\u01202000": 4751, "\u0120claimed": 4752, "\u0120definitely": 4753, "ulf": 4754, "\u0120core": 4755, "\u0120opening": 4756, "\u0120Const": 4757, "which": 4758, "\u0120Tra": 4759, "AG": 4760, "72": 4761, "\u0120believed": 4762, "ada": 4763, "\u012048": 4764, "\u0120Security": 4765, "yright": 4766, "\u0120Pet": 4767, "\u0120Lou": 4768, "\u0120holding": 4769, "================": 4770, "\u0120ice": 4771, "\u0120brow": 4772, "\u0120authorities": 4773, "host": 4774, "word": 4775, "\u0120score": 4776, "\u0120Div": 4777, "\u0120cells": 4778, "\u0120transl": 4779, "\u0120neighbor": 4780, "\u0120remove": 4781, "uct": 4782, "\u0120district": 4783, "\u0120According": 4784, "\u0120worse": 4785, "\u0120concerns": 4786, "\u0120presidential": 4787, "\u0120policies": 4788, "\u0120Hall": 4789, "73": 4790, "\u0120hus": 4791, "AY": 4792, "\u01202006": 4793, "\u0120Jud": 4794, "\u0120independent": 4795, "\u0120Justice": 4796, "iliar": 4797, "print": 4798, "ighter": 4799, "\u0120protection": 4800, "zen": 4801, "\u0120sudden": 4802, "house": 4803, "\u0120Jes": 4804, "PR": 4805, "\u0120Inf": 4806, "\u0120bul": 4807, "\u0120_": 4808, "\u0120Service": 4809, "\u0120PR": 4810, "\u0120strategy": 4811, "ffect": 4812, "\u0120girls": 4813, "\u0120missing": 4814, "oyal": 4815, "\u0120Team": 4816, "ulated": 4817, "\u0120dat": 4818, "\u0120politics": 4819, "abor": 4820, "According": 4821, "\u0120spell": 4822, "\u0120graph": 4823, "orthern": 4824, "TC": 4825, "Ab": 4826, "\u0120labor": 4827, "isher": 4828, "\u0120kick": 4829, "\u0120iTunes": 4830, "\u0120steps": 4831, "poses": 4832, "\u0120smaller": 4833, "En": 4834, "bert": 4835, "\u0120roll": 4836, "\u0120researchers": 4837, "\u0120closed": 4838, "\u0120transport": 4839, "\u0120lawy": 4840, "________________": 4841, "\u0120Chicago": 4842, "\u0120aspect": 4843, "\u0120none": 4844, "\u0120marriage": 4845, "96": 4846, "\u0120elements": 4847, "\u0120Fre": 4848, "\u0120Sal": 4849, "\u0120dram": 4850, "FC": 4851, "top": 4852, "equ": 4853, "\u0120hearing": 4854, "\u0120supported": 4855, "\u0120testing": 4856, "cohol": 4857, "\u0120massive": 4858, "\u0120stick": 4859, "\u0120guard": 4860, "isco": 4861, "phone": 4862, "From": 4863, "However": 4864, "\u0120border": 4865, "\u0120copy": 4866, "ography": 4867, "list": 4868, "71": 4869, "\u0120owner": 4870, "class": 4871, "ruit": 4872, "rate": 4873, "\u0120Once": 4874, "\u0120digital": 4875, "\u0120task": 4876, "ERS": 4877, "\u0120incred": 4878, "tes": 4879, "++": 4880, "\u0120France": 4881, "\u0120breat": 4882, "owl": 4883, "\u0120issued": 4884, "\u0120Western": 4885, "\u0120detect": 4886, "\u0120partners": 4887, "\u0120shared": 4888, "\u0120Call": 4889, "\u0120cancer": 4890, "ache": 4891, "ribe": 4892, "\u0120explained": 4893, "\u0120heat": 4894, "{\"": 4895, "\u0120investment": 4896, "\u0120Book": 4897, "\u0120wood": 4898, "\u0120tools": 4899, "\u0120Although": 4900, "\u0120belief": 4901, "\u0120crisis": 4902, "\u0120ge": 4903, "\u0120MP": 4904, "\u0120operation": 4905, "type": 4906, "~~": 4907, "ga": 4908, "\u0120contains": 4909, "anta": 4910, "\u0120express": 4911, "\u0120Group": 4912, "\u0120Journal": 4913, "ka": 4914, "\u0120amb": 4915, "\u0120USA": 4916, "\u0120finding": 4917, "\u0120funding": 4918, "how": 4919, "\u0120established": 4920, "ideos": 4921, "\u0120degree": 4922, "\u0120dangerous": 4923, "anging": 4924, "\u0120freedom": 4925, "pport": 4926, "outhern": 4927, "\u0120church": 4928, "\u0120catch": 4929, "\u0120Two": 4930, "\u0120presence": 4931, "\u0120Guard": 4932, "Up": 4933, "\u0120authority": 4934, "\u0120Project": 4935, "\u0120button": 4936, "\u0120consequ": 4937, "\u0120valid": 4938, "\u0120weak": 4939, "\u0120starts": 4940, "\u0120reference": 4941, "\u0120Mem": 4942, "\")": 4943, "UN": 4944, "orage": 4945, "\u0120Open": 4946, "\u0120collection": 4947, "ym": 4948, "gency": 4949, "\u0120beautiful": 4950, "ros": 4951, "\u0120tells": 4952, "\u0120waiting": 4953, "nel": 4954, "\u0120providing": 4955, "\u0120Democrats": 4956, "\u0120daughter": 4957, "\u0120master": 4958, "\u0120purposes": 4959, "\u0120Japanese": 4960, "\u0120equal": 4961, "\u0120turns": 4962, "\u0120documents": 4963, "\u0120watching": 4964, "Res": 4965, "\u0120ran": 4966, "2014": 4967, "\u0120reject": 4968, "\u0120Korea": 4969, "\u0120victims": 4970, "Level": 4971, "erences": 4972, "\u0120witness": 4973, "\u012034": 4974, "\u0120reform": 4975, "coming": 4976, "\u0120occup": 4977, "\u0120caught": 4978, "\u0120traffic": 4979, "ading": 4980, "\u0120models": 4981, "ario": 4982, "\u0120served": 4983, "\u0120batter": 4984, "uate": 4985, "\u0120Secretary": 4986, "\u0120agreed": 4987, "\u0120truly": 4988, "ynam": 4989, "\u0120Ret": 4990, "\u0120units": 4991, "\u0120Research": 4992, "hand": 4993, "azine": 4994, "\u0120Mike": 4995, "\u0120variety": 4996, "otal": 4997, "\u0120amazing": 4998, "\u0120confirmed": 4999, "\u0120entirely": 5000, "\u0120purchase": 5001, "\u0120element": 5002, "\u0120cash": 5003, "\u0120determine": 5004, "De": 5005, "\u0120cars": 5006, "\u0120Wall": 5007, "\u00e2\u0138": 5008, "\u0120views": 5009, "\u0120drugs": 5010, "\u0120department": 5011, "\u0120Step": 5012, "uit": 5013, "\u012039": 5014, "asure": 5015, "\u0120Class": 5016, "\u0120covered": 5017, "\u0120Bank": 5018, "\u0120mere": 5019, "uana": 5020, "\u0120multi": 5021, "\u0120mix": 5022, "\u0120unlike": 5023, "levision": 5024, "\u0120stopped": 5025, "\u0120sem": 5026, "\u0120Gal": 5027, "ules": 5028, "\u0120wel": 5029, "\u0120Johnson": 5030, "la": 5031, "\u0120skill": 5032, "\u0120becoming": 5033, "rie": 5034, "\u0120appropriate": 5035, "fe": 5036, "ellow": 5037, "\u0120Prot": 5038, "ulate": 5039, "ocation": 5040, "\u0120weekend": 5041, "odies": 5042, "\u0120sites": 5043, "\u0120animal": 5044, "\u0120Tim": 5045, "\u0120scale": 5046, "\u0120charged": 5047, "\u0120instruct": 5048, "illa": 5049, "\u0120methods": 5050, "\u0120cert": 5051, "\u0120judge": 5052, "\u0120Hel": 5053, "\u0120dollars": 5054, "\u0120standing": 5055, "\u0120Squ": 5056, "\u0120debt": 5057, "liam": 5058, "\u0120driving": 5059, "\u0120Sum": 5060, "\u0120Edition": 5061, "\u0120album": 5062, "andon": 5063, "IF": 5064, "\u0120Uk": 5065, "63": 5066, "ader": 5067, "\u0120commercial": 5068, "esh": 5069, "\u0120Government": 5070, "\u0120discovered": 5071, "\u0120output": 5072, "\u0120Hillary": 5073, "\u0120Carol": 5074, "\u01202005": 5075, "\u0120abuse": 5076, "ancing": 5077, "\u0120switch": 5078, "\u0120annual": 5079, "Tw": 5080, "\u0120stated": 5081, "agement": 5082, "inner": 5083, "\u0120democr": 5084, "\u0120residents": 5085, "\u0120allowing": 5086, "\u0120factors": 5087, "odd": 5088, "\u0120fuck": 5089, "emies": 5090, "\u0120occurred": 5091, "oti": 5092, "\u0120north": 5093, "\u0120Public": 5094, "\u0120injury": 5095, "\u0120insurance": 5096, "CL": 5097, "olly": 5098, "\u00e3\u0122": 5099, "\u0120repeated": 5100, "\u0120arms": 5101, "anged": 5102, "\u0120construction": 5103, "\u0120fle": 5104, "PU": 5105, "icians": 5106, "\u0120forms": 5107, "\u0120McC": 5108, "antic": 5109, "\u0120mental": 5110, "pire": 5111, "\u0120equipment": 5112, "\u0120fant": 5113, "\u0120discussion": 5114, "\u0120regarding": 5115, "kin": 5116, "arp": 5117, "\u0120chair": 5118, "ogue": 5119, "\u0120proceed": 5120, "\u0120Id": 5121, "Our": 5122, "\u0120murder": 5123, "Man": 5124, "\u012049": 5125, "asp": 5126, "\u0120supply": 5127, "\u0120input": 5128, "\u0120wealth": 5129, "liament": 5130, "\u0120proced": 5131, "orial": 5132, "\u0120Stat": 5133, "\u0120NFL": 5134, "hens": 5135, "\u0120Institute": 5136, "\u0120putting": 5137, "ournament": 5138, "etic": 5139, "\u0120located": 5140, "\u0120kid": 5141, "eria": 5142, "run": 5143, "\u0120princ": 5144, "\u0120!": 5145, "going": 5146, "\u0120Bet": 5147, "\u0120clot": 5148, "\u0120telling": 5149, "\u0120proposed": 5150, "iot": 5151, "orry": 5152, "\u0120funds": 5153, "gment": 5154, "\u0120Life": 5155, "\u0120baby": 5156, "\u0120Back": 5157, "\u0120spoke": 5158, "Image": 5159, "\u0120earn": 5160, "\u0120AT": 5161, "gu": 5162, "\u0120exchange": 5163, "\u0120Lin": 5164, "oving": 5165, "\u0120pair": 5166, "More": 5167, "azon": 5168, "\u0120arrested": 5169, "\u0120killing": 5170, "can": 5171, "\u0120Card": 5172, "yd": 5173, "\u0120identified": 5174, "\u0120mobile": 5175, "\u0120thanks": 5176, "onym": 5177, "\u0120Form": 5178, "\u0120hundreds": 5179, "\u0120Chris": 5180, "\u0120Cat": 5181, "\u0120trend": 5182, "hat": 5183, "\u0120Av": 5184, "oman": 5185, "\u0120electric": 5186, "\u0120Wil": 5187, "SE": 5188, "Of": 5189, "\u0120restaur": 5190, "oted": 5191, "\u0120trig": 5192, "\u0120nine": 5193, "\u0120bomb": 5194, "Why": 5195, "\u00c2\u00af": 5196, "\u0120coverage": 5197, "\u0120appeal": 5198, "\u0120Robert": 5199, "\u0120Sup": 5200, "\u0120finished": 5201, "\u0120flow": 5202, "\u0120deliver": 5203, "\u0120calcul": 5204, "\u0120photos": 5205, "\u0120phil": 5206, "\u0120pieces": 5207, "\u0120appre": 5208, "kes": 5209, "\u0120rough": 5210, "Do": 5211, "\u0120partner": 5212, "\u0120concerned": 5213, "\u012037": 5214, "\u0120Gen": 5215, "Col": 5216, "ctors": 5217, "\u0120=>": 5218, "state": 5219, "\u0120suggested": 5220, "\u0120Force": 5221, "CE": 5222, "\u0120herself": 5223, "\u0120Plan": 5224, "works": 5225, "ooth": 5226, "rency": 5227, "\u0120corner": 5228, "\u0120husband": 5229, "\u0120internet": 5230, "\u0120Aut": 5231, "ems": 5232, "osen": 5233, "\u0120Atl": 5234, "gen": 5235, "\u0120balance": 5236, "62": 5237, "\u0120sounds": 5238, "text": 5239, "\u0120arr": 5240, "oves": 5241, "\u0120millions": 5242, "\u0120radio": 5243, "\u0120satisf": 5244, "\u0120Dam": 5245, "Mr": 5246, "Go": 5247, "Spe": 5248, "\u0120combat": 5249, "rant": 5250, "\u0120Gree": 5251, "\u0120fuel": 5252, "\u0120distance": 5253, "\u0120tests": 5254, "\u0120decre": 5255, "\u0120Er": 5256, "\u0120managed": 5257, "DS": 5258, "\u0120tit": 5259, "\u0120measures": 5260, "\u0120Liber": 5261, "\u0120attend": 5262, "ashed": 5263, "\u0120Jose": 5264, "\u0120Night": 5265, "dit": 5266, "\u0120Nov": 5267, "\u0120End": 5268, "outs": 5269, "\u0120generation": 5270, "\u0120advoc": 5271, "yth": 5272, "\u0120conversation": 5273, "\u0120Sky": 5274, "active": 5275, "cel": 5276, "rier": 5277, "\u0120Frank": 5278, "\u0120gender": 5279, "\u0120concent": 5280, "\u0120carried": 5281, "anda": 5282, "\u0120Virgin": 5283, "\u0120arrived": 5284, "icide": 5285, "aded": 5286, "\u0120failure": 5287, "\u0120minimum": 5288, "lets": 5289, "\u0120worst": 5290, "\u0120keeping": 5291, "\u0120intended": 5292, "\u0120illegal": 5293, "\u0120subsc": 5294, "\u0120determined": 5295, "\u0120trip": 5296, "Yes": 5297, "\u0120raise": 5298, "\u0120~": 5299, "\u0120feels": 5300, "\u0120package": 5301, "\u0120Jo": 5302, "hi": 5303, "2016": 5304, "real": 5305, "\u0120fra": 5306, "\u0120symb": 5307, "Me": 5308, "ucky": 5309, "pret": 5310, "\u0120Kh": 5311, "\u0120Edit": 5312, "\u0120Web": 5313, "emic": 5314, "\u0120Color": 5315, "\u0120justice": 5316, "Int": 5317, "\u0120farm": 5318, "cknow": 5319, "\">": 5320, "eless": 5321, "\u0120reduced": 5322, "\u0120500": 5323, "xx": 5324, "\u0120Rad": 5325, "\u0120Wood": 5326, "\u0120clin": 5327, "\u0120hyp": 5328, "iler": 5329, "ura": 5330, "kins": 5331, "85": 5332, "61": 5333, "\u0120Their": 5334, "\u0120Mary": 5335, "\u0120san": 5336, "\u0120novel": 5337, "\u0120Who": 5338, "\u0120capacity": 5339, "\u0120impossible": 5340, "\u0120plays": 5341, "\u0120minister": 5342, "ijuana": 5343, "icate": 5344, "\u0120Set": 5345, "\u0120fram": 5346, "\u0120ing": 5347, "\u0120communities": 5348, "\u0120FBI": 5349, "ita": 5350, "\u0120bon": 5351, "\u0120strateg": 5352, "\u0120interests": 5353, "lock": 5354, "gers": 5355, "mas": 5356, "\u0120AND": 5357, "\u0120conflict": 5358, "\u0120requirements": 5359, "\u0120sac": 5360, "\u0120operating": 5361, "ini": 5362, "related": 5363, "\u0120committed": 5364, "\u0120relatively": 5365, "\u0120south": 5366, "\u00c2\u00af\u00c2\u00af": 5367, "\u0120afford": 5368, "\u0120identity": 5369, "\u0120decisions": 5370, "\u0120accused": 5371, "place": 5372, "\u0120victory": 5373, "och": 5374, "iat": 5375, "Name": 5376, "Com": 5377, "tion": 5378, "eds": 5379, "\u0120seek": 5380, "\u0120tight": 5381, "\u0120Images": 5382, "\u0120initi": 5383, "\u0120humans": 5384, "\u0120familiar": 5385, "\u0120audience": 5386, "\u0120internal": 5387, "venture": 5388, "\u0120sides": 5389, "\u0120TO": 5390, "\u0120dim": 5391, "\u0120conclud": 5392, "\u0120appoint": 5393, "\u0120enforcement": 5394, "\u0120Jim": 5395, "\u0120Association": 5396, "\u0120circumst": 5397, "\u0120Canadian": 5398, "\u0120joined": 5399, "\u0120differences": 5400, "\u0120Los": 5401, "\u0120protest": 5402, "\u0120twice": 5403, "win": 5404, "\u0120glass": 5405, "arsh": 5406, "\u0120Army": 5407, "\u0120expression": 5408, "\u0120decide": 5409, "\u0120planning": 5410, "ania": 5411, "\u0120handle": 5412, "\u0120Microsoft": 5413, "\u0120Nor": 5414, "\u0120maximum": 5415, "\u0120Rev": 5416, "\u0120sea": 5417, "\u0120eval": 5418, "\u0120helps": 5419, "ref": 5420, "\u0120bound": 5421, "\u0120mouth": 5422, "\u0120standards": 5423, "\u0120clim": 5424, "\u0120Camp": 5425, "\u0120Fox": 5426, "cles": 5427, "\u0120army": 5428, "\u0120Techn": 5429, "acking": 5430, "xy": 5431, "SS": 5432, "\u012042": 5433, "\u0120bug": 5434, "\u0120Ukrain": 5435, "\u0120Max": 5436, "\u0120Jones": 5437, "\u0120Show": 5438, "lo": 5439, "\u0120planet": 5440, "\u012075": 5441, "\u0120winning": 5442, "\u0120faster": 5443, "\u0120spect": 5444, "\u0120broken": 5445, "TR": 5446, "\u0120defined": 5447, "\u0120healthy": 5448, "\u0120competition": 5449, "https": 5450, "\u0120Island": 5451, "\u0120Fe": 5452, "\u0120announce": 5453, "\u0120Cup": 5454, "\u0120Instead": 5455, "\u0120client": 5456, "\u0120possibly": 5457, "section": 5458, "ocket": 5459, "look": 5460, "\u0120finish": 5461, "\u0120crew": 5462, "\u0120reserv": 5463, "\u0120editor": 5464, "\u0120hate": 5465, "\u0120sale": 5466, "\u0120controvers": 5467, "\u0120pages": 5468, "wing": 5469, "\u0120numer": 5470, "\u0120opposition": 5471, "\u01202004": 5472, "\u0120refuge": 5473, "\u0120flight": 5474, "\u0120apart": 5475, "\u0120Lat": 5476, "Americ": 5477, "\u0120Africa": 5478, "\u0120applications": 5479, "\u0120Palest": 5480, "\u0120Bur": 5481, "\u0120gar": 5482, "\u0120Social": 5483, "\u0120upgr": 5484, "\u0120shape": 5485, "\u0120speaking": 5486, "ansion": 5487, "ao": 5488, "\u0120Sn": 5489, "\u0120worry": 5490, "\u0120Britain": 5491, "Please": 5492, "roud": 5493, "\u0120hun": 5494, "\u0120introduced": 5495, "\u0120diet": 5496, "Ind": 5497, "\u0120Second": 5498, "\u0120functions": 5499, "uts": 5500, "\u0120Each": 5501, "\u0120Jeff": 5502, "\u0120stress": 5503, "\u0120accounts": 5504, "\u0120guarant": 5505, "\u0120Ann": 5506, "edia": 5507, "\u0120honest": 5508, "\u0120tree": 5509, "\u0120African": 5510, "\u0120Bush": 5511, "},": 5512, "\u0120sch": 5513, "\u0120Only": 5514, "\u0120fif": 5515, "igan": 5516, "\u0120exercise": 5517, "\u0120Exp": 5518, "\u0120scientists": 5519, "\u0120legislation": 5520, "\u0120Work": 5521, "\u0120Spr": 5522, "\u00c3\u0124": 5523, "\u0120Human": 5524, "\u0120\u00e8": 5525, "\u0120survey": 5526, "\u0120rich": 5527, "rip": 5528, "\u0120maintain": 5529, "\u0120flo": 5530, "\u0120leadership": 5531, "stream": 5532, "\u0120Islamic": 5533, "\u012001": 5534, "\u0120College": 5535, "\u0120magic": 5536, "\u0120Prime": 5537, "\u0120figures": 5538, "2017": 5539, "inder": 5540, "xual": 5541, "\u0120Dead": 5542, "\u0120absolutely": 5543, "\u0120fourth": 5544, "\u0120presented": 5545, "respond": 5546, "rible": 5547, "\u0120alcohol": 5548, "ato": 5549, "\u0120DE": 5550, "porary": 5551, "\u0120grab": 5552, "\u0120vari": 5553, "\u0120quant": 5554, "\u0120Photo": 5555, "\u0120plus": 5556, "rick": 5557, "arks": 5558, "\u0120alternative": 5559, "\u0120pil": 5560, "\u0120approx": 5561, "that": 5562, "\u0120objects": 5563, "\u0120Ro": 5564, "\u0120Android": 5565, "\u0120significantly": 5566, "\u0120Road": 5567, "kay": 5568, "Read": 5569, "avor": 5570, "\u0120acknow": 5571, "\u0120HD": 5572, "\u0120Sing": 5573, "Or": 5574, "\u0120Mont": 5575, "\u0120uns": 5576, "prof": 5577, "\u0120negoti": 5578, "\u0120Arch": 5579, "iki": 5580, "\u0120television": 5581, "\u0120Jewish": 5582, "\u0120committee": 5583, "\u0120motor": 5584, "\u0120appearance": 5585, "\u0120sitting": 5586, "\u0120strike": 5587, "\u0120Down": 5588, "comp": 5589, "\u0120Hist": 5590, "\u0120fold": 5591, "acement": 5592, "\u0120Louis": 5593, "\u0120belong": 5594, "\u0120\u00e2\u0122\u00a2": 5595, "\u0120mort": 5596, "\u0120prepared": 5597, "\u012064": 5598, "\u0120Master": 5599, "\u0120indeed": 5600, "\u0120Den": 5601, "\u0120rent": 5602, "TA": 5603, "ourney": 5604, "arc": 5605, "Su": 5606, "97": 5607, "\u0120advice": 5608, "\u0120changing": 5609, "\u0120listed": 5610, "\u0120launched": 5611, "isation": 5612, "\u0120Peter": 5613, "ishes": 5614, "\u0120lived": 5615, "\u0120Mel": 5616, "\u0120Supreme": 5617, "\u0120Federal": 5618, "\u0120);": 5619, "ructure": 5620, "\u0120sets": 5621, "\u0120philos": 5622, "uous": 5623, "\u0120\u00c2\u0142": 5624, "\u0120applied": 5625, "\u0120NOT": 5626, "\u0120housing": 5627, "\u0120Mount": 5628, "\u0120odd": 5629, "\u0120sust": 5630, "DA": 5631, "fficient": 5632, "\u0120?": 5633, "olved": 5634, "\u0120powers": 5635, "\u0120thr": 5636, "\u0120remaining": 5637, "\u0120Water": 5638, "LC": 5639, "\u0120causes": 5640, "\u00e3\u0123\u00ae": 5641, "\u0120manner": 5642, "ads": 5643, "\u0120suggests": 5644, "\u0120ends": 5645, "standing": 5646, "fig": 5647, "\u0120Dun": 5648, "idth": 5649, "\u0120gay": 5650, "\u0120termin": 5651, "\u0120Angeles": 5652, "MS": 5653, "\u0120scientific": 5654, "\u0120coal": 5655, "apers": 5656, "bar": 5657, "\u0120Thomas": 5658, "\u0120sym": 5659, "\u0120Run": 5660, "this": 5661, "PC": 5662, "igrants": 5663, "\u0120minute": 5664, "\u0120District": 5665, "cellent": 5666, "\u0120leaves": 5667, "\u0120completed": 5668, "amin": 5669, "\u0120focused": 5670, "\u0120monitor": 5671, "\u0120vehicles": 5672, "MA": 5673, "\u0120Mass": 5674, "\u0120Grand": 5675, "\u0120affected": 5676, "itutional": 5677, "\u0120construct": 5678, "\u0120follows": 5679, "\u0120ton": 5680, "reens": 5681, "\u0120homes": 5682, "\u0120Ext": 5683, "\u0120Level": 5684, "rast": 5685, "\u0120Ir": 5686, "\u0120elim": 5687, "\u0120largely": 5688, "\u0120Joe": 5689, "\u0120votes": 5690, "alls": 5691, "\u0120businesses": 5692, "\u0120Foundation": 5693, "\u0120Central": 5694, "\u0120yards": 5695, "\u0120materials": 5696, "ulner": 5697, "\u0120guide": 5698, "\u0120closer": 5699, "ums": 5700, "\u0120sports": 5701, "eder": 5702, "Just": 5703, "\u0120taxes": 5704, "84": 5705, "\u0120Old": 5706, "\u0120decade": 5707, "ola": 5708, "\u0120vir": 5709, "\u0120dropped": 5710, "\u0120delay": 5711, "itect": 5712, "\u0120secure": 5713, "stein": 5714, "level": 5715, "\u0120treated": 5716, "\u0120filed": 5717, "aine": 5718, "\u0120van": 5719, "\u0120mir": 5720, "\u0120column": 5721, "icted": 5722, "eper": 5723, "\u0120rot": 5724, "\u0120consult": 5725, "\u0120entry": 5726, "\u0120marijuana": 5727, "\u0120Dou": 5728, "\u0120apparently": 5729, "oking": 5730, "clusive": 5731, "\u0120increases": 5732, "ano": 5733, "\u0120specifically": 5734, "\u0120tele": 5735, "ensions": 5736, "\u0120religion": 5737, "abilities": 5738, "\u0120frame": 5739, "\u0120Note": 5740, "\u0120Lee": 5741, "\u0120helping": 5742, "\u0120edge": 5743, "oston": 5744, "\u0120organizations": 5745, "\u00c3\u0125": 5746, "\u0120Both": 5747, "hips": 5748, "\u0120bigger": 5749, "\u0120boost": 5750, "\u0120Stand": 5751, "\u0120row": 5752, "uls": 5753, "abase": 5754, "\u0120rid": 5755, "Let": 5756, "aren": 5757, "rave": 5758, "\u0120stret": 5759, "PD": 5760, "\u0120vision": 5761, "\u0120wearing": 5762, "\u0120appreci": 5763, "\u0120award": 5764, "\u0120Use": 5765, "\u0120factor": 5766, "war": 5767, "ulations": 5768, ")(": 5769, "\u0120god": 5770, "\u0120territ": 5771, "\u0120param": 5772, "asts": 5773, "87": 5774, "\u0120enemies": 5775, "\u0120Games": 5776, "FF": 5777, "\u0120accident": 5778, "Well": 5779, "\u0120Martin": 5780, "TER": 5781, "\u0120ath": 5782, "\u0120Hell": 5783, "\u0120forg": 5784, "\u0120veter": 5785, "\u0120Medic": 5786, "free": 5787, "\u0120stars": 5788, "\u0120expensive": 5789, "\u0120acad": 5790, "rawn": 5791, "\u0120Whe": 5792, "\u0120lock": 5793, "\u0120format": 5794, "\u0120soldiers": 5795, "sm": 5796, "\u0120agent": 5797, "\u0120responsibility": 5798, "ora": 5799, "\u0120Science": 5800, "\u0120rapid": 5801, "\u0120tough": 5802, "\u0120Jesus": 5803, "\u0120believes": 5804, "ML": 5805, "\u0120wear": 5806, "lete": 5807, "\u00c3\u0125\u00c3\u0124": 5808, "\u0120Dri": 5809, "\u0120commission": 5810, "\u0120Bob": 5811, "Oh": 5812, "aped": 5813, "\u0120warm": 5814, "\u00c3\u0125\u00c3\u0124\u00c3\u0125\u00c3\u0124": 5815, "\u01202003": 5816, "ortion": 5817, "\u0120hasn": 5818, "uster": 5819, "\u0120univers": 5820, "\u0120Ill": 5821, "\u0120king": 5822, "ologies": 5823, "94": 5824, "\u0120Tem": 5825, "\u0120Mos": 5826, "\u0120patient": 5827, "\u0120Mexico": 5828, "cean": 5829, "\u0120Death": 5830, "\u0120Sanders": 5831, "you": 5832, "\u0120Cast": 5833, "\u0120Company": 5834, "pty": 5835, "\u0120happening": 5836, "FP": 5837, "\u0120Battle": 5838, "\u0120bought": 5839, "Am": 5840, "Mod": 5841, "Us": 5842, "uters": 5843, "\u0120Cre": 5844, "\u0120Those": 5845, "\u012044": 5846, "iser": 5847, "\u0120soul": 5848, "\u0120Top": 5849, "\u0120Harry": 5850, "\u0120Aw": 5851, "\u0120seat": 5852, "ffee": 5853, "\u0120revolution": 5854, "\u0120(\"": 5855, "\u0120During": 5856, "ette": 5857, "\u0120ring": 5858, "\u0120offensive": 5859, "\u0120returns": 5860, "\u0120videos": 5861, "\u0120discl": 5862, "\u0120famous": 5863, "enced": 5864, "\u0120Sign": 5865, "\u0120River": 5866, "\u0120300": 5867, "PM": 5868, "\u0120Bus": 5869, "\u0120CH": 5870, "\u0120candidates": 5871, "arden": 5872, "\u0120percentage": 5873, "\u0120visual": 5874, "\u0120thank": 5875, "\u0120trouble": 5876, "nergy": 5877, "\u01202001": 5878, "\u0120prove": 5879, "ashion": 5880, "\u0120enh": 5881, "\u0120Long": 5882, "UM": 5883, "\u0120connected": 5884, "\u0120possibility": 5885, "Over": 5886, "\u0120expert": 5887, "\u0120library": 5888, "arts": 5889, "\u0120Director": 5890, "\u0120fellow": 5891, "92": 5892, "irty": 5893, "\u0120dry": 5894, "\u0120signs": 5895, "\u0120Love": 5896, "\u0120quiet": 5897, "foot": 5898, "\u0120pure": 5899, "\u0120Hun": 5900, "\u0120filled": 5901, "phas": 5902, "\u0120Elect": 5903, "endment": 5904, "\u0120Expl": 5905, "\u0120unable": 5906, "ns": 5907, "mo": 5908, "\u0120vast": 5909, "obe": 5910, "\u0120identify": 5911, "apping": 5912, "\u0120Carolina": 5913, "gress": 5914, "\u0120prote": 5915, "\u0120fish": 5916, "\u0120circumstances": 5917, "razy": 5918, "\u0120Phot": 5919, "\u0120bodies": 5920, "\u0120Mur": 5921, "\u0120developing": 5922, "\u0120AR": 5923, "\u0120experienced": 5924, "\u0120substant": 5925, "\u0120Board": 5926, "esome": 5927, "\u0120domestic": 5928, "\u0120combined": 5929, "\u0120Put": 5930, "\u0120chemical": 5931, "\u0120Child": 5932, "\u0120pool": 5933, "\u0120Cy": 5934, "\u0120egg": 5935, "cons": 5936, "sters": 5937, "\u0120hurt": 5938, "\u0120markets": 5939, "\u0120conservative": 5940, "\u0120supporters": 5941, "\u0120agencies": 5942, "idel": 5943, "Ob": 5944, "urb": 5945, "\u012043": 5946, "\u0120Defense": 5947, "ye": 5948, "\u0120Ap": 5949, "dule": 5950, "\u0120temperature": 5951, "\u0120conducted": 5952, "\u0120Chief": 5953, "\u0120pulled": 5954, "\u0120fol": 5955, "Last": 5956, "onto": 5957, "osis": 5958, "VER": 5959, "Des": 5960, "\u0120Pan": 5961, "First": 5962, "\u0120advance": 5963, "\u0120license": 5964, "rors": 5965, "\u0120Jon": 5966, "\u0120imagine": 5967, "\u0120hell": 5968, "\u0120fixed": 5969, "\u0120incor": 5970, "osite": 5971, "\u0120Log": 5972, "icken": 5973, "]:": 5974, "\u0120surprise": 5975, "hab": 5976, "\u0120craft": 5977, "olt": 5978, "\u0120Jul": 5979, "\u0120dial": 5980, "\u0120relevant": 5981, "\u0120entered": 5982, "\u0120leads": 5983, "\u0120AD": 5984, "\u0120Clean": 5985, "\u0120pictures": 5986, "essor": 5987, "\u0120alt": 5988, "\u0120paying": 5989, "Per": 5990, "\u0120Market": 5991, "\u0120updates": 5992, "amily": 5993, "\u0120Type": 5994, "\u0120Home": 5995, "\u012055": 5996, "sembly": 5997, "rome": 5998, "83": 5999, "\u0120greatest": 6000, "\u0120height": 6001, "\u0120heav": 6002, "aints": 6003, "\u0120listen": 6004, "aser": 6005, "\u0120SH": 6006, "\u0120capable": 6007, "acle": 6008, "\u0120perspect": 6009, "inating": 6010, "\u0120offering": 6011, "rypt": 6012, "\u0120Develop": 6013, "abin": 6014, "rc": 6015, "\u0120bright": 6016, "alty": 6017, "arrow": 6018, "\u0120suppl": 6019, "inding": 6020, "acked": 6021, "gypt": 6022, "\u0120Another": 6023, "pg": 6024, "\u0120Virginia": 6025, "\u0120Lu": 6026, "\u0120planned": 6027, "\u0120pit": 6028, "\u0120sweet": 6029, "Type": 6030, "\u0120Di": 6031, "\u0120typically": 6032, "\u0120Francisco": 6033, "\u0120prospect": 6034, "\u0120Dan": 6035, "\u0120teen": 6036, "rees": 6037, "\u0120sched": 6038, "\u0120hol": 6039, "\u0120scr": 6040, "\u0120lots": 6041, "life": 6042, "\u0120newsp": 6043, "\u0120forget": 6044, "\u0120None": 6045, "\u0120Middle": 6046, "\u0120Ryan": 6047, "edd": 6048, "\u0120severe": 6049, "\u0120suit": 6050, "ller": 6051, "93": 6052, "\u0120correspond": 6053, "\u0120explos": 6054, "uations": 6055, "\u0120flag": 6056, "game": 6057, "rid": 6058, "\u0120prin": 6059, "\u0120Data": 6060, "\u0120deploy": 6061, "\u0120Enter": 6062, "suit": 6063, "ghan": 6064, "\u0120Men": 6065, "\u0120thoughts": 6066, "\u0120matters": 6067, "\u0120adapt": 6068, "\u0120Ari": 6069, "\u0120fill": 6070, "\u0120forth": 6071, "\u0120sam": 6072, "\u012041": 6073, "\u0120payment": 6074, "\u0120Hor": 6075, "\u0120spring": 6076, "duc": 6077, "\u0120losing": 6078, "\u0120bringing": 6079, "FO": 6080, "ala": 6081, "\u0120distribution": 6082, "hered": 6083, "bour": 6084, "\u0120Israeli": 6085, "oma": 6086, "\u0120combination": 6087, "\u0120plenty": 6088, "VE": 6089, "Can": 6090, "\u0120Haw": 6091, "\u0120perman": 6092, "\u0120Special": 6093, "\u0120tow": 6094, "\u0120seeking": 6095, "\u0120examples": 6096, "\u0120classes": 6097, "cr": 6098, "\u0120beer": 6099, "\u0120moves": 6100, "\u0120IP": 6101, "\u0120Kn": 6102, "\u0120panel": 6103, "Even": 6104, "\u0120properly": 6105, "\u0120ris": 6106, "\u0120plug": 6107, "\u0120estimated": 6108, "Every": 6109, "\u0120defensive": 6110, "agraph": 6111, "\u0120pregn": 6112, "\u0120instit": 6113, "\u0120Vict": 6114, "\u0120volume": 6115, "\u0120positions": 6116, "\u0120links": 6117, "\u0120Program": 6118, "\u0120Week": 6119, "agues": 6120, "\u0120transform": 6121, "ker": 6122, "\u0120CEO": 6123, "\u0120cas": 6124, "\u0120opponent": 6125, "\u0120tweet": 6126, "\u0120Code": 6127, "\u0120shop": 6128, "\u0120fly": 6129, "\u0120talks": 6130, "\u0120bag": 6131, "Phone": 6132, "\u0120aid": 6133, "\u0120plants": 6134, "\u012065": 6135, "\u0120attorney": 6136, "arters": 6137, "quest": 6138, "\u0120Magic": 6139, "\u0120begins": 6140, "\u0120myster": 6141, "\u0120environmental": 6142, "\u0120storage": 6143, "NN": 6144, "\u0120marg": 6145, "\u0120ske": 6146, "\u0120metal": 6147, "elly": 6148, "\u0120ordered": 6149, "\u0120remained": 6150, "\u0120loved": 6151, "\u0120prompt": 6152, "\u0120updated": 6153, "\u0120experts": 6154, "\u0120walking": 6155, "\u0120ancient": 6156, "\u0120performed": 6157, "ATE": 6158, "\u0120neither": 6159, "iency": 6160, "\u0120manufacture": 6161, "\u0120Pak": 6162, "\u0120selected": 6163, "\u0120mine": 6164, "\u0120ultimately": 6165, "\u0120explan": 6166, "\u0120label": 6167, "\u0120Services": 6168, "ributed": 6169, "Trump": 6170, "\u0120syn": 6171, "\u0120Ult": 6172, "SC": 6173, "\u0120meat": 6174, "\u0120giant": 6175, "\u0120Wars": 6176, "\u0120ON": 6177, "\u0120adm": 6178, "\u0120interpret": 6179, "\u0120evening": 6180, "\u0120evil": 6181, "\u0120Boston": 6182, "\u0120Wild": 6183, "\u0120\u00c3": 6184, "\u0120Bitcoin": 6185, "\u0120Amazon": 6186, "Dr": 6187, "\u0120Information": 6188, "\u0120obviously": 6189, "\u0120advanced": 6190, "Photo": 6191, "olar": 6192, "\u0120weather": 6193, "\u0120symbol": 6194, "\u0120sole": 6195, "\u0120potentially": 6196, "oster": 6197, "\u0120originally": 6198, "mun": 6199, "300": 6200, "aze": 6201, "essions": 6202, "\u0120deck": 6203, "\u0120stood": 6204, "\u0120youth": 6205, "\u0120Bern": 6206, "Rep": 6207, "\u0120Test": 6208, "\u0120basically": 6209, "otic": 6210, "\u0120involve": 6211, "olit": 6212, "lyn": 6213, "See": 6214, "\u0120aircraft": 6215, "\u0120confirm": 6216, "EW": 6217, "\u0120messages": 6218, "\u0120Richard": 6219, "\u0120kit": 6220, "\u0120prohib": 6221, "\u0120vulner": 6222, "isters": 6223, "\u0120existence": 6224, "\u0120turning": 6225, "\u0120SP": 6226, "\u0120desire": 6227, "\u0120flat": 6228, "\u0120ment": 6229, "season": 6230, "anges": 6231, "\u0120neighborhood": 6232, "\u0120Lake": 6233, "ATION": 6234, "\u0120pointed": 6235, "bur": 6236, "\u0120innov": 6237, "ucks": 6238, "UL": 6239, "\u0120professor": 6240, "\u0120expressed": 6241, "AB": 6242, "icious": 6243, "\u01202002": 6244, "\u0120Dev": 6245, "\u0120session": 6246, "\u0120bare": 6247, "sen": 6248, "\u0120diss": 6249, "\u0120Cath": 6250, "\u0120Pass": 6251, "\u0120Point": 6252, "\u0120doctor": 6253, "orrow": 6254, "ailed": 6255, "\u0120Rub": 6256, "\u0120DC": 6257, "\u0120Charl": 6258, "person": 6259, "\u0120writer": 6260, "ighters": 6261, "ureau": 6262, "\u0120oblig": 6263, "\u0120recorded": 6264, "\u0120broke": 6265, "\u0120orders": 6266, "ilty": 6267, "\u0120motion": 6268, "inity": 6269, "law": 6270, "adium": 6271, "\u0120immigration": 6272, "\u0120contrast": 6273, "\u0120batt": 6274, "\u0120excellent": 6275, "\u0120technical": 6276, "ami": 6277, "\u0120tun": 6278, "\u0120cloud": 6279, "\u0120Year": 6280, "geon": 6281, "\u0120creation": 6282, "\u0120strange": 6283, "\u0120auth": 6284, "\u0120fort": 6285, "born": 6286, "\u0120extent": 6287, "\u0120Today": 6288, "\u0120Club": 6289, "\u0120rain": 6290, "\u0120sample": 6291, "\u0120accepted": 6292, "\u0120tact": 6293, "\u0120fired": 6294, "\u0120Son": 6295, "\u0120stands": 6296, "\u0120boot": 6297, "\u012047": 6298, "\u0120statements": 6299, "\u0120versions": 6300, "\u0120selling": 6301, "ounded": 6302, "\u01201990": 6303, "\u0120weren": 6304, "\u0120Watch": 6305, "\u0120experiment": 6306, "Post": 6307, "\u0120retail": 6308, "uled": 6309, "Inst": 6310, "unte": 6311, "\u00e3\u0125\u00bc": 6312, "\u0120depart": 6313, "\u0120bond": 6314, "ivery": 6315, "ompl": 6316, "\u0120reaction": 6317, "\u0120Syrian": 6318, "\u0120Pac": 6319, "apped": 6320, "aniel": 6321, "DP": 6322, "\u0120resolution": 6323, "\u0120react": 6324, "\u0120approved": 6325, "onom": 6326, "mond": 6327, "\u0120Offic": 6328, "---": 6329, "\u0120replace": 6330, "\u0120tack": 6331, "\u0120sport": 6332, "\u0120chain": 6333, "\u0120emergency": 6334, "rad": 6335, "\u0120Palestin": 6336, "\u012046": 6337, "\u0120automatically": 6338, "\u0120route": 6339, "\u0120pal": 6340, "\u0120banks": 6341, "\u0120Paris": 6342, "\u0120Media": 6343, "road": 6344, "icing": 6345, "ixt": 6346, "isted": 6347, "\u0120grew": 6348, "\u0120coord": 6349, "\u0120Where": 6350, "omin": 6351, "\u0120subs": 6352, "\u00ef\u00bf\u00bd\u00ef\u00bf\u00bd": 6353, "\u0120\u00c2\u00b1": 6354, "\u0120corporate": 6355, "\u0120selection": 6356, "noon": 6357, "\u0120Report": 6358, "cs": 6359, "cluding": 6360, "orders": 6361, "anche": 6362, "\u0120Its": 6363, "\u0120slowly": 6364, "\u0120Egypt": 6365, "\u0120Acc": 6366, "\u0120colle": 6367, "iques": 6368, "EX": 6369, "\u0120attempts": 6370, "url": 6371, "\u0120Cross": 6372, "\u0120findings": 6373, "\u0120SC": 6374, "\u0120OR": 6375, "\u0120index": 6376, "ensity": 6377, "\u0120Way": 6378, "\u0120Land": 6379, "\u0120shock": 6380, "dis": 6381, "\u0120dynam": 6382, "\u0120cart": 6383, "mosp": 6384, "Since": 6385, "iest": 6386, "\u0120Boy": 6387, "\u0120storm": 6388, "\u0120Contin": 6389, "2013": 6390, "hew": 6391, "ilit": 6392, "\u0120essential": 6393, "iquid": 6394, "Other": 6395, "ivered": 6396, "\u0120reasonable": 6397, "Act": 6398, "\u0120subsequ": 6399, "\u0120Pack": 6400, "\u0120Fort": 6401, "\u0120considering": 6402, "\u0120university": 6403, "log": 6404, "\u0120married": 6405, "\u0120illust": 6406, "\u0120True": 6407, "\u00a3\u0131": 6408, "\u0120numerous": 6409, "rastructure": 6410, "\u0120seriously": 6411, "\u0120referred": 6412, "ua": 6413, "\u0120consistent": 6414, "onna": 6415, "\u0120Real": 6416, "ruption": 6417, "ciples": 6418, "\u0120facts": 6419, "91": 6420, "otes": 6421, "erg": 6422, "Then": 6423, "\u0120accompl": 6424, "Note": 6425, "\u0120revenue": 6426, "\u0120passing": 6427, "\u0120mal": 6428, "een": 6429, "\u0120Yet": 6430, "\u0120gather": 6431, "terday": 6432, "ework": 6433, "\u0120Author": 6434, "Pe": 6435, "\u0120optim": 6436, "\u0120rub": 6437, "\u0120\u00e8\u00a3\u0131": 6438, "\u0120unknown": 6439, "stone": 6440, "\u0120union": 6441, "olve": 6442, "\u0120opportunities": 6443, "\u0120browser": 6444, "\u0120Wal": 6445, "\u0120Cost": 6446, "\u0120reporting": 6447, "sts": 6448, "pet": 6449, "\u0120sand": 6450, "\u0120suddenly": 6451, "\u0120surprising": 6452, "\u0120VR": 6453, "\u0120somewhat": 6454, "\u0120Bas": 6455, "ulture": 6456, "izz": 6457, "\u0120CD": 6458, "\u0120challenges": 6459, "\u0120settings": 6460, "\u0120experiences": 6461, "\u0120Full": 6462, "\u0120cann": 6463, "\u0120receiving": 6464, "EST": 6465, "\u0120joint": 6466, "\u0120cultural": 6467, "\u0120ast": 6468, "82": 6469, "astern": 6470, "ceived": 6471, "\u0120Cru": 6472, "\u0120bull": 6473, "pired": 6474, "amm": 6475, "\u0120facing": 6476, "power": 6477, "\u0120boss": 6478, "\u0120Hol": 6479, "\u0120instr": 6480, "\u0120increasingly": 6481, "\u0120shift": 6482, "\u0120streets": 6483, "\u0120Williams": 6484, "abb": 6485, "\u0120lie": 6486, "\u0120laugh": 6487, "\u0120Ca": 6488, "PL": 6489, "\u0120adults": 6490, "\u0120customer": 6491, "\u0120obtained": 6492, "\u0120supporting": 6493, "html": 6494, "fire": 6495, "\u0120detailed": 6496, "\u0120picked": 6497, "\u0120Right": 6498, "lder": 6499, "EE": 6500, "stood": 6501, "\u0120Kim": 6502, "\u0120wire": 6503, "\u0120sight": 6504, "\u0120developers": 6505, "\u0120persons": 6506, "\u0120sad": 6507, "\u0120cup": 6508, "\u0120warning": 6509, "\u0120boys": 6510, "long": 6511, "\u0120bird": 6512, "fo": 6513, "\u0120wal": 6514, "\u0120observed": 6515, "\u0120zone": 6516, "iveness": 6517, "\u0120channel": 6518, "cript": 6519, "\u0120refused": 6520, "\u0120Again": 6521, "\u0120suc": 6522, "\u0120spokesman": 6523, "\u0120Ref": 6524, "rite": 6525, "ouston": 6526, "\u00e3\u0125\u00b3": 6527, "\u0120Sher": 6528, "\u0120acts": 6529, "\u0120Name": 6530, "\u0120struggle": 6531, "arry": 6532, "ometimes": 6533, "\u0120discrim": 6534, "HT": 6535, "\u0120category": 6536, "\u0120realize": 6537, "\u0120employee": 6538, "\u0120Afghan": 6539, "enger": 6540, "\u0120guns": 6541, "\u0120Steve": 6542, "\u0120Mot": 6543, "\u0120Ol": 6544, "oked": 6545, "\u0120thick": 6546, "\u0120fairly": 6547, "illy": 6548, "\u0120surve": 6549, "\u0120Mat": 6550, "weight": 6551, "\u00e2\u0136": 6552, "\u0120troops": 6553, "\u0120agents": 6554, "\u0120battery": 6555, "\u0120motiv": 6556, "\u00c3\u00a1": 6557, "Sec": 6558, "den": 6559, "overy": 6560, "LS": 6561, "\u0120flu": 6562, "\u0120confident": 6563, "\u0120Oper": 6564, "\u0120empty": 6565, "\u0120phen": 6566, "\u0120sector": 6567, "\u0120excited": 6568, "\u0120remote": 6569, "aph": 6570, "oen": 6571, "\u0120destroyed": 6572, "\u0120moral": 6573, "\u0120HP": 6574, "\u0120Ron": 6575, "\u0120dress": 6576, "\u0120Bat": 6577, "\u0120lit": 6578, "\u0120MS": 6579, "\u0120af": 6580, "HL": 6581, "rum": 6582, "isms": 6583, "\u0120shouldn": 6584, "\u0120sympt": 6585, "\u0120Toronto": 6586, "hetic": 6587, "\u0120carbon": 6588, "\u0120installed": 6589, "\u0120violent": 6590, "\u0120solar": 6591, "ja": 6592, "\u0120practices": 6593, "\u0120ride": 6594, "\u0120Penn": 6595, "\u0120improved": 6596, "\u0120audio": 6597, "\u0120behavi": 6598, "\u0120PS": 6599, "\u0120eating": 6600, "Data": 6601, "\u0120Review": 6602, "pass": 6603, "claim": 6604, "uated": 6605, "angers": 6606, "chen": 6607, "\u0120properties": 6608, "\u0120anywhere": 6609, "Another": 6610, "\u0120blow": 6611, "\u0120Jackson": 6612, "\u0120proud": 6613, "\u0120plane": 6614, "lines": 6615, "\u0120square": 6616, "\u0120proof": 6617, "ansas": 6618, "\u0120talked": 6619, "makers": 6620, "\u0120sister": 6621, "\u0120holds": 6622, "\u0120resident": 6623, "\u0120==": 6624, "\u0120resistance": 6625, "\u0120split": 6626, "\u0120prosecut": 6627, "\u0120confidence": 6628, "resents": 6629, "\u0120cuts": 6630, "\u0120exception": 6631, "\u0120zero": 6632, "Getty": 6633, "\u0120copyright": 6634, "\u0120totally": 6635, "ormal": 6636, "ifications": 6637, "\u0120Australian": 6638, "\u0120sick": 6639, "\u0120150": 6640, "\u0120household": 6641, "\u0120fees": 6642, "\u0120drivers": 6643, "ogen": 6644, "\u0120NY": 6645, "\u0120necessarily": 6646, "\u0120regulations": 6647, "earing": 6648, "sl": 6649, "\u0120perspective": 6650, "care": 6651, "icial": 6652, "His": 6653, "\u0120escape": 6654, "\u0120surprised": 6655, "\u0120Van": 6656, "urrent": 6657, "\u0120vac": 6658, "81": 6659, "\u0120Thus": 6660, "\u0120emphas": 6661, "\u0120Champions": 6662, "\u0120Ice": 6663, "\u0120narr": 6664, "\u0120heads": 6665, "\u0120causing": 6666, "bel": 6667, "fortunately": 6668, "\u0120Ma": 6669, "\u0120targets": 6670, "cipl": 6671, "\u0120afternoon": 6672, "\u0120adds": 6673, "\u0120Maybe": 6674, "\u0120Four": 6675, "essed": 6676, "plete": 6677, "\u0120usual": 6678, "cho": 6679, "ingu": 6680, "\u0120withd": 6681, "\u0120Energy": 6682, "\u0120Econom": 6683, "OO": 6684, "\u0120articles": 6685, "\u0120injured": 6686, "\u0120manage": 6687, "\u0120explains": 6688, "\u0120diagn": 6689, "Rec": 6690, "atures": 6691, "\u0120linked": 6692, "\u0120discussed": 6693, "\u0120explo": 6694, "\u0120occasion": 6695, "athan": 6696, "\u0120opposite": 6697, "\u0120faces": 6698, "\u0120denied": 6699, "\u0120Knight": 6700, "\u0120nut": 6701, "\u0120approximately": 6702, "\u0120disappoint": 6703, "onymous": 6704, "\u0120Best": 6705, "\u0120Lo": 6706, "\u0120Hy": 6707, "\u0120Aff": 6708, "\u0120voting": 6709, "anwhile": 6710, "\u0120III": 6711, "\u0120institutions": 6712, "agram": 6713, "\u0120Daily": 6714, "\u0120drag": 6715, "\u0120nearby": 6716, "\u0120guilty": 6717, "\u0120conver": 6718, "Pre": 6719, "ship": 6720, "\u0120reward": 6721, "\u0120philosoph": 6722, "\u0120SS": 6723, "ugh": 6724, "\u0120apps": 6725, "friend": 6726, "\u0120upper": 6727, "\u0120advert": 6728, "\u0120snow": 6729, "\u0120frust": 6730, "\u0120ourselves": 6731, "Fr": 6732, "\u0120Die": 6733, "ampion": 6734, "\u0120dismiss": 6735, "\u0120cere": 6736, "\u0120signal": 6737, "from": 6738, "\u0120).": 6739, "\u012052": 6740, "\u0120crimes": 6741, "itors": 6742, "estival": 6743, "useum": 6744, "\u0120council": 6745, "\u0120Saud": 6746, "May": 6747, "\u0120Gun": 6748, "ician": 6749, "ether": 6750, "\u0120sufficient": 6751, "\u0120Hen": 6752, "sole": 6753, "\u0120historical": 6754, "\u0120Far": 6755, "\u0120Turn": 6756, "\u0120pin": 6757, "\u0120succeed": 6758, "mat": 6759, "lymp": 6760, "\u0120tradition": 6761, "\u0120Ok": 6762, "\u0120cro": 6763, "\u0120description": 6764, "alle": 6765, "\u0120sky": 6766, "Te": 6767, "\u0120widely": 6768, "\u0120wave": 6769, "\u0120definition": 6770, "\u0120Jews": 6771, "\u0120cycle": 6772, "\u0120refere": 6773, "\u0120brings": 6774, "usal": 6775, "\u0120alive": 6776, "\u0120frequently": 6777, "\u0120intention": 6778, "\u0120Control": 6779, "lv": 6780, "ystem": 6781, "\u0120privacy": 6782, "gent": 6783, "rence": 6784, "\u0120Quest": 6785, "\u0120Christmas": 6786, "\u0120rail": 6787, "\u0120cooper": 6788, "\u0120tested": 6789, "\u0120Capt": 6790, "asks": 6791, "\u0120comfortable": 6792, "\u0120delivered": 6793, "scape": 6794, "\u0120depth": 6795, "\u0120GOP": 6796, "\u0120writes": 6797, "\u0120assets": 6798, "\u0120sav": 6799, "iments": 6800, "\u0120transition": 6801, "\u0120artist": 6802, "\u0120Look": 6803, "\u0120lob": 6804, "\u0120components": 6805, "arity": 6806, "\u0120walked": 6807, "\u0120root": 6808, "\u0120participants": 6809, "\u0120noticed": 6810, "\u0120resc": 6811, "\u0120nav": 6812, "\u0120Administ": 6813, "da": 6814, "utral": 6815, "plate": 6816, "\u0120importance": 6817, "\u0120assert": 6818, "iously": 6819, "cription": 6820, "\u0120injuries": 6821, "\u0120Check": 6822, "\u0120registered": 6823, "\u0120intent": 6824, "\u0120missed": 6825, "ographic": 6826, "\u0120sentence": 6827, "ounter": 6828, "\u0120assistance": 6829, "evin": 6830, "\u0120database": 6831, "\u0120buildings": 6832, "\u0120classic": 6833, "\u0120thinks": 6834, "\u0120Ohio": 6835, "Pr": 6836, "ugg": 6837, "\u0120fee": 6838, "pan": 6839, "\u0120effectively": 6840, "\u0120facility": 6841, "\u0120bear": 6842, "\u0120chapter": 6843, "\u0120dogs": 6844, "\u0120Columb": 6845, "\u0120latter": 6846, "itial": 6847, "\u0120admitted": 6848, "TV": 6849, "\u0120Georg": 6850, "\u0120posts": 6851, "\\\\": 6852, "\u0120lawyer": 6853, "\u0120equival": 6854, "\u0120mand": 6855, "\u0120controlled": 6856, "\u0120Walk": 6857, "\u0120Andrew": 6858, "\u0120menu": 6859, "amental": 6860, "\u0120protected": 6861, "va": 6862, "\u0120administr": 6863, "oral": 6864, "\u0120rein": 6865, "\u0120Sar": 6866, "\u0120amounts": 6867, "\u0120native": 6868, "\u0120Moon": 6869, "\u0120represents": 6870, "\u0120abandon": 6871, "\u0120carrying": 6872, "\u0120tank": 6873, "mary": 6874, "\u0120declared": 6875, "Tube": 6876, "\u0120hat": 6877, "\u0120punish": 6878, "ellect": 6879, "mes": 6880, "\u0120universe": 6881, "\u0120Rod": 6882, "phy": 6883, "\u0120infrastructure": 6884, "\u012051": 6885, "\u0120opposed": 6886, "ownt": 6887, "ca": 6888, "\u0120Make": 6889, "\u0120hardware": 6890, "\u0120coffee": 6891, "Rel": 6892, "bal": 6893, "world": 6894, "\u0120Saf": 6895, "\u0120Sea": 6896, "inals": 6897, "\u0120owned": 6898, "\u0120hall": 6899, "ersion": 6900, "\u0120describe": 6901, "\u0120Pot": 6902, "\u0120portion": 6903, "\u0120atmosp": 6904, "\u0120governments": 6905, "\u0120depending": 6906, "\u0120offense": 6907, "\u0120trick": 6908, "awa": 6909, "\u0120Line": 6910, "\u0120Vis": 6911, "\u0120Hard": 6912, "\u0120Orig": 6913, "\u0120Click": 6914, "\u0120desk": 6915, "\u0120Valley": 6916, "\u0120Sov": 6917, "\u0120movies": 6918, "\u0120remark": 6919, "\u0120mail": 6920, "\u0120conscious": 6921, "\u0120ruling": 6922, "\u0120Rights": 6923, "\u0120medic": 6924, "hent": 6925, "\u0120Women": 6926, "><": 6927, "\u0120replaced": 6928, "\u0120Prem": 6929, "\u0120Thanks": 6930, "\u0120renew": 6931, "\u0120Ball": 6932, "iform": 6933, "\u0120shots": 6934, "Comm": 6935, "\u0120armed": 6936, "\u0120constant": 6937, "\u0120taste": 6938, "\u0120realized": 6939, "\u0120buff": 6940, "\u0120mo": 6941, "\u0120efficient": 6942, "Most": 6943, "oration": 6944, "ifies": 6945, "\u0120communication": 6946, "\u0120flood": 6947, "\u0120consequences": 6948, "\u0120anyway": 6949, "igg": 6950, "\u0120GM": 6951, "\u0120Thank": 6952, "\u0120iron": 6953, "\u0120evolution": 6954, "\u0120Cop": 6955, "twitter": 6956, "\u012095": 6957, "\u0120relationships": 6958, "adel": 6959, "\u0120Young": 6960, "\u0120proposal": 6961, "ayers": 6962, "uilding": 6963, "\u0120Hot": 6964, "ORE": 6965, "cos": 6966, "\u0120collabor": 6967, "PG": 6968, "axy": 6969, "\u0120knowing": 6970, "\u0120supports": 6971, "owed": 6972, "\u0120controls": 6973, "\u0120merely": 6974, "umer": 6975, "\u0120athlet": 6976, "\u0120fashion": 6977, "path": 6978, "\u0120gift": 6979, "\u0120era": 6980, "AND": 6981, "\u0120kinds": 6982, "\u0120Korean": 6983, "\u0120legit": 6984, "ulous": 6985, "\u0120essentially": 6986, "\u0120therap": 6987, "nic": 6988, "\u0120suffered": 6989, "\u0120hur": 6990, "\u0120promise": 6991, "\u0120excess": 6992, "\u0120overw": 6993, "\u0120prime": 6994, "\u0120Houston": 6995, "erry": 6996, "\u0120Ms": 6997, "RS": 6998, "2012": 6999, "\u0120stores": 7000, "\u0120Olymp": 7001, "\u0120journey": 7002, "Although": 7003, "Sub": 7004, "\u0120Educ": 7005, "\u0120Chapter": 7006, "\u0120requests": 7007, "\u0120consumers": 7008, "\u0120tiny": 7009, "\u0120isol": 7010, "\u0120Fair": 7011, "ba": 7012, "\u0120YOU": 7013, "\u0120crash": 7014, "celer": 7015, "\u0120emotional": 7016, "\u0120goods": 7017, "\u0120elected": 7018, "\u0120moder": 7019, "\u0120Linux": 7020, "\u0120blocks": 7021, "\u0120island": 7022, "\u0120Society": 7023, "\u0120elections": 7024, "\u0120broadcast": 7025, "\u0120cheap": 7026, "\u0120nations": 7027, "\u0120seasons": 7028, "400": 7029, "\u0120waste": 7030, "\u0120Sat": 7031, "\u0120fields": 7032, "employ": 7033, "\u0120profile": 7034, "\u0120authors": 7035, "ALL": 7036, "\u0120Gra": 7037, "west": 7038, "\u0120Ty": 7039, "\u0120deaths": 7040, "\u0120vacc": 7041, "\u0120formed": 7042, "\u0120du": 7043, "\u0120ongoing": 7044, "\u0120Muslims": 7045, "elf": 7046, "igure": 7047, "\u0120assume": 7048, "\u0120Ukraine": 7049, "water": 7050, "\u0120coast": 7051, "\u0120voted": 7052, "gor": 7053, "\u0120AS": 7054, "\u0120Michigan": 7055, "aza": 7056, "\u0120Arm": 7057, "iro": 7058, "\u0120flex": 7059, "asters": 7060, "''": 7061, "\u0120welcome": 7062, "arl": 7063, "\u0120locations": 7064, "igation": 7065, "\u0120Fil": 7066, "\u0120buying": 7067, "\u0120architect": 7068, "\u0120harder": 7069, "\u0120Cub": 7070, "\u0120interface": 7071, "\u0120restaurant": 7072, "\u0120discover": 7073, "\u0120exceed": 7074, "\u0120favour": 7075, "gery": 7076, "\u0120duty": 7077, "\u0120pitch": 7078, "ador": 7079, "\u0120Mach": 7080, "boy": 7081, "\u0120responded": 7082, "\u0120extended": 7083, "hers": 7084, "Many": 7085, "raid": 7086, "ifer": 7087, "\u0120Ins": 7088, "Ser": 7089, "\u0120medium": 7090, "she": 7091, "\u0120Sports": 7092, "\u0120magazine": 7093, "utation": 7094, "\u0120limits": 7095, "\u0120Gall": 7096, "\u0120external": 7097, "razil": 7098, "\u0120younger": 7099, "tle": 7100, "\u0120remind": 7101, "\u0120CON": 7102, "\u0120immediate": 7103, "\u0120hidden": 7104, "\u0120volunte": 7105, "\u0120simpl": 7106, "odcast": 7107, "\u0120phase": 7108, "dr": 7109, "\u0120plot": 7110, "\u0120exposure": 7111, "RI": 7112, "ograp": 7113, "vin": 7114, "anish": 7115, "\u0120Acad": 7116, "\u0120Engine": 7117, "\u0120expansion": 7118, "\u0120Pay": 7119, "Your": 7120, "\u0120pushed": 7121, "\u0120Ell": 7122, "\u0120Head": 7123, "\u0120marketing": 7124, "\u0120AC": 7125, "ket": 7126, "\u0120hits": 7127, "\u0120gro": 7128, "\u0120Age": 7129, "\u0120Scot": 7130, "][": 7131, "\u0120stim": 7132, "\u0120iPhone": 7133, "\u012a\u0134": 7134, "\u0120narrow": 7135, "\u0120Getty": 7136, "\u0120Turkey": 7137, "\u0120perfectly": 7138, "\u0120enable": 7139, "utch": 7140, "\u0120precise": 7141, "\u0120regime": 7142, "\u0120shif": 7143, "\u0120compens": 7144, "gun": 7145, "div": 7146, "\u0120chosen": 7147, "\u0120Ken": 7148, "Any": 7149, "\u0120trees": 7150, "\u0120recommended": 7151, "\u0120Ren": 7152, "uable": 7153, "\u0120HT": 7154, "Follow": 7155, "EG": 7156, "\u0120Hand": 7157, "\u0120Kenn": 7158, "\u0120arguments": 7159, "\u0120exists": 7160, "\u0120bike": 7161, "\u0120Conserv": 7162, "\u0120breaking": 7163, "\u0120Gar": 7164, "\u0120crazy": 7165, "\u0120virtual": 7166, "aylor": 7167, "ixel": 7168, "\u01201980": 7169, "\u0120permission": 7170, "\u0120Series": 7171, "\u0120consumer": 7172, "\u0120closely": 7173, "called": 7174, "\u012054": 7175, "\u0120hopes": 7176, "\u0120array": 7177, "\u0120Win": 7178, "\u0120Labour": 7179, "\u0120spons": 7180, "\u0120Ire": 7181, "\u0120pow": 7182, "\u0120readers": 7183, "\u0120employment": 7184, "\u0120creature": 7185, "\u0120resulting": 7186, "\u0120accurate": 7187, "\u0120moments": 7188, "\u0120argued": 7189, "\u0120ped": 7190, "During": 7191, "\u012053": 7192, "\u0120Tal": 7193, "\u0120sought": 7194, "\u0120suffering": 7195, "\u0120icon": 7196, "lee": 7197, "\u0120($": 7198, "alian": 7199, "\u00c2\u00b0": 7200, "\u0120pra": 7201, "\u0120bonus": 7202, "(\"": 7203, "ko": 7204, "\u0120acting": 7205, "DE": 7206, "fall": 7207, "\u0120comparison": 7208, "\u0120smooth": 7209, "\u0120NAS": 7210, "upp": 7211, "\u0120Joseph": 7212, "eping": 7213, "\u0120Take": 7214, "\u0120Mid": 7215, "\u0120sending": 7216, "fast": 7217, "\u0120Fall": 7218, "\u0120dealing": 7219, "user": 7220, "\u0120Organ": 7221, "Co": 7222, "\u0120attached": 7223, "\u0120sees": 7224, "%.": 7225, "\u0120typical": 7226, "ART": 7227, "\u0120finds": 7228, "\u0120Asia": 7229, "umin": 7230, "\u0120Core": 7231, "\u0120Ent": 7232, "inent": 7233, "uce": 7234, "\u0120Blood": 7235, "\u0120Never": 7236, "\u0120emails": 7237, "\u0120highlight": 7238, "\u0120confront": 7239, "atus": 7240, "uted": 7241, "\u0120unus": 7242, "\u0120topic": 7243, "\u0120Adam": 7244, "\u0120ble": 7245, "ati": 7246, "\u0120understood": 7247, "Set": 7248, "struct": 7249, "TP": 7250, "\u0120mob": 7251, "aa": 7252, "\u0120Start": 7253, "pected": 7254, "sell": 7255, "\u0120dedicated": 7256, "\u0120CA": 7257, "uan": 7258, "\u0120songs": 7259, "escription": 7260, "\u0120tech": 7261, "\u0120rape": 7262, "\u0120aside": 7263, "\u0120grant": 7264, "\u012056": 7265, "sub": 7266, "\u0120argue": 7267, "\u0120containing": 7268, "\u0120schedule": 7269, "\u0120liberal": 7270, "\u0120publicly": 7271, "\u0120heavily": 7272, "\u0120Ut": 7273, "iner": 7274, "\u0120Section": 7275, "\u0120Care": 7276, "weet": 7277, "ls": 7278, "Dis": 7279, "\u00e2\u0136\u0122": 7280, "\u0120Follow": 7281, "Back": 7282, "\u0120IT": 7283, "\u0120bes": 7284, "ji": 7285, "\u0120Hit": 7286, "ested": 7287, "\u0120everybody": 7288, "\u0120Swed": 7289, "\u0120femin": 7290, "\u0120facilities": 7291, "\u0120conven": 7292, "Comp": 7293, "\u0120OS": 7294, "core": 7295, "\u0120anx": 7296, "\u0120division": 7297, "\u0120Cam": 7298, "\u0120Stan": 7299, "mates": 7300, "\u0120explore": 7301, "plom": 7302, "\u0120shares": 7303, "pload": 7304, "anes": 7305, "\u0120ideal": 7306, "eters": 7307, "\u0120Base": 7308, "\u0120plastic": 7309, "\u0120distinct": 7310, "\u0120Network": 7311, "\u0120Seattle": 7312, "\u0120trading": 7313, "ensus": 7314, "intend": 7315, "\u0120exhib": 7316, "\u0120initially": 7317, "\u0120Food": 7318, "\u0120thousand": 7319, "\u0120Business": 7320, "acter": 7321, "\u0120paragraph": 7322, "\u0120roughly": 7323, "\u0120www": 7324, "\u0120creative": 7325, "\u0120Conf": 7326, "\u0120consumption": 7327, "\u0120films": 7328, "agan": 7329, "\u0120obtain": 7330, "\u0120tall": 7331, "\u0120tor": 7332, "\u0120acknowled": 7333, "\u0120grown": 7334, "alo": 7335, "KE": 7336, "\u0120400": 7337, "enders": 7338, "taining": 7339, "UG": 7340, "\u0120suicide": 7341, "\u0120watched": 7342, "\u0120List": 7343, "ali": 7344, "rehens": 7345, "\u0120surrounding": 7346, "\u0120pip": 7347, "\u0120flying": 7348, "\u0120Java": 7349, "ordan": 7350, "\u0120serving": 7351, "inations": 7352, "post": 7353, "\u0120sho": 7354, "Av": 7355, "\u0120jail": 7356, "zy": 7357, "\u01201999": 7358, "\u0120</": 7359, "\u0120literally": 7360, "\u0120Sir": 7361, "\u0120exposed": 7362, "\u0120lies": 7363, "star": 7364, "\u0120bat": 7365, "\u0120earned": 7366, "\u0120Dig": 7367, "\u0120specified": 7368, "\u0120Season": 7369, "\u0120degrees": 7370, "Donald": 7371, "\u0120centre": 7372, "\u0120sharing": 7373, "\u0120winter": 7374, "\u0120CO": 7375, "Che": 7376, "\u0120\u00ce": 7377, "MP": 7378, "\u0120unw": 7379, "\u0120fewer": 7380, "\u0120Mir": 7381, "\u0120somewhere": 7382, "\u0120Key": 7383, "\u0120attacked": 7384, "\u0120Kir": 7385, "\u0120domain": 7386, "\u0120stronger": 7387, "\u012099": 7388, "\u0120penalty": 7389, "Id": 7390, "Script": 7391, "\u0120declined": 7392, "\u0120neck": 7393, "\u0120fraud": 7394, "\u0120currency": 7395, "\u0120rising": 7396, "RC": 7397, "\u00e2\u0122\u00a6\u00e2\u0122\u00a6": 7398, "Hz": 7399, "\u0120tab": 7400, "\u0120talent": 7401, "nam": 7402, "\u0120NBA": 7403, "\u0120village": 7404, "\u0120legs": 7405, "\u0120Next": 7406, "Ed": 7407, "\u0120acid": 7408, "\u0120hyd": 7409, "800": 7410, "\u0120involving": 7411, "\u0120Image": 7412, "\u0120Before": 7413, "Fl": 7414, "\u0120yesterday": 7415, "Source": 7416, "\u0120terrorist": 7417, "\u0120sup": 7418, "\u0120synt": 7419, "\u0120Saudi": 7420, "\u0120west": 7421, "\u0120ru": 7422, "burg": 7423, "\u0120visible": 7424, "\u0120struck": 7425, "rison": 7426, "\u0120awesome": 7427, "\u0120drawn": 7428, "\u0120answers": 7429, "\u0120Girl": 7430, "\u0120Ram": 7431, "\u0120threats": 7432, "\u0120defeat": 7433, "osit": 7434, "\u0120vent": 7435, "aturally": 7436, "American": 7437, "enda": 7438, "\u0120Holy": 7439, "\u0120rum": 7440, "%,": 7441, "case": 7442, "\u0120History": 7443, "\u0120YouTube": 7444, "\u0120situations": 7445, "\u0120DNA": 7446, "Ste": 7447, "\u0120saved": 7448, "Item": 7449, "\u0120recip": 7450, "ologist": 7451, "\u0120faced": 7452, "\u0120elig": 7453, "Once": 7454, "\u0120Li": 7455, "uh": 7456, "\u0120mistake": 7457, "\u0120Division": 7458, "\u0120Bell": 7459, "\u0120symptoms": 7460, "\u00c2\u00ae": 7461, "\u0120domin": 7462, "\u0120falling": 7463, "\u0120ending": 7464, "ashes": 7465, "\u0120matches": 7466, "\u0120Online": 7467, "\u0120explanation": 7468, "Def": 7469, "redit": 7470, "\u0120anymore": 7471, "\u0120Total": 7472, "\u0120FOR": 7473, "ushed": 7474, "\u0120letters": 7475, "\u0120risks": 7476, "\u0120OK": 7477, "\u0120reportedly": 7478, ":\\": 7479, "\u0120plate": 7480, "\u0120subjects": 7481, "\u0120attempted": 7482, "ifier": 7483, "iana": 7484, "\u0120unlikely": 7485, "\u0120Though": 7486, "uma": 7487, "\u0120Invest": 7488, "\u0120Prin": 7489, "ican": 7490, "\u0120Dar": 7491, "\u0120Colorado": 7492, "aug": 7493, "\u0120veget": 7494, "aos": 7495, "ria": 7496, "\u0120shel": 7497, "\u0120marked": 7498, "\u0120()": 7499, "\u0120spr": 7500, "po": 7501, "\u0120Link": 7502, "\u0120defe": 7503, "\u0120Jr": 7504, "\u0120theme": 7505, "\u0120passion": 7506, "\u0120Pen": 7507, "\u0120info": 7508, "izer": 7509, "\u0120shit": 7510, "\u0120Civil": 7511, "apse": 7512, "cre": 7513, "\u0120poly": 7514, "\u0120component": 7515, "\u0120Charles": 7516, "\u0120Ireland": 7517, "\u0120Prov": 7518, "\u0120doctors": 7519, "\u0120granted": 7520, "\u0120paint": 7521, "\u0120honor": 7522, "\u0120smoke": 7523, "\u0120payments": 7524, "\u0120primarily": 7525, "\u0120Kingdom": 7526, "rich": 7527, "atell": 7528, "\u0120deals": 7529, "\u0120scheduled": 7530, "\u0120fundamental": 7531, "\u0120protein": 7532, "\u0120newspaper": 7533, "\u0120clients": 7534, "ython": 7535, "\u0120Date": 7536, "hus": 7537, "\u0120feedback": 7538, "\u0120stretch": 7539, "\u0120cock": 7540, "\u0120hotel": 7541, "\u0120Queen": 7542, "\u0120sugar": 7543, "\u0120ju": 7544, "\u0120milk": 7545, "\u0120approval": 7546, "\u0120Live": 7547, "\u0120equivalent": 7548, "efully": 7549, "\u0120insert": 7550, "zona": 7551, "\u0120extension": 7552, "dri": 7553, "John": 7554, "\u0120accomp": 7555, "Sm": 7556, "\u0120Fund": 7557, "\u0120constantly": 7558, "\u0120``": 7559, "\u0120generated": 7560, "\u0120Action": 7561, "\u0120Psych": 7562, "\u0120Tri": 7563, "\u0120recognize": 7564, "\u0120vary": 7565, "pha": 7566, "\u0120Ra": 7567, "df": 7568, "etch": 7569, "\u0120Soviet": 7570, "Two": 7571, "\u0120patterns": 7572, "\u0120profession": 7573, "aning": 7574, "Time": 7575, "\u0120Lim": 7576, "\u0120colors": 7577, "\u0120Az": 7578, "\u0120TR": 7579, "\u0120infect": 7580, "\u0120phenomen": 7581, "\u0120shell": 7582, "Also": 7583, "\u0120puts": 7584, "\u0120delivery": 7585, "\u0120brown": 7586, "\u0120processing": 7587, "\u0120lights": 7588, "essage": 7589, "\u0120Brook": 7590, "\u0120Aud": 7591, "lation": 7592, "\u0120industrial": 7593, "Like": 7594, "\u0120Brazil": 7595, "rous": 7596, "ESS": 7597, "\u0120Luc": 7598, "\u0120somehow": 7599, "\u012085": 7600, "\u0120proport": 7601, "\u0120politicians": 7602, "\u0120indicate": 7603, "\u0120hole": 7604, "\u0120techniques": 7605, "\u0120competitive": 7606, "\u0120phr": 7607, "\u0120vo": 7608, "istent": 7609, "\u0120Dream": 7610, "\u0120campus": 7611, "\u0120aspects": 7612, "\u0120helpful": 7613, "\u0120shield": 7614, "orse": 7615, "\u0120trigger": 7616, "mal": 7617, "\u012058": 7618, "\u0120tort": 7619, "\u0120personally": 7620, "\u0120tag": 7621, "\u0120keeps": 7622, "\u0120Video": 7623, "\u0120bench": 7624, "\u0120gap": 7625, "aire": 7626, "\u0120east": 7627, "\u0120recovery": 7628, "perial": 7629, "\u0120profit": 7630, "\u0120Mic": 7631, "\u012057": 7632, "\u0120colon": 7633, "\u0120strongly": 7634, "style": 7635, "\u0120allegations": 7636, "han": 7637, "\u0120reporters": 7638, "jo": 7639, "rine": 7640, "arget": 7641, "andal": 7642, "\u012003": 7643, "\u0120flash": 7644, "trans": 7645, "\u0120strict": 7646, "\u0120parking": 7647, "\u0120Pakistan": 7648, "\u0120li": 7649, "\u0120weird": 7650, "\u0120Eric": 7651, "\u0120regions": 7652, "\u0120Jun": 7653, "\u0120intellect": 7654, "\u0120WH": 7655, "oding": 7656, "ributes": 7657, "upid": 7658, "\u0120Tit": 7659, "\u0120finger": 7660, "oria": 7661, "\u0120elev": 7662, "\u0120Field": 7663, "\u0120conclusion": 7664, ";;": 7665, "\u0120feelings": 7666, "\u0120extensive": 7667, "\u0120mixed": 7668, "\u0120neuro": 7669, "vy": 7670, "\u0120harass": 7671, "\u0120Circ": 7672, "ouch": 7673, "\u0120territory": 7674, "\u0120successfully": 7675, "Mar": 7676, "\u0120ingred": 7677, "\u0120overwhel": 7678, "\u0120layer": 7679, "View": 7680, "\u0120allies": 7681, "illance": 7682, "\u0120Three": 7683, "\u0120bunch": 7684, "\u0120normally": 7685, "\u0120networks": 7686, "\u0120sacr": 7687, "\u0120CIA": 7688, "bles": 7689, "\u0120chose": 7690, "\u0120opponents": 7691, "\u0120regardless": 7692, "\u0120franch": 7693, "\u0120pref": 7694, "\u0120Po": 7695, "\u0120bridge": 7696, "anna": 7697, "\u0120Silver": 7698, "\u0120wage": 7699, "page": 7700, "rior": 7701, "\u0120radical": 7702, "\u0120Little": 7703, "\u0120manip": 7704, "\u0120secretary": 7705, "\u0120gang": 7706, "DR": 7707, "FA": 7708, "\u0120decent": 7709, "\u0120Spirit": 7710, "\u0120uncle": 7711, "\u0120Development": 7712, "\u0120investors": 7713, "\u0120walls": 7714, "\u0120publish": 7715, "\u0120generate": 7716, "issions": 7717, "car": 7718, "\u0120promote": 7719, "\u0120cutting": 7720, "\u0120chest": 7721, "\u0120drinking": 7722, "\u0120collected": 7723, "\u012072": 7724, "\u0120hoping": 7725, "\u0120embr": 7726, "gorith": 7727, "\u0120warned": 7728, "\u0120instructions": 7729, "OG": 7730, "\u0120Did": 7731, "\u0120Agency": 7732, "\u0120gear": 7733, "\u0120criticism": 7734, "\u0120Further": 7735, "\u0120util": 7736, "anny": 7737, "Red": 7738, "\u0120counsel": 7739, "\u0120Asian": 7740, "\u0120reduction": 7741, "pool": 7742, "\u0120teaching": 7743, "\u0120deeply": 7744, "iy": 7745, "\u0120estimates": 7746, "\u0120choices": 7747, "\u0120permanent": 7748, "inem": 7749, "kel": 7750, "\u0120fasc": 7751, "pse": 7752, "file": 7753, "\u0120Low": 7754, "\u0120Person": 7755, "\u0120tournament": 7756, "stal": 7757, "\u0120mel": 7758, "UST": 7759, "\u0120Ray": 7760, "azi": 7761, "Val": 7762, "\u0120contained": 7763, "\u0120Holly": 7764, "\u0120wake": 7765, "\u0120reveal": 7766, "\u0120processes": 7767, "\u0120ISIS": 7768, "\u012009": 7769, "\u0120blind": 7770, "\u0120steel": 7771, "\u0120Bad": 7772, "\u0120carefully": 7773, "appy": 7774, "roit": 7775, "\u0120gaming": 7776, "\u0120houses": 7777, "\u0120Coll": 7778, "\u0120truck": 7779, "erm": 7780, "\u0120scored": 7781, "\u0120occas": 7782, "return": 7783, "bound": 7784, "var": 7785, "\u0120sharp": 7786, "\u0120afraid": 7787, "\u0120EX": 7788, "amber": 7789, "cific": 7790, "\u0120scheme": 7791, "NC": 7792, "\u0120Polit": 7793, "\u0120decline": 7794, "\u01201998": 7795, "\u0120pushing": 7796, "\u0120possession": 7797, "\u0120privile": 7798, "\u0120teachers": 7799, "\u0120yield": 7800, "HA": 7801, "\u0120Davis": 7802, "itled": 7803, "########": 7804, "\u0120rig": 7805, "\u0120Daniel": 7806, "acon": 7807, "\u0120hide": 7808, "uten": 7809, "\u0120colleagues": 7810, "\u0120principles": 7811, "\u0120loud": 7812, "\u0120sin": 7813, "\u0120Demon": 7814, "\u0120stone": 7815, "\u012002": 7816, "\u0120taught": 7817, "\u0120terrible": 7818, "\u0120stuck": 7819, "\u0120Policy": 7820, "teen": 7821, "\u0120implementation": 7822, "\u0120BBC": 7823, "\u0120API": 7824, "\u0120wheel": 7825, "allas": 7826, "\u0120champions": 7827, "olars": 7828, "player": 7829, "\u0120repeatedly": 7830, "\u0120Still": 7831, "\u0120likes": 7832, "asty": 7833, "ester": 7834, "\u0120Catholic": 7835, "RL": 7836, "\u0120bath": 7837, "\u0120noise": 7838, "title": 7839, "\u0120northern": 7840, "Part": 7841, "\u0120magn": 7842, "\u0120fab": 7843, "\u0120Ash": 7844, "\u0120displ": 7845, "\u0120ticket": 7846, "\u0120murd": 7847, "\u0120alongside": 7848, "\u0120Music": 7849, "\u0120river": 7850, "\u0120Steel": 7851, "\u0120CL": 7852, "\u0120Player": 7853, "\u0120Mult": 7854, "owing": 7855, "rep": 7856, "size": 7857, "\u0120tur": 7858, "\u0120Georgia": 7859, "iscal": 7860, "raction": 7861, "\u0120cable": 7862, "\u012059": 7863, "\u0120wins": 7864, "\u0120upcoming": 7865, "\u0120survive": 7866, "\u0120inspired": 7867, "\u0120Education": 7868, "\u0120statistics": 7869, "\u0120Foot": 7870, "iami": 7871, "\u0120yellow": 7872, "\u0120Page": 7873, ".-": 7874, "\u0120Has": 7875, "\u0120urban": 7876, "\u0120ax": 7877, "essel": 7878, "\\\"": 7879, "\u0120quarterback": 7880, "\u0120register": 7881, "\u0120Labor": 7882, "\u0120abilities": 7883, "\u0120Family": 7884, "\u0120variable": 7885, "\u0120Price": 7886, "\u0120contem": 7887, "\u0120thin": 7888, "\u0120Equ": 7889, "data": 7890, "\u0120gotten": 7891, "\u0120constit": 7892, "\u0120asks": 7893, "\u0120tail": 7894, "\u0120exciting": 7895, "\u0120Effect": 7896, "\u0120Spanish": 7897, "\u0120encourage": 7898, "inson": 7899, "\u0120Ah": 7900, "\u0120commitment": 7901, "CS": 7902, "\u0120rally": 7903, "\u0120::": 7904, "\u0120subsid": 7905, "\u0120spin": 7906, "\u0120captured": 7907, "2018": 7908, "\u0120innoc": 7909, "\u0120allegedly": 7910, "\u0120Come": 7911, "\u0120artists": 7912, "\u0120Number": 7913, "\u0120electronic": 7914, "\u0120regional": 7915, "apes": 7916, "\u0120wra": 7917, "\u0120myth": 7918, "prise": 7919, "\u0120Miller": 7920, "\u0120Creat": 7921, "\u0120Episode": 7922, "bell": 7923, "\u0120directed": 7924, "\u0120extract": 7925, "\u0120sorry": 7926, "\u0120vice": 7927, "agger": 7928, "\u0120Support": 7929, "\u012066": 7930, "\u0120Iron": 7931, "\u0120wonderful": 7932, "\u0120gra": 7933, "Net": 7934, "ione": 7935, "Eng": 7936, "\u0120ships": 7937, "ikes": 7938, "\u0120Kevin": 7939, "itar": 7940, "\u0120activists": 7941, "true": 7942, "\u0120Arizona": 7943, "enth": 7944, "\u0120Despite": 7945, "\u0120SE": 7946, "\u0120habit": 7947, "ernel": 7948, "\u0120inqu": 7949, "\u0120abortion": 7950, "\u0120void": 7951, "\u0120explicit": 7952, "\u0120engaged": 7953, "\u0120angry": 7954, "\u0120rating": 7955, "\u0120frag": 7956, "bro": 7957, "icking": 7958, "dev": 7959, "\u0120worried": 7960, "\u0120obser": 7961, "\u0120apartment": 7962, "\u0120GT": 7963, "\u0120estate": 7964, "\u0120Constitution": 7965, "emon": 7966, "\u0120Snow": 7967, "\u0120county": 7968, "\u0120disag": 7969, "\u0120Stephen": 7970, "\u0120immigrants": 7971, "wind": 7972, "\u0120Nations": 7973, "\u0120folks": 7974, "Out": 7975, "\u0120gall": 7976, "\u0120targeted": 7977, "\u0120stead": 7978, "\u0120Bon": 7979, "\u0120Lib": 7980, "\u0120informed": 7981, "\u0120120": 7982, "chain": 7983, "idelines": 7984, "orough": 7985, "\u0120driven": 7986, "\u0120regularly": 7987, "\u0120basket": 7988, "\u0120principle": 7989, "ocument": 7990, "\u0120stun": 7991, "ibilities": 7992, "\u0120Roman": 7993, "\u0120About": 7994, "\u0120alert": 7995, "\u0120democracy": 7996, "\u0120represented": 7997, "HS": 7998, "cers": 7999, "parent": 8000, "Art": 8001, "pack": 8002, "\u0120diplom": 8003, "rets": 8004, "\u0120NO": 8005, "\u0120capture": 8006, "\u0120Adv": 8007, "\u0126\u00a2": 8008, "\u0120announcement": 8009, "\u0120Lear": 8010, "\u0120hook": 8011, "\u0120purs": 8012, "\u0120Such": 8013, "\u0120Camer": 8014, "\u0120refugees": 8015, "\u0120Ve": 8016, "Pol": 8017, "\u0120recognized": 8018, "lib": 8019, "\u0120hadn": 8020, "Ass": 8021, "\u0120pilot": 8022, "ushing": 8023, "\u0120returning": 8024, "\u0120trail": 8025, "\u0120Stone": 8026, "\u0120routine": 8027, "\u0120courts": 8028, "\u0120desper": 8029, "\u0120friendly": 8030, "\u0120Italy": 8031, "\u0120pled": 8032, "\u0120breath": 8033, "\u0120studio": 8034, "NS": 8035, "\u0120impressive": 8036, "\u0120Afghanistan": 8037, "\u0120fing": 8038, "\u0120downt": 8039, "inking": 8040, "\u0120Rog": 8041, "iary": 8042, "color": 8043, "sex": 8044, "aron": 8045, "\u0120fault": 8046, "\u0120Nick": 8047, "Down": 8048, "\u0120Rose": 8049, "\u0120Southern": 8050, "XX": 8051, "isodes": 8052, "List": 8053, "600": 8054, "\u0120outcome": 8055, "err": 8056, "\u0120elsewhere": 8057, "\u0120retire": 8058, "\u0120pounds": 8059, "\u0120Global": 8060, "People": 8061, "\u0120communications": 8062, "\u0120loan": 8063, "\u0120ratio": 8064, "\u0120Empire": 8065, "\u0120gonna": 8066, "\u0120invent": 8067, "DF": 8068, "\u01201970": 8069, "\u0120Common": 8070, "pat": 8071, "\u0120promised": 8072, "\u0120dinner": 8073, "\u0120Hom": 8074, "\u0120creates": 8075, "\u0120operate": 8076, "verty": 8077, "\u0120Jordan": 8078, "etime": 8079, "\u0120sustain": 8080, "Reg": 8081, "\u0120incredible": 8082, "ima": 8083, "\u0120warrant": 8084, "\u0120mm": 8085, "Att": 8086, "\u0120lawsuit": 8087, "\u0120reviews": 8088, "iture": 8089, "\u0120Source": 8090, "lights": 8091, "\u0120Ford": 8092, "\u012063": 8093, "group": 8094, "store": 8095, "\u0120featured": 8096, "\u0120forever": 8097, "\u0120poverty": 8098, "\u0120Pop": 8099, "\u0120CNN": 8100, "azz": 8101, "abis": 8102, "aching": 8103, "\u0120laid": 8104, "\u0120Supp": 8105, "\u0120filter": 8106, "ena": 8107, "\u0120Community": 8108, "\u0120creatures": 8109, "uction": 8110, "\u0120Royal": 8111, "\u0120association": 8112, "\u0120Connect": 8113, "\u0120Brad": 8114, "\u00e2\u0138\u012a": 8115, "lers": 8116, "there": 8117, "\u0120Gi": 8118, "\u0120valuable": 8119, "ACK": 8120, "\u0120Taylor": 8121, "\u0120liquid": 8122, "\u0120Attorney": 8123, "\u0120Carl": 8124, "\u0120Final": 8125, "aga": 8126, "\u0120Wilson": 8127, "Because": 8128, "\u0120Professor": 8129, "aka": 8130, "\u0120incredibly": 8131, "rance": 8132, "!)": 8133, "Ref": 8134, "sk": 8135, "\u0120solutions": 8136, "\u0120atmosphere": 8137, "\u0120blame": 8138, "umes": 8139, "\u0120Nob": 8140, "CA": 8141, "umps": 8142, "rical": 8143, "\u0120Putin": 8144, "\u0120Dest": 8145, "oric": 8146, "\u0120PA": 8147, "\u0120respectively": 8148, "wan": 8149, "\u0120fifth": 8150, "\u00e2\u0126\u00a2": 8151, "\u0120Cry": 8152, "\u0120governor": 8153, "resident": 8154, "\u0120purchased": 8155, "\u0120hack": 8156, "\u0120intense": 8157, "obs": 8158, "\u0120origin": 8159, "\u0120define": 8160, "\u0120careful": 8161, "***": 8162, "\u0120shoulder": 8163, "Click": 8164, "\u0120tied": 8165, "\u0120destruction": 8166, "oured": 8167, "\u0120nobody": 8168, "\u0120ho": 8169, "\u0120Exper": 8170, "\u0120tip": 8171, "\";": 8172, "\u0120technique": 8173, "\u0120jur": 8174, "\u0120Pok": 8175, "bow": 8176, "\u0120legend": 8177, "\u0120accord": 8178, "\u0120busy": 8179, "\u0120Intel": 8180, "\u0120hang": 8181, "aki": 8182, ".]": 8183, "\u00e2\u0122\u0136\u00e2\u0122\u0136\u00e2\u0122\u0136\u00e2\u0122\u0136": 8184, "\u0120surgery": 8185, "\u0120reprodu": 8186, "\u0120uniform": 8187, "\u0120scenes": 8188, "code": 8189, "\u012062": 8190, "lisher": 8191, "\u0120Have": 8192, "phia": 8193, "\u0120crypt": 8194, "\u0120recon": 8195, "\u0120scream": 8196, "\u0120adopted": 8197, "\u0120scores": 8198, "Ne": 8199, "\u0120Italian": 8200, "including": 8201, "BO": 8202, "\u0120indicated": 8203, "\u0120entertain": 8204, "Gu": 8205, "Text": 8206, "iel": 8207, "\u0120twenty": 8208, "\u0120engage": 8209, "offs": 8210, "\u0120Pacific": 8211, "\u0120smile": 8212, "\u0120personnel": 8213, "\u0120toler": 8214, "\u0120doors": 8215, "\u0120tone": 8216, "\u0120machines": 8217, "\u0120entering": 8218, "tenance": 8219, "CO": 8220, "\u0120Jersey": 8221, "\u0120forest": 8222, "\u0120horse": 8223, "\u0120complaint": 8224, "\u0120Spring": 8225, "yo": 8226, "\u0120Plus": 8227, "eding": 8228, "\u0120Return": 8229, "quarters": 8230, "ials": 8231, "cow": 8232, "\u0120academic": 8233, "\u0120fruit": 8234, "\u01201996": 8235, "ogether": 8236, "\u0120wine": 8237, "\u0120pursu": 8238, "\u0120Steven": 8239, "\u0120licens": 8240, "Who": 8241, "\u0120clothes": 8242, "rection": 8243, "\u0120squad": 8244, "\u0120stable": 8245, "\u0120raw": 8246, "zens": 8247, "Star": 8248, "uties": 8249, "ancer": 8250, "\u0120keys": 8251, "\u0120Mu": 8252, "\u0120complicated": 8253, "iger": 8254, "\u0120Text": 8255, "\u0120absor": 8256, "\u012068": 8257, "\u0120funny": 8258, "\u0120relief": 8259, "\u0120Lew": 8260, "\u0120Cook": 8261, "\u0120chart": 8262, "\u0120drawing": 8263, "GE": 8264, "\u0120module": 8265, "\u0120Bull": 8266, "ILL": 8267, "\u0120salt": 8268, "00000000": 8269, "ille": 8270, "\u0120resource": 8271, "away": 8272, "adelphia": 8273, "\u0120Bru": 8274, "\u012067": 8275, "\u0120somebody": 8276, "\u0120participate": 8277, "\u0120rose": 8278, "wered": 8279, "\u0120muscle": 8280, "\u0120consent": 8281, "\u0120continuing": 8282, "\u0120Guardian": 8283, "\u0120Order": 8284, "regon": 8285, "\u0120rear": 8286, "\u0120provision": 8287, "\u0120liked": 8288, "rient": 8289, "\u0120bra": 8290, "Trans": 8291, "\u0120meetings": 8292, "\u0120tox": 8293, "\u0120convent": 8294, "\u0120auto": 8295, "\u0120recording": 8296, "\u0120Soft": 8297, "001": 8298, "\u0120Roll": 8299, "\u0120programming": 8300, "\u0120pic": 8301, "\u0120proved": 8302, "\u0120stab": 8303, "\u0120Ast": 8304, "\u0120caption": 8305, "ulating": 8306, "\u0120Attack": 8307, "\u0120newly": 8308, "\u01201997": 8309, "fr": 8310, "\u0120discipl": 8311, "\u0120Greek": 8312, "\u0120edition": 8313, "\u0120Does": 8314, "\u0120Box": 8315, "ifle": 8316, "acket": 8317, "\u0120passes": 8318, "\u0120guest": 8319, "\u0120acceler": 8320, "itals": 8321, "UD": 8322, "\u0120authent": 8323, "\u0120Rest": 8324, "oval": 8325, "ta": 8326, "uine": 8327, "\u0120armor": 8328, "\u0120Town": 8329, "\u0120compat": 8330, "\u0120inches": 8331, "Despite": 8332, "\u0120assign": 8333, "herent": 8334, "\u0120prepare": 8335, "\u0120Meg": 8336, "ockey": 8337, "\u0120depends": 8338, "\u0120tracks": 8339, "watch": 8340, "\u0120lists": 8341, "\u0120Northern": 8342, "\u0120alter": 8343, "rec": 8344, "\u0120Eastern": 8345, "\u0120condem": 8346, "\u0120everywhere": 8347, "?'": 8348, "\u0120affili": 8349, "\u0120fought": 8350, "\":{\"": 8351, "\u0120mac": 8352, "itarian": 8353, "\u0120scope": 8354, "\u0120AL": 8355, "aws": 8356, "arms": 8357, "\u0120que": 8358, "\u0120enjoyed": 8359, "nesota": 8360, "\u0120aggressive": 8361, "\u0120Story": 8362, "\u0120IV": 8363, "\u0120recipe": 8364, "\u0120rarely": 8365, "\u0120Medical": 8366, "value": 8367, "angel": 8368, "aying": 8369, "omething": 8370, "\u0120subsection": 8371, "\u0120southern": 8372, "\u0120frequency": 8373, "rete": 8374, "rolled": 8375, "ults": 8376, "\u0120Nic": 8377, "\u0120behalf": 8378, "\u0120sequence": 8379, "abet": 8380, "\u0120controversial": 8381, "\u0120comprom": 8382, "\u0120worker": 8383, "\u0120mainly": 8384, "\u0120algorith": 8385, "\u0120Major": 8386, "orce": 8387, "gender": 8388, "\u0120organized": 8389, "\u0120fake": 8390, "\u0120concluded": 8391, "\u0120ED": 8392, "\u0120Exec": 8393, "rage": 8394, "\u0120chances": 8395, "berry": 8396, "\u0120Trad": 8397, "\u0120configuration": 8398, "\u0120withdraw": 8399, "\u0120fro": 8400, "udes": 8401, "\u0120Brother": 8402, "\u0120Brian": 8403, "\u0120tries": 8404, "\u0120samples": 8405, "\u0120bid": 8406, "\u0120Golden": 8407, "\u0120photograph": 8408, "ifest": 8409, "\u0120DO": 8410, "\u0120Parliament": 8411, "****************": 8412, "Rem": 8413, "\u0120contest": 8414, "\u0120signing": 8415, "px": 8416, "\u0120Zeal": 8417, "\u00e2\u0136\u0122\u00e2\u0136\u0122": 8418, "Ear": 8419, "\u0120exit": 8420, "Before": 8421, "\u0120Corpor": 8422, "null": 8423, "month": 8424, "\u0120racial": 8425, "otted": 8426, "\u0120Veg": 8427, "\u0120Reuters": 8428, "\u0120sword": 8429, "pson": 8430, "\u0120Romney": 8431, "aed": 8432, "\u0120trib": 8433, "\u0120inner": 8434, "\u0120protocol": 8435, "\u0120Bi": 8436, "\u0120Miami": 8437, "everal": 8438, "press": 8439, "\u0120shipping": 8440, "\u0120Amendment": 8441, "\u0120Howard": 8442, "connect": 8443, "\u0120Disc": 8444, "\u0120Jac": 8445, "iamond": 8446, "\u0120Therefore": 8447, "ses": 8448, "\u0120Princess": 8449, "\u0120USB": 8450, "\u0120Anth": 8451, "\u0120surveillance": 8452, "\u0120apolog": 8453, "\u012061": 8454, "owa": 8455, "\u0120fulf": 8456, "js": 8457, "\u0120luck": 8458, "usted": 8459, "\u0120\u00c2\u00a7": 8460, "ni": 8461, "\u0120anticip": 8462, "eman": 8463, "\u0120winner": 8464, "\u0120silver": 8465, "lla": 8466, "icity": 8467, "\u0120unusual": 8468, "\u0120crack": 8469, "\u0120ties": 8470, "ez": 8471, "\u0120practical": 8472, "\u0120province": 8473, "\u0120Place": 8474, "\u0120priority": 8475, "ICE": 8476, "\u0120describes": 8477, "\u0120branch": 8478, "Form": 8479, "aska": 8480, "missions": 8481, "bi": 8482, "\u0120porn": 8483, "\u0120Turk": 8484, "\u0120enthus": 8485, "\u0120fighters": 8486, "\u012008": 8487, "\u0120Detroit": 8488, "\u0120foundation": 8489, "avid": 8490, "Are": 8491, "\u0120judgment": 8492, "cling": 8493, "\u0120solve": 8494, "\u0120Design": 8495, "Where": 8496, "hesis": 8497, "\u0120Tro": 8498, "after": 8499, "\u0120neutral": 8500, "\u0120Palestinian": 8501, "\u0120Hollywood": 8502, "\u0120advis": 8503, "\u0120Non": 8504, "yes": 8505, "olis": 8506, "\u0120reputation": 8507, "\u0120smell": 8508, "\u0120bread": 8509, "\u0120Bul": 8510, "\u0120Beach": 8511, "\u0120claiming": 8512, "\u0120genetic": 8513, "\u0120technologies": 8514, "\u0120upgrade": 8515, "rows": 8516, "\u0120developer": 8517, "\u0120Josh": 8518, "\u0120Disney": 8519, "erved": 8520, "ipal": 8521, "\u0120unex": 8522, "\u0120barely": 8523, "then": 8524, "\u0120Pub": 8525, "\u0120illness": 8526, "etary": 8527, "\u0120Bal": 8528, "\u0120patch": 8529, "\u0120butt": 8530, "\u0120stupid": 8531, "\u0120Dog": 8532, "\u0120Dallas": 8533, "front": 8534, "iece": 8535, "\u0120protests": 8536, "\u0120chat": 8537, "oenix": 8538, "\u0120wing": 8539, "\u0120parliament": 8540, "\u012077": 8541, "osexual": 8542, "\u0120render": 8543, "ptions": 8544, "\u0120Coast": 8545, "osa": 8546, "\u0120Greg": 8547, "hop": 8548, "\u0120Management": 8549, "\u0120bitcoin": 8550, "\u0120recover": 8551, "\u0120incorpor": 8552, "orne": 8553, "\u0120Using": 8554, "\u0120preced": 8555, "\u0120threatened": 8556, "\u0120spiritual": 8557, "\u0120Event": 8558, "\u0120Fred": 8559, "\u0120advertising": 8560, "\u0120improvements": 8561, "\u0120Custom": 8562, "\u0120errors": 8563, "\u0120sensitive": 8564, "\u0120Navy": 8565, "\u0120cream": 8566, "Look": 8567, "\u0120exclusive": 8568, "\u0120comprehens": 8569, "\u0120deleg": 8570, "\u0120conce": 8571, "\u0120remem": 8572, "\u0120structures": 8573, "\u0120stored": 8574, "ND": 8575, "\u01201000": 8576, "UP": 8577, "\u0120Budd": 8578, "AF": 8579, "woman": 8580, "\u0120Academy": 8581, "\u00f0\u0141": 8582, "sea": 8583, "\u0120temporary": 8584, "About": 8585, "esters": 8586, "\u0120tickets": 8587, "\u0120possess": 8588, "inch": 8589, "oz": 8590, "\u0120la": 8591, "\u0120contracts": 8592, "\u0120unp": 8593, "\u0120cig": 8594, "\u0120Kat": 8595, "ultural": 8596, "asm": 8597, "\u0120mountain": 8598, "\u0120Captain": 8599, "Step": 8600, "making": 8601, "\u0120Spain": 8602, "\u0120equally": 8603, "\u0120lands": 8604, "aters": 8605, "\u0120rejected": 8606, "era": 8607, "imm": 8608, "rix": 8609, "CD": 8610, "\u0120transaction": 8611, "gener": 8612, "lessly": 8613, "\u0120||": 8614, "\u0120cos": 8615, "\u0120Henry": 8616, "\u0120provisions": 8617, "\u0120gained": 8618, "\u0120directory": 8619, "\u0120raising": 8620, "\u0120Sep": 8621, "olen": 8622, "onder": 8623, "\u0120console": 8624, "inst": 8625, "\u0120bom": 8626, "\u0120uncertain": 8627, "150": 8628, "ocking": 8629, "\u0120measured": 8630, "\u0120plain": 8631, "\u0120seats": 8632, "\u0120dict": 8633, "SL": 8634, "afe": 8635, "\u0120estimate": 8636, "izon": 8637, "athered": 8638, "\u0120contributed": 8639, "\u0120episodes": 8640, "ommod": 8641, "Gr": 8642, "ANT": 8643, "\u012069": 8644, "Gener": 8645, "\u0120250": 8646, "viously": 8647, "rogen": 8648, "\u0120terrorism": 8649, "\u0120movements": 8650, "entle": 8651, "ounce": 8652, "\u0120Soul": 8653, "\u0120prev": 8654, "\u0120Table": 8655, "acts": 8656, "riors": 8657, "tab": 8658, "\u0120suffer": 8659, "\u0120nerv": 8660, "\u0120mainstream": 8661, "\u0120Wolf": 8662, "\u0120franchise": 8663, "bat": 8664, "\u0120demands": 8665, "\u0120agenda": 8666, "\u0120dozen": 8667, "\u0120clinical": 8668, "izard": 8669, "\u0120Op": 8670, "td": 8671, "\u0120visited": 8672, "\u0120Perhaps": 8673, "\u0120actor": 8674, "\u0120delic": 8675, "\u0120contribute": 8676, "\u0120inject": 8677, "\u0120Es": 8678, "acco": 8679, "\u0120listening": 8680, "\u0120congress": 8681, "ependent": 8682, "\u0120premium": 8683, "\u012076": 8684, "\u0120Irish": 8685, "\u0120assigned": 8686, "\u0120Phys": 8687, "\u0120worldwide": 8688, "\u0120narrative": 8689, "otype": 8690, "mont": 8691, "base": 8692, "\u0120Bowl": 8693, "\u0120Administration": 8694, "\u0120relation": 8695, "\u0120EV": 8696, "CP": 8697, "\u0120covers": 8698, "\u012078": 8699, "\u0120certific": 8700, "\u0120grass": 8701, "\u012004": 8702, "piracy": 8703, "ira": 8704, "\u0120engineering": 8705, "\u0120Mars": 8706, "\u0120unemploy": 8707, "\u0120Foreign": 8708, "stract": 8709, "\u0120ven": 8710, "\u0120steal": 8711, "\u0120replied": 8712, "\u0120ultimate": 8713, "\u0120titles": 8714, "dated": 8715, "\u0120joy": 8716, "aus": 8717, "\u0120hyper": 8718, "aku": 8719, "\u0120officially": 8720, "\u0120Product": 8721, "\u0120difficulty": 8722, "peror": 8723, "\u0120resulted": 8724, "ribed": 8725, "link": 8726, "who": 8727, "~~~~": 8728, "\u0120Speed": 8729, "\u0120Viet": 8730, "Wind": 8731, "\u0120Barack": 8732, "\u0120restrictions": 8733, "\u0120Share": 8734, "\u01201995": 8735, "itionally": 8736, "\u0120beauty": 8737, "opt": 8738, "\u0120maps": 8739, "\u0120CR": 8740, "\u0120Nation": 8741, "\u0120Cruz": 8742, "Will": 8743, "\u0120electricity": 8744, "\u0120org": 8745, "\u0120burd": 8746, "\u0120violation": 8747, "\u0120usage": 8748, "\u0120permit": 8749, "\u0120Chron": 8750, "\u0120Fant": 8751, "\u0120naturally": 8752, "\u012007": 8753, "\u0120thrown": 8754, "\u0120Awoken": 8755, "\u0120alien": 8756, "\u0120Hero": 8757, "\u0120Kent": 8758, "\u0120Rick": 8759, "rike": 8760, "\u0120pace": 8761, "},{\"": 8762, "GL": 8763, "\u0120poison": 8764, "\u0120Tower": 8765, "\u0120formal": 8766, "alysis": 8767, "\u0120genuine": 8768, "\u0120kil": 8769, "aver": 8770, "\u0120procedure": 8771, "\u0120Prop": 8772, "intendo": 8773, "\u0120Main": 8774, "asant": 8775, "\u0120trained": 8776, "Game": 8777, "\u0120Load": 8778, "\u0120MA": 8779, "\u0120crucial": 8780, "\u0120lets": 8781, "\u0120FR": 8782, "\u0120champion": 8783, "101": 8784, "\u0120Conference": 8785, "\u0120writers": 8786, "\u0120connections": 8787, "\u0120okay": 8788, "irms": 8789, "\u0120Rand": 8790, "\u0120encounter": 8791, "\u0120Buff": 8792, "\u0120achieved": 8793, "\u0120checks": 8794, "iscons": 8795, "\u0120assistant": 8796, "\u0120whenever": 8797, "\u0120Access": 8798, "\u0120Ur": 8799, "bin": 8800, "\u0120clock": 8801, "isp": 8802, "opher": 8803, "\u0120borrow": 8804, "\u0120mad": 8805, "\u0120personality": 8806, "only": 8807, "IST": 8808, "abama": 8809, "\u0120gains": 8810, "\u0120commonly": 8811, "\u0120terr": 8812, "\u0120hypot": 8813, "\u0120rely": 8814, "\u0120tiss": 8815, "isconsin": 8816, "\u0120ridic": 8817, "function": 8818, "\u0120Oregon": 8819, "\u0120uncom": 8820, "rating": 8821, "eland": 8822, "\u0120NC": 8823, "\u0120moon": 8824, "annon": 8825, "\u0120vulnerable": 8826, "utive": 8827, "\u00c2\u0142\u00c2\u0142\u00c2\u0142\u00c2\u0142": 8828, "\u0120Radio": 8829, "\u0120western": 8830, "sect": 8831, "\u0120Tony": 8832, "\u0120occurs": 8833, "\u0120Os": 8834, "\u0120Hon": 8835, "\u00c3\u0143": 8836, "\u0120vessel": 8837, "\u0120Scotland": 8838, "\u0120discrimination": 8839, "\u0120subsequent": 8840, "string": 8841, "\u0120fantasy": 8842, "\u0120Shadow": 8843, "\u0120testim": 8844, "WE": 8845, "iti": 8846, "ras": 8847, "\u0120boat": 8848, "\u0120marks": 8849, "\u0120ordinary": 8850, "\u0120ren": 8851, "\u0120representative": 8852, "\u0120petition": 8853, "\u012073": 8854, "\u0120adventure": 8855, "\u0120ignore": 8856, "\u0120Philadelphia": 8857, "\u0120Sav": 8858, "VP": 8859, "\u0120factory": 8860, "\u0120tasks": 8861, "\u0120depression": 8862, "zed": 8863, "................................": 8864, "\u0120Storm": 8865, "\u0120cogn": 8866, "\u0120eligible": 8867, "\u0120reducing": 8868, "via": 8869, "\u012005": 8870, "\u0120striking": 8871, "\u0120dollar": 8872, "ho": 8873, "OV": 8874, "\u0120instrument": 8875, "\u0120philosophy": 8876, "\u0120Moore": 8877, "\u0120Avenue": 8878, "\u0120ruled": 8879, "\u0120Front": 8880, "INE": 8881, "\u0120Mah": 8882, "\u0120scenario": 8883, "\u0120NASA": 8884, "\u0120enorm": 8885, "\u0120debut": 8886, "\u0120tea": 8887, "Today": 8888, "\u0120absence": 8889, "Sim": 8890, "\u0120ham": 8891, "leep": 8892, "\u0120tables": 8893, "\u0120Heart": 8894, "MI": 8895, "Ke": 8896, "requ": 8897, "VD": 8898, "map": 8899, "\u0120chairman": 8900, "\u0120pump": 8901, "\u0120rapidly": 8902, "vi": 8903, "\u0120substantial": 8904, "EP": 8905, "des": 8906, "chant": 8907, "ilipp": 8908, "\u0120Santa": 8909, "riers": 8910, "anchester": 8911, "Load": 8912, "\u0120Case": 8913, "\u0120saving": 8914, "\u012074": 8915, "\u0120AFP": 8916, "erning": 8917, "ounced": 8918, "\u0120Minnesota": 8919, "\u0120Was": 8920, "\u0120recru": 8921, "\u0120assessment": 8922, "\u0120Bron": 8923, "UE": 8924, "\u0120dynamic": 8925, "\u0120furn": 8926, "ulator": 8927, "\u0120propag": 8928, "high": 8929, "\u0120accommod": 8930, "\u0120stack": 8931, "\u0120Sus": 8932, "writ": 8933, "\u0120reven": 8934, "\u0120Godd": 8935, "\u0120Zealand": 8936, "abs": 8937, "\u0120brut": 8938, "\u0120perpet": 8939, "hot": 8940, "\u0120hardly": 8941, "\u0120Burn": 8942, "\u00e3\u0124\u00b9": 8943, "\u0120sty": 8944, "\u0120transactions": 8945, "\u0120gate": 8946, "\u0120screens": 8947, "\u0120submitted": 8948, "\u0120101": 8949, "\u0120languages": 8950, "ught": 8951, "emen": 8952, "\u0120falls": 8953, "\u0120coc": 8954, "\u0124\u00ac": 8955, "\u0120strikes": 8956, "pa": 8957, "\u0120deliber": 8958, "\u0120IM": 8959, "\u0120relax": 8960, "annels": 8961, "\u0120Senator": 8962, "\u0120extrem": 8963, "\u0120},": 8964, "\u0120Deb": 8965, "\u0120bell": 8966, "\u0120disorder": 8967, "cut": 8968, "\u0120iOS": 8969, "\u0120locked": 8970, "\u0120emissions": 8971, "\u0120shortly": 8972, "\"]": 8973, "\u0120Judge": 8974, "\u0120Sometimes": 8975, "\u0120rival": 8976, "\u0120dust": 8977, "\u0120reaching": 8978, "File": 8979, "\u00c2\u00af\u00c2\u00af\u00c2\u00af\u00c2\u00af": 8980, "inois": 8981, "\u0120Jason": 8982, "\u0120satell": 8983, "aret": 8984, "\u0120stations": 8985, "\u0120agric": 8986, "\u0120Technology": 8987, "comes": 8988, "\u0120Unfortunately": 8989, "\u0120Children": 8990, "\u0120applies": 8991, "asted": 8992, "\u0120anger": 8993, "ailability": 8994, "\u0120Damage": 8995, "\u0120compare": 8996, "\u0120Standard": 8997, "\u0120aimed": 8998, "\u0120Ba": 8999, "anguage": 9000, "\u0120regulation": 9001, "\u0120jury": 9002, "\u0120airport": 9003, "\u0120sections": 9004, "\u0120Prince": 9005, "emed": 9006, "\u0120medicine": 9007, "\u0120hitting": 9008, "\u0120spark": 9009, "olves": 9010, "\u0120ads": 9011, "State": 9012, "\u0120foods": 9013, "\u0120replacement": 9014, "\u0120chicken": 9015, "\u0120lowest": 9016, "\u0120minds": 9017, "\u0120involves": 9018, "ui": 9019, "\u0120arrang": 9020, "\u0120procedures": 9021, "\u0120Which": 9022, "iversary": 9023, "\u0120bills": 9024, "\u0120improvement": 9025, "\u0120inev": 9026, "\u0120expectations": 9027, "\u0120intellectual": 9028, "\u0120spaces": 9029, "\u0120mechanism": 9030, "250": 9031, "break": 9032, "\u0120Ze": 9033, "\u0120Tenn": 9034, "\u0120Balt": 9035, "\u0120barrel": 9036, "\u0120static": 9037, "mann": 9038, "Police": 9039, "\u0120tips": 9040, "\u0120handling": 9041, "cus": 9042, "oded": 9043, "ilton": 9044, "iry": 9045, "\u0120journalists": 9046, "ourse": 9047, "\u0120comic": 9048, "\u0120nomine": 9049, "ITY": 9050, "\u0120versus": 9051, "\u0120loop": 9052, "\u0120surf": 9053, "\u0120Indust": 9054, "\u0120Hunter": 9055, "\u0120beliefs": 9056, "isan": 9057, "\u0120setup": 9058, "\u0120brew": 9059, "image": 9060, "\u0120computers": 9061, "fol": 9062, "},\"": 9063, "\u0120Medal": 9064, "\u0120taxp": 9065, "\u0120displayed": 9066, "\u0120grav": 9067, "\u0120fiscal": 9068, "Mon": 9069, "\u0120Moscow": 9070, "\u0120Kong": 9071, "\u0120Centre": 9072, "\u0120cameras": 9073, "\u0120Mrs": 9074, "\u0120Hay": 9075, "\u0120aver": 9076, "\u0120Kelly": 9077, "py": 9078, "\u0120requirement": 9079, "\u0120entitled": 9080, "ombie": 9081, "\u0120shadow": 9082, "agic": 9083, "\u0120Ak": 9084, "\u0120elite": 9085, "\u0120divided": 9086, "\u0120heading": 9087, "\u0120copies": 9088, "\u0120losses": 9089, "\u0120vit": 9090, "ked": 9091, "\u0120Bry": 9092, "\u0120ans": 9093, "\u0120Steam": 9094, "\u0120reporter": 9095, "heim": 9096, "\u0120Item": 9097, "\u0120superior": 9098, "don": 9099, "erent": 9100, "\u00c3\u00b6": 9101, "\u0120therapy": 9102, "\u0120peak": 9103, "\u0120Model": 9104, "\u0120lying": 9105, "\u0120gam": 9106, "zer": 9107, "ritten": 9108, "\u0120responses": 9109, "\u0120consideration": 9110, "\u0120Bible": 9111, "\u0120loyal": 9112, "\u0120instant": 9113, "\u0120pm": 9114, "\u0120Forest": 9115, "\u00c3\u00bc": 9116, "\u0120extend": 9117, "\u0120convicted": 9118, "\u0120founder": 9119, "\u0120convin": 9120, "\u0120Oak": 9121, "check": 9122, "\u0120scholars": 9123, "ped": 9124, "\u0120overse": 9125, "Top": 9126, "count": 9127, "\u0120Ark": 9128, "\u00c2\u00b7": 9129, "\u012006": 9130, "\u0120LA": 9131, "md": 9132, "\u0120Latin": 9133, "imental": 9134, "\u0120CPU": 9135, "\u0120substance": 9136, "\u0120minority": 9137, "\u0120manufacturing": 9138, "Er": 9139, "ocolate": 9140, "\u0120attended": 9141, "\u0120Manager": 9142, "rations": 9143, "\u0120appreciate": 9144, "omy": 9145, "GBT": 9146, "idency": 9147, "BL": 9148, "\u0120guarantee": 9149, "position": 9150, "\u0120ocean": 9151, "clude": 9152, "\u0120headed": 9153, "\u0120tape": 9154, "\u0120loose": 9155, "\u0120logic": 9156, "\u0120proven": 9157, "\u0120spir": 9158, "\u0120admit": 9159, "isa": 9160, "\u0120investigate": 9161, "\u01201994": 9162, "sylv": 9163, "\u0120Lost": 9164, "cest": 9165, "\u012071": 9166, "\u0120requested": 9167, "\u0120windows": 9168, "\u0120Pok\u00c3\u00a9": 9169, "\u0120Without": 9170, "Met": 9171, "\u0120behaviour": 9172, "\u0120reader": 9173, "\u0120hung": 9174, "\u0120Keep": 9175, "\u0120roles": 9176, "\u0120implemented": 9177, "\u0120blank": 9178, "\u0120serves": 9179, "\u0120Jay": 9180, "\u0120cited": 9181, "\u0120Friend": 9182, "profit": 9183, "apon": 9184, "\u0120repair": 9185, "item": 9186, "arrass": 9187, "\u0120critics": 9188, "adi": 9189, "\u0120Father": 9190, "\u0120shout": 9191, "\u0120fool": 9192, "\u012088": 9193, "\u0120producing": 9194, "\u0120lib": 9195, "\u0120rounds": 9196, "\u0120circle": 9197, "\u0120prepar": 9198, "\u0120submit": 9199, "\u0120nic": 9200, "morrow": 9201, "\u00e3\u0125\u00ab": 9202, "Under": 9203, "\u0120vital": 9204, "atern": 9205, "\u0120password": 9206, "\u0120publication": 9207, "\u0120prominent": 9208, "\u0120speaks": 9209, "\u0120bars": 9210, "\u0120deeper": 9211, "\u0120Mill": 9212, "ported": 9213, "\u0120wid": 9214, "\u0120butter": 9215, "\u0120smoking": 9216, "\u0120indicates": 9217, "Key": 9218, "ropri": 9219, "\u0120File": 9220, "alling": 9221, "asting": 9222, "\u0120Rus": 9223, "\u0120adj": 9224, "\u012079": 9225, "aval": 9226, "\u0120presum": 9227, "burgh": 9228, "onic": 9229, "\u0120fur": 9230, "\u0120polls": 9231, "ika": 9232, "\u0120secondary": 9233, "\u0120monster": 9234, "igs": 9235, "\u0120Current": 9236, "Event": 9237, "\u0120ownership": 9238, "endar": 9239, "\u0120arrive": 9240, "\u0120Tax": 9241, "\u0120null": 9242, "\u0120Priv": 9243, "\u0120thro": 9244, "\u0120kiss": 9245, "cat": 9246, "\u0120upset": 9247, "angle": 9248, "itches": 9249, "ector": 9250, "ologists": 9251, "\u0120Galaxy": 9252, "\u0120corruption": 9253, "\u0120hint": 9254, "enter": 9255, "\u0120Hospital": 9256, "\u0120greatly": 9257, "\u0120begun": 9258, "esy": 9259, "\u0120soil": 9260, "\u0120Anton": 9261, "\u0120maintenance": 9262, "\u00e3\u0125\u00a9": 9263, "\u0120dozens": 9264, "\u0120humanity": 9265, "\u0120Alabama": 9266, "\u0120rom": 9267, "worth": 9268, "aping": 9269, "sylvania": 9270, "lah": 9271, "\u0120gathered": 9272, "GA": 9273, "\u0120attacking": 9274, "found": 9275, "\u0120Square": 9276, "\u0120arbit": 9277, "ictions": 9278, "\u0120Wisconsin": 9279, "\u0120dance": 9280, "\u0120Saint": 9281, "archy": 9282, "\u0120baseball": 9283, "\u0120contributions": 9284, "\u0120literature": 9285, "\u0120exha": 9286, "perty": 9287, "test": 9288, "\u0120bab": 9289, "\u0120container": 9290, "letter": 9291, "\u0120fallen": 9292, "\u0120websites": 9293, "\u0120bottle": 9294, "\u0120Sac": 9295, "\u0120breast": 9296, "\u0120PL": 9297, "\u0120veteran": 9298, "\u0120interviews": 9299, "\u0120Ale": 9300, "\u0120banned": 9301, "engers": 9302, "\u0120Revolution": 9303, "inth": 9304, "\u0120concerning": 9305, "IVE": 9306, "\u0120expenses": 9307, "\u0120Matthew": 9308, "\u0120Columbia": 9309, "ds": 9310, "istance": 9311, "\u0120entity": 9312, "...\"": 9313, "\u0120reliable": 9314, "\u0120paralle": 9315, "\u0120Christians": 9316, "\u0120opinions": 9317, "\u0120indu": 9318, "low": 9319, "\u0120compete": 9320, "\u0120thorough": 9321, "\u0120employed": 9322, "\u0120establishment": 9323, "igen": 9324, "\u0120Cro": 9325, "\u0120lawyers": 9326, "\u0120Station": 9327, "TE": 9328, "\u0120Lind": 9329, "\u0120Pur": 9330, "itary": 9331, "\u0120efficiency": 9332, "\u00e2\u0122\u0132": 9333, "\u0120Ly": 9334, "\u0120mask": 9335, "\u0120disaster": 9336, "\u0120ages": 9337, "ERE": 9338, "esis": 9339, "\u0120Hold": 9340, "\u0120casual": 9341, "bled": 9342, "\u0120enabled": 9343, "\u0120Environment": 9344, "\u0120Intelligence": 9345, "iper": 9346, "\u0120Map": 9347, "\u0120BE": 9348, "\u0120emerged": 9349, "isdom": 9350, "\u0120cabin": 9351, "\u0120registration": 9352, "\u0120fingers": 9353, "\u0120roster": 9354, "\u0120framework": 9355, "\u0120Doctor": 9356, "etts": 9357, "\u0120transportation": 9358, "\u0120awareness": 9359, "Her": 9360, "\u0120attempting": 9361, "Off": 9362, "\u0120Store": 9363, "\u00c3\u0125\u00c3\u0124\u00c3\u0125\u00c3\u0124\u00c3\u0125\u00c3\u0124\u00c3\u0125\u00c3\u0124": 9364, "\u0120Know": 9365, "\u0120defence": 9366, "\u0120scan": 9367, "\u0120Ten": 9368, "\u0120Chair": 9369, "\u0120PH": 9370, "\u0120Atlanta": 9371, "\u0120fucking": 9372, "\u0120answered": 9373, "bn": 9374, "\u0120Kar": 9375, "\u0120categories": 9376, "\u0120rational": 9377, "\u0120cust": 9378, "\u0120robot": 9379, "\u0120correctly": 9380, "\u0120gif": 9381, "\u0120graphics": 9382, "mic": 9383, "\u0120grounds": 9384, "\u0120Opp": 9385, "iate": 9386, "\u0120distributed": 9387, "\u0120sanctions": 9388, "\u0120challenging": 9389, "uto": 9390, "\u0120ingredients": 9391, "\u0120invited": 9392, "\u0120founded": 9393, "\u0120Requ": 9394, "ded": 9395, "\u0120bowl": 9396, "\u0120brothers": 9397, "\u0120Ha": 9398, "IO": 9399, "\u0120wages": 9400, "imore": 9401, "ocial": 9402, "\u0120seed": 9403, "atively": 9404, "\u0120addresses": 9405, "\u0120Iowa": 9406, "abeth": 9407, "\u0120attitude": 9408, "isd": 9409, "child": 9410, "\u0120mole": 9411, "\u0120discovery": 9412, "yard": 9413, "Br": 9414, "\u012082": 9415, "\u0120supplies": 9416, "elling": 9417, "\u0120distingu": 9418, "CR": 9419, "\u0120recept": 9420, "\u0120vert": 9421, "\u0120swim": 9422, "bec": 9423, "door": 9424, "\u0120Yeah": 9425, "\u0120gal": 9426, "\u0120interact": 9427, "\u0120ESP": 9428, "\u0120CS": 9429, "amps": 9430, "\u0120convinced": 9431, "\u0120objective": 9432, "\u0120dish": 9433, "\u0120Photos": 9434, "lad": 9435, "\u0120downtown": 9436, "oil": 9437, "inction": 9438, "\u0120tomorrow": 9439, "\u0120COM": 9440, "\u0120survival": 9441, "shot": 9442, "\u0120settlement": 9443, "Cons": 9444, "\u0120Xbox": 9445, "interest": 9446, "\u0120SM": 9447, "argo": 9448, "eness": 9449, "\u0120ethnic": 9450, "bered": 9451, "Min": 9452, "\u0120Tok": 9453, "\u0120incent": 9454, "\u0120Command": 9455, "\u0120maintained": 9456, "\u0120breaks": 9457, "bridge": 9458, "atar": 9459, "agg": 9460, "\u0120Finally": 9461, "unicip": 9462, "\u0120Ont": 9463, "left": 9464, "\u0120recognition": 9465, "\u0120*/": 9466, "\u0120Pers": 9467, "\u0120welf": 9468, "\u0120addressed": 9469, "\u0120Kansas": 9470, "\u0120virus": 9471, "\u0120whereas": 9472, "\u0120papers": 9473, "rams": 9474, "\u0120Ministry": 9475, "\u0120pleasure": 9476, "\u0120acquired": 9477, "\u0120duration": 9478, "jpg": 9479, "\u0120calm": 9480, "\u0120NHL": 9481, "\u0120burning": 9482, "\u0120folder": 9483, "icked": 9484, "\u0120Py": 9485, "\u0120Illinois": 9486, "Class": 9487, "\u0120Goddess": 9488, "\u0120performing": 9489, "\u0120welfare": 9490, "jar": 9491, "Inter": 9492, "\u0120lin": 9493, "\u0120enhance": 9494, "\u0120notion": 9495, "fare": 9496, "ypes": 9497, "\u0120Area": 9498, "\u0120cannabis": 9499, "\u0120Diego": 9500, "fs": 9501, "\u0120Manchester": 9502, "comm": 9503, "inite": 9504, "\u0120covering": 9505, "\u0120Sound": 9506, "\u01201960": 9507, "\u012084": 9508, "elect": 9509, "zing": 9510, "\u0120citizen": 9511, "\u0120phones": 9512, "\u0120raid": 9513, "\u0120ignored": 9514, "\u0120Object": 9515, "\u0120upload": 9516, "card": 9517, "\u0120modified": 9518, "\u0120rooms": 9519, "iah": 9520, "range": 9521, "heast": 9522, "achus": 9523, "\u0120suggesting": 9524, "\u00e2\u0122\u012d": 9525, "grade": 9526, "El": 9527, "\u0120clothing": 9528, "\u0120rh": 9529, "\u0120Han": 9530, "unity": 9531, "encing": 9532, "\u0120Austin": 9533, "secution": 9534, "tra": 9535, "dem": 9536, "\u0120Qual": 9537, "\u0120heaven": 9538, "\u0120stages": 9539, "\u0120wedd": 9540, "plus": 9541, "ificial": 9542, "\u0120Imm": 9543, "\u0120Ho": 9544, "ieties": 9545, "\u0120phrase": 9546, "\u0120brill": 9547, "actory": 9548, "\u0120providers": 9549, "\u0120silence": 9550, "\u0120aer": 9551, "\u0120AI": 9552, "\u0120Adventure": 9553, "\u0120platforms": 9554, "\u0120demonstrated": 9555, "\u0120interf": 9556, "ington": 9557, "\u0120races": 9558, "\u0120grade": 9559, "ultane": 9560, "\u0120Through": 9561, "false": 9562, "\u0120bow": 9563, "\u0120AB": 9564, "\u0120flavor": 9565, "\u0120historic": 9566, "gov": 9567, "\u0120colour": 9568, "\u0120viewed": 9569, "\u0120Email": 9570, "elcome": 9571, "\u0120intervention": 9572, "\u0120diversity": 9573, "\u0120periods": 9574, "\u0120reverse": 9575, "\u0120Very": 9576, "\u0120quote": 9577, "\u0120Left": 9578, "through": 9579, "\u0120screw": 9580, "\u0120landing": 9581, "\u0120pill": 9582, "\u0120wet": 9583, "\u0120protesters": 9584, "\u0120repeat": 9585, "aved": 9586, "erk": 9587, "\u0120salary": 9588, "\u0120Pennsylvania": 9589, "Still": 9590, "\u0120mayor": 9591, "\u0120kitchen": 9592, "\u0120featuring": 9593, "\u0120Museum": 9594, "\u0120Tournament": 9595, "\u0120Fal": 9596, "\u0120servers": 9597, "UC": 9598, "\u0120anybody": 9599, "img": 9600, "\u0120Trade": 9601, "ixture": 9602, "theless": 9603, "\u0120finance": 9604, "\u0120closing": 9605, "\u0120Patri": 9606, "iac": 9607, "abel": 9608, "\u0120>>": 9609, "orous": 9610, "\u0120firms": 9611, "screen": 9612, "una": 9613, "\u0120embarrass": 9614, "ulse": 9615, "\u0120letting": 9616, "\u0120threw": 9617, "iley": 9618, "\u0120channels": 9619, "lan": 9620, "\u0120Vegas": 9621, "\u0120sear": 9622, "\u0120fantastic": 9623, "arre": 9624, "uzzle": 9625, "\u0120Der": 9626, "Those": 9627, "\u0120swing": 9628, "\u0120sheet": 9629, "index": 9630, "cover": 9631, "ogan": 9632, "\u0120variables": 9633, "\u0120Tech": 9634, "\u0120spoken": 9635, "achel": 9636, "\u0120Da": 9637, "\u0120Mountain": 9638, "\u0120loaded": 9639, "\u0120footage": 9640, "version": 9641, "\u0120unl": 9642, "\u0120Phoenix": 9643, "\u0120throwing": 9644, "\u0120firing": 9645, "\u0120tracking": 9646, "\u0120width": 9647, "\u0120struggling": 9648, "rooms": 9649, "otion": 9650, "\u0120monthly": 9651, "\u0120Server": 9652, "\u0120eggs": 9653, "open": 9654, "MC": 9655, "\u01201993": 9656, "\u0120hired": 9657, "\u0120stayed": 9658, "\u0120Allen": 9659, "\u0120stro": 9660, "\u012098": 9661, "step": 9662, "\u0120Turkish": 9663, "\u0120fabric": 9664, "isting": 9665, "\u0120Dom": 9666, "\u0120dates": 9667, "\u0120pron": 9668, "\u0120basketball": 9669, "\u0120lucky": 9670, "\u0120Arabia": 9671, "\u0120assumed": 9672, "esty": 9673, "\u0120affairs": 9674, "\u0120glad": 9675, "\u0120Indeed": 9676, "\u0120FA": 9677, "\u0120Word": 9678, "\u0120joining": 9679, "ifice": 9680, "pread": 9681, "irts": 9682, "\u0120Select": 9683, "\u0120populations": 9684, "aware": 9685, "\u0120nose": 9686, "\u0120complaints": 9687, "start": 9688, "\u0120scoring": 9689, "Thanks": 9690, "\u0120mining": 9691, "\u0120visitors": 9692, "SH": 9693, "\u0120damaged": 9694, "\u0120characteristics": 9695, "\u0120Pent": 9696, "DC": 9697, "\u012083": 9698, "\u0120Six": 9699, "rates": 9700, "\u0120flags": 9701, "\u0120Brew": 9702, "dog": 9703, "Mark": 9704, "////": 9705, "\u0120execution": 9706, "\u0120joke": 9707, "phones": 9708, "\u0120testimony": 9709, "\u0120obst": 9710, "QL": 9711, "\u0120Cut": 9712, "\u0120studied": 9713, "\u0120Nintendo": 9714, "icket": 9715, "\u0120NBC": 9716, "\u0120lad": 9717, "\u0120Bra": 9718, "\u0120Moh": 9719, "\u0120kernel": 9720, "\u0120overwhelming": 9721, "\u0120aged": 9722, "\u0120applicable": 9723, "\u0120Cond": 9724, "\u0120roads": 9725, "\u0120Block": 9726, "made": 9727, "odge": 9728, "\u0120commands": 9729, "\u0120offices": 9730, "veland": 9731, "\u0120tut": 9732, "\u0120receiver": 9733, "\u0120Fro": 9734, "\u0120shopping": 9735, "\u0120iP": 9736, "\u0120Stre": 9737, "\u0120ABC": 9738, "\u0120entertainment": 9739, "\u0120Bow": 9740, "orted": 9741, "Mc": 9742, "\u0120reads": 9743, "grad": 9744, "\u0120Collect": 9745, "\u0120\u00e2\u012a\u0134": 9746, "\u0120Capital": 9747, "ederation": 9748, "\u0120employer": 9749, "\u0120involvement": 9750, "\u0120anxiety": 9751, "alia": 9752, "\u0120roof": 9753, "\u0120Among": 9754, "\u0120Democrat": 9755, "\u0120stats": 9756, "\u0120Vill": 9757, "\u0120constitutional": 9758, "\u0120referring": 9759, "itty": 9760, "\u0120tackle": 9761, "outube": 9762, "\u0120backed": 9763, "\u0120Hong": 9764, "\u0120Broad": 9765, "\u0120ele": 9766, "\u0120Ott": 9767, "\u01201992": 9768, "hour": 9769, "achusetts": 9770, "Cal": 9771, "\u0120defeated": 9772, "\u012081": 9773, "esp": 9774, "\u0120seemingly": 9775, "was": 9776, "\u0120Jenn": 9777, "\u0120Kurd": 9778, "\u0120gene": 9779, "\u0120discount": 9780, "Ret": 9781, "ECT": 9782, "();": 9783, "\u0120clubs": 9784, "\u0120sid": 9785, "\u0120Marsh": 9786, "Check": 9787, "\u0120pp": 9788, "\u0120Eag": 9789, "idespread": 9790, "\u0120beings": 9791, "FT": 9792, "\u0120introduction": 9793, "\u0120Change": 9794, "ARD": 9795, "\u0120110": 9796, "adows": 9797, "ierce": 9798, "\u0120meal": 9799, "author": 9800, "\u0120Bang": 9801, "lahoma": 9802, "\u0120ranks": 9803, "2011": 9804, "????": 9805, "max": 9806, "\u0120collapse": 9807, "\u0120opens": 9808, "\u0120echo": 9809, "\u0120soph": 9810, "\u0120racist": 9811, "\u0120enormous": 9812, "\u0120waves": 9813, "\u0120tap": 9814, "\u0120comprehensive": 9815, ".--": 9816, "\u0120Roy": 9817, "\u0120farmers": 9818, "Related": 9819, "aired": 9820, "rones": 9821, "\u0120Crim": 9822, "\u0120proportion": 9823, "\u0120designs": 9824, "\u0120negotiations": 9825, "\u0120virtually": 9826, "\u0120Batman": 9827, "\u0120warn": 9828, "\u0120legitimate": 9829, "mate": 9830, "\u0120convention": 9831, ",,": 9832, "netic": 9833, "\u0120SD": 9834, "\u0120consistently": 9835, "\u0120compensation": 9836, "\u0120punishment": 9837, "\u0120ye": 9838, "\u0120tie": 9839, "\u0120Bureau": 9840, "irlf": 9841, "\u0120Bu": 9842, "\u0120Aren": 9843, "\u0120Philipp": 9844, "\u0120knife": 9845, "\u0120memories": 9846, "\u0120Ross": 9847, "\u0120angle": 9848, "\u012086": 9849, "\u0120Thunder": 9850, "\u0120rend": 9851, "\u0120Tour": 9852, "\u0120counts": 9853, "sung": 9854, "\u0120Imp": 9855, "\u0120educational": 9856, "\u0120accessible": 9857, "COM": 9858, "\u0120drew": 9859, "yer": 9860, "Gl": 9861, "amine": 9862, "ORT": 9863, "OB": 9864, "IB": 9865, "master": 9866, "\u0120trials": 9867, "ogy": 9868, "har": 9869, "\u0120Trust": 9870, "\u0120preferred": 9871, "irlfriend": 9872, "\u0120Nev": 9873, "\u0120bin": 9874, "\u0120cow": 9875, "Page": 9876, "\u0120signature": 9877, "\u0120BL": 9878, "700": 9879, "\u0120retired": 9880, "\u0120bytes": 9881, "\u0120neighb": 9882, "\u0120Legend": 9883, "\u0120devast": 9884, "\u0120suspected": 9885, "isons": 9886, "\u0120Pok\u00c3\u00a9mon": 9887, "scale": 9888, "\u0120capabilities": 9889, "\u0120revel": 9890, "\u0120cheese": 9891, "dy": 9892, "igrant": 9893, "\u0120failing": 9894, "bits": 9895, "\u0120Heroes": 9896, "\u0120Ghost": 9897, "\u0120Scient": 9898, "\u0120appointed": 9899, "uri": 9900, "\u0120institution": 9901, "\u0120expanded": 9902, "greg": 9903, "\u0120monitoring": 9904, "\u0120podcast": 9905, "\u0120coalition": 9906, "\u012096": 9907, "Jo": 9908, "\u0120stolen": 9909, "\u0120Sab": 9910, "\u0120stops": 9911, "\u0120holiday": 9912, "\u0120intr": 9913, "Car": 9914, "Black": 9915, "\u0120LGBT": 9916, "\u0120warming": 9917, "\u0120Anderson": 9918, "\u012089": 9919, "\u0120producer": 9920, "Med": 9921, "\u0120accuracy": 9922, "\u0120Marvel": 9923, "izabeth": 9924, "\u0120Patrick": 9925, "mony": 9926, "\u0120mini": 9927, "acles": 9928, "\u0120overt": 9929, "they": 9930, "\u0120membership": 9931, "\u0120Ven": 9932, "\u0120exch": 9933, "\u0120removal": 9934, "\u0120Dave": 9935, "TY": 9936, "mad": 9937, "\u0120Find": 9938, "\u0120adequ": 9939, "\u0120ec": 9940, "\u0120teeth": 9941, "\u0120emotion": 9942, "\u0120perm": 9943, "\u0120solely": 9944, "db": 9945, "\u0120extraord": 9946, "IGHT": 9947, "cal": 9948, "\u0120guidelines": 9949, "\u0120dying": 9950, "\u0120suspended": 9951, "\u0120Premier": 9952, "\u0120Anthony": 9953, "elve": 9954, "\u0120dad": 9955, "\u0120Eth": 9956, "\u0120Football": 9957, "\u0120abandoned": 9958, "\u0120<<": 9959, "\u0120march": 9960, "\u0120horror": 9961, "\u00e2\u0122\u00a6\"": 9962, "\u0120childhood": 9963, "\u0120campaigns": 9964, "\u0120lunch": 9965, "\u0120Albert": 9966, "block": 9967, "\u00e2\u0138\u012a\u00e2\u0138\u012a": 9968, "ounding": 9969, "\u0120bone": 9970, "organ": 9971, "aders": 9972, "\u0120Flash": 9973, "\u0120Drive": 9974, "\u0120tonight": 9975, "\u0120wars": 9976, "\u0120FL": 9977, "\u0120formation": 9978, "const": 9979, "News": 9980, "\u0120compe": 9981, "orious": 9982, "\u0120Staff": 9983, "\u0120discussions": 9984, "\u0120Protection": 9985, "\u0120Jam": 9986, "\u0120criteria": 9987, "\u0120installation": 9988, "\u0120accomplish": 9989, "izza": 9990, "\u0120publisher": 9991, "\u0120rescue": 9992, "\u0120Try": 9993, "ULL": 9994, "\u0120Som": 9995, "\u0120Hop": 9996, "oret": 9997, "ths": 9998, "ordon": 9999, "\u0120pocket": 10000, "\u0120Inv": 10001, "Download": 10002, "\u0120Crime": 10003, "\u0120bene": 10004, "\u0120Guide": 10005, "\u0120Assembly": 10006, "\u0120parameters": 10007, "IE": 10008, "\u0120Alexander": 10009, "\u0120concert": 10010, "\u0120Sche": 10011, "\u0120shoes": 10012, "\u0120visiting": 10013, "\u0120recall": 10014, "\u0120bub": 10015, "\u0120rural": 10016, "\u0120concrete": 10017, "\u0120Ros": 10018, "Next": 10019, "Russ": 10020, "\u0120loans": 10021, "\u0120Shield": 10022, "\u0120trem": 10023, "hemat": 10024, "kg": 10025, "\u0120Harris": 10026, "isition": 10027, "\u0120Move": 10028, "\u0120FC": 10029, "\u0120fate": 10030, "\u0120Cho": 10031, "\u0120tired": 10032, "\u0120principal": 10033, "hist": 10034, "iences": 10035, "athy": 10036, "\u0120sevent": 10037, "\u0120mood": 10038, "\u0120strategic": 10039, "\u0120diseases": 10040, "\u0120forum": 10041, "\u0120tempor": 10042, "\u0120headquarters": 10043, "Par": 10044, "ige": 10045, "flix": 10046, "\u0120guitar": 10047, "\u012094": 10048, "Only": 10049, "\u0120releases": 10050, "roph": 10051, "================================": 10052, "\u0120600": 10053, "\u0120Continue": 10054, "igate": 10055, "\u0120Crit": 10056, "system": 10057, "\u0120disabled": 10058, "\u0120unexpected": 10059, "ithub": 10060, "\u0120unclear": 10061, "\u0120Est": 10062, "\u0120contrad": 10063, "\u0120strategies": 10064, "ventures": 10065, "\u0120passage": 10066, "AME": 10067, "\u0120improving": 10068, "\u0120reveals": 10069, "\u0120decrease": 10070, "ova": 10071, "\u0120annoy": 10072, "\u0120Short": 10073, "\u0120Library": 10074, "\u0120cyber": 10075, "nell": 10076, "\u0120Hur": 10077, "\u0120CB": 10078, "\u0120photograp": 10079, "UI": 10080, "\u0120sed": 10081, "Ge": 10082, "\u012087": 10083, "\u0120diverse": 10084, "\u0120encouraged": 10085, "\u0120conspiracy": 10086, "\u0120birds": 10087, "\u0120operator": 10088, "\u0120handful": 10089, "\u0120classified": 10090, "?)": 10091, "\u0120dramatic": 10092, "\u0120investigators": 10093, "ito": 10094, "\u0120widespread": 10095, "\u0120Room": 10096, "----------------------------------------------------------------": 10097, "\u0120collective": 10098, "\u0120journalist": 10099, "String": 10100, "\u0120temperatures": 10101, "ila": 10102, "\u0120guid": 10103, "\u0120inspect": 10104, "\u0120missile": 10105, "\u0120Mayor": 10106, "\u0120manual": 10107, "\u0120simultane": 10108, "\u0120ratings": 10109, "\u0120suck": 10110, "\u012097": 10111, "\u0120universal": 10112, "\u0120pharm": 10113, "\u0120disrupt": 10114, "iano": 10115, "AV": 10116, "\u0120ft": 10117, "\u0120statist": 10118, "olds": 10119, "\u0120Walker": 10120, "php": 10121, "\u0120undert": 10122, "\u0120Las": 10123, "ishop": 10124, "ntil": 10125, "reshold": 10126, "\u0120Whether": 10127, "Ms": 10128, "\u0120deny": 10129, "\u0120Cloud": 10130, "\u0120provider": 10131, "\u0120surviv": 10132, "\u0120Update": 10133, "has": 10134, "\u0120mistakes": 10135, "charge": 10136, "pled": 10137, "rity": 10138, "\u0120node": 10139, "\u0120Massachusetts": 10140, "ools": 10141, "lication": 10142, "\u0120fails": 10143, "emale": 10144, "ori": 10145, "backs": 10146, "\u0120shirt": 10147, "\u0120''": 10148, "\u0120NAT": 10149, "\u0120waters": 10150, "elson": 10151, "\u0120ease": 10152, "\u0120scar": 10153, "\u0120contents": 10154, "mind": 10155, "\u0120contribution": 10156, "\u0120shr": 10157, "\u0120handed": 10158, "\u0120stability": 10159, "\u0120trave": 10160, "Em": 10161, "\u0120mirror": 10162, "123": 10163, "\u0120weigh": 10164, "\u0120fiction": 10165, "ouver": 10166, "istant": 10167, "rition": 10168, "\u0120Fed": 10169, "\u0120physically": 10170, "\u0120stake": 10171, "\u0120Article": 10172, "\u0120Arc": 10173, "\u0120Lewis": 10174, "\u0120Mind": 10175, "\u0120demonstrate": 10176, "\u0120profits": 10177, "vision": 10178, "omic": 10179, "olid": 10180, "\u0120battles": 10181, "\u0120drives": 10182, "\u0120eastern": 10183, "\u0120Sony": 10184, "!!!": 10185, "aration": 10186, "vard": 10187, "\u0120GL": 10188, "portation": 10189, "\u012092": 10190, "\u0120lawmakers": 10191, "\u0120protecting": 10192, "\u0120EPA": 10193, "\u0120yeah": 10194, "\u0120shame": 10195, "olph": 10196, "even": 10197, "xit": 10198, "\u0120attach": 10199, "\u0120representing": 10200, "\u0120obs": 10201, "\u0120Utah": 10202, "iffs": 10203, "\u0120Freedom": 10204, "\u00c3\u00b3": 10205, "AK": 10206, "\u0120incidents": 10207, "itage": 10208, "\u0120viewers": 10209, "cd": 10210, "\u0120mouse": 10211, "\u0120clar": 10212, "\u0120accordance": 10213, "\u0120bot": 10214, "cor": 10215, "\u0120Summer": 10216, "held": 10217, "\u0120innocent": 10218, "\u0120initiative": 10219, "ols": 10220, "________________________________": 10221, "\u0120spots": 10222, "pace": 10223, "\u0120conventional": 10224, "\u0120corporations": 10225, "\u0120blocked": 10226, "HD": 10227, "attered": 10228, "\u0120refers": 10229, "\u0120buck": 10230, "\u0120Digital": 10231, "120": 10232, "\u0120topics": 10233, "TF": 10234, "\u00c4\u0123": 10235, "brid": 10236, "reement": 10237, "\u0120underlying": 10238, "\u0120Member": 10239, "\u0120investigating": 10240, "\u0120pregnancy": 10241, "\u0120touchdown": 10242, "\u0120Band": 10243, "\u0120Caller": 10244, "\u0120instances": 10245, "PP": 10246, "wa": 10247, "Good": 10248, "\u01201991": 10249, "\u0120Cold": 10250, "\u0120fears": 10251, "\u0120remarks": 10252, "\u0128\u0134": 10253, "atal": 10254, "\u0120mit": 10255, "\u0120experiments": 10256, "ipt": 10257, "Color": 10258, "indu": 10259, "Update": 10260, "\u012093": 10261, "Ag": 10262, "\u0120\u00e5": 10263, "ancouver": 10264, "Both": 10265, "\u0120judges": 10266, "Object": 10267, "\u0120stere": 10268, "umbn": 10269, "\u0120participation": 10270, "\u0120Stars": 10271, "\u0120Jere": 10272, "\u0120weekly": 10273, "\u0120Ban": 10274, "\u0120conversations": 10275, "\u0120Pitt": 10276, "uz": 10277, "\u0120Indiana": 10278, "\u0120Kick": 10279, "\u0120infection": 10280, "\u0120heroes": 10281, "\u0120settled": 10282, "\u0120strip": 10283, "\u0120hal": 10284, "\u0120dump": 10285, "\u0120Sci": 10286, "\u0120les": 10287, "\u0120references": 10288, "\u0120URL": 10289, "\u0120Bridge": 10290, "\u0120wanting": 10291, "Force": 10292, "\u0120exclus": 10293, "Meanwhile": 10294, "mn": 10295, "\u0120gentle": 10296, "maker": 10297, "senal": 10298, "\u0120Gro": 10299, "ouri": 10300, "\u0120Rain": 10301, "\u0120Alliance": 10302, "\u0120lift": 10303, "ela": 10304, "SD": 10305, "\u0120Cleveland": 10306, "\u0120ranked": 10307, "\u0120stadium": 10308, "\u0120deadly": 10309, "\u00e4\u00b8": 10310, "\u0120riding": 10311, "aria": 10312, "\u0120Armor": 10313, "\u0120documentation": 10314, "\u0120Greece": 10315, "reek": 10316, "\u0120lens": 10317, "\u0120Sa": 10318, "\u0120gross": 10319, "\u0120Emer": 10320, "agers": 10321, "\u0120Dub": 10322, "\u0120Rh": 10323, "\u0120AMD": 10324, "\u0120arrival": 10325, "\u0120desert": 10326, "\u0120supplement": 10327, "\u0120Resp": 10328, "\u0120knee": 10329, "\u0120margin": 10330, "font": 10331, "ogg": 10332, "2010": 10333, "\u0120Pir": 10334, "\u0120Prom": 10335, "ivals": 10336, "\u0120intake": 10337, "\u0120differently": 10338, "ugs": 10339, "\u0120bits": 10340, "cluded": 10341, "\u0120searching": 10342, "\u0120Du": 10343, "umble": 10344, "\u0120functional": 10345, "\u0120Baltimore": 10346, "\u0120Could": 10347, "\u0120desired": 10348, "\u0120circuit": 10349, "\u0120Lyn": 10350, "\u0120GO": 10351, "\u0120False": 10352, "repre": 10353, "':": 10354, "alties": 10355, "\u0120minim": 10356, "\u0120drove": 10357, "\u0120Should": 10358, "\u0120hip": 10359, "\u0120pros": 10360, "\u0120utility": 10361, "\u0120Nature": 10362, "\u0120Mode": 10363, "President": 10364, "opp": 10365, "rat": 10366, "formance": 10367, "\u0120concentration": 10368, "\u0120font": 10369, "\u0120Bud": 10370, "\u0120amid": 10371, "\u0120revers": 10372, "\u0120ML": 10373, "Bar": 10374, "\u0120interaction": 10375, "\u0120jurisd": 10376, "\u0120spells": 10377, "dep": 10378, "fil": 10379, "\u0120civilians": 10380, "utter": 10381, "\u0120Cooper": 10382, "\u0120Below": 10383, "\u0120entrance": 10384, "\u0120convert": 10385, "\u0120controversy": 10386, "owered": 10387, "\u0120contrary": 10388, "\u0120arc": 10389, "\u0120Executive": 10390, "\u0120Officer": 10391, "\u0120packages": 10392, "\u0120progressive": 10393, "width": 10394, "\u0120reserved": 10395, "vol": 10396, "\u0120Samsung": 10397, "\u0120printed": 10398, "\u0120centers": 10399, "\u0120introduce": 10400, "\u0120Kennedy": 10401, "\u0120odds": 10402, "\u0120surely": 10403, "\u0120independence": 10404, "\u0120passengers": 10405, "reprene": 10406, "\u0120Beh": 10407, "\u0120loves": 10408, "\u0120ESPN": 10409, "\u0120facilit": 10410, "\u0120identical": 10411, "\u0120doct": 10412, "\u0120partnership": 10413, "conf": 10414, "\u0120Hide": 10415, "\u0120confused": 10416, "\u0120Cow": 10417, "Men": 10418, "\u0120wrest": 10419, "\u0120Iraqi": 10420, "\u0120holes": 10421, "\u0120Studies": 10422, "\u0120pregnant": 10423, "hard": 10424, "\u0120signals": 10425, "IX": 10426, "\u0120pulling": 10427, "\u0120graduate": 10428, "\u0120nominee": 10429, "Date": 10430, "\u0120permitted": 10431, "\u0120\u00e2\u0124\u00ac": 10432, "\u0120Oklahoma": 10433, "Start": 10434, "\u0120authorized": 10435, "\u0120alarm": 10436, "\u0120Cos": 10437, "van": 10438, "\u0120generations": 10439, "cular": 10440, "\u0120dragon": 10441, "\u0120Software": 10442, "\u0120Edward": 10443, "\u0120controller": 10444, "Sen": 10445, "gered": 10446, "\u0120Vik": 10447, "\u0120approached": 10448, "Thank": 10449, "\u0120cance": 10450, "\u0120formula": 10451, "\u0120Small": 10452, "\u0120weakness": 10453, "\u0120ramp": 10454, "itudes": 10455, "jud": 10456, "\u0120brilliant": 10457, "\u0120accus": 10458, "source": 10459, "\u0120800": 10460, "\u0120Evil": 10461, "Sw": 10462, "\u0120homeless": 10463, "week": 10464, "iens": 10465, "rics": 10466, "\u0120Third": 10467, "TO": 10468, "\u0120organic": 10469, "\u0120presentation": 10470, "agh": 10471, "\u0120Download": 10472, "vation": 10473, "\u0120assembly": 10474, "orable": 10475, "holders": 10476, "\u0120Bernie": 10477, "\u0120Help": 10478, "\u0120tong": 10479, "\u0120Fight": 10480, "\u0120beach": 10481, "Book": 10482, "\u0120Lic": 10483, "\u0120rush": 10484, "\u0120Round": 10485, "oup": 10486, "\u0120Marx": 10487, "\u0120calculated": 10488, "\u0120Devil": 10489, "\u0120Sarah": 10490, "\u0120occasionally": 10491, "\u0120bullet": 10492, "Available": 10493, "gate": 10494, "\u012091": 10495, "\u0120hosp": 10496, "\u0120promises": 10497, "\u0120HIV": 10498, "\u0120Stadium": 10499, "\u0120Stock": 10500, "\u0120Corporation": 10501, "gage": 10502, "NG": 10503, "\u0120Credit": 10504, "\u0120sne": 10505, "ibl": 10506, "\u0120accum": 10507, "such": 10508, "\u0120terrorists": 10509, "\u0120consciousness": 10510, "\u0120Zh": 10511, "\u0120drama": 10512, "oola": 10513, "piration": 10514, "\u0120labour": 10515, "\u0120Nin": 10516, "\u0120utter": 10517, "\u0120democratic": 10518, "\u0120assass": 10519, "ilation": 10520, "\u0120gest": 10521, "\u0120abroad": 10522, "\u0120metab": 10523, "\u0120sorts": 10524, "\u0120flav": 10525, "UB": 10526, "\u0120mg": 10527, "\u0120Nothing": 10528, "\u0120Od": 10529, "\u0120musical": 10530, "2009": 10531, "\u0120drops": 10532, "ocated": 10533, "ateral": 10534, "000000": 10535, "\u0120gre": 10536, "\u0120equality": 10537, "\u0120burden": 10538, "\u0120vig": 10539, "\u0120Leader": 10540, "------------": 10541, "\u0120ceremony": 10542, "\u0120fighter": 10543, "\u0120actors": 10544, "\u0120\u00e6": 10545, "aman": 10546, "Fi": 10547, "\u0120align": 10548, "puter": 10549, "\u0120elder": 10550, "\u0120NSA": 10551, "\u0120representation": 10552, "\u0120Ontario": 10553, "ITH": 10554, "usalem": 10555, "\u0120harassment": 10556, "itzer": 10557, "\u0120symp": 10558, "\u0120boxes": 10559, "\u0120DR": 10560, "\u0120manifest": 10561, "atre": 10562, "\u0120^": 10563, "\u0120dies": 10564, "leton": 10565, "\u0120missions": 10566, "ethe": 10567, "\u0120resolve": 10568, "\u0120followers": 10569, "\u0120asc": 10570, "\u0120km": 10571, "lord": 10572, "ammed": 10573, "\u0120silent": 10574, "\u0120Associated": 10575, "\u0120timing": 10576, "\u0120prisoners": 10577, "\u0120Kings": 10578, "\u0120Five": 10579, "\u0120tower": 10580, "\u0120approaches": 10581, "\u0120precisely": 10582, "\u0120bureau": 10583, "\u0120Mother": 10584, "\u0120Iss": 10585, "\u0120keyboard": 10586, "itual": 10587, "\u0120funded": 10588, "\u0120staying": 10589, "\u0120psychological": 10590, "\u0120mile": 10591, "\u0120Leon": 10592, "\u0120Barb": 10593, "will": 10594, "\u0120wider": 10595, "\u0120Atlantic": 10596, "\u0120till": 10597, "\u0120Rome": 10598, "rot": 10599, "\u0120accompan": 10600, "\u0120flour": 10601, "aco": 10602, "World": 10603, "\u0120Express": 10604, "\u0120Yu": 10605, "Cor": 10606, "\u0120pleased": 10607, "party": 10608, "\u0120pointing": 10609, "\u0120inflation": 10610, "\u0120roy": 10611, "\u0120),": 10612, "ainer": 10613, "\u0120wedding": 10614, "ormon": 10615, "\u0120requiring": 10616, "\u0120qualified": 10617, "\u0120segment": 10618, "END": 10619, "\u0120sizes": 10620, "eals": 10621, "\u0120corrupt": 10622, "assador": 10623, "\u0120celeb": 10624, "\u0120dreams": 10625, "\u0120Mess": 10626, "\u0120checking": 10627, "\u0120Version": 10628, "\u0120preparing": 10629, "\u0120actively": 10630, "\u0120Diff": 10631, "\u0120lux": 10632, "\u0120Winter": 10633, "acteria": 10634, "\u0120NE": 10635, "\u0120deputy": 10636, "\u0120transgender": 10637, "\u0120summary": 10638, "\u0120inher": 10639, "eries": 10640, "char": 10641, "\u0120Yan": 10642,
[...]
