{"!": 0, "\"": 1, "#": 2, "$": 3, "%": 4, "&": 5, "'": 6, "(": 7, ")": 8, "*": 9, "+": 10, ",": 11, "-": 12, ".": 13, "/": 14, "0": 15, "1": 16, "2": 17, "3": 18, "4": 19, "5": 20, "6": 21, "7": 22, "8": 23, "9": 24, ":": 25, ";": 26, "<": 27, "=": 28, ">": 29, "?": 30, "@": 31, "A": 32, "B": 33, "C": 34, "D": 35, "E": 36, "F": 37, "G": 38, "H": 39, "I": 40, "J": 41, "K": 42, "L": 43, "M": 44, "N": 45, "O": 46, "P": 47, "Q": 48, "R": 49, "S": 50, "T": 51, "U": 52, "V": 53, "W": 54, "X": 55, "Y": 56, "Z": 57, "[": 58, "\\": 59, "]": 60, "^": 61, "_": 62, "`": 63, "a": 64, "b": 65, "c": 66, "d": 67, "e": 68, "f": 69, "g": 70, "h": 71, "i": 72, "j": 73, "k": 74, "l": 75, "m": 76, "n": 77, "o": 78, "p": 79, "q": 80, "r": 81, "s": 82, "t": 83, "u": 84, "v": 85, "w": 86, "x": 87, "y": 88, "z": 89, "{": 90, "|": 91, "}": 92, "~": 93, "\u00a1": 94, "\u00a2": 95, "\u00a3": 96, "\u00a4": 97, "\u00a5": 98, "\u00a6": 99, "\u00a7": 100, "\u00a8": 101, "\u00a9": 102, "\u00aa": 103, "\u00ab": 104, "\u00ac": 105, "\u00ae": 106, "\u00af": 107, "\u00b0": 108, "\u00b1": 109, "\u00b2": 110, "\u00b3": 111, "\u00b4": 112, "\u00b5": 113, "\u00b6": 114, "\u00b7": 115, "\u00b8": 116, "\u00b9": 117, "\u00ba": 118, "\u00bb": 119, "\u00bc": 120, "\u00bd": 121, "\u00be": 122, "\u00bf": 123, "\u00c0": 124, "\u00c1": 125, "\u00c2": 126, "\u00c3": 127, "\u00c4": 128, "\u00c5": 129, "\u00c6": 130, "\u00c7": 131, "\u00c8": 132, "\u00c9": 133, "\u00ca": 134, "\u00cb": 135, "\u00cc": 136, "\u00cd": 137, "\u00ce": 138, "\u00cf": 139, "\u00d0": 140, "\u00d1": 141, "\u00d2": 142, "\u00d3": 143, "\u00d4": 144, "\u00d5": 145, "\u00d6": 146, "\u00d7": 147, "\u00d8": 148, "\u00d9": 149, "\u00da": 150, "\u00db": 151, "\u00dc": 152, "\u00dd": 153, "\u00de": 154, "\u00df": 155, "\u00e0": 156, "\u00e1": 157, "\u00e2": 158, "\u00e3": 159, "\u00e4": 160, "\u00e5": 161, "\u00e6": 162, "\u00e7": 163, "\u00e8": 164, "\u00e9": 165, "\u00ea": 166, "\u00eb": 167, "\u00ec": 168, "\u00ed": 169, "\u00ee": 170, "\u00ef": 171, "\u00f0": 172, "\u00f1": 173, "\u00f2": 174, "\u00f3": 175, "\u00f4": 176, "\u00f5": 177, "\u00f6": 178, "\u00f7": 179, "\u00f8": 180, "\u00f9": 181, "\u00fa": 182, "\u00fb": 183, "\u00fc": 184, "\u00fd": 185, "\u00fe": 186, "\u00ff": 187, "\u0100": 188, "\u0101": 189, "\u0102": 190, "\u0103": 191, "\u0104": 192, "\u0105": 193, "\u0106": 194, "\u0107": 195, "\u0108": 196, "\u0109": 197, "\u010a": 198, "\u010b": 199, "\u010c": 200, "\u010d": 201, "\u010e": 202, "\u010f": 203, "\u0110": 204, "\u0111": 205, "\u0112": 206, "\u0113": 207, "\u0114": 208, "\u0115": 209, "\u0116": 210, "\u0117": 211, "\u0118": 212, "\u0119": 213, "\u011a": 214, "\u011b": 215, "\u011c": 216, "\u011d": 217, "\u011e": 218, "\u011f": 219, "\u0120": 220, "\u0121": 221, "\u0122": 222, "\u0123": 223, "\u0124": 224, "\u0125": 225, "\u0126": 226, "\u0127": 227, "\u0128": 228, "\u0129": 229, "\u012a": 230, "\u012b": 231, "\u012c": 232, "\u012d": 233, "\u012e": 234, "\u012f": 235, "\u0130": 236, "\u0131": 237, "\u0132": 238, "\u0133": 239, "\u0134": 240, "\u0135": 241, "\u0136": 242, "\u0137": 243, "\u0138": 244, "\u0139": 245, "\u013a": 246, "\u013b": 247, "\u013c": 248, "\u013d": 249, "\u013e": 250, "\u013f": 251, "\u0140": 252, "\u0141": 253, "\u0142": 254, "\u0143": 255, "\u0120t": 256, "\u0120a": 257, "he": 258, "in": 259, "re": 260, "on": 261, "\u0120the": 262, "er": 263, "\u0120s": 264, "at": 265, "\u0120w": 266, "\u0120o": 267, "en": 268, "\u0120c": 269, "it": 270, "is": 271, "an": 272, "or": 273, "es": 274, "\u0120b": 275, "ed": 276, "\u0120f": 277, "ing": 278, "\u0120p": 279, "ou": 280, "\u0120an": 281, "al": 282, "ar": 283, "\u0120to": 284, "\u0120m": 285, "\u0120of": 286, "\u0120in": 287, "\u0120d": 288, "\u0120h": 289, "\u0120and": 290, "ic": 291, "as": 292, "le": 293, "\u0120th": 294, "ion": 295, "om": 296, "ll": 297, "ent": 298, "\u0120n": 299, "\u0120l": 300, "st": 301, "\u0120re": 302, "ve": 303, "\u0120e": 304, "ro": 305, "ly": 306, "\u0120be": 307, "\u0120g": 308, "\u0120T": 309, "ct": 310, "\u0120S": 311, "id": 312, "ot": 313, "\u0120I": 314, "ut": 315, "et": 316, "\u0120A": 317, "\u0120is": 318, "\u0120on": 319, "im": 320, "am": 321, "ow": 322, "ay": 323, "ad": 324, "se": 325, "\u0120that": 326, "\u0120C": 327, "ig": 328, "\u0120for": 329, "ac": 330, "\u0120y": 331, "ver": 332, "ur": 333, "\u0120u": 334, "ld": 335, "\u0120st": 336, "\u0120M": 337, "'s": 338, "\u0120he": 339, "\u0120it": 340, "ation": 341, "ith": 342, "ir": 343, "ce": 344, "\u0120you": 345, "il": 346, "\u0120B": 347, "\u0120wh": 348, "ol": 349, "\u0120P": 350, "\u0120with": 351, "\u01201": 352, "ter": 353, "ch": 354, "\u0120as": 355, "\u0120we": 356, "\u0120(": 357, "nd": 358, "ill": 359, "\u0120D": 360, "if": 361, "\u01202": 362, "ag": 363, "ers": 364, "ke": 365, "\u0120\"": 366, "\u0120H": 367, "em": 368, "\u0120con": 369, "\u0120W": 370, "\u0120R": 371, "her": 372, "\u0120was": 373, "\u0120r": 374, "od": 375, "\u0120F": 376, "ul": 377, "ate": 378, "\u0120at": 379, "ri": 380, "pp": 381, "ore": 382, "\u0120The": 383, "\u0120se": 384, "us": 385, "\u0120pro": 386, "\u0120ha": 387, "um": 388, "\u0120are": 389, "\u0120de": 390, "ain": 391, "and": 392, "\u0120or": 393, "igh": 394, "est": 395, "ist": 396, "ab": 397, "rom": 398, "\u0120N": 399, "th": 400, "\u0120com": 401, "\u0120G": 402, "un": 403, "op": 404, "00": 405, "\u0120L": 406, "\u0120not": 407, "ess": 408, "\u0120ex": 409, "\u0120v": 410, "res": 411, "\u0120E": 412, "ew": 413, "ity": 414, "ant": 415, "\u0120by": 416, "el": 417, "os": 418, "ort": 419, "oc": 420, "qu": 421, "\u0120from": 422, "\u0120have": 423, "\u0120su": 424, "ive": 425, "ould": 426, "\u0120sh": 427, "\u0120this": 428, "nt": 429, "ra": 430, "pe": 431, "ight": 432, "art": 433, "ment": 434, "\u0120al": 435, "ust": 436, "end": 437, "--": 438, "all": 439, "\u0120O": 440, "ack": 441, "\u0120ch": 442, "\u0120le": 443, "ies": 444, "red": 445, "ard": 446, "\u00e2\u0122": 447, "out": 448, "\u0120J": 449, "\u0120ab": 450, "ear": 451, "iv": 452, "ally": 453, "our": 454, "ost": 455, "gh": 456, "pt": 457, "\u0120pl": 458, "ast": 459, "\u0120can": 460, "ak": 461, "ome": 462, "ud": 463, "The": 464, "\u0120his": 465, "\u0120do": 466, "\u0120go": 467, "\u0120has": 468, "ge": 469, "'t": 470, "\u0120U": 471, "rou": 472, "\u0120sa": 473, "\u0120j": 474, "\u0120but": 475, "\u0120wor": 476, "\u0120all": 477, "ect": 478, "\u0120k": 479, "ame": 480, "\u0120will": 481, "ok": 482, "\u0120whe": 483, "\u0120they": 484, "ide": 485, "01": 486, "ff": 487, "ich": 488, "pl": 489, "ther": 490, "\u0120tr": 491, "..": 492, "\u0120int": 493, "ie": 494, "ure": 495, "age": 496, "\u0120ne": 497, "ial": 498, "ap": 499, "ine": 500, "ice": 501, "\u0120me": 502, "\u0120out": 503, "ans": 504, "one": 505, "ong": 506, "ions": 507, "\u0120who": 508, "\u0120K": 509, "\u0120up": 510, "\u0120their": 511, "\u0120ad": 512, "\u01203": 513, "\u0120us": 514, "ated": 515, "ous": 516, "\u0120more": 517, "ue": 518, "og": 519, "\u0120St": 520, "ind": 521, "ike": 522, "\u0120so": 523, "ime": 524, "per": 525, ".\"": 526, "ber": 527, "iz": 528, "act": 529, "\u0120one": 530, "\u0120said": 531, "\u0120-": 532, "are": 533, "\u0120your": 534, "cc": 535, "\u0120Th": 536, "\u0120cl": 537, "ep": 538, "ake": 539, "able": 540, "ip": 541, "\u0120cont": 542, "\u0120which": 543, "ia": 544, "\u0120im": 545, "\u0120about": 546, "\u0120were": 547, "very": 548, "ub": 549, "\u0120had": 550, "\u0120en": 551, "\u0120comp": 552, ",\"": 553, "\u0120In": 554, "\u0120un": 555, "\u0120ag": 556, "ire": 557, "ace": 558, "au": 559, "ary": 560, "\u0120would": 561, "ass": 562, "ry": 563, "\u0120\u00e2\u0122": 564, "cl": 565, "ook": 566, "ere": 567, "so": 568, "\u0120V": 569, "ign": 570, "ib": 571, "\u0120off": 572, "\u0120te": 573, "ven": 574, "\u0120Y": 575, "ile": 576, "ose": 577, "ite": 578, "orm": 579, "\u0120201": 580, "\u0120res": 581, "\u0120man": 582, "\u0120per": 583, "\u0120other": 584, "ord": 585, "ult": 586, "\u0120been": 587, "\u0120like": 588, "ase": 589, "ance": 590, "ks": 591, "ays": 592, "own": 593, "ence": 594, "\u0120dis": 595, "ction": 596, "\u0120any": 597, "\u0120app": 598, "\u0120sp": 599, "int": 600, "ress": 601, "ations": 602, "ail": 603, "\u01204": 604, "ical": 605, "\u0120them": 606, "\u0120her": 607, "ount": 608, "\u0120Ch": 609, "\u0120ar": 610, "\u0120if": 611, "\u0120there": 612, "\u0120pe": 613, "\u0120year": 614, "av": 615, "\u0120my": 616, "\u0120some": 617, "\u0120when": 618, "ough": 619, "ach": 620, "\u0120than": 621, "ru": 622, "ond": 623, "ick": 624, "\u0120over": 625, "vel": 626, "\u0120qu": 627, "\u010a\u010a": 628, "\u0120sc": 629, "reat": 630, "ree": 631, "\u0120It": 632, "ound": 633, "port": 634, "\u0120also": 635, "\u0120part": 636, "fter": 637, "\u0120kn": 638, "\u0120bec": 639, "\u0120time": 640, "ens": 641, "\u01205": 642, "ople": 643, "\u0120what": 644, "\u0120no": 645, "du": 646, "mer": 647, "ang": 648, "\u0120new": 649, "----": 650, "\u0120get": 651, "ory": 652, "ition": 653, "ings": 654, "\u0120just": 655, "\u0120into": 656, "\u01200": 657, "ents": 658, "ove": 659, "te": 660, "\u0120people": 661, "\u0120pre": 662, "\u0120its": 663, "\u0120rec": 664, "\u0120tw": 665, "ian": 666, "irst": 667, "ark": 668, "ors": 669, "\u0120work": 670, "ade": 671, "ob": 672, "\u0120she": 673, "\u0120our": 674, "wn": 675, "ink": 676, "lic": 677, "\u012019": 678, "\u0120He": 679, "ish": 680, "nder": 681, "ause": 682, "\u0120him": 683, "ons": 684, "\u0120[": 685, "\u0120ro": 686, "form": 687, "ild": 688, "ates": 689, "vers": 690, "\u0120only": 691, "oll": 692, "\u0120spe": 693, "ck": 694, "ell": 695, "amp": 696, "\u0120acc": 697, "\u0120bl": 698, "ious": 699, "urn": 700, "ft": 701, "ood": 702, "\u0120how": 703, "hed": 704, "\u0120'": 705, "\u0120after": 706, "aw": 707, "\u0120att": 708, "ov": 709, "ne": 710, "\u0120play": 711, "erv": 712, "ict": 713, "\u0120could": 714, "itt": 715, "\u0120am": 716, "\u0120first": 717, "\u01206": 718, "\u0120act": 719, "\u0120$": 720, "ec": 721, "hing": 722, "ual": 723, "ull": 724, "\u0120comm": 725, "oy": 726, "old": 727, "ces": 728, "ater": 729, "\u0120fe": 730, "\u0120bet": 731, "we": 732, "iff": 733, "\u0120two": 734, "ock": 735, "\u0120back": 736, ").": 737, "ident": 738, "\u0120under": 739, "rough": 740, "sel": 741, "xt": 742, "\u0120may": 743, "round": 744, "\u0120po": 745, "ph": 746, "iss": 747, "\u0120des": 748, "\u0120most": 749, "\u0120did": 750, "\u0120add": 751, "ject": 752, "\u0120inc": 753, "fore": 754, "\u0120pol": 755, "ont": 756, "\u0120again": 757, "clud": 758, "tern": 759, "\u0120know": 760, "\u0120need": 761, "\u0120cons": 762, "\u0120co": 763, "\u0120.": 764, "\u0120want": 765, "\u0120see": 766, "\u01207": 767, "ning": 768, "iew": 769, "\u0120This": 770, "ced": 771, "\u0120even": 772, "\u0120ind": 773, "ty": 774, "\u0120We": 775, "ath": 776, "\u0120these": 777, "\u0120pr": 778, "\u0120use": 779, "\u0120because": 780, "\u0120fl": 781, "ng": 782, "\u0120now": 783, "\u0120\u00e2\u0122\u0135": 784, "com": 785, "ise": 786, "\u0120make": 787, "\u0120then": 788, "ower": 789, "\u0120every": 790, "\u0120Un": 791, "\u0120sec": 792, "oss": 793, "uch": 794, "\u0120em": 795, "\u0120=": 796, "\u0120Re": 797, "ied": 798, "rit": 799, "\u0120inv": 800, "lect": 801, "\u0120supp": 802, "ating": 803, "\u0120look": 804, "man": 805, "pect": 806, "\u01208": 807, "row": 808, "\u0120bu": 809, "\u0120where": 810, "ific": 811, "\u0120years": 812, "ily": 813, "\u0120diff": 814, "\u0120should": 815, "\u0120rem": 816, "Th": 817, "In": 818, "\u0120ev": 819, "day": 820, "'re": 821, "rib": 822, "\u0120rel": 823, "ss": 824, "\u0120def": 825, "\u0120right": 826, "\u0120sy": 827, "),": 828, "les": 829, "000": 830, "hen": 831, "\u0120through": 832, "\u0120Tr": 833, "__": 834, "\u0120way": 835, "\u0120don": 836, "\u0120,": 837, "\u012010": 838, "ased": 839, "\u0120ass": 840, "ublic": 841, "\u0120reg": 842, "\u0120And": 843, "ix": 844, "\u0120very": 845, "\u0120includ": 846, "other": 847, "\u0120imp": 848, "oth": 849, "\u0120sub": 850, "\u0120\u00e2\u0122\u0136": 851, "\u0120being": 852, "arg": 853, "\u0120Wh": 854, "==": 855, "ible": 856, "\u0120does": 857, "ange": 858, "ram": 859, "\u01209": 860, "ert": 861, "ps": 862, "ited": 863, "ational": 864, "\u0120br": 865, "\u0120down": 866, "\u0120many": 867, "aking": 868, "\u0120call": 869, "uring": 870, "ities": 871, "\u0120ph": 872, "ics": 873, "als": 874, "\u0120dec": 875, "ative": 876, "ener": 877, "\u0120before": 878, "ility": 879, "\u0120well": 880, "\u0120much": 881, "erson": 882, "\u0120those": 883, "\u0120such": 884, "\u0120ke": 885, "\u0120end": 886, "\u0120But": 887, "ason": 888, "ting": 889, "\u0120long": 890, "ef": 891, "\u0120think": 892, "ys": 893, "\u0120bel": 894, "\u0120sm": 895, "its": 896, "ax": 897, "\u0120own": 898, "\u0120prov": 899, "\u0120set": 900, "ife": 901, "ments": 902, "ble": 903, "ward": 904, "\u0120show": 905, "\u0120pres": 906, "ms": 907, "omet": 908, "\u0120ob": 909, "\u0120say": 910, "\u0120Sh": 911, "ts": 912, "ful": 913, "\u0120eff": 914, "\u0120gu": 915, "\u0120inst": 916, "und": 917, "ren": 918, "cess": 919, "\u0120ent": 920, "\u0120You": 921, "\u0120good": 922, "\u0120start": 923, "ince": 924, "\u0120made": 925, "tt": 926, "stem": 927, "olog": 928, "up": 929, "\u0120|": 930, "ump": 931, "\u0120hel": 932, "vern": 933, "ular": 934, "ually": 935, "\u0120ac": 936, "\u0120mon": 937, "\u0120last": 938, "\u0120200": 939, "10": 940, "\u0120stud": 941, "ures": 942, "\u0120Ar": 943, "self": 944, "ars": 945, "meric": 946, "ues": 947, "cy": 948, "\u0120min": 949, "ollow": 950, "\u0120col": 951, "io": 952, "\u0120mod": 953, "\u0120count": 954, "\u0120Com": 955, "hes": 956, "\u0120fin": 957, "air": 958, "ier": 959, "\u00e2\u0122\u0136": 960, "read": 961, "ank": 962, "atch": 963, "ever": 964, "\u0120str": 965, "\u0120point": 966, "ork": 967, "\u0120New": 968, "\u0120sur": 969, "ool": 970, "alk": 971, "ement": 972, "\u0120used": 973, "ract": 974, "ween": 975, "\u0120same": 976, "oun": 977, "\u0120Al": 978, "ci": 979, "\u0120differe": 980, "\u0120while": 981, "--------": 982, "\u0120game": 983, "cept": 984, "\u0120sim": 985, "...": 986, "\u0120inter": 987, "ek": 988, "\u0120report": 989, "\u0120produ": 990, "\u0120still": 991, "led": 992, "ah": 993, "\u0120here": 994, "\u0120world": 995, "\u0120though": 996, "\u0120num": 997, "arch": 998, "imes": 999, "ale": 1000, "\u0120Se": 1001, "\u0120If": 1002, "//": 1003, "\u0120Le": 1004, "\u0120ret": 1005, "\u0120ref": 1006, "\u0120trans": 1007, "ner": 1008, "ution": 1009, "ters": 1010, "\u0120take": 1011, "\u0120Cl": 1012, "\u0120conf": 1013, "way": 1014, "ave": 1015, "\u0120going": 1016, "\u0120sl": 1017, "ug": 1018, "\u0120Americ": 1019, "\u0120spec": 1020, "\u0120hand": 1021, "\u0120between": 1022, "ists": 1023, "\u0120De": 1024, "oot": 1025, "It": 1026, "\u0120ear": 1027, "\u0120against": 1028, "\u0120high": 1029, "gan": 1030, "az": 1031, "ather": 1032, "\u0120exp": 1033, "\u0120op": 1034, "\u0120ins": 1035, "\u0120gr": 1036, "\u0120help": 1037, "\u0120requ": 1038, "ets": 1039, "ins": 1040, "\u0120Pro": 1041, "ism": 1042, "\u0120found": 1043, "land": 1044, "ata": 1045, "uss": 1046, "ames": 1047, "\u0120person": 1048, "\u0120great": 1049, "pr": 1050, "\u0120sign": 1051, "\u0120An": 1052, "'ve": 1053, "\u0120somet": 1054, "\u0120ser": 1055, "hip": 1056, "\u0120run": 1057, "\u0120:": 1058, "\u0120ter": 1059, "irect": 1060, "\u0120follow": 1061, "\u0120det": 1062, "ices": 1063, "\u0120find": 1064, "12": 1065, "\u0120mem": 1066, "\u0120cr": 1067, "ered": 1068, "ex": 1069, "\u0120ext": 1070, "uth": 1071, "ense": 1072, "co": 1073, "\u0120team": 1074, "ving": 1075, "ouse": 1076, "ash": 1077, "att": 1078, "ved": 1079, "\u0120system": 1080, "\u0120As": 1081, "der": 1082, "ives": 1083, "min": 1084, "\u0120lead": 1085, "\u0120Bl": 1086, "cent": 1087, "\u0120around": 1088, "\u0120govern": 1089, "\u0120cur": 1090, "velop": 1091, "any": 1092, "\u0120cour": 1093, "alth": 1094, "ages": 1095, "ize": 1096, "\u0120car": 1097, "ode": 1098, "\u0120law": 1099, "\u0120read": 1100, "'m": 1101, "con": 1102, "\u0120real": 1103, "\u0120support": 1104, "\u012012": 1105, "....": 1106, "\u0120really": 1107, "ness": 1108, "\u0120fact": 1109, "\u0120day": 1110, "\u0120both": 1111, "ying": 1112, "\u0120serv": 1113, "\u0120For": 1114, "\u0120three": 1115, "\u0120wom": 1116, "\u0120med": 1117, "ody": 1118, "\u0120They": 1119, "50": 1120, "\u0120exper": 1121, "ton": 1122, "\u0120each": 1123, "akes": 1124, "\u0120che": 1125, "\u0120cre": 1126, "ines": 1127, "\u0120rep": 1128, "19": 1129, "gg": 1130, "illion": 1131, "\u0120grou": 1132, "ute": 1133, "ik": 1134, "We": 1135, "get": 1136, "ER": 1137, "\u0120met": 1138, "\u0120says": 1139, "ox": 1140, "\u0120during": 1141, "ern": 1142, "ized": 1143, "ared": 1144, "\u0120fam": 1145, "ically": 1146, "\u0120happ": 1147, "\u0120Is": 1148, "\u0120char": 1149, "med": 1150, "vent": 1151, "\u0120gener": 1152, "ient": 1153, "ple": 1154, "iet": 1155, "rent": 1156, "11": 1157, "ves": 1158, "ption": 1159, "\u012020": 1160, "formation": 1161, "\u0120cor": 1162, "\u0120offic": 1163, "ield": 1164, "\u0120too": 1165, "ision": 1166, "\u0120inf": 1167, "\u0120Z": 1168, "the": 1169, "oad": 1170, "\u0120public": 1171, "\u0120prog": 1172, "ric": 1173, "**": 1174, "\u0120war": 1175, "\u0120power": 1176, "view": 1177, "\u0120few": 1178, "\u0120loc": 1179, "\u0120different": 1180, "\u0120state": 1181, "\u0120head": 1182, "'ll": 1183, "\u0120poss": 1184, "\u0120stat": 1185, "ret": 1186, "ants": 1187, "\u0120val": 1188, "\u0120iss": 1189, "\u0120cle": 1190, "ivers": 1191, "anc": 1192, "\u0120expl": 1193, "\u0120another": 1194, "\u0120Q": 1195, "\u0120av": 1196, "thing": 1197, "nce": 1198, "Wh": 1199, "\u0120child": 1200, "\u0120since": 1201, "ired": 1202, "less": 1203, "\u0120life": 1204, "\u0120develop": 1205, "ittle": 1206, "\u0120dep": 1207, "\u0120pass": 1208, "\u00e3\u0125": 1209, "\u0120turn": 1210, "orn": 1211, "This": 1212, "bers": 1213, "ross": 1214, "\u0120Ad": 1215, "\u0120fr": 1216, "\u0120resp": 1217, "\u0120second": 1218, "oh": 1219, "\u0120/": 1220, "\u0120disc": 1221, "\u0120&": 1222, "\u0120something": 1223, "\u0120comple": 1224, "\u0120ed": 1225, "\u0120fil": 1226, "\u0120month": 1227, "aj": 1228, "uc": 1229, "\u0120government": 1230, "\u0120without": 1231, "\u0120leg": 1232, "\u0120dist": 1233, "\u0120put": 1234, "\u0120quest": 1235, "ann": 1236, "\u0120prot": 1237, "20": 1238, "\u0120never": 1239, "ience": 1240, "\u0120level": 1241, "\u0120art": 1242, "\u0120things": 1243, "\u0120might": 1244, "\u0120effect": 1245, "\u0120contro": 1246, "\u0120cent": 1247, "\u012018": 1248, "\u0120allow": 1249, "\u0120belie": 1250, "chool": 1251, "ott": 1252, "\u0120incre": 1253, "\u0120feel": 1254, "\u0120result": 1255, "\u0120lot": 1256, "\u0120fun": 1257, "ote": 1258, "\u0120ty": 1259, "erest": 1260, "\u0120contin": 1261, "\u0120using": 1262, "\u0120big": 1263, "201": 1264, "\u0120ask": 1265, "\u0120best": 1266, "\u0120)": 1267, "IN": 1268, "\u0120opp": 1269, "30": 1270, "\u0120number": 1271, "iness": 1272, "St": 1273, "lease": 1274, "\u0120ca": 1275, "\u0120must": 1276, "\u0120direct": 1277, "\u0120gl": 1278, "\u0120<": 1279, "\u0120open": 1280, "\u0120post": 1281, "\u0120come": 1282, "\u0120seem": 1283, "ording": 1284, "\u0120week": 1285, "ately": 1286, "ital": 1287, "\u0120el": 1288, "riend": 1289, "\u0120far": 1290, "\u0120tra": 1291, "inal": 1292, "\u0120pri": 1293, "\u0120US": 1294, "\u0120place": 1295, "\u0120form": 1296, "\u0120told": 1297, "\":": 1298, "ains": 1299, "ature": 1300, "\u0120Trump": 1301, "\u0120stand": 1302, "\u0120#": 1303, "ider": 1304, "\u0120Fr": 1305, "\u0120next": 1306, "\u0120soc": 1307, "\u0120pur": 1308, "\u0120let": 1309, "\u0120little": 1310, "\u0120hum": 1311, "\u0120i": 1312, "ron": 1313, "15": 1314, "\u012015": 1315, "\u0120commun": 1316, "\u0120mark": 1317, "\u0120There": 1318, "\u0120wr": 1319, "\u0120That": 1320, "\u0120information": 1321, "ways": 1322, "\u0120bus": 1323, "app": 1324, "\u0120invest": 1325, "me": 1326, "\u0120hard": 1327, "ained": 1328, "ead": 1329, "\u0120import": 1330, "\u0120appro": 1331, "\u0120test": 1332, "\u0120tri": 1333, "\u0120rest": 1334, "osed": 1335, "\u0120full": 1336, "\u0120care": 1337, "\u0120Sp": 1338, "\u0120case": 1339, "ON": 1340, "\u0120sk": 1341, "\u0120less": 1342, "\u0120+": 1343, "\u0120partic": 1344, "\u0120Pl": 1345, "ably": 1346, "uck": 1347, "ished": 1348, "chn": 1349, "be": 1350, "\u0120list": 1351, "ator": 1352, "\u0120top": 1353, "\u0120adv": 1354, "\u0120Be": 1355, "ruct": 1356, "\u0120dem": 1357, "ration": 1358, "ling": 1359, "gy": 1360, "reen": 1361, "ger": 1362, "\u0120home": 1363, "\u0120left": 1364, "\u0120better": 1365, "\u0120data": 1366, "\u012011": 1367, "\u0120attack": 1368, "\u0120proble": 1369, "line": 1370, "ards": 1371, "\u0120beh": 1372, "ral": 1373, "\u0120How": 1374, "\u0120She": 1375, "arge": 1376, "\u0120--": 1377, "://": 1378, "\u0120bro": 1379, "\u0120Ph": 1380, "ats": 1381, "\u0120build": 1382, "ww": 1383, "ided": 1384, "aim": 1385, "ases": 1386, "ency": 1387, "\u0120main": 1388, "ined": 1389, "\u0120including": 1390, "\u0120{": 1391, "\u0120got": 1392, "\u0120interest": 1393, "\u0120keep": 1394, "\u0120X": 1395, "\u0120eas": 1396, "aining": 1397, "\u0120class": 1398, "\u00e2\u0122\u00a6": 1399, "\u0120No": 1400, "\u0120var": 1401, "\u0120small": 1402, "ample": 1403, "AT": 1404, "\u0120ide": 1405, "\u0120So": 1406, "\u0120rece": 1407, "\u0120polit": 1408, "\u0120mov": 1409, "\u0120plan": 1410, "\u0120percent": 1411, "iving": 1412, "\u0120camp": 1413, "\u0120pay": 1414, "14": 1415, "sc": 1416, "ised": 1417, "\u0120unt": 1418, "oney": 1419, "ploy": 1420, "====": 1421, "\u0120didn": 1422, "\u0120Ind": 1423, "els": 1424, "ertain": 1425, "\u0120pos": 1426, "____": 1427, "iver": 1428, "\u0120process": 1429, "\u0120program": 1430, "ified": 1431, "\u0120Rep": 1432, "16": 1433, "uro": 1434, "ology": 1435, "atter": 1436, "ina": 1437, "\u0120name": 1438, "\u0120All": 1439, "\u0120four": 1440, "\u0120return": 1441, "vious": 1442, "bs": 1443, "\u0120called": 1444, "\u0120move": 1445, "\u0120Sc": 1446, "ird": 1447, "\u0120group": 1448, "\u0120bre": 1449, "\u0120men": 1450, "\u0120cap": 1451, "ten": 1452, "ee": 1453, "\u0120dri": 1454, "leg": 1455, "here": 1456, "uthor": 1457, "\u0120pat": 1458, "\u0120current": 1459, "ides": 1460, "\u0120pop": 1461, "to": 1462, "ention": 1463, "\u0120always": 1464, "\u0120mil": 1465, "\u0120women": 1466, "\u012016": 1467, "\u0120old": 1468, "iven": 1469, "raph": 1470, "\u0120Or": 1471, "ror": 1472, "ently": 1473, "\u0120near": 1474, "\u0120Ex": 1475, "ream": 1476, "sh": 1477, "\u012014": 1478, "\u0120free": 1479, "ission": 1480, "stand": 1481, "\u0120Con": 1482, "ality": 1483, "used": 1484, "13": 1485, "\u0120design": 1486, "\u0120change": 1487, "\u0120chang": 1488, "\u0120bo": 1489, "\u0120vis": 1490, "ember": 1491, "\u0120book": 1492, "ready": 1493, "\u0120kill": 1494, "25": 1495, "pped": 1496, "\u0120away": 1497, "\u0120able": 1498, "\u0120country": 1499, "\u0120const": 1500, "arn": 1501, "\u0120order": 1502, "AR": 1503, "ior": 1504, "ium": 1505, "orth": 1506, "18": 1507, "ailable": 1508, "\u0120sw": 1509, "\u0120million": 1510, "\u012013": 1511, "atic": 1512, "ted": 1513, "\u0120Go": 1514, "\u0120oper": 1515, "eng": 1516, "\u0120thing": 1517, "ajor": 1518, "conom": 1519, "\u0120Comm": 1520, "\u0120why": 1521, "ured": 1522, "ural": 1523, "\u0120school": 1524, "by": 1525, "\u0120Mar": 1526, "\u0120aff": 1527, "\u0120days": 1528, "\u0120ann": 1529, "ush": 1530, "ane": 1531, "If": 1532, "eg": 1533, "\u0120prof": 1534, "\u0120health": 1535, "outh": 1536, "But": 1537, "ional": 1538, ".,": 1539, "\u0120sol": 1540, "\u0120already": 1541, "\u012030": 1542, "\u0120charact": 1543, "He": 1544, "\u0120friend": 1545, "ES": 1546, "ians": 1547, "icle": 1548, "'d": 1549, "\u0120On": 1550, "\u0120least": 1551, "\u0120prom": 1552, "\u0120dr": 1553, "\u0120hist": 1554, "ither": 1555, "\u0120est": 1556, "iqu": 1557, "17": 1558, "son": 1559, "\u0120tell": 1560, "\u0120talk": 1561, "ohn": 1562, "oint": 1563, "lection": 1564, "AN": 1565, "\u0120until": 1566, "augh": 1567, "\u0120later": 1568, "\u0120ve": 1569, "\u0120view": 1570, "ending": 1571, "ived": 1572, "\u0120word": 1573, "ware": 1574, "\u0120cost": 1575, "\u0120enough": 1576, "\u0120give": 1577, "\u0120United": 1578, "\u0120techn": 1579, "arent": 1580, "OR": 1581, "\u0120par": 1582, "\u0120Dr": 1583, "\u01202016": 1584, "rist": 1585, "ering": 1586, "\u0120\u00c2": 1587, "\u0120large": 1588, "side": 1589, "acy": 1590, "ccess": 1591, "\u0120win": 1592, "\u0120important": 1593, "\u0120199": 1594, "\u0120doesn": 1595, "\u012017": 1596, "\u0120business": 1597, "\u0120clear": 1598, "\u0120rese": 1599, "\",": 1600, "ury": 1601, "\u0120equ": 1602, "aster": 1603, "alf": 1604, "\u0120American": 1605, "nect": 1606, "\u0120expect": 1607, "iversity": 1608, "\u0120occ": 1609, "\u0120Fl": 1610, "\u0120kind": 1611, "\u0120mean": 1612, "\u0120past": 1613, "\u0120dev": 1614, "\u0120bas": 1615, "let": 1616, "raft": 1617, "\u0120organ": 1618, "\u0120del": 1619, "\u0120perform": 1620, "\u0120story": 1621, "\u0120season": 1622, "\u0120Col": 1623, "\u0120claim": 1624, "\u0120came": 1625, "\u0120within": 1626, "\u0120line": 1627, "\u0120project": 1628, "\u0120At": 1629, "\u0120control": 1630, "ended": 1631, "\u0120Sy": 1632, "\u0120air": 1633, "ization": 1634, "\u0120*": 1635, "ley": 1636, "\u0120money": 1637, "idd": 1638, "You": 1639, "for": 1640, "\u0120family": 1641, "\u0120making": 1642, "\u0120bit": 1643, "\u0120police": 1644, "\u0120happen": 1645, "\u0120vers": 1646, "ony": 1647, "uff": 1648, "\u0120When": 1649, "\u0120sit": 1650, "ideo": 1651, "lf": 1652, "ison": 1653, "\u0120sure": 1654, "gin": 1655, "\u0120appear": 1656, "\u0120light": 1657, "\u0120es": 1658, "of": 1659, "\u0120water": 1660, "\u0120times": 1661, "not": 1662, "\u0120grow": 1663, "\u0120company": 1664, "\u0120Te": 1665, "ows": 1666, "\u0120mar": 1667, "ource": 1668, "iol": 1669, "arm": 1670, "br": 1671, "\u0120example": 1672, "\u0120conc": 1673, "\u0120fore": 1674, "\u0120To": 1675, "pro": 1676, "EN": 1677, "ries": 1678, "\u012025": 1679, "\u0120Can": 1680, "ney": 1681, "\u0120actually": 1682, "\u0120ever": 1683, "urity": 1684, "aken": 1685, "aps": 1686, "\u0120tax": 1687, "\u0120major": 1688, "ama": 1689, "\u0120often": 1690, "eral": 1691, "\u0120human": 1692, "\u0120job": 1693, "ister": 1694, "\u0120available": 1695, "ocr": 1696, "enn": 1697, "aid": 1698, "ivid": 1699, "\u0120record": 1700, "?\"": 1701, "\u0120sing": 1702, "\u0120Am": 1703, "idence": 1704, "\u0120news": 1705, "ster": 1706, "\u0120econom": 1707, "\u0120following": 1708, "\u0120Br": 1709, "ising": 1710, "\u0120hour": 1711, "most": 1712, "ument": 1713, "\u0120sex": 1714, "\u0120desc": 1715, "\u0120become": 1716, "\u0120Ed": 1717, "\u0120took": 1718, "\u0120having": 1719, "\u0120product": 1720, "ault": 1721, "As": 1722, "aring": 1723, "\u0120means": 1724, "\u0120hop": 1725, "une": 1726, "\u0120cho": 1727, "\u0120certain": 1728, "\u0120non": 1729, "\u0120deal": 1730, "24": 1731, "lement": 1732, "oci": 1733, "ene": 1734, "\u0120side": 1735, "\u0120Pr": 1736, "\u0120May": 1737, "\u0120reason": 1738, "ued": 1739, "ched": 1740, "ulation": 1741, "\u0120elect": 1742, "\u0120official": 1743, "\u0120possible": 1744, "\u0120hold": 1745, "ands": 1746, "ots": 1747, "\u0120city": 1748, "ories": 1749, "\u0120sever": 1750, "\u0120children": 1751, "\u0120once": 1752, "\u0120activ": 1753, "ler": 1754, "\u0120night": 1755, "itions": 1756, "\u0120John": 1757, "ape": 1758, "play": 1759, "\u0120done": 1760, "\u0120lim": 1761, "\u0120working": 1762, "\u0120Pres": 1763, "orld": 1764, "eb": 1765, "\u0120Co": 1766, "\u0120body": 1767, "ails": 1768, "utes": 1769, "\u0120Mr": 1770, "\u0120whether": 1771, "\u0120author": 1772, "rop": 1773, "\u0120proper": 1774, "\u0120seen": 1775, ");": 1776, "\u0120fac": 1777, "\u0120Su": 1778, "\u0120cond": 1779, "iting": 1780, "\u0120course": 1781, "\u0120}": 1782, "----------------": 1783, "aign": 1784, "\u0120event": 1785, "\u0120eng": 1786, "\u0120pot": 1787, "\u0120intern": 1788, "iam": 1789, "\u0120short": 1790, "empt": 1791, "\u00e3\u0124": 1792, "\u0120God": 1793, "ilar": 1794, "80": 1795, "\u0120orig": 1796, "IS": 1797, "ourn": 1798, "ability": 1799, "itive": 1800, "\u0120dam": 1801, "\u0120100": 1802, "\u0120press": 1803, "\u0120doing": 1804, "\u0120protect": 1805, "ring": 1806, "\u0120thought": 1807, "\u0120question": 1808, "rew": 1809, "\u0120War": 1810, "\u0120several": 1811, "\u0120State": 1812, "\u0120given": 1813, "\u0120fund": 1814, "\u0120Tw": 1815, "\u0120went": 1816, "ances": 1817, "work": 1818, "por": 1819, "my": 1820, "40": 1821, "\u0120arg": 1822, "artment": 1823, "ustom": 1824, "\u0120polic": 1825, "\u0120meet": 1826, "\u0120creat": 1827, "22": 1828, "\u0120States": 1829, "\u0120games": 1830, "raw": 1831, "uture": 1832, "\u0120understand": 1833, "urs": 1834, "\u0120Ob": 1835, "lish": 1836, "sy": 1837, "\u0120makes": 1838, "\u0120won": 1839, "agon": 1840, "\u0120htt": 1841, "\u0120love": 1842, "ential": 1843, "\u0120complete": 1844, "par": 1845, "\u0120Im": 1846, "AL": 1847, "\u0120account": 1848, "\u00c2\u0142": 1849, "ored": 1850, "vert": 1851, "\u0120ident": 1852, "\u01202015": 1853, "\u0120others": 1854, "\u0120Min": 1855, "iber": 1856, "verage": 1857, "There": 1858, "itional": 1859, "dd": 1860, "\u0120prob": 1861, "\u0120young": 1862, "\u0120along": 1863, "\u0120according": 1864, "\u0120yet": 1865, "\u0120members": 1866, "\u0120What": 1867, "oid": 1868, "\u0120Man": 1869, "And": 1870, "\u0120among": 1871, "ai": 1872, "\u0120employ": 1873, "\u0120Res": 1874, "\u0120>": 1875, "\u0120invol": 1876, "\u0120low": 1877, "af": 1878, "\u0120Car": 1879, "\u0120hig": 1880, "\u0120One": 1881, "\u0120Sec": 1882, "ination": 1883, "\u0120likely": 1884, "\u0120ant": 1885, "aged": 1886, "\u0120Russ": 1887, "\u0120ben": 1888, "\u0120rele": 1889, "For": 1890, "back": 1891, "\u0120Not": 1892, "\u0120president": 1893, "ball": 1894, "\u0120access": 1895, "ividual": 1896, "\u0120Dem": 1897, "\u0120Euro": 1898, "60": 1899, "\u0120known": 1900, "irl": 1901, "\u0120Gr": 1902, "\u0120early": 1903, "use": 1904, "iety": 1905, "\u00e2\u0122\u0135": 1906, "\u0120fight": 1907, "\u0120sent": 1908, "\u0120today": 1909, "\u0120market": 1910, "\".": 1911, "\u0120based": 1912, "\u0120strong": 1913, "urther": 1914, "\u0120deb": 1915, "mber": 1916, "\u0120problem": 1917, "\u0120death": 1918, "\u0120social": 1919, "imate": 1920, "AS": 1921, "ortun": 1922, "\u0120campaign": 1923, "ery": 1924, "Ch": 1925, "\u0120ey": 1926, "ially": 1927, "\u0120mus": 1928, "wh": 1929, "pos": 1930, "\u0120er": 1931, "\u0120saf": 1932, "\u0120months": 1933, "iron": 1934, "\u0120viol": 1935, "\u0120five": 1936, "\u0120stre": 1937, "\u0120players": 1938, "inc": 1939, "ald": 1940, "year": 1941, "aun": 1942, "\u0120success": 1943, "\u0120present": 1944, "erence": 1945, "\u01202014": 1946, "\u0120sugg": 1947, "\u0120particular": 1948, "\u0120try": 1949, "\u0120suggest": 1950, "\u0120Christ": 1951, "ones": 1952, "\u0120priv": 1953, "23": 1954, "\u0120crit": 1955, "\u0120land": 1956, "\u0120local": 1957, "ify": 1958, "29": 1959, "\u0120aut": 1960, "ED": 1961, "\u0120Gu": 1962, "\u0120mult": 1963, "\u0120political": 1964, "\u0120asked": 1965, "\u0120former": 1966, "itter": 1967, "ript": 1968, "\u0120close": 1969, "\u0120pract": 1970, "\u0120York": 1971, "\u0120getting": 1972, "\u0120across": 1973, "\u0120comb": 1974, "\u0120believe": 1975, "\u0120z": 1976, "\u0120toget": 1977, "\u0120together": 1978, "\u0120Cent": 1979, "irc": 1980, "\u0120individual": 1981, "\u0120Mc": 1982, "27": 1983, "isk": 1984, "\u0120Eng": 1985, "\u0120face": 1986, "\u012024": 1987, "\u0120value": 1988, "\u0120area": 1989, "ev": 1990, "\u0120writ": 1991, "\u0120President": 1992, "\u0120vot": 1993, "\u0120key": 1994, "\u0120mom": 1995, "put": 1996, "\u0120anything": 1997, "\u0120experience": 1998, "attle": 1999, "\u0120mind": 2000, "aff": 2001, "omm": 2002, "\u0120future": 2003, "ged": 2004, "\u0120cut": 2005, "\u0120tot": 2006, "itch": 2007, "\u0120video": 2008, "\u0120investig": 2009, "\u0120net": 2010, "\u0120My": 2011, "rict": 2012, "ien": 2013, ".)": 2014, "\u0120impro": 2015, "though": 2016, "wards": 2017, "\u0120connect": 2018, "\u0120Med": 2019, "selves": 2020, "ensive": 2021, "mb": 2022, "ober": 2023, "ators": 2024, "An": 2025, "\u012050": 2026, "\u0120redu": 2027, "resent": 2028, "\u0120above": 2029, "\u0120fre": 2030, "\u0120Europe": 2031, "sw": 2032, "\u0120amount": 2033, "\u0120App": 2034, "\u0120either": 2035, "\u0120milit": 2036, "\u0120anal": 2037, "\u0120fail": 2038, "\u0120En": 2039, "ales": 2040, "\u0120special": 2041, "\u0120black": 2042, "IT": 2043, "cher": 2044, "\u0120looking": 2045, "\u0120fire": 2046, "yn": 2047, "\u0120almost": 2048, "oon": 2049, "\u0120study": 2050, "\u0120miss": 2051, "ches": 2052, "rown": 2053, "\u0120tre": 2054, "\u0120community": 2055, "\u0120media": 2056, "\u0120food": 2057, "\u0120comes": 2058, "\u0120University": 2059, "\u0120single": 2060, "What": 2061, "uly": 2062, "\u0120half": 2063, "ague": 2064, "hod": 2065, "\u0120Republic": 2066, "\u0120started": 2067, "\u0120quick": 2068, "oto": 2069, "book": 2070, "\u0120issue": 2071, "itor": 2072, "\u0120else": 2073, "\u0120consider": 2074, "26": 2075, "rodu": 2076, "\u0120taken": 2077, "28": 2078, "99": 2079, "\u0120With": 2080, "\u0120true": 2081, "\u0120wa": 2082, "\u0120trad": 2083, "\u0120ago": 2084, "\u0120mess": 2085, "ief": 2086, "\u0120added": 2087, "oke": 2088, "\u0120bad": 2089, "\u0120fav": 2090, "33": 2091, "\u0120similar": 2092, "ask": 2093, "\u0120Don": 2094, "\u0120character": 2095, "orts": 2096, "\u0120House": 2097, "\u0120reported": 2098, "\u0120type": 2099, "val": 2100, "iod": 2101, "\u0120However": 2102, "\u0120targ": 2103, "\u0120entire": 2104, "pping": 2105, "\u0120history": 2106, "\u0120live": 2107, "ffic": 2108, "........": 2109, "ederal": 2110, "\u0120trying": 2111, "\u0120discuss": 2112, "\u0120Har": 2113, "aces": 2114, "lished": 2115, "\u0120self": 2116, "osp": 2117, "rest": 2118, "\u0120room": 2119, "elt": 2120, "\u0120fall": 2121, "olution": 2122, "\u0120et": 2123, "\u0120x": 2124, "\u0120isn": 2125, "\u0120idea": 2126, "bo": 2127, "\u0120sound": 2128, "\u0120Dep": 2129, "\u0120someone": 2130, "cially": 2131, "ully": 2132, "\u0120foc": 2133, "\u0120object": 2134, "ift": 2135, "aper": 2136, "\u0120player": 2137, "\u0120rather": 2138, "\u0120service": 2139, "ashing": 2140, "\u0120Do": 2141, "\u0120Part": 2142, "rug": 2143, "mon": 2144, "ply": 2145, "\u0120mor": 2146, "\u0120nothing": 2147, "\u0120provide": 2148, "IC": 2149, "ung": 2150, "\u0120party": 2151, "\u0120exist": 2152, "\u0120mag": 2153, "70": 2154, "\u0120rul": 2155, "\u0120house": 2156, "\u0120behind": 2157, "\u0120however": 2158, "\u0120World": 2159, "\u0120sum": 2160, "\u0120applic": 2161, "\u0120;": 2162, "\u0120function": 2163, "gr": 2164, "\u0120Pol": 2165, "\u0120front": 2166, "200": 2167, "\u0120series": 2168, "\u0120tem": 2169, "\u0120typ": 2170, "ills": 2171, "\u0120opt": 2172, "\u0120points": 2173, "\u0120below": 2174, "itted": 2175, "\u0120specific": 2176, "\u01202017": 2177, "umb": 2178, "\u0120ra": 2179, "\u0120previous": 2180, "\u0120pret": 2181, "reme": 2182, "\u0120custom": 2183, "\u0120court": 2184, "\u0120Me": 2185, "\u0120repl": 2186, "\u0120whole": 2187, "go": 2188, "cer": 2189, "\u0120treat": 2190, "\u0120Act": 2191, "\u0120probably": 2192, "\u0120learn": 2193, "ender": 2194, "\u0120Ass": 2195, "\u0120version": 2196, "now": 2197, "\u0120check": 2198, "\u0120Cal": 2199, "RE": 2200, "minist": 2201, "On": 2202, "ources": 2203, "\u0120benef": 2204, "\u0120doc": 2205, "\u0120deter": 2206, "\u0120enc": 2207, "\u0120super": 2208, "\u0120address": 2209, "\u0120vict": 2210, "\u01202013": 2211, "\u0120meas": 2212, "tr": 2213, "\u0120field": 2214, "When": 2215, "\u0120signific": 2216, "uge": 2217, "\u0120feat": 2218, "\u0120common": 2219, "load": 2220, "\u0120begin": 2221, "\u0120bring": 2222, "\u0120action": 2223, "erman": 2224, "\u0120describ": 2225, "\u0120indust": 2226, "\u0120wanted": 2227, "ried": 2228, "ming": 2229, "\u0120attempt": 2230, "45": 2231, "fer": 2232, "\u0120due": 2233, "ression": 2234, "##": 2235, "\u0120shall": 2236, "\u0120six": 2237, "oo": 2238, "\u0120step": 2239, "\u0120pub": 2240, "\u0120himself": 2241, "\u012023": 2242, "\u0120cop": 2243, "\u0120dest": 2244, "\u0120stop": 2245, "AC": 2246, "ibility": 2247, "\u0120lab": 2248, "icult": 2249, "\u0120hours": 2250, "\u0120create": 2251, "\u0120further": 2252, "\u0120America": 2253, "\u0120City": 2254, "\u0120dou": 2255, "head": 2256, "ST": 2257, "\u0120North": 2258, "cing": 2259, "\u0120national": 2260, "ule": 2261, "\u0120Inst": 2262, "\u0120taking": 2263, "\u0120Qu": 2264, "irt": 2265, "\u0120red": 2266, "\u0120research": 2267, "viron": 2268, "\u0120Ge": 2269, "\u0120break": 2270, "ana": 2271, "\u0120space": 2272, "aterial": 2273, "\u0120recent": 2274, "\u0120Ab": 2275, "\u0120general": 2276, "\u0120hit": 2277, "\u0120period": 2278, "\u0120everything": 2279, "ively": 2280, "\u0120phys": 2281, "\u0120saying": 2282, "anks": 2283, "\u0120cou": 2284, "\u0120cult": 2285, "aced": 2286, "eal": 2287, "uation": 2288, "\u0120coun": 2289, "lu": 2290, "\u0120include": 2291, "\u0120position": 2292, "\u0120After": 2293, "\u0120Canad": 2294, "\u0120Em": 2295, "\u0120imm": 2296, "\u0120Red": 2297, "\u0120pick": 2298, "\u0120compl": 2299, "\u0120matter": 2300, "reg": 2301, "ext": 2302, "angu": 2303, "isc": 2304, "ole": 2305, "aut": 2306, "\u0120compet": 2307, "eed": 2308, "fect": 2309, "\u012021": 2310, "\u0120Sen": 2311, "\u0120These": 2312, "asing": 2313, "\u0120cannot": 2314, "\u0120init": 2315, "\u0120relations": 2316, "ached": 2317, "\u0120bar": 2318, "\u012040": 2319, "\u0120TH": 2320, "\u01202012": 2321, "\u0120vol": 2322, "\u0120ground": 2323, "\u0120security": 2324, "\u0120upd": 2325, "ilt": 2326, "35": 2327, "\u0120concern": 2328, "\u0120Just": 2329, "\u0120white": 2330, "\u0120seems": 2331, "\u0120Her": 2332, "pecially": 2333, "ients": 2334, "\u0120announ": 2335, "\u0120fig": 2336, "ights": 2337, "\u0120stri": 2338, "like": 2339, "ids": 2340, "\u0120sus": 2341, "\u0120watch": 2342, "\u0120\u00e2": 2343, "\u0120wind": 2344, "\u0120Cont": 2345, "\u0120itself": 2346, "\u0120mass": 2347, "Al": 2348, "yle": 2349, "ique": 2350, "\u0120National": 2351, "\u0120abs": 2352, "\u0120pack": 2353, "\u0120outside": 2354, "\u0120anim": 2355, "\u0120pain": 2356, "eter": 2357, "\u0120manag": 2358, "duct": 2359, "ogn": 2360, "\u0120]": 2361, "\u0120Sept": 2362, "sec": 2363, "off": 2364, "\u0120Jan": 2365, "\u0120foot": 2366, "ades": 2367, "\u0120third": 2368, "\u0120mot": 2369, "\u0120evidence": 2370, "inton": 2371, "\u0120threat": 2372, "apt": 2373, "ples": 2374, "cle": 2375, "\u0120lo": 2376, "\u0120decl": 2377, "\u0120item": 2378, "medi": 2379, "\u0120represent": 2380, "omb": 2381, "amer": 2382, "\u0120significant": 2383, "ograph": 2384, "su": 2385, "\u0120cal": 2386, "ires": 2387, "0000": 2388, "ID": 2389, "AM": 2390, "\u0120simply": 2391, "\u0120longer": 2392, "\u0120file": 2393, "OT": 2394, "che": 2395, "So": 2396, "ateg": 2397, "org": 2398, "\u0120His": 2399, "\u0120ener": 2400, "\u0120dom": 2401, "\u0120upon": 2402, "ili": 2403, "\":\"": 2404, "\u0120themselves": 2405, "\u0120coming": 2406, "\u0120quite": 2407, "\u0120difficult": 2408, "\u0120Bar": 2409, "ilities": 2410, "rel": 2411, "ends": 2412, "cial": 2413, "64": 2414, "\u0120woman": 2415, "rap": 2416, "yr": 2417, "\u0120necess": 2418, "ips": 2419, "\u0120text": 2420, "\u0120require": 2421, "\u0120military": 2422, "\u0120review": 2423, "\u0120respons": 2424, "75": 2425, "\u0120subject": 2426, "\u0120instead": 2427, "\u0120issues": 2428, "\u0120gen": 2429, "\",\"": 2430, "\u0120minutes": 2431, "\u0120weap": 2432, "ray": 2433, "amed": 2434, "time": 2435, "bl": 2436, "How": 2437, "\u0120code": 2438, "\u0120Sm": 2439, "\u0120higher": 2440, "\u0120Ste": 2441, "ris": 2442, "\u0120page": 2443, "\u0120students": 2444, "\u0120Intern": 2445, "\u0120method": 2446, "\u0120Aug": 2447, "\u0120Per": 2448, "\u0120Ag": 2449, "\u0120policy": 2450, "\u0120Sw": 2451, "\u0120exec": 2452, "\u0120accept": 2453, "ume": 2454, "ribut": 2455, "\u0120words": 2456, "\u0120final": 2457, "\u0120changes": 2458, "\u0120Democr": 2459, "\u0120friends": 2460, "\u0120respect": 2461, "\u0120ep": 2462, "\u0120compan": 2463, "ivil": 2464, "\u0120damage": 2465, "****": 2466, "ogle": 2467, "vironment": 2468, "\u0120neg": 2469, "ental": 2470, "\u0120ap": 2471, "\u0120total": 2472, "ival": 2473, "!\"": 2474, "lim": 2475, "\u0120needs": 2476, "\u0120agre": 2477, "\u0120development": 2478, "\u0120age": 2479, "iple": 2480, "21": 2481, "\u0120results": 2482, "\u0120Af": 2483, "Sh": 2484, "\u0120gun": 2485, "\u0120Obama": 2486, "roll": 2487, "\u0120@": 2488, "\u0120rights": 2489, "\u0120Brit": 2490, "\u0120running": 2491, "\u0120wasn": 2492, "\u0120port": 2493, "\u0120rate": 2494, "\u0120pretty": 2495, "\u0120target": 2496, "\u0120saw": 2497, "\u0120circ": 2498, "\u0120works": 2499, "icro": 2500, "alt": 2501, "over": 2502, "www": 2503, "That": 2504, "lier": 2505, "\u0120everyone": 2506, "ude": 2507, "\u0120pie": 2508, "iddle": 2509, "rael": 2510, "\u0120rad": 2511, "\u0120block": 2512, "\u0120walk": 2513, "To": 2514, "\u00e3\u0123": 2515, "nes": 2516, "\u0120Aust": 2517, "aul": 2518, "rote": 2519, "\u0120South": 2520, "ession": 2521, "oph": 2522, "\u0120shows": 2523, "\u0120site": 2524, "\u0120jo": 2525, "\u0120risk": 2526, "clus": 2527, "lt": 2528, "\u0120inj": 2529, "iding": 2530, "\u0120Spe": 2531, "\u0120chall": 2532, "irm": 2533, "\u012022": 2534, "itting": 2535, "str": 2536, "\u0120hy": 2537, "LE": 2538, "key": 2539, "\u0120began": 2540, "atur": 2541, "ashington": 2542, "lam": 2543, "\u0120Dav": 2544, "bit": 2545, "\u0120size": 2546, "\u0120Par": 2547, "38": 2548, "ournal": 2549, "face": 2550, "\u0120decision": 2551, "\u0120larg": 2552, "\u0120jud": 2553, "rect": 2554, "\u0120continue": 2555, "\u0120Oct": 2556, "overed": 2557, "\u0120Int": 2558, "========": 2559, "\u0120parent": 2560, "\u0120Will": 2561, "\u0120easy": 2562, "\u0120drug": 2563, "anger": 2564, "\u0120sense": 2565, "\u0120di": 2566, "iday": 2567, "\u0120energy": 2568, "istic": 2569, "\u0120associ": 2570, "arter": 2571, "obal": 2572, "eks": 2573, "\u0120El": 2574, "urch": 2575, "\u0120girl": 2576, "oe": 2577, "itle": 2578, "\u012028": 2579, "\u0120Che": 2580, "\u0120request": 2581, "\u0120soon": 2582, "\u0120host": 2583, "ky": 2584, "\u0120states": 2585, "omes": 2586, "\u0120material": 2587, "lex": 2588, "\u0120moment": 2589, "\u0120answ": 2590, "onse": 2591, "\u0120especially": 2592, "\u0120norm": 2593, "\u0120services": 2594, "pite": 2595, "ran": 2596, "\u0120role": 2597, "44": 2598, "):": 2599, "\u0120cred": 2600, "Cl": 2601, "________": 2602, "\u0120mat": 2603, "\u0120log": 2604, "\u0120Clinton": 2605, "OU": 2606, "\u0120office": 2607, "\u012026": 2608, "\u0120charg": 2609, "\u0120track": 2610, "ma": 2611, "\u0120heart": 2612, "\u0120ball": 2613, "\u0120personal": 2614, "\u0120building": 2615, "na": 2616, "set": 2617, "body": 2618, "\u0120Black": 2619, "\u0120increase": 2620, "itten": 2621, "\u0120needed": 2622, "36": 2623, "32": 2624, "=\"": 2625, "\u0120lost": 2626, "\u0120became": 2627, "\u0120groups": 2628, "\u0120Mus": 2629, "\u0120wrote": 2630, "\u0120Pe": 2631, "\u0120prop": 2632, "joy": 2633, "\u00c3\u00a9": 2634, "\u0120White": 2635, "\u0120dead": 2636, ".'": 2637, "\u0120http": 2638, "\u0120webs": 2639, "OS": 2640, "\u0120inside": 2641, "\u0120wrong": 2642, "\u0120statement": 2643, "\u0120...": 2644, "yl": 2645, "\u0120film": 2646, "\u0120music": 2647, "\u0120share": 2648, "ification": 2649, "\u0120release": 2650, "\u0120forward": 2651, "\u0120stay": 2652, "\u0120comput": 2653, "itte": 2654, "ser": 2655, "\u0120original": 2656, "\u0120card": 2657, "\u0120cand": 2658, "\u0120div": 2659, "atural": 2660, "\u0120favor": 2661, "OM": 2662, "\u0120cases": 2663, "uses": 2664, "\u0120section": 2665, "\u0120leave": 2666, "ging": 2667, "oved": 2668, "\u0120Washington": 2669, "39": 2670, "\u0120Gl": 2671, "\u0120required": 2672, "action": 2673, "apan": 2674, "oor": 2675, "iter": 2676, "\u0120King": 2677, "\u0120countries": 2678, "\u0120German": 2679, "lling": 2680, "\u012027": 2681, "34": 2682, "\u0120questions": 2683, "\u0120prim": 2684, "\u0120cell": 2685, "\u0120shoot": 2686, "\u0120anyone": 2687, "\u0120West": 2688, "\u0120affect": 2689, "epend": 2690, "\u0120online": 2691, "\u0120Israel": 2692, "\u0120September": 2693, "\u0120ability": 2694, "\u0120content": 2695, "ises": 2696, "\u0120reve": 2697, "\u0120laun": 2698, "\u0120indic": 2699, "\u0120force": 2700, "cast": 2701, "\u0120sold": 2702, "aving": 2703, "fl": 2704, "\u0120soft": 2705, "\u0120companies": 2706, "ceed": 2707, "\u0120article": 2708, "\u0120aud": 2709, "\u0120rev": 2710, "\u0120educ": 2711, "\u0120playing": 2712, "05": 2713, "\u0120held": 2714, "ctor": 2715, "\u0120released": 2716, "\u0120federal": 2717, "37": 2718, "\u0120administ": 2719, "\u0120interview": 2720, "\u0120install": 2721, "\u0120received": 2722, "\u0120source": 2723, "uk": 2724, "Ph": 2725, "\u0120serious": 2726, "\u0120created": 2727, "\u0120cause": 2728, "\u0120immedi": 2729, "\u0120defin": 2730, "uel": 2731, "\u0120Department": 2732, "ctions": 2733, "\u0120Cour": 2734, "\u0120Now": 2735, "ze": 2736, "ites": 2737, "itution": 2738, "\u0120late": 2739, "\u0120speak": 2740, "ners": 2741, "\u0120legal": 2742, "ari": 2743, "\u0120Cor": 2744, "\u0120weeks": 2745, "\u0120model": 2746, "\u0120pred": 2747, "\u0120exact": 2748, "BC": 2749, "\u0120By": 2750, "ING": 2751, "osing": 2752, "\u0120takes": 2753, "\u0120regard": 2754, "\u0120opportun": 2755, "\u0120price": 2756, "\u0120198": 2757, "\u0120Apr": 2758, "fully": 2759, "\u0120ord": 2760, "\u0120problems": 2761, "ruction": 2762, "ham": 2763, "\u0120Count": 2764, "lege": 2765, "\u0120leaders": 2766, "ET": 2767, "lev": 2768, "\u0120deep": 2769, "ological": 2770, "ese": 2771, "haps": 2772, "\u0120Some": 2773, "\u0120pers": 2774, "\u0120contract": 2775, "\u0120relationship": 2776, "sp": 2777, "oud": 2778, "\u0120base": 2779, "48": 2780, "mit": 2781, "Ad": 2782, "ancial": 2783, "\u0120consum": 2784, "\u0120potential": 2785, "\u0120langu": 2786, "rem": 2787, "eth": 2788, "\u0120relig": 2789, "ressed": 2790, "66": 2791, "\u0120link": 2792, "\u0120lower": 2793, "ayer": 2794, "\u0120June": 2795, "\u0120fem": 2796, "unt": 2797, "erc": 2798, "urd": 2799, "\u0120contact": 2800, "\u0120ill": 2801, "\u0120mother": 2802, "\u0120estab": 2803, "htt": 2804, "\u0120March": 2805, "\u0120Bro": 2806, "\u0120China": 2807, "\u012029": 2808, "\u0120squ": 2809, "\u0120provided": 2810, "\u0120average": 2811, "asons": 2812, "\u01202011": 2813, "\u0120exam": 2814, "lin": 2815, "55": 2816, "ned": 2817, "\u0120perfect": 2818, "\u0120tou": 2819, "alse": 2820, "ux": 2821, "\u0120buy": 2822, "\u0120shot": 2823, "\u0120collect": 2824, "\u0120phot": 2825, "\u0120played": 2826, "\u0120surpr": 2827, "\u0120officials": 2828, "\u0120simple": 2829, "avy": 2830, "\u0120industry": 2831, "\u0120hands": 2832, "ground": 2833, "\u0120pull": 2834, "\u0120round": 2835, "\u0120user": 2836, "\u0120range": 2837, "uary": 2838, "\u0120private": 2839, "ops": 2840, "ees": 2841, "\u0120ways": 2842, "\u0120Mich": 2843, "\u0120veh": 2844, "\u0120except": 2845, "\u0120terms": 2846, "imum": 2847, "pper": 2848, "ION": 2849, "ores": 2850, "\u0120Dragon": 2851, "oul": 2852, "\u0120den": 2853, "\u0120performance": 2854, "\u0120bill": 2855, "cil": 2856, "47": 2857, "\u0120environment": 2858, "\u0120exc": 2859, "add": 2860, "\u0120worth": 2861, "\u0120pict": 2862, "\u0120chance": 2863, "\u01202018": 2864, "bor": 2865, "\u0120speed": 2866, "iction": 2867, "\u0120alleg": 2868, "\u0120Japan": 2869, "atory": 2870, "reet": 2871, "\u0120match": 2872, "\u0120II": 2873, "\u0120stru": 2874, "order": 2875, "\u0120ste": 2876, "\u0120living": 2877, "\u0120struct": 2878, "ino": 2879, "\u0120separ": 2880, "hern": 2881, "\u0120response": 2882, "\u0120enjoy": 2883, "\u0120via": 2884, "AD": 2885, "uments": 2886, "acebook": 2887, "\u0120member": 2888, "ibr": 2889, "izing": 2890, "\u0120tool": 2891, "\u0120Mon": 2892, "\u0120While": 2893, "hood": 2894, "\u0120Ang": 2895, "\u0120Def": 2896, "\u0120offer": 2897, "Tr": 2898, "aur": 2899, "\u0120turned": 2900, "\u0120July": 2901, "down": 2902, "anced": 2903, "\u0120recently": 2904, "\u0120Ear": 2905, "\u0120ce": 2906, "\u0120Star": 2907, "\u0120Cong": 2908, "rought": 2909, "\u0120blood": 2910, "\u0120hope": 2911, "\u0120comment": 2912, "aint": 2913, "\u0120arri": 2914, "iles": 2915, "\u0120particip": 2916, "ought": 2917, "ription": 2918, "08": 2919, "49": 2920, "\u0120gave": 2921, "\u0120select": 2922, "\u0120killed": 2923, "sych": 2924, "\u0120goes": 2925, "ij": 2926, "\u0120coll": 2927, "\u0120impact": 2928, "atives": 2929, "\u0120Ser": 2930, "09": 2931, "\u0120August": 2932, "\u0120boy": 2933, "de": 2934, "\u0120Des": 2935, "\u0120felt": 2936, "US": 2937, "\u0120expected": 2938, "\u0120image": 2939, "\u0120Mark": 2940, "ccording": 2941, "oice": 2942, "EC": 2943, "\u0120Mag": 2944, "ened": 2945, "hold": 2946, "\u0120Post": 2947, "\u0120prevent": 2948, "No": 2949, "\u0120involved": 2950, "\u0120eyes": 2951, "\u0120quickly": 2952, "At": 2953, "unk": 2954, "\u0120behav": 2955, "\u0120ur": 2956, "\u0120led": 2957, "come": 2958, "ey": 2959, "\u0120candid": 2960, "\u0120earlier": 2961, "\u0120focus": 2962, "ety": 2963, "Pro": 2964, "ledge": 2965, "ixed": 2966, "illed": 2967, "\u0120popular": 2968, "AP": 2969, "\u0120sett": 2970, "light": 2971, "\u0120various": 2972, "inks": 2973, "\u0120levels": 2974, "\u0120road": 2975, "ellig": 2976, "ables": 2977, "hel": 2978, "ittee": 2979, "\u0120Gener": 2980, "ype": 2981, "\u0120heard": 2982, "icles": 2983, "\u0120mis": 2984, "\u0120users": 2985, "\u0120San": 2986, "\u0120improve": 2987, "\u0120father": 2988, "\u0120search": 2989, "They": 2990, "vil": 2991, "\u0120profess": 2992, "\u0120knew": 2993, "\u0120loss": 2994, "\u0120events": 2995, "65": 2996, "\u0120billion": 2997, "07": 2998, "02": 2999, "\u0120News": 3000, "\u0120AM": 3001, "\u0120cover": 3002, "where": 3003, "ension": 3004, "\u0120bott": 3005, "\u0120areas": 3006, "ences": 3007, "ope": 3008, "\u0120Twitter": 3009, "ael": 3010, "\u0120gets": 3011, "\u0120Google": 3012, "\u0120sn": 3013, "iant": 3014, "\u0120vote": 3015, "\u0120nearly": 3016, "\u0120included": 3017, "\u0120recogn": 3018, "zz": 3019, "mm": 3020, "aled": 3021, "\u0120happened": 3022, "04": 3023, "\u0120hot": 3024, "\u0120whose": 3025, "\u0120civil": 3026, "\u0120suff": 3027, "oes": 3028, "itiz": 3029, "\u0120Syri": 3030, "\u0120respond": 3031, "\u0120hon": 3032, "\u0120features": 3033, "\u0120economic": 3034, "\u0120April": 3035, "rim": 3036, "\u0120technology": 3037, "\u0120option": 3038, "aging": 3039, "\u0120purch": 3040, "Re": 3041, "\u0120lat": 3042, "chie": 3043, "isl": 3044, "\u0120recomm": 3045, "uf": 3046, "\u0120training": 3047, "\u0120effects": 3048, "\u0120fast": 3049, "\u01202010": 3050, "\u0120occur": 3051, "\u0120website": 3052, "\u0120email": 3053, "\u0120sens": 3054, "ech": 3055, "\u0120oil": 3056, "\u0120influ": 3057, "\u0120currently": 3058, "\u0120Sch": 3059, "\u0120Add": 3060, "\u0120goal": 3061, "\u0120scient": 3062, "\u0120conv": 3063, "100": 3064, "emy": 3065, "\u0120decided": 3066, "\u0120travel": 3067, "\u0120mention": 3068, "LL": 3069, "03": 3070, "\u0120election": 3071, "\u0120phone": 3072, "\u0120looks": 3073, "\u0120situation": 3074, "\u0120cy": 3075, "\u0120hor": 3076, "bed": 3077, "\u0120Court": 3078, "aily": 3079, "aves": 3080, "\u0120quality": 3081, "\u0120Comp": 3082, "wise": 3083, "\u0120table": 3084, "\u0120staff": 3085, "\u0120Wind": 3086, "ett": 3087, "\u0120tried": 3088, "idered": 3089, "\u0120addition": 3090, "\u0120box": 3091, "\u0120lack": 3092, "arily": 3093, "\u0120wide": 3094, "\u0120mid": 3095, "\u0120board": 3096, "ysis": 3097, "\u0120anti": 3098, "ha": 3099, "\u0120dig": 3100, "ening": 3101, "\u0120dro": 3102, "Con": 3103, "68": 3104, "\u0120slow": 3105, "based": 3106, "sequ": 3107, "\u0120path": 3108, "Ex": 3109, "aker": 3110, "\u0120worked": 3111, "\u0120pen": 3112, "\u0120engine": 3113, "\u0120looked": 3114, "\u0120Super": 3115, "\u0120Serv": 3116, "\u0120victim": 3117, "Un": 3118, "\u0120property": 3119, "\u0120introdu": 3120, "\u0120execut": 3121, "\u0120PM": 3122, "Le": 3123, "\u0120color": 3124, "\u0120More": 3125, "\u012060": 3126, "\u0120network": 3127, "\u0120date": 3128, "cul": 3129, "idge": 3130, "\u0120extra": 3131, "31": 3132, "\u0120sle": 3133, "67": 3134, "\u0120wond": 3135, "\u0120reports": 3136, "just": 3137, "\u0120Austral": 3138, "\u0120capital": 3139, "\u0120ens": 3140, "\u0120command": 3141, "\u0120allowed": 3142, "\u0120prep": 3143, "\u0120capt": 3144, "hib": 3145, "\u0120numbers": 3146, "chan": 3147, "\u0120fair": 3148, "mp": 3149, "oms": 3150, "\u0120reach": 3151, "With": 3152, "tain": 3153, "\u0120broad": 3154, "\u0120couple": 3155, "ecause": 3156, "lying": 3157, "\u0120Feb": 3158, "\u0120screen": 3159, "\u0120lives": 3160, "\u0120prior": 3161, "\u0120Congress": 3162, "Ar": 3163, "\u0120approach": 3164, "\u0120emer": 3165, "aries": 3166, "\u0120Dis": 3167, "serv": 3168, "\u0120Ne": 3169, "\u0120built": 3170, "cies": 3171, "\u0120repe": 3172, "\u0120rules": 3173, "force": 3174, "\u0120Pal": 3175, "\u0120financial": 3176, "\u0120considered": 3177, "\u0120Char": 3178, "nces": 3179, "\u0120IS": 3180, "\u0120brought": 3181, "\u0120bi": 3182, "iers": 3183, "\u0120Sim": 3184, "OP": 3185, "\u0120products": 3186, "\u0120visit": 3187, "\u0120document": 3188, "\u0120conduct": 3189, "\u0120completely": 3190, "ining": 3191, "\u0120Calif": 3192, "ibly": 3193, "\u0120written": 3194, "\u0120TV": 3195, "ements": 3196, "\u0120draw": 3197, "One": 3198, "\u0120published": 3199, "\u0120secret": 3200, "rain": 3201, "het": 3202, "\u0120Facebook": 3203, "onday": 3204, "\u0120Up": 3205, "\u0120sexual": 3206, "\u0120thous": 3207, "\u0120Pat": 3208, "\u0120ess": 3209, "\u0120standard": 3210, "\u0120arm": 3211, "ges": 3212, "ection": 3213, "\u0120fell": 3214, "\u0120foreign": 3215, "ani": 3216, "\u0120Friday": 3217, "\u0120regular": 3218, "inary": 3219, "\u0120increased": 3220, "\u0120usually": 3221, "\u0120demon": 3222, "\u0120dark": 3223, "\u0120additional": 3224, "rol": 3225, "\u0120Of": 3226, "\u0120production": 3227, "!!": 3228, "undred": 3229, "\u0120international": 3230, "idents": 3231, "\u0120Free": 3232, "roup": 3233, "\u0120race": 3234, "\u0120mach": 3235, "\u0120huge": 3236, "All": 3237, "lear": 3238, "ovember": 3239, "\u0120town": 3240, "\u0120attention": 3241, "\u0120Off": 3242, "yond": 3243, "\u0120Then": 3244, "field": 3245, "\u0120terror": 3246, "raz": 3247, "\u0120Bo": 3248, "\u0120meeting": 3249, "\u0120Park": 3250, "\u0120arrest": 3251, "\u0120fear": 3252, "\u0120aw": 3253, "\u0120Val": 3254, "oring": 3255, "',": 3256, "\u0120extreme": 3257, "arr": 3258, "\u0120workers": 3259, "After": 3260, "\u012031": 3261, "net": 3262, "ament": 3263, "\u0120directly": 3264, "\u0120population": 3265, "ube": 3266, "\u0120October": 3267, "\u0120IN": 3268, "\u0120January": 3269, "59": 3270, "\u0120David": 3271, "\u0120cross": 3272, "cember": 3273, "\u0120First": 3274, "\u0120message": 3275, "irit": 3276, "\u0120nation": 3277, "\u0120poll": 3278, "isions": 3279, "\u0120answer": 3280, "ny": 3281, "isode": 3282, "\u0120carry": 3283, "\u0120Russia": 3284, "\u0120hear": 3285, "ength": 3286, "roy": 3287, "\u0120natural": 3288, "inally": 3289, "\u0120dog": 3290, "mitted": 3291, "\u0120trade": 3292, "\u0120subst": 3293, "\u0120multiple": 3294, "\u0120Afric": 3295, "\u0120fans": 3296, "\u0120sort": 3297, "\u0120global": 3298, "ication": 3299, "\u0120Wed": 3300, "ara": 3301, "\u0120achie": 3302, "\u0120language": 3303, "vey": 3304, "\u0120tal": 3305, "\u0120necessary": 3306, "\u0120details": 3307, "\u0120sen": 3308, "\u0120Sund": 3309, "\u0120Reg": 3310, "\u0120Rec": 3311, "06": 3312, "\u0120sil": 3313, "ressive": 3314, "\u0120medical": 3315, "unch": 3316, "ornia": 3317, "\u0120und": 3318, "fort": 3319, "ocks": 3320, "\u0120Monday": 3321, "uesday": 3322, "craft": 3323, "77": 3324, "urt": 3325, "\u0120ver": 3326, "\u0120Hill": 3327, "\u0120receive": 3328, "\u0120morning": 3329, "estern": 3330, "\u0120bank": 3331, "\u0120sat": 3332, "irth": 3333, "\u0120High": 3334, "\u0120device": 3335, "\u0120THE": 3336, "\u0120Center": 3337, "\u0120safe": 3338, "\u0120ple": 3339, "\u0120Canada": 3340, "\u0120systems": 3341, "\u0120assist": 3342, "\u0120surv": 3343, "\u0120battle": 3344, "\u0120Soc": 3345, "vertis": 3346, "She": 3347, "\u0120paper": 3348, "\u0120growth": 3349, "\u0120cast": 3350, "Sc": 3351, "\u0120plans": 3352, "lled": 3353, "\u0120parts": 3354, "\u0120wall": 3355, "\u0120movement": 3356, "\u0120practice": 3357, "imately": 3358, "\u0120display": 3359, "\u0120sometimes": 3360, "omp": 3361, "\u0120Paul": 3362, "\u0120Yes": 3363, "king": 3364, "58": 3365, "oly": 3366, "\u0120son": 3367, "\u0120avoid": 3368, "okes": 3369, "\u0120Jew": 3370, "\u0120towards": 3371, "asc": 3372, "\u0120//": 3373, "\u0120Kore": 3374, "\u0120talking": 3375, "\u0120correct": 3376, "\u0120spent": 3377, "icks": 3378, "iable": 3379, "eared": 3380, "\u0120term": 3381, "\u0120wants": 3382, "oming": 3383, "\u0120ut": 3384, "\u0120doub": 3385, "\u0120forces": 3386, "\u0120please": 3387, "69": 3388, "\u0120November": 3389, "atform": 3390, "ondon": 3391, "\u0120ones": 3392, "\u0120immediately": 3393, "\u0120Russian": 3394, "\u0120Met": 3395, "\u0120deg": 3396, "\u0120parents": 3397, "CH": 3398, "\u0120Americans": 3399, "aly": 3400, "\u0120Mod": 3401, "\u0120shown": 3402, "\u0120conditions": 3403, "\u0120stuff": 3404, "\u0120reb": 3405, "\u0120Your": 3406, "\u0120includes": 3407, "nown": 3408, "\u0120Sam": 3409, "\u0120experien": 3410, "mission": 3411, "\u0120Even": 3412, "aught": 3413, "\u0120announced": 3414, "\u0120Republican": 3415, "\u0120determin": 3416, "\u0120described": 3417, "\u0120County": 3418, "()": 3419, "\u0120door": 3420, "\u0120changed": 3421, "\u0120neigh": 3422, "\u0120Here": 3423, "\u0120clean": 3424, "\u0120pan": 3425, "\u0120December": 3426, "\u0120European": 3427, "iring": 3428, "apter": 3429, "\u0120club": 3430, "\u0120Tuesday": 3431, "\u0120paid": 3432, "\u0120Net": 3433, "\u0120attacks": 3434, "\u0120characters": 3435, "\u0120alone": 3436, "\u0120director": 3437, "dom": 3438, "\u012035": 3439, "\u0120load": 3440, "\u0120rout": 3441, "\u0120California": 3442, "\u0120finally": 3443, "\u0120rac": 3444, "\u0120contr": 3445, "\u0120exactly": 3446, "resh": 3447, "pri": 3448, "\u0120Islam": 3449, "\u0120nature": 3450, "\u0120career": 3451, "\u0120latest": 3452, "\u0120convers": 3453, "\u0120Sl": 3454, "pose": 3455, "cient": 3456, "\u0120Inc": 3457, "ivity": 3458, "88": 3459, "\u0120Att": 3460, "\u0120Mor": 3461, "nesday": 3462, "\u0120weight": 3463, "ken": 3464, "\u0120note": 3465, "\u0120teams": 3466, "\u0120\\": 3467, "airs": 3468, "\u0120Green": 3469, "\u0120hundred": 3470, "onent": 3471, "\u0120streng": 3472, "\u0120consist": 3473, "icated": 3474, "\u0120regul": 3475, "\u0120lic": 3476, "astic": 3477, "\u0120ten": 3478, "ursday": 3479, "elligence": 3480, "ously": 3481, "\u0120UK": 3482, "BI": 3483, "\u0120costs": 3484, "\u0120independ": 3485, "\u0120AP": 3486, "\u0120normal": 3487, "\u0120hom": 3488, "\u0120obvious": 3489, "\u0120swe": 3490, "\u0120star": 3491, "\u0120ready": 3492, "acher": 3493, "\u0120implement": 3494, "gest": 3495, "\u0120song": 3496, "\u0120Get": 3497, "\u0120Lab": 3498, "\u0120interesting": 3499, "using": 3500, "\u0120giving": 3501, "\u0120Sunday": 3502, "\u0120etc": 3503, "\u0120middle": 3504, "\u0120remember": 3505, "right": 3506, "osition": 3507, "utions": 3508, "\u0120max": 3509, "46": 3510, "\u0120yourself": 3511, "\u0120demand": 3512, "\u0120treatment": 3513, "\u0120danger": 3514, "\u0120Cons": 3515, "\u0120guy": 3516, "\u0120British": 3517, "\u0120physical": 3518, "\u0120related": 3519, "\u0120remain": 3520, "\u0120couldn": 3521, "\u0120refer": 3522, "\u0120citiz": 3523, "box": 3524, "ENT": 3525, "board": 3526, "\u0120inn": 3527, "IG": 3528, "ero": 3529, "\u0120Street": 3530, "ospital": 3531, "rench": 3532, "chers": 3533, "\u0120stra": 3534, "OL": 3535, "ager": 3536, "\u0120AN": 3537, "\u0120easily": 3538, "IA": 3539, "enge": 3540, "iny": 3541, "\u0120clos": 3542, "ocked": 3543, "\u0120uses": 3544, "\u0120Coun": 3545, "Im": 3546, "uild": 3547, "??": 3548, "more": 3549, "\u0120ang": 3550, "\u0120write": 3551, "olute": 3552, "57": 3553, "\u0120leader": 3554, "\u0120reading": 3555, "</": 3556, "\u0120autom": 3557, "ests": 3558, "43": 3559, "\u0120legisl": 3560, "\u0120Gold": 3561, "\u0120designed": 3562, "\u0120ST": 3563, "\u0120Leg": 3564, "ares": 3565, "\u0120beaut": 3566, "\u0120Tex": 3567, "\u0120appears": 3568, "\u0120strugg": 3569, "\u0120Rom": 3570, "\u012000": 3571, "\u0120choice": 3572, "\u0120particularly": 3573, "\u0120From": 3574, "oper": 3575, "\u0120London": 3576, "anned": 3577, "\u0120allows": 3578, "obile": 3579, "\u0120difference": 3580, "\u00e2\u0122\u00a2": 3581, "\u0120View": 3582, "\u0120Wednesday": 3583, "\u0120although": 3584, "\u0120relative": 3585, "\u0120application": 3586, "atever": 3587, "\u0120aren": 3588, "\u0120myself": 3589, "\u0120imag": 3590, "\u0120dise": 3591, "\u0120society": 3592, "\u0120frequ": 3593, "\u0120English": 3594, "\u0120poor": 3595, "\u0120Day": 3596, "\u0120writing": 3597, "\u0120seven": 3598, "\u0120starting": 3599, "\u0120bud": 3600, "\u0120print": 3601, "\u0120Trans": 3602, "ufact": 3603, "\u0120Stud": 3604, "new": 3605, "\u0120crim": 3606, "\u0120gives": 3607, "\u0120cool": 3608, "ae": 3609, "iance": 3610, "\u0120General": 3611, "\u0120thinking": 3612, "\u0120save": 3613, "\u0120limited": 3614, "\u0120Party": 3615, "\u0120meaning": 3616, "pen": 3617, "owers": 3618, "\u0120Jack": 3619, "EM": 3620, "\u0120nice": 3621, "rupt": 3622, "\u0120gas": 3623, "\u0120eight": 3624, "\u0120feet": 3625, "\u0120effort": 3626, "\u0120ign": 3627, "icit": 3628, "Bl": 3629, "coin": 3630, "\u0120opin": 3631, "\u0120brain": 3632, "While": 3633, "hest": 3634, "\u0120Thursday": 3635, "\u0120wouldn": 3636, "aughter": 3637, "\u0120touch": 3638, "lements": 3639, "\u0120studies": 3640, "\u0120center": 3641, "cont": 3642, "orge": 3643, "\u0120computer": 3644, "\u0120investigation": 3645, "Pl": 3646, "orks": 3647, "\u01202008": 3648, "\u0120increasing": 3649, "\u0120store": 3650, "\u0120comments": 3651, "\u0120bal": 3652, "men": 3653, "\u0120doll": 3654, "\u0120liber": 3655, "\u0120wife": 3656, "\u0120laws": 3657, "aturday": 3658, "itness": 3659, "\u0120modern": 3660, "\u0120Sk": 3661, "\u0120administration": 3662, "\u0120opportunity": 3663, "\u0120sal": 3664, "\u0120powerful": 3665, "My": 3666, "\u0120claims": 3667, "\u0120Earth": 3668, "ords": 3669, "\u0120title": 3670, "\u0120esc": 3671, "name": 3672, "Not": 3673, "omen": 3674, "\u0120beyond": 3675, "\u0120camer": 3676, "\u0120sell": 3677, "itute": 3678, "earch": 3679, "\u0120appl": 3680, "iment": 3681, "42": 3682, "\u0120Art": 3683, "\u0120unf": 3684, "\u0120violence": 3685, "urg": 3686, "\u0120East": 3687, "\u0120compared": 3688, "\u0120options": 3689, "\u0120throughout": 3690, "\u0120vs": 3691, "igr": 3692, ".[": 3693, "aches": 3694, "78": 3695, "\u0120files": 3696, "FL": 3697, "EL": 3698, "arian": 3699, "\u0120James": 3700, "\u0120Air": 3701, "anch": 3702, "\u0120detail": 3703, "\u0120piece": 3704, "PS": 3705, "\u0120named": 3706, "\u0120education": 3707, "\u0120drive": 3708, "\u0120items": 3709, "\u0120student": 3710, "iced": 3711, "::": 3712, "ico": 3713, "\u0120throw": 3714, "\u0120scene": 3715, "\u0120complex": 3716, "\u01202009": 3717, "\u0120prec": 3718, "\u0120Bre": 3719, "79": 3720, "\u0120concept": 3721, "\u0120status": 3722, "aming": 3723, "\u0120died": 3724, "\u0120knowledge": 3725, "\u0120beginning": 3726, "OD": 3727, "ruary": 3728, "\u0120certainly": 3729, "\u0120guys": 3730, "\u0120slight": 3731, "inn": 3732, "ounds": 3733, "\u0120fine": 3734, "\u0120fat": 3735, "ications": 3736, "\u0120perhaps": 3737, "\u0120Ant": 3738, "\u0120income": 3739, "\u0120https": 3740, "\u0120majority": 3741, "ports": 3742, "ston": 3743, "\u0120greater": 3744, "\u0120feed": 3745, "entially": 3746, "\u0120safety": 3747, "\u0120unique": 3748, "andom": 3749, "\u0120gone": 3750, "\u0120showed": 3751, "\u0120histor": 3752, "\u0120counter": 3753, "ius": 3754, "ida": 3755, "\u0120leading": 3756, "ipe": 3757, "\u0120send": 3758, "\u0120Donald": 3759, "erve": 3760, "\u0120defense": 3761, "inese": 3762, "\u0120yes": 3763, "\u0120Fire": 3764, "\u0120Muslim": 3765, "raq": 3766, "\u0120continued": 3767, "osh": 3768, "\u0120provides": 3769, "\u0120prison": 3770, "\u0120Pre": 3771, "\u0120happy": 3772, "\u0120economy": 3773, "\u0120trust": 3774, "ags": 3775, "\u0120Game": 3776, "\u0120weapons": 3777, "uman": 3778, "\u0120Cle": 3779, "itation": 3780, "\u0120analysis": 3781, "\u0120Times": 3782, "\u0120science": 3783, "->": 3784, "\u0120figure": 3785, "\u0120disapp": 3786, "enty": 3787, "\u0120software": 3788, "\u0120ult": 3789, "\u0120officers": 3790, "New": 3791, "Is": 3792, "\u0120remains": 3793, "\u0120India": 3794, "\u0120psych": 3795, "rief": 3796, "\u0120cat": 3797, "esc": 3798, "\u0120observ": 3799, "\u0120stage": 3800, "\u0120Dark": 3801, "\u0120enter": 3802, "change": 3803, "\u0120passed": 3804, "\u0120despite": 3805, "\u0120Out": 3806, "\u0120movie": 3807, "rs": 3808, "\u0120voice": 3809, "mine": 3810, "\u0120Play": 3811, "\u0120toward": 3812, "\u0120Ter": 3813, "\u0120region": 3814, "\u0120values": 3815, "orters": 3816, "\u0120mount": 3817, "\u0120officer": 3818, "\u0120Other": 3819, "ban": 3820, "\u0120hous": 3821, "wood": 3822, "room": 3823, "IV": 3824, "\u0120Sun": 3825, "see": 3826, "\u0120Over": 3827, "rog": 3828, "90": 3829, "\u0120lay": 3830, "\u0120Tur": 3831, "awn": 3832, "\u0120pressure": 3833, "\u0120Sub": 3834, "\u0120books": 3835, "edom": 3836, "\u0120Sand": 3837, "AA": 3838, "ago": 3839, "\u0120reasons": 3840, "ford": 3841, "\u0120activity": 3842, "UT": 3843, "Now": 3844, "\u0120Senate": 3845, "cell": 3846, "night": 3847, "\u0120calls": 3848, "inter": 3849, "\u0120letter": 3850, "\u0120Rob": 3851, "\u0120Je": 3852, "\u0120choose": 3853, "\u0120Law": 3854, "Get": 3855, "Be": 3856, "\u0120rob": 3857, "\u0120types": 3858, "\u0120platform": 3859, "\u0120quarter": 3860, "RA": 3861, "\u0120Time": 3862, "\u0120maybe": 3863, "\u0120Cr": 3864, "95": 3865, "pre": 3866, "\u0120moving": 3867, "\u0120lif": 3868, "\u0120gold": 3869, "\u0120som": 3870, "\u0120patients": 3871, "\u0120truth": 3872, "\u0120Ke": 3873, "urance": 3874, "antly": 3875, "mar": 3876, "\u0120charge": 3877, "\u0120Great": 3878, "\u0120cele": 3879, "--------------------------------": 3880, "\u0120rock": 3881, "roid": 3882, "ancy": 3883, "\u0120credit": 3884, "aud": 3885, "By": 3886, "\u0120Every": 3887, "\u0120moved": 3888, "inger": 3889, "ribution": 3890, "\u0120names": 3891, "\u0120straight": 3892, "\u0120Health": 3893, "\u0120Well": 3894, "\u0120feature": 3895, "\u0120rule": 3896, "\u0120sche": 3897, "inated": 3898, "\u0120Michael": 3899, "berg": 3900, "41": 3901, "iled": 3902, "band": 3903, "\u0120click": 3904, "\u0120Angel": 3905, "onents": 3906, "\u00c2\u0143": 3907, "\u0120Iraq": 3908, "\u0120Saturday": 3909, "\u0120aware": 3910, "part": 3911, "\u0120pattern": 3912, "OW": 3913, "\u0120Let": 3914, "\u0120grad": 3915, "igned": 3916, "\u0120associated": 3917, "\u0120style": 3918, "no": 3919, "iation": 3920, "aith": 3921, "ilies": 3922, "\u0120stories": 3923, "uration": 3924, "\u0120individuals": 3925, "\u0120\u00e2\u0122\u00a6": 3926, "miss": 3927, "\u0120Associ": 3928, "ishing": 3929, "aby": 3930, "\u0120summer": 3931, "\u0120Ben": 3932, "\u012032": 3933, "\u0120arch": 3934, "uty": 3935, "\u0120Texas": 3936, "hol": 3937, "\u0120fully": 3938, "\u0120mill": 3939, "\u0120followed": 3940, "\u0120Bill": 3941, "\u0120Indian": 3942, "\u0120Secret": 3943, "\u0120Bel": 3944, "\u0120February": 3945, "\u0120jobs": 3946, "\u0120seemed": 3947, "\u0120Govern": 3948, "ipped": 3949, "\u0120reality": 3950, "\u0120lines": 3951, "\u0120park": 3952, "\u0120measure": 3953, "\u0120Our": 3954, "IM": 3955, "\u0120brother": 3956, "\u0120growing": 3957, "\u0120ban": 3958, "\u0120estim": 3959, "\u0120cry": 3960, "\u0120School": 3961, "\u0120mechan": 3962, "\u0120OF": 3963, "\u0120Windows": 3964, "\u0120rates": 3965, "\u0120Oh": 3966, "\u0120positive": 3967, "\u0120culture": 3968, "istics": 3969, "ica": 3970, "\u0120har": 3971, "ya": 3972, "itely": 3973, "ipp": 3974, "\u0120map": 3975, "encies": 3976, "\u0120William": 3977, "II": 3978, "akers": 3979, "56": 3980, "\u0120Mart": 3981, "\u0120Rem": 3982, "\u0120altern": 3983, "itude": 3984, "\u0120coach": 3985, "rowd": 3986, "Don": 3987, "\u0120kids": 3988, "\u0120journal": 3989, "\u0120corpor": 3990, "\u0120false": 3991, "\u0120web": 3992, "\u0120sleep": 3993, "\u0120contain": 3994, "\u0120sto": 3995, "\u0120bed": 3996, "iverse": 3997, "\u0120Rich": 3998, "\u0120Chinese": 3999, "\u0120pun": 4000, "\u0120meant": 4001, "known": 4002, "\u0120notice": 4003, "\u0120favorite": 4004, "aven": 4005, "\u0120condition": 4006, "\u0120purpose": 4007, "))": 4008, "\u0120organization": 4009, "\u0120challeng": 4010, "\u0120manufact": 4011, "\u0120susp": 4012, "\u0120Ac": 4013, "\u0120critic": 4014, "unes": 4015, "uclear": 4016, "\u0120mer": 4017, "vention": 4018, "\u012080": 4019, "\u0120mist": 4020, "\u0120Us": 4021, "\u0120Tor": 4022, "http": 4023, "olf": 4024, "\u0120larger": 4025, "\u0120advant": 4026, "\u0120resear": 4027, "\u0120actions": 4028, "ml": 4029, "\u0120kept": 4030, "\u0120aim": 4031, ",'": 4032, "col": 4033, "\u0120benefits": 4034, "ifying": 4035, "\u0120actual": 4036, "\u0120International": 4037, "\u0120vehicle": 4038, "\u0120chief": 4039, "\u0120efforts": 4040, "\u0120League": 4041, "\u0120Most": 4042, "\u0120wait": 4043, "\u0120adult": 4044, "\u0120overall": 4045, "\u0120speech": 4046, "\u0120highly": 4047, "\u0120female": 4048, "\u0120error": 4049, "\u0120effective": 4050, "54": 4051, "\u0120encour": 4052, "well": 4053, "\u0120failed": 4054, "\u0120conserv": 4055, "\u0120programs": 4056, "\u0120trou": 4057, "\u0120ahead": 4058, "500": 4059, "vertisement": 4060, "IP": 4061, "\u0120Found": 4062, "pir": 4063, "\u0120%": 4064, "\u0120crime": 4065, "ander": 4066, "\u0120location": 4067, "\u0120Iran": 4068, "\u0120behavior": 4069, "azing": 4070, "\u0120rare": 4071, "\u0120emb": 4072, "\u0120caused": 4073, "\u0120ship": 4074, "\u0120active": 4075, "\u0120contribut": 4076, "\u0120green": 4077, "\u0120acqu": 4078, "\u0120reflect": 4079, "venue": 4080, "\u0120firm": 4081, "\u0120birth": 4082, "].": 4083, "\u0120clearly": 4084, "\u0120emot": 4085, "\u0120agency": 4086, "riage": 4087, "\u0120memory": 4088, "98": 4089, "SA": 4090, "\u0120See": 4091, "acing": 4092, "CC": 4093, "\u0120biggest": 4094, "\u0120rap": 4095, "\u0120basic": 4096, "\u0120band": 4097, "eat": 4098, "\u0120suspect": 4099, "\u0120Mac": 4100, "\u012090": 4101, "mark": 4102, "istan": 4103, "\u0120spread": 4104, "ams": 4105, "ki": 4106, "asy": 4107, "rav": 4108, "\u0120Rober": 4109, "\u0120demonstr": 4110, "rated": 4111, "\u0120absolute": 4112, "\u0120places": 4113, "\u0120impl": 4114, "ibrary": 4115, "\u0120cards": 4116, "\u0120destroy": 4117, "\u0120virt": 4118, "vere": 4119, "\u0120appeared": 4120, "yan": 4121, "point": 4122, "\u0120beg": 4123, "\u0120temper": 4124, "spe": 4125, "anted": 4126, "ears": 4127, "\u0120Direct": 4128, "\u0120length": 4129, "\u0120blog": 4130, "amb": 4131, "\u0120integ": 4132, "\u0120resources": 4133, "acc": 4134, "iful": 4135, "\u0120spot": 4136, "\u0120forced": 4137, "\u0120thousands": 4138, "\u0120Minister": 4139, "\u0120qual": 4140, "\u0120French": 4141, "atically": 4142, "\u0120generally": 4143, "\u0120drink": 4144, "\u0120thus": 4145, "IL": 4146, "odes": 4147, "\u0120appropri": 4148, "\u0120Read": 4149, "\u0120whom": 4150, "\u0120eye": 4151, "\u0120college": 4152, "\u012045": 4153, "irection": 4154, "\u0120ensure": 4155, "\u0120apparent": 4156, "iders": 4157, "\u0120religious": 4158, "\u0120minor": 4159, "olic": 4160, "\u0120tro": 4161, "\u0120Why": 4162, "ribute": 4163, "met": 4164, "\u0120primary": 4165, "\u0120developed": 4166, "\u0120peace": 4167, "\u0120skin": 4168, "ste": 4169, "ava": 4170, "\u0120blue": 4171, "\u0120families": 4172, "\u0120ir": 4173, "\u0120apply": 4174, "\u0120inform": 4175, "\u0120Smith": 4176, "CT": 4177, "ii": 4178, "\u0120limit": 4179, "\u0120resist": 4180, "................": 4181, "umn": 4182, "\u0120conflic": 4183, "\u0120twe": 4184, "udd": 4185, "\u0120Tom": 4186, "\u0120liter": 4187, "que": 4188, "bon": 4189, "\u0120hair": 4190, "\u0120eventually": 4191, "\u0120pus": 4192, "\u0120helped": 4193, "\u0120agg": 4194, "orney": 4195, "\u0120Apple": 4196, "\u0120fit": 4197, "\u0120Sur": 4198, "\u0120prem": 4199, "\u0120sales": 4200, "\u0120seconds": 4201, "\u0120strength": 4202, "\u0120feeling": 4203, "\u00bf\u00bd": 4204, "\u0120tour": 4205, "\u0120knows": 4206, "oom": 4207, "\u0120exerc": 4208, "\u0120somew": 4209, "\u00ef\u00bf\u00bd": 4210, ">>": 4211, "\u0120spokes": 4212, "\u0120ideas": 4213, "\u0120regist": 4214, "soft": 4215, "\u0120Del": 4216, "\u0120PC": 4217, "\u0120propos": 4218, "\u0120launch": 4219, "\u0120bottom": 4220, "TH": 4221, "\u0120Please": 4222, "vest": 4223, "itz": 4224, "\u0120Inter": 4225, "\u0120script": 4226, "\u0120rat": 4227, "arning": 4228, "\u0120il": 4229, "\u0120Jer": 4230, "\u0120Are": 4231, "\u0120whatever": 4232, "oken": 4233, "cience": 4234, "\u0120mode": 4235, "\u0120agree": 4236, "\u0120sources": 4237, "\u0120initial": 4238, "\u0120restrict": 4239, "\u0120wonder": 4240, "usion": 4241, "####": 4242, "\u0120Sil": 4243, "ville": 4244, "\u0120burn": 4245, "tw": 4246, "asion": 4247, "\u0120\u00c2\u00a3": 4248, "\u0120nor": 4249, "uing": 4250, "\u0120reached": 4251, "\u0120sun": 4252, "\u0120categ": 4253, "igration": 4254, "\u0120cook": 4255, "\u0120promot": 4256, "\u0120male": 4257, "\u0120climate": 4258, "\u0120fix": 4259, "\u0120alleged": 4260, "UR": 4261, "alled": 4262, "\u0120images": 4263, "Cont": 4264, "ota": 4265, "\u0120schools": 4266, "ios": 4267, "\u0120drop": 4268, "\u0120stream": 4269, "\u0120Mo": 4270, "\u0120previously": 4271, "aling": 4272, "\u0120pet": 4273, "\u0120double": 4274, "\u0120(@": 4275, "annel": 4276, "\u0120default": 4277, "ties": 4278, "\u0120rank": 4279, "\u0120Dec": 4280, "\u0120Council": 4281, "\u0120weapon": 4282, "\u0120stock": 4283, "\u0120analy": 4284, "\u0120Str": 4285, "\u0120picture": 4286, "\u0120Police": 4287, "ference": 4288, "\u0120century": 4289, "\u0120citizens": 4290, "\u0120onto": 4291, "\u0120expand": 4292, "\u0120hero": 4293, "\u0120Sol": 4294, "\u0120wild": 4295, "\u0120update": 4296, "\u0120customers": 4297, "ront": 4298, "def": 4299, "\u0120lik": 4300, "\u0120criminal": 4301, "\u0120Christian": 4302, "SP": 4303, "76": 4304, "\u0120leaving": 4305, "\u0120otherwise": 4306, "\u0120Dist": 4307, "\u0120basis": 4308, "52": 4309, "53": 4310, "icip": 4311, "\u0120Ber": 4312, "\u0120recommend": 4313, "\u0120floor": 4314, "\u0120crowd": 4315, "oles": 4316, "\u012070": 4317, "\u0120central": 4318, "\u0120Ev": 4319, "\u0120dream": 4320, "\u0120download": 4321, "\u0120confir": 4322, "\u0120Thom": 4323, "\u0120window": 4324, "\u0120happens": 4325, "\u0120unit": 4326, "\u0120tend": 4327, "\u0120spl": 4328, "\u0120becomes": 4329, "\u0120fighting": 4330, "\u0120predict": 4331, "\u0120Press": 4332, "\u0120Power": 4333, "\u0120heavy": 4334, "aked": 4335, "\u0120fan": 4336, "orter": 4337, "ategy": 4338, "BA": 4339, "izes": 4340, "\u0120spend": 4341, "Here": 4342, "\u01202007": 4343, "\u0120adop": 4344, "\u0120Ham": 4345, "\u0120football": 4346, "\u0120Port": 4347, "oday": 4348, "51": 4349, "ampions": 4350, "\u0120transfer": 4351, "ht": 4352, "\u012038": 4353, "term": 4354, "acity": 4355, "\u0120bur": 4356, "],": 4357, "ternal": 4358, "rig": 4359, "but": 4360, "\u0120therefore": 4361, "\u0120Because": 4362, "resp": 4363, "rey": 4364, "\u0120mission": 4365, "Some": 4366, "\u0120noted": 4367, "\u0120assum": 4368, "\u0120disease": 4369, "\u0120edit": 4370, "\u0120progress": 4371, "rd": 4372, "\u0120Brown": 4373, "ocal": 4374, "\u0120adding": 4375, "\u0120raised": 4376, "\u0120Any": 4377, "\u0120tick": 4378, "\u0120seeing": 4379, "\u0120People": 4380, "\u0120agreement": 4381, "\u0120server": 4382, "\u0120wat": 4383, "\u0120debate": 4384, "\u0120supposed": 4385, "iling": 4386, "\u0120largest": 4387, "\u0120successful": 4388, "\u0120Pri": 4389, "\u0120Democratic": 4390, "\u0120jump": 4391, "\u0120Syria": 4392, "\u0120owners": 4393, "\u0120offers": 4394, "\u0120shooting": 4395, "\u0120effic": 4396, "sey": 4397, "\u0120haven": 4398, "verse": 4399, "tered": 4400, "\u0120Light": 4401, "imal": 4402, "\u0120Big": 4403, "\u0120defend": 4404, "\u0120beat": 4405, "\u0120records": 4406, "%)": 4407, "\u0120scen": 4408, "\u0120employees": 4409, "\u0120devices": 4410, "hem": 4411, "\u0120commer": 4412, "\u0120Mex": 4413, "\u0120benefit": 4414, "\u0120Prof": 4415, "\u0120illeg": 4416, "\u0120surface": 4417, "\u0120Also": 4418, "\u0120harm": 4419, "ingly": 4420, "wide": 4421, "\u0120Alex": 4422, "\u0120shut": 4423, "\u0120Cur": 4424, "\u0120lose": 4425, "pm": 4426, "\u0120challenge": 4427, "semb": 4428, "\u0120station": 4429, "\u0120intelligence": 4430, "\u0120accur": 4431, "\u0120Flor": 4432, "\u0120requires": 4433, "\u0120Mal": 4434, "bum": 4435, "\u0120hospital": 4436, "\u0120spirit": 4437, "\u0120offered": 4438, "\u0120produce": 4439, "\u0120Commun": 4440, "\u0120creating": 4441, "\u0120cris": 4442, "spect": 4443, "\u0120ended": 4444, "\u0120daily": 4445, "\u0120voters": 4446, "lands": 4447, "ias": 4448, "ih": 4449, "ona": 4450, "\u0120smart": 4451, "\u0120Office": 4452, "\u0120Lord": 4453, "rial": 4454, "\u0120Internet": 4455, "\u0120circum": 4456, "\u0120extremely": 4457, "'.": 4458, "\u0120opinion": 4459, "\u0120Mil": 4460, "\u0120gain": 4461, "BS": 4462, "\u0120Fin": 4463, "yp": 4464, "\u0120useful": 4465, "\u0120budget": 4466, "\u0120comfort": 4467, "isf": 4468, "\u0120background": 4469, "eline": 4470, "\u0120episode": 4471, "\u0120enemy": 4472, "\u0120trial": 4473, "\u0120establish": 4474, "date": 4475, "\u0120Cap": 4476, "\u0120continues": 4477, "\u0120showing": 4478, "\u0120Union": 4479, "with": 4480, "\u0120posted": 4481, "\u0120System": 4482, "\u0120eat": 4483, "rian": 4484, "\u0120rise": 4485, "\u0120Germany": 4486, "ils": 4487, "\u0120signed": 4488, "\u0120vill": 4489, "\u0120grand": 4490, "mor": 4491, "\u0120England": 4492, "\u0120projects": 4493, "umber": 4494, "\u0120conference": 4495, "za": 4496, "\u0120responsible": 4497, "\u0120Arab": 4498, "\u0120learned": 4499, "\u00e2\u0122\u0136\u00e2\u0122\u0136": 4500, "ipping": 4501, "\u0120George": 4502, "OC": 4503, "\u0120returned": 4504, "\u0120Australia": 4505, "\u0120brief": 4506, "Qu": 4507, "\u0120brand": 4508, "illing": 4509, "abled": 4510, "\u0120highest": 4511, "\u0120train": 4512, "\u0120Commission": 4513, "while": 4514, "\u0120nom": 4515, "ception": 4516, "\u0120mut": 4517, "\u0120Blue": 4518, "\u0120incident": 4519, "vant": 4520, "86": 4521, "\u0120ID": 4522, "\u0120nuclear": 4523, "74": 4524, "\u0120Like": 4525, "\u0120RE": 4526, "\u0120Micro": 4527, "li": 4528, "mail": 4529, "\u0120charges": 4530, "89": 4531, "\u0120adjust": 4532, "ado": 4533, "\u0120earth": 4534, "NA": 4535, "\u0120prices": 4536, "PA": 4537, "\u0120draft": 4538, "\u0120runs": 4539, "\u0120candidate": 4540, "enses": 4541, "\u0120management": 4542, "\u0120Phil": 4543, "\u0120Miss": 4544, "\u0120teach": 4545, "gram": 4546, "\u0120understanding": 4547, "ait": 4548, "icago": 4549, "Add": 4550, "\u0120Ep": 4551, "secut": 4552, "\u0120separate": 4553, "\u0120instance": 4554, "\u0120eth": 4555, "\u0120unless": 4556, "********": 4557, "\u0120Fore": 4558, "inate": 4559, "\u0120operations": 4560, "Sp": 4561, "\u0120faith": 4562, "gar": 4563, "\u0120Church": 4564, "ronic": 4565, "\u0120config": 4566, "osure": 4567, "\u0120activities": 4568, "\u0120traditional": 4569, "\u012036": 4570, "\u0120direction": 4571, "\u0120machine": 4572, "\u0120surround": 4573, "\u0120push": 4574, "unction": 4575, "\u0120EU": 4576, "\u0120easier": 4577, "\u0120argument": 4578, "GB": 4579, "\u0120micro": 4580, "\u0120spending": 4581, "izations": 4582, "\u0120theory": 4583, "adow": 4584, "\u0120calling": 4585, "\u0120Last": 4586, "\u0120der": 4587, "\u0120influence": 4588, "\u0120commit": 4589, "\u0120photo": 4590, "\u0120unc": 4591, "istry": 4592, "gn": 4593, "aste": 4594, "acks": 4595, "\u0120disp": 4596, "ady": 4597, "do": 4598, "\u0120Good": 4599, "\u0120`": 4600, "\u0120wish": 4601, "\u0120revealed": 4602, "\u00c2\u0142\u00c2\u0142": 4603, "lig": 4604, "\u0120enforce": 4605, "\u0120Committee": 4606, "\u0120chem": 4607, "\u0120miles": 4608, "\u0120interested": 4609, "\u0120solution": 4610, "icy": 4611, "inct": 4612, "\u0120->": 4613, "\u0120Det": 4614, "\u0120removed": 4615, "\u0120compar": 4616, "eah": 4617, "\u0120plant": 4618, "\u0120Since": 4619, "\u0120achieve": 4620, "\u0120advantage": 4621, "\u0120slightly": 4622, "bing": 4623, "\u0120placed": 4624, "under": 4625, "2015": 4626, "\u0120Mad": 4627, "\u0120tim": 4628, "oses": 4629, "\u0120cru": 4630, "\u0120Rock": 4631, "\u0120mostly": 4632, "\u0120negative": 4633, "\u0120setting": 4634, "\u0120produced": 4635, "\u0120mur": 4636, "\u0120connection": 4637, "\u0120Mer": 4638, "\u0120driver": 4639, "\u0120executive": 4640, "\u0120assault": 4641, "\u0120born": 4642, "\u0120Ver": 4643, "tained": 4644, "\u0120structure": 4645, "\u0120reduce": 4646, "\u0120decades": 4647, "\u0120ded": 4648, "uke": 4649, "\u0120Many": 4650, "idden": 4651, "\u0120league": 4652, "Se": 4653, "\u0120join": 4654, "\u0120disco": 4655, "\u0120die": 4656, "cks": 4657, "actions": 4658, "\u0120assess": 4659, "agn": 4660, "\u0120goals": 4661, "ours": 4662, "IR": 4663, "\u0120senior": 4664, "iller": 4665, "mod": 4666, "ipment": 4667, "ocol": 4668, "uy": 4669, "\u0120Que": 4670, "\u0120parties": 4671, "irgin": 4672, "\u0120learning": 4673, "itable": 4674, "\u0120street": 4675, "\u0120camera": 4676, "App": 4677, "\u0120skills": 4678, "bre": 4679, "cious": 4680, "\u0120celebr": 4681, "\u0120Franc": 4682, "\u0120existing": 4683, "\u0120willing": 4684, "lor": 4685, "\u0120id": 4686, "\u0120Space": 4687, "\u0120critical": 4688, "\u0120La": 4689, "ortunately": 4690, "\u0120serve": 4691, "\u0120cold": 4692, "\u0120species": 4693, "TS": 4694, "\u0120animals": 4695, "\u0120Bay": 4696, "\u0120older": 4697, "\u0120Under": 4698, "estic": 4699, "\u0120Tre": 4700, "\u0120teacher": 4701, "\u0120prefer": 4702, "vis": 4703, "\u0120thread": 4704, "\u0120Matt": 4705, "\u0120manager": 4706, "\u00e3\u0125\u00bb": 4707, "\u0120professional": 4708, "\u0120Vol": 4709, "\u0120notes": 4710, "These": 4711, "ula": 4712, "\u0120fresh": 4713, "ented": 4714, "uzz": 4715, "edy": 4716, "clusion": 4717, "\u0120Rel": 4718, "\u0120doubt": 4719, "EO": 4720, "\u0120opened": 4721, "\u0120Bit": 4722, "Advertisement": 4723, "\u0120guess": 4724, "\u0120UN": 4725, "\u0120sequ": 4726, "\u0120explain": 4727, "otten": 4728, "\u0120attract": 4729, "aks": 4730, "\u0120string": 4731, "\u0120context": 4732, "ossible": 4733, "\u0120Republicans": 4734, "\u0120solid": 4735, "\u0120cities": 4736, "\u0120asking": 4737, "\u0120random": 4738, "ups": 4739, "uries": 4740, "arant": 4741, "dden": 4742, "gl": 4743, "\u0120Florida": 4744, "\u0120depend": 4745, "\u0120Scott": 4746, "\u012033": 4747, "\u0120iT": 4748, "icon": 4749, "\u0120mentioned": 4750, "\u01202000": 4751, "\u0120claimed": 4752, "\u0120definitely": 4753, "ulf": 4754, "\u0120core": 4755, "\u0120opening": 4756, "\u0120Const": 4757, "which": 4758, "\u0120Tra": 4759, "AG": 4760, "72": 4761, "\u0120believed": 4762, "ada": 4763, "\u012048": 4764, "\u0120Security": 4765, "yright": 4766, "\u0120Pet": 4767, "\u0120Lou": 4768, "\u0120holding": 4769, "================": 4770, "\u0120ice": 4771, "\u0120brow": 4772, "\u0120authorities": 4773, "host": 4774, "word": 4775, "\u0120score": 4776, "\u0120Div": 4777, "\u0120cells": 4778, "\u0120transl": 4779, "\u0120neighbor": 4780, "\u0120remove": 4781, "uct": 4782, "\u0120district": 4783, "\u0120According": 4784, "\u0120worse": 4785, "\u0120concerns": 4786, "\u0120presidential": 4787, "\u0120policies": 4788, "\u0120Hall": 4789, "73": 4790, "\u0120hus": 4791, "AY": 4792, "\u01202006": 4793, "\u0120Jud": 4794, "\u0120independent": 4795, "\u0120Justice": 4796, "iliar": 4797, "print": 4798, "ighter": 4799, "\u0120protection": 4800, "zen": 4801, "\u0120sudden": 4802, "house": 4803, "\u0120Jes": 4804, "PR": 4805, "\u0120Inf": 4806, "\u0120bul": 4807, "\u0120_": 4808, "\u0120Service": 4809, "\u0120PR": 4810, "\u0120strategy": 4811, "ffect": 4812, "\u0120girls": 4813, "\u0120missing": 4814, "oyal": 4815, "\u0120Team": 4816, "ulated": 4817, "\u0120dat": 4818, "\u0120politics": 4819, "abor": 4820, "According": 4821, "\u0120spell": 4822, "\u0120graph": 4823, "orthern": 4824, "TC": 4825, "Ab": 4826, "\u0120labor": 4827, "isher": 4828, "\u0120kick": 4829, "\u0120iTunes": 4830, "\u0120steps": 4831, "poses": 4832, "\u0120smaller": 4833, "En": 4834, "bert": 4835, "\u0120roll": 4836, "\u0120researchers": 4837, "\u0120closed": 4838, "\u0120transport": 4839, "\u0120lawy": 4840, "________________": 4841, "\u0120Chicago": 4842, "\u0120aspect": 4843, "\u0120none": 4844, "\u0120marriage": 4845, "96": 4846, "\u0120elements": 4847, "\u0120Fre": 4848, "\u0120Sal": 4849, "\u0120dram": 4850, "FC": 4851, "top": 4852, "equ": 4853, "\u0120hearing": 4854, "\u0120supported": 4855, "\u0120testing": 4856, "cohol": 4857, "\u0120massive": 4858, "\u0120stick": 4859, "\u0120guard": 4860, "isco": 4861, "phone": 4862, "From": 4863, "However": 4864, "\u0120border": 4865, "\u0120copy": 4866, "ography": 4867, "list": 4868, "71": 4869, "\u0120owner": 4870, "class": 4871, "ruit": 4872, "rate": 4873, "\u0120Once": 4874, "\u0120digital": 4875, "\u0120task": 4876, "ERS": 4877, "\u0120incred": 4878, "tes": 4879, "++": 4880, "\u0120France": 4881, "\u0120breat": 4882, "owl": 4883, "\u0120issued": 4884, "\u0120Western": 4885, "\u0120detect": 4886, "\u0120partners": 4887, "\u0120shared": 4888, "\u0120Call": 4889, "\u0120cancer": 4890, "ache": 4891, "ribe": 4892, "\u0120explained": 4893, "\u0120heat": 4894, "{\"": 4895, "\u0120investment": 4896, "\u0120Book": 4897, "\u0120wood": 4898, "\u0120tools": 4899, "\u0120Although": 4900, "\u0120belief": 4901, "\u0120crisis": 4902, "\u0120ge": 4903, "\u0120MP": 4904, "\u0120operation": 4905, "type": 4906, "~~": 4907, "ga": 4908, "\u0120contains": 4909, "anta": 4910, "\u0120express": 4911, "\u0120Group": 4912, "\u0120Journal": 4913, "ka": 4914, "\u0120amb": 4915, "\u0120USA": 4916, "\u0120finding": 4917, "\u0120funding": 4918, "how": 4919, "\u0120established": 4920, "ideos": 4921, "\u0120degree": 4922, "\u0120dangerous": 4923, "anging": 4924, "\u0120freedom": 4925,