
#version: 0.2
Ġ t
Ġ a
h e
i n
r e
o n
Ġt he
e r
Ġ s
a t
Ġ w
Ġ o
e n
Ġ c
i t
i s
a n
o r
e s
Ġ b
e d
Ġ f
in g
Ġ p
o u
Ġa n
a l
a r
Ġt o
Ġ m
Ġo f
Ġ in
Ġ d
Ġ h
Ġan d
i c
a s
l e
Ġt h
i on
o m
l l
en t
Ġ n
Ġ l
s t
Ġ re
v e
Ġ e
r o
l y
Ġb e
Ġ g
Ġ T
c t
Ġ S
i d
o t
Ġ I
u t
e t
Ġ A
Ġ is
Ġ on
i m
a m
o w
a y
a d
s e
Ġth at
Ġ C
i g
Ġf or
a c
Ġ y
v er
u r
Ġ u
l d
Ġs t
Ġ M
' s
Ġ he
Ġ it
at ion
it h
i r
c e
Ġy ou
i l
Ġ B
Ġw h
o l
Ġ P
Ġw ith
Ġ 1
t er
c h
Ġa s
Ġw e
Ġ (
n d
i ll
Ġ D
i f
Ġ 2
a g
er s
k e
Ġ "
Ġ H
e m
Ġc on
Ġ W
Ġ R
he r
Ġw as
Ġ r
o d
Ġ F
u l
at e
Ġa t
r i
p p
o re
ĠT he
Ġs e
u s
Ġp ro
Ġh a
u m
Ġa re
Ġd e
a in
an d
Ġo r
ig h
es t
is t
a b
r om
Ġ N
t h
Ġc om
Ġ G
u n
o p
0 0
Ġ L
Ġn ot
es s
Ġe x
Ġ v
re s
Ġ E
e w
it y
an t
Ġb y
e l
o s
or t
o c
q u
Ġf rom
Ġha ve
Ġs u
i ve
ou ld
Ġs h
Ġth is
n t
r a
p e
igh t
ar t
m ent
Ġa l
u st
en d
- -
al l
Ġ O
ac k
Ġc h
Ġ le
i es
re d
ar d
â Ģ
ou t
Ġ J
Ġa b
e ar
i v
al ly
ou r
o st
g h
p t
Ġp l
as t
Ġc an
a k
om e
u d
T he
Ġh is
Ġd o
Ġg o
Ġh as
g e
' t
Ġ U
r ou
Ġs a
Ġ j
Ġb ut
Ġw or
Ġa ll
e ct
Ġ k
am e
Ġw ill
o k
Ġw he
Ġthe y
id e
0 1
f f
ic h
p l
t her
Ġt r
. .
Ġin t
i e
u re
ag e
Ġn e
i al
a p
in e
ic e
Ġm e
Ġo ut
an s
on e
on g
ion s
Ġwh o
Ġ K
Ġu p
Ġthe ir
Ġa d
Ġ 3
Ġu s
at ed
ou s
Ġm ore
u e
o g
ĠS t
in d
i ke
Ġs o
im e
p er
. "
b er
i z
a ct
Ġon e
Ġsa id
Ġ -
a re
Ġyou r
c c
ĠT h
Ġc l
e p
a ke
ab le
i p
Ġcon t
Ġwh ich
i a
Ġ im
Ġab out
Ġwe re
ver y
u b
Ġh ad
Ġ en
Ġcom p
, "
ĠI n
Ġu n
Ġa g
i re
ac e
a u
ar y
Ġw ould
as s
r y
Ġ âĢ
c l
o ok
e re
s o
Ġ V
ig n
i b
Ġof f
Ġt e
v en
Ġ Y
i le
o se
it e
or m
Ġ2 01
Ġre s
Ġm an
Ġp er
Ġo ther
or d
ul t
Ġbe en
Ġl ike
as e
an ce
k s
ay s
ow n
en ce
Ġd is
ct ion
Ġan y
Ġa pp
Ġs p
in t
res s
ation s
a il
Ġ 4
ic al
Ġthe m
Ġhe r
ou nt
ĠC h
Ġa r
Ġ if
Ġthe re
Ġp e
Ġy ear
a v
Ġm y
Ġs ome
Ġwhe n
ou gh
ac h
Ġth an
r u
on d
ic k
Ġo ver
ve l
Ġ qu
Ċ Ċ
Ġs c
re at
re e
ĠI t
ou nd
p ort
Ġal so
Ġp art
f ter
Ġk n
Ġbe c
Ġt ime
en s
Ġ 5
op le
Ġwh at
Ġn o
d u
m er
an g
Ġn ew
-- --
Ġg et
or y
it ion
ing s
Ġj ust
Ġint o
Ġ 0
ent s
o ve
t e
Ġpe ople
Ġp re
Ġit s
Ġre c
Ġt w
i an
ir st
ar k
or s
Ġwor k
ad e
o b
Ġs he
Ġo ur
w n
in k
l ic
Ġ1 9
ĠH e
is h
nd er
au se
Ġh im
on s
Ġ [
Ġ ro
f orm
i ld
at es
ver s
Ġon ly
o ll
Ġs pe
c k
e ll
am p
Ġa cc
Ġb l
i ous
ur n
f t
o od
Ġh ow
he d
Ġ '
Ġa fter
a w
Ġat t
o v
n e
Ġpl ay
er v
ic t
Ġc ould
it t
Ġa m
Ġf irst
Ġ 6
Ġa ct
Ġ $
e c
h ing
u al
u ll
Ġcom m
o y
o ld
c es
at er
Ġf e
Ġbe t
w e
if f
Ġtw o
oc k
Ġb ack
) .
id ent
Ġu nder
rou gh
se l
x t
Ġm ay
rou nd
Ġp o
p h
is s
Ġd es
Ġm ost
Ġd id
Ġad d
j ect
Ġin c
f ore
Ġp ol
on t
Ġag ain
cl ud
ter n
Ġkn ow
Ġne ed
Ġcon s
Ġc o
Ġ .
Ġw ant
Ġse e
Ġ 7
n ing
i ew
ĠTh is
c ed
Ġe ven
Ġin d
t y
ĠW e
at h
Ġthe se
Ġp r
Ġu se
Ġbec ause
Ġf l
n g
Ġn ow
ĠâĢ ĵ
c om
is e
Ġm ake
Ġthe n
ow er
Ġe very
ĠU n
Ġse c
os s
u ch
Ġe m
Ġ =
ĠR e
i ed
r it
Ġin v
le ct
Ġsu pp
at ing
Ġl ook
m an
pe ct
Ġ 8
ro w
Ġb u
Ġwhe re
if ic
Ġyear s
i ly
Ġd iff
Ġsh ould
Ġre m
T h
I n
Ġe v
d ay
' re
ri b
Ġre l
s s
Ġde f
Ġr ight
Ġs y
) ,
l es
00 0
he n
Ġth rough
ĠT r
_ _
Ġw ay
Ġd on
Ġ ,
Ġ1 0
as ed
Ġas s
ub lic
Ġre g
ĠA nd
i x
Ġ very
Ġin clud
ot her
Ġim p
ot h
Ġsu b
ĠâĢ Ķ
Ġbe ing
ar g
ĠW h
= =
ib le
Ġdo es
an ge
r am
Ġ 9
er t
p s
it ed
ation al
Ġb r
Ġd own
Ġman y
ak ing
Ġc all
ur ing
it ies
Ġp h
ic s
al s
Ġde c
at ive
en er
Ġbe fore
il ity
Ġwe ll
Ġm uch
ers on
Ġth ose
Ġsu ch
Ġ ke
Ġ end
ĠB ut
as on
t ing
Ġl ong
e f
Ġth ink
y s
Ġbe l
Ġs m
it s
a x
Ġo wn
Ġpro v
Ġs et
if e
ment s
b le
w ard
Ġsh ow
Ġp res
m s
om et
Ġo b
Ġs ay
ĠS h
t s
f ul
Ġe ff
Ġg u
Ġin st
u nd
re n
c ess
Ġ ent
ĠY ou
Ġgo od
Ġst art
in ce
Ġm ade
t t
st em
ol og
u p
Ġ |
um p
Ġhe l
ver n
ul ar
u ally
Ġa c
Ġm on
Ġl ast
Ġ2 00
1 0
Ġst ud
u res
ĠA r
sel f
ar s
mer ic
u es
c y
Ġm in
oll ow
Ġc ol
i o
Ġm od
Ġc ount
ĠC om
he s
Ġf in
a ir
i er
âĢ Ķ
re ad
an k
at ch
e ver
Ġst r
Ġpo int
or k
ĠN ew
Ġs ur
o ol
al k
em ent
Ġus ed
ra ct
we en
Ġs ame
ou n
ĠA l
c i
Ġdiff ere
Ġwh ile
---- ----
Ġg ame
ce pt
Ġs im
.. .
Ġin ter
e k
Ġre port
Ġpro du
Ġst ill
l ed
a h
Ġhe re
Ġwor ld
Ġth ough
Ġn um
ar ch
im es
al e
ĠS e
ĠI f
/ /
ĠL e
Ġre t
Ġre f
Ġtr ans
n er
ut ion
ter s
Ġt ake
ĠC l
Ġcon f
w ay
a ve
Ġgo ing
Ġs l
u g
ĠA meric
Ġspe c
Ġh and
Ġbet ween
ist s
ĠD e
o ot
I t
Ġe ar
Ġagain st
Ġh igh
g an
a z
at her
Ġex p
Ġo p
Ġin s
Ġg r
Ġhel p
Ġre qu
et s
in s
ĠP ro
is m
Ġf ound
l and
at a
us s
am es
Ġp erson
Ġg reat
p r
Ġs ign
ĠA n
' ve
Ġs omet
Ġs er
h ip
Ġr un
Ġ :
Ġt er
ire ct
Ġf ollow
Ġd et
ic es
Ġf ind
1 2
Ġm em
Ġc r
e red
e x
Ġex t
ut h
en se
c o
Ġte am
v ing
ou se
as h
at t
v ed
Ġsy stem
ĠA s
d er
iv es
m in
Ġle ad
ĠB l
c ent
Ġa round
Ġgo vern
Ġc ur
vel op
an y
Ġc our
al th
ag es
iz e
Ġc ar
od e
Ġl aw
Ġre ad
' m
c on
Ġre al
Ġsupp ort
Ġ1 2
.. ..
Ġre ally
n ess
Ġf act
Ġd ay
Ġb oth
y ing
Ġs erv
ĠF or
Ġth ree
Ġw om
Ġm ed
od y
ĠThe y
5 0
Ġex per
t on
Ġe ach
ak es
Ġc he
Ġc re
in es
Ġre p
1 9
g g
ill ion
Ġg rou
ut e
i k
W e
g et
E R
Ġm et
Ġs ays
o x
Ġd uring
er n
iz ed
a red
Ġf am
ic ally
Ġha pp
ĠI s
Ġch ar
m ed
v ent
Ġg ener
i ent
p le
i et
re nt
1 1
v es
pt ion
Ġ2 0
form ation
Ġc or
Ġoff ic
ie ld
Ġto o
is ion
Ġin f
Ġ Z
t he
o ad
Ġp ublic
Ġpro g
r ic
* *
Ġw ar
Ġp ower
v iew
Ġf ew
Ġl oc
Ġdiffere nt
Ġst ate
Ġhe ad
' ll
Ġp oss
Ġst at
re t
ant s
Ġv al
Ġis s
Ġc le
i vers
an c
Ġex pl
Ġan other
Ġ Q
Ġa v
th ing
n ce
W h
Ġch ild
Ġs ince
i red
l ess
Ġl ife
Ġde velop
itt le
Ġde p
Ġp ass
ã ĥ
Ġt urn
or n
Th is
b ers
ro ss
ĠA d
Ġf r
Ġres p
Ġsec ond
o h
Ġ /
Ġdis c
Ġ &
Ġsomet hing
Ġcomp le
Ġ ed
Ġf il
Ġmon th
a j
u c
Ġgovern ment
Ġwith out
Ġle g
Ġd ist
Ġp ut
Ġqu est
an n
Ġpro t
2 0
Ġne ver
i ence
Ġle vel
Ġar t
Ġth ings
Ġm ight
Ġeff ect
Ġcont ro
Ġc ent
Ġ1 8
Ġall ow
Ġbel ie
ch ool
ot t
Ġinc re
Ġfe el
Ġres ult
Ġl ot
Ġf un
ot e
Ġt y
ere st
Ġcont in
Ġus ing
Ġb ig
2 01
Ġas k
Ġb est
Ġ )
I N
Ġo pp
3 0
Ġnum ber
in ess
S t
le ase
Ġc a
Ġm ust
Ġd irect
Ġg l
Ġ <
Ġop en
Ġp ost
Ġcom e
Ġse em
ord ing
Ġwe ek
ate ly
it al
Ġe l
ri end
Ġf ar
Ġt ra
in al
Ġp ri
ĠU S
Ġpl ace
Ġfor m
Ġto ld
" :
ain s
at ure
ĠTr ump
Ġst and
Ġ #
id er
ĠF r
Ġne xt
Ġs oc
Ġp ur
Ġle t
Ġl ittle
Ġh um
Ġ i
r on
1 5
Ġ1 5
Ġcomm un
Ġm ark
ĠThe re
Ġw r
ĠTh at
Ġin formation
w ays
Ġb us
a pp
Ġinv est
m e
Ġh ard
ain ed
e ad
Ġim port
Ġapp ro
Ġt est
Ġt ri
Ġre st
os ed
Ġf ull
Ġc are
ĠS p
Ġc ase
O N
Ġs k
Ġl ess
Ġ +
Ġpart ic
ĠP l
ab ly
u ck
is hed
ch n
b e
Ġl ist
at or
Ġto p
Ġad v
ĠB e
ru ct
Ġd em
r ation
l ing
g y
re en
g er
Ġh ome
Ġle ft
Ġbet ter
Ġd ata
Ġ1 1
Ġatt ack
Ġpro ble
l ine
ard s
Ġbe h
r al
ĠH ow
ĠS he
ar ge
Ġ --
: //
Ġb ro
ĠP h
at s
Ġbu ild
w w
id ed
a im
as es
en cy
Ġm ain
in ed
Ġinclud ing
Ġ {
Ġg ot
Ġint erest
Ġke ep
Ġ X
Ġe as
ain ing
Ġcl ass
âĢ ¦
ĠN o
Ġv ar
Ġsm all
amp le
A T
Ġ ide
ĠS o
Ġre ce
Ġpol it
Ġm ov
Ġpl an
Ġper cent
iv ing
Ġc amp
Ġp ay
1 4
s c
is ed
Ġu nt
one y
pl oy
== ==
Ġdid n
ĠI nd
el s
ert ain
Ġp os
__ __
i ver
Ġpro cess
Ġprog ram
if ied
ĠR ep
1 6
u ro
olog y
at ter
in a
Ġn ame
ĠA ll
Ġf our
Ġret urn
v ious
b s
Ġcall ed
Ġm ove
ĠS c
ir d
Ġgrou p
Ġb re
Ġm en
Ġc ap
t en
e e
Ġd ri
le g
he re
uth or
Ġp at
Ġcur rent
id es
Ġp op
t o
ent ion
Ġal ways
Ġm il
Ġwom en
Ġ1 6
Ġo ld
iv en
ra ph
ĠO r
r or
ent ly
Ġn ear
ĠE x
re am
s h
Ġ1 4
Ġf ree
iss ion
st and
ĠC on
al ity
us ed
1 3
Ġdes ign
Ġch ange
Ġch ang
Ġb o
Ġv is
em ber
Ġb ook
read y
Ġk ill
2 5
pp ed
Ġa way
Ġab le
Ġcount ry
Ġcon st
ar n
Ġor der
A R
i or
i um
or th
1 8
ail able
Ġs w
Ġm illion
Ġ1 3
at ic
t ed
ĠG o
Ġo per
en g
Ġth ing
aj or
con om
ĠCom m
Ġwh y
u red
ur al
Ġs chool
b y
ĠM ar
Ġa ff
Ġd ays
Ġan n
us h
an e
I f
e g
Ġpro f
Ġhe alth
ou th
B ut
ion al
. ,
Ġs ol
Ġal ready
Ġ3 0
Ġchar act
H e
Ġf riend
E S
i ans
ic le
' d
ĠO n
Ġle ast
Ġp rom
Ġd r
Ġh ist
it her
Ġ est
i qu
1 7
s on
Ġte ll
Ġt alk
oh n
o int
le ction
A N
Ġunt il
au gh
Ġl ater
Ġ ve
Ġv iew
end ing
iv ed
Ġwor d
w are
Ġc ost
Ġen ough
Ġg ive
ĠUn ited
Ġte chn
are nt
O R
Ġp ar
ĠD r
Ġ201 6
r ist
er ing
Ġ Â
Ġl arge
s ide
ac y
cc ess
Ġw in
Ġimport ant
Ġ19 9
Ġdoes n
Ġ1 7
Ġbus iness
Ġcle ar
Ġre se
" ,
ur y
Ġe qu
as ter
al f
ĠAmeric an
n ect
Ġex pect
ivers ity
Ġo cc
ĠF l
Ġk ind
Ġme an
Ġp ast
Ġde v
Ġb as
le t
ra ft
Ġor gan
Ġde l
Ġper form
Ġst ory
Ġse ason
ĠC ol
Ġcl aim
Ġc ame
Ġwith in
Ġl ine
Ġpro ject
ĠA t
Ġcontro l
end ed
ĠS y
Ġa ir
iz ation
Ġ *
le y
Ġm oney
id d
Y ou
f or
Ġfam ily
Ġm aking
Ġb it
Ġpol ice
Ġhapp en
Ġ vers
on y
u ff
ĠW hen
Ġs it
ide o
l f
is on
Ġsu re
g in
Ġapp ear
Ġl ight
Ġ es
o f
Ġw ater
Ġt imes
n ot
Ġg row
Ġcomp any
ĠT e
ow s
Ġm ar
our ce
i ol
ar m
b r
Ġex ample
Ġcon c
Ġf ore
ĠT o
p ro
E N
ri es
Ġ2 5
ĠC an
ne y
Ġact ually
Ġe ver
ur ity
ak en
ap s
Ġt ax
Ġm ajor
am a
Ġof ten
er al
Ġhum an
Ġj ob
is ter
Ġav ailable
oc r
en n
a id
iv id
Ġrec ord
? "
Ġs ing
ĠA m
id ence
Ġnew s
st er
Ġe conom
Ġfollow ing
ĠB r
is ing
Ġh our
m ost
um ent
Ġse x
Ġdes c
Ġbec ome
ĠE d
Ġto ok
Ġha ving
Ġprodu ct
a ult
A s
ar ing
Ġme ans
Ġh op
un e
Ġch o
Ġc ertain
Ġn on
Ġde al
2 4
le ment
oc i
en e
Ġs ide
ĠP r
ĠM ay
Ġre ason
u ed
c hed
ul ation
Ġe lect
Ġoffic ial
Ġposs ible
Ġh old
and s
ot s
Ġc ity
or ies
Ġse ver
Ġchild ren
Ġon ce
Ġact iv
l er
Ġn ight
it ions
ĠJ ohn
a pe
pl ay
Ġd one
Ġl im
Ġwork ing
ĠP res
or ld
e b
ĠC o
Ġb ody
ail s
ut es
ĠM r
Ġwhe ther
Ġa uthor
ro p
Ġpro per
Ġse en
) ;
Ġf ac
ĠS u
Ġcon d
it ing
Ġcour se
Ġ }
-------- --------
a ign
Ġev ent
Ġen g
Ġp ot
Ġin tern
i am
Ġsh ort
em pt
ã Ĥ
ĠG od
il ar
8 0
Ġor ig
I S
our n
ab ility
it ive
Ġd am
Ġ1 00
Ġp ress
Ġdo ing
Ġprot ect
r ing
Ġthough t
Ġquest ion
re w
ĠW ar
Ġsever al
ĠSt ate
Ġg iven
Ġf und
ĠT w
Ġw ent
an ces
w ork
p or
m y
4 0
Ġar g
art ment
ust om
Ġpol ic
Ġme et
Ġc reat
2 2
ĠSt ates
Ġg ames
ra w
ut ure
Ġunder stand
ur s
ĠO b
l ish
s y
Ġm akes
Ġw on
ag on
Ġh tt
Ġl ove
ent ial
Ġcomple te
p ar
ĠI m
A L
Ġacc ount
Â ł
ore d
ver t
Ġ ident
Ġ201 5
Ġother s
ĠM in
i ber
ver age
The re
ition al
d d
Ġpro b
Ġyou ng
Ġal ong
Ġacc ording
Ġy et
Ġmem bers
ĠWh at
o id
ĠM an
A nd
Ġam ong
a i
Ġem ploy
ĠR es
Ġ >
Ġinv ol
Ġl ow
a f
ĠC ar
Ġh ig
ĠO ne
ĠS ec
in ation
Ġlike ly
Ġan t
ag ed
ĠR uss
Ġb en
Ġre le
F or
b ack
ĠN ot
Ġpres ident
b all
Ġacc ess
ivid ual
ĠD em
ĠE uro
6 0
Ġkn own
ir l
ĠG r
Ġear ly
u se
iet y
âĢ ĵ
Ġf ight
Ġs ent
Ġto day
Ġmark et
" .
Ġb ased
Ġstr ong
ur ther
Ġde b
m ber
Ġproble m
Ġde ath
Ġsoc ial
im ate
A S
ort un
Ġcamp aign
er y
C h
Ġe y
i ally
Ġm us
w h
p os
Ġ er
Ġsa f
Ġmonth s
ir on
Ġv iol
Ġf ive
Ġst re
Ġplay ers
in c
al d
y ear
a un
Ġsu ccess
Ġpres ent
ere nce
Ġ201 4
Ġsu gg
Ġpartic ular
Ġtr y
Ġsugg est
ĠCh rist
on es
Ġpri v
2 3
Ġc rit
Ġl and
Ġloc al
if y
2 9
Ġa ut
E D
ĠG u
Ġm ult
Ġpolit ical
Ġask ed
Ġfor mer
it ter
ri pt
Ġcl ose
Ġp ract
ĠY ork
Ġget ting
Ġac ross
Ġcom b
Ġbelie ve
Ġ z
Ġto get
Ġtoget her
ĠC ent
ir c
Ġind ividual
ĠM c
2 7
is k
ĠE ng
Ġf ace
Ġ2 4
Ġval ue
Ġare a
e v
Ġw rit
ĠPres ident
Ġv ot
Ġke y
Ġm om
p ut
Ġany thing
Ġexper ience
att le
Ġm ind
a ff
om m
Ġf uture
g ed
Ġc ut
Ġto t
it ch
Ġv ideo
Ġinvest ig
Ġn et
ĠM y
r ict
i en
. )
Ġimp ro
th ough
ward s
Ġcon nect
ĠM ed
sel ves
ens ive
m b
o ber
at ors
A n
Ġ5 0
Ġre du
res ent
Ġab ove
Ġf re
ĠEuro pe
s w
Ġam ount
ĠA pp
Ġe ither
Ġmil it
Ġan al
Ġf ail
ĠE n
al es
Ġspec ial
Ġbl ack
I T
c her
Ġlook ing
Ġf ire
y n
Ġal most
o on
Ġstud y
Ġm iss
c hes
ro wn
Ġt re
Ġcommun ity
Ġmed ia
Ġf ood
Ġcom es
ĠUn iversity
Ġsing le
Wh at
u ly
Ġh alf
ag ue
h od
ĠRep ublic
Ġstart ed
Ġqu ick
ot o
b ook
Ġiss ue
it or
Ġel se
Ġcons ider
2 6
ro du
Ġt aken
2 8
9 9
ĠW ith
Ġtr ue
Ġw a
Ġtr ad
Ġag o
Ġm ess
ie f
Ġadd ed
o ke
Ġb ad
Ġf av
3 3
Ġsim ilar
as k
ĠD on
Ġcharact er
ort s
ĠH ouse
Ġreport ed
Ġty pe
v al
i od
ĠHow ever
Ġt arg
Ġent ire
pp ing
Ġhist ory
Ġl ive
ff ic
.... ....
ed eral
Ġtr ying
Ġdisc uss
ĠH ar
ac es
l ished
Ġse lf
os p
re st
Ġro om
el t
Ġf all
ol ution
Ġe t
Ġ x
Ġis n
Ġide a
b o
Ġs ound
ĠD ep
Ġsome one
ci ally
ull y
Ġf oc
Ġob ject
if t
ap er
Ġplay er
Ġr ather
Ġserv ice
as hing
ĠD o
ĠP art
ru g
m on
p ly
Ġm or
Ġnot hing
Ġprov ide
I C
un g
Ġpart y
Ġex ist
Ġm ag
7 0
Ġr ul
Ġh ouse
Ġbeh ind
Ġhow ever
ĠW orld
Ġs um
Ġapp lic
Ġ ;
Ġfun ction
g r
ĠP ol
Ġfr ont
2 00
Ġser ies
Ġt em
Ġty p
ill s
Ġo pt
Ġpoint s
Ġbel ow
itt ed
Ġspec ific
Ġ201 7
um b
Ġr a
Ġpre vious
Ġpre t
re me
Ġc ustom
Ġcour t
ĠM e
Ġre pl
Ġwho le
g o
c er
Ġt reat
ĠA ct
Ġprob ably
Ġle arn
end er
ĠA ss
Ġvers ion
n ow
Ġche ck
ĠC al
R E
min ist
O n
our ces
Ġben ef
Ġd oc
Ġdet er
Ġen c
Ġsu per
Ġadd ress
Ġv ict
Ġ201 3
Ġme as
t r
Ġf ield
W hen
Ġsign ific
u ge
Ġfe at
Ġcomm on
l oad
Ġbe gin
Ġbr ing
Ġa ction
er man
Ġdesc rib
Ġind ust
Ġwant ed
ri ed
m ing
Ġatt empt
4 5
f er
Ġd ue
ress ion
# #
Ġsh all
Ġs ix
o o
Ġst ep
Ġp ub
Ġhim self
Ġ2 3
Ġc op
Ġd est
Ġst op
A C
ib ility
Ġl ab
ic ult
Ġhour s
Ġcre ate
Ġf urther
ĠAmeric a
ĠC ity
Ġd ou
he ad
S T
ĠN orth
c ing
Ġn ational
u le
ĠIn st
Ġt aking
ĠQ u
ir t
Ġre d
Ġrese arch
v iron
ĠG e
Ġbre ak
an a
Ġsp ace
ater ial
Ġrec ent
ĠA b
Ġgener al
Ġh it
Ġper iod
Ġevery thing
ive ly
Ġph ys
Ġsay ing
an ks
Ġc ou
Ġc ult
ac ed
e al
u ation
Ġc oun
l u
Ġinclud e
Ġpos ition
ĠA fter
ĠCan ad
ĠE m
Ġim m
ĠR ed
Ġp ick
Ġcom pl
Ġm atter
re g
e xt
ang u
is c
o le
a ut
Ġcomp et
e ed
f ect
Ġ2 1
ĠS en
ĠThe se
as ing
Ġcan not
Ġin it
Ġrel ations
ac hed
Ġb ar
Ġ4 0
ĠT H
Ġ201 2
Ġv ol
Ġg round
Ġsec urity
Ġup d
il t
3 5
Ġconc ern
ĠJ ust
Ġwh ite
Ġseem s
ĠH er
pe cially
i ents
Ġann oun
Ġf ig
ight s
Ġst ri
l ike
id s
Ġs us
Ġw atch
Ġ â
Ġw ind
ĠC ont
Ġit self
Ġm ass
A l
y le
iqu e
ĠN ational
Ġab s
Ġp ack
Ġout side
Ġan im
Ġp ain
et er
Ġman ag
du ct
og n
Ġ ]
ĠSe pt
se c
o ff
ĠJ an
Ġf oot
ad es
Ġth ird
Ġm ot
Ġev idence
int on
Ġth reat
a pt
pl es
c le
Ġl o
Ġde cl
Ġit em
med i
Ġrep resent
om b
am er
Ġsignific ant
og raph
s u
Ġc al
i res
00 00
I D
A M
Ġsim ply
Ġlong er
Ġf ile
O T
c he
S o
ate g
or g
ĠH is
Ġen er
Ġd om
Ġup on
il i
": "
Ġthem selves
Ġcom ing
Ġqu ite
Ġdiff icult
ĠB ar
il ities
re l
end s
c ial
6 4
Ġwom an
ra p
y r
Ġne cess
ip s
Ġte xt
Ġrequ ire
Ġmilit ary
Ġre view
Ġresp ons
7 5
Ġsub ject
Ġinst ead
Ġiss ues
Ġg en
" ,"
Ġmin utes
Ġwe ap
r ay
am ed
t ime
b l
H ow
Ġc ode
ĠS m
Ġhig her
ĠSt e
r is
Ġp age
Ġstud ents
ĠIn tern
Ġmet hod
ĠA ug
ĠP er
ĠA g
Ġpolic y
ĠS w
Ġex ec
Ġac cept
um e
rib ut
Ġword s
Ġfin al
Ġchang es
ĠDem ocr
Ġfriend s
Ġres pect
Ġe p
Ġcomp an
iv il
Ġdam age
** **
og le
viron ment
Ġne g
ent al
Ġa p
Ġtot al
iv al
! "
l im
Ġneed s
Ġag re
Ġdevelop ment
Ġa ge
ip le
2 1
Ġresult s
ĠA f
S h
Ġg un
ĠOb ama
ro ll
Ġ @
Ġright s
ĠB rit
Ġrun ning
Ġwas n
Ġp ort
Ġr ate
Ġpret ty
Ġtarg et
Ġsa w
Ġc irc
Ġwor ks
ic ro
al t
o ver
ww w
Th at
l ier
Ġevery one
ud e
Ġp ie
idd le
ra el
Ġr ad
Ġbl ock
Ġw alk
T o
ã ģ
n es
ĠA ust
a ul
ro te
ĠS outh
ess ion
op h
Ġshow s
Ġs ite
Ġj o
Ġr isk
cl us
l t
Ġin j
id ing
ĠS pe
Ġch all
ir m
Ġ2 2
itt ing
st r
Ġh y
L E
ke y
Ġbe gan
at ur
ashing ton
l am
ĠD av
b it
Ġs ize
ĠP ar
3 8
ourn al
f ace
Ġdec ision
Ġl arg
Ġj ud
re ct
Ġcontin ue
ĠO ct
ove red
ĠI nt
==== ====
Ġp arent
ĠW ill
Ġeas y
Ġd rug
ang er
Ġs ense
Ġd i
id ay
Ġener gy
ist ic
Ġass oci
ar ter
ob al
e ks
ĠE l
ur ch
Ġg irl
o e
it le
Ġ2 8
ĠC he
Ġrequ est
Ġso on
Ġh ost
k y
Ġst ates
om es
Ġm aterial
le x
Ġmom ent
Ġan sw
on se
Ġes pecially
Ġn orm
Ġserv ices
p ite
r an
Ġro le
4 4
) :
Ġc red
C l
____ ____
Ġm at
Ġl og
ĠCl inton
O U
Ġoff ice
Ġ2 6
Ġch arg
Ġtr ack
m a
Ġhe art
Ġb all
Ġperson al
Ġbuild ing
n a
s et
b ody
ĠBl ack
Ġincre ase
itt en
Ġneed ed
3 6
3 2
= "
Ġl ost
Ġbec ame
Ġgrou ps
ĠM us
Ġw rote
ĠP e
Ġpro p
j oy
Ã ©
ĠWh ite
Ġde ad
. '
Ġhtt p
Ġwe bs
O S
Ġins ide
Ġwr ong
Ġstat ement
Ġ ...
y l
Ġfil m
Ġmus ic
Ġsh are
ific ation
Ġre lease
Ġfor ward
Ġst ay
Ġcomp ut
it te
s er
Ġorig inal
Ġc ard
Ġc and
Ġd iv
at ural
Ġfav or
O M
Ġc ases
us es
Ġse ction
Ġle ave
g ing
ov ed
ĠW ashington
3 9
ĠG l
Ġrequ ired
act ion
ap an
o or
it er
ĠK ing
Ġcount ries
ĠG erman
ll ing
Ġ2 7
3 4
Ġquest ions
Ġpr im
Ġc ell
Ġsh oot
Ġany one
ĠW est
Ġaff ect
ep end
Ġon line
ĠIs rael
ĠSept ember
Ġab ility
Ġcont ent
is es
Ġre ve
Ġl aun
Ġind ic
Ġfor ce
c ast
Ġso ld
av ing
f l
Ġso ft
Ġcompan ies
ce ed
Ġart icle
Ġa ud
Ġre v
Ġed uc
Ġplay ing
0 5
Ġhe ld
ct or
Ġrele ased
Ġf ederal
3 7
Ġad minist
Ġinter view
Ġinst all
Ġrece ived
Ġs ource
u k
P h
Ġser ious
Ġcre ated
Ġc ause
Ġim medi
Ġdef in
u el
ĠDep artment
ct ions
ĠC our
ĠN ow
z e
it es
it ution
Ġl ate
Ġspe ak
n ers
Ġleg al
ar i
ĠC or
Ġwe eks
Ġmod el
Ġp red
Ġex act
B C
ĠB y
IN G
os ing
Ġt akes
Ġreg ard
Ġopp ortun
Ġpr ice
Ġ19 8
ĠA pr
f ully
Ġor d
Ġproble ms
ru ction
h am
ĠC ount
le ge
Ġlead ers
E T
le v
Ġde ep
olog ical
es e
h aps
ĠS ome
Ġp ers
Ġcont ract
Ġrelations hip
s p
ou d
Ġb ase
4 8
m it
A d
anc ial
Ġcons um
Ġpot ential
Ġl angu
re m
et h
Ġrel ig
ress ed
6 6
Ġl ink
Ġl ower
ay er
ĠJ une
Ġf em
un t
er c
ur d
Ġcont act
Ġ ill
Ġm other
Ġest ab
h tt
ĠM arch
ĠB ro
ĠCh ina
Ġ2 9
Ġs qu
Ġprov ided
Ġa verage
as ons
Ġ201 1
Ġex am
l in
5 5
n ed
Ġper fect
Ġt ou
al se
u x
Ġbu y
Ġsh ot
Ġcol lect
Ġph ot
Ġplay ed
Ġsur pr
Ġofficial s
Ġsim ple
av y
Ġindust ry
Ġhand s
g round
Ġp ull
Ġr ound
Ġus er
Ġr ange
u ary
Ġpriv ate
op s
e es
Ġw ays
ĠM ich
Ġve h
Ġex cept
Ġter ms
im um
pp er
I ON
ore s
ĠDr agon
ou l
Ġd en
Ġperform ance
Ġb ill
c il
4 7
Ġen vironment
Ġex c
ad d
Ġwor th
Ġp ict
Ġch ance
Ġ201 8
b or
Ġspe ed
ict ion
Ġal leg
ĠJ apan
at ory
re et
Ġm atch
ĠI I
Ġst ru
ord er
Ġst e
Ġl iving
Ġst ruct
in o
Ġse par
her n
Ġresp onse
Ġen joy
Ġv ia
A D
um ents
ace book
Ġmem ber
ib r
iz ing
Ġto ol
ĠM on
ĠWh ile
h ood
ĠA ng
ĠD ef
Ġoff er
T r
a ur
Ġturn ed
ĠJ uly
d own
an ced
Ġrec ently
ĠE ar
Ġc e
ĠSt ar
ĠC ong
rough t
Ġbl ood
Ġhop e
Ġcom ment
ain t
Ġar ri
il es
Ġpartic ip
ough t
ri ption
0 8
4 9
Ġg ave
Ġse lect
Ġkill ed
sy ch
Ġgo es
i j
Ġc oll
Ġimp act
at ives
ĠS er
0 9
ĠAug ust
Ġb oy
d e
ĠD es
Ġf elt
U S
Ġexpect ed
Ġim age
ĠM ark
cc ording
o ice
E C
ĠM ag
en ed
h old
ĠP ost
Ġpre vent
N o
Ġinvol ved
Ġey es
Ġquick ly
A t
un k
Ġbeh av
Ġ ur
Ġl ed
c ome
e y
Ġcand id
Ġear lier
Ġfoc us
et y
P ro
led ge
ix ed
ill ed
Ġpop ular
A P
Ġset t
l ight
Ġvar ious
in ks
Ġlevel s
Ġro ad
ell ig
ab les
he l
itte e
ĠG ener
y pe
Ġhe ard
ic les
Ġm is
Ġus ers
ĠS an
Ġimpro ve
Ġf ather
Ġse arch
The y
v il
Ġprof ess
Ġkn ew
Ġl oss
Ġev ents
6 5
Ġb illion
0 7
0 2
ĠNew s
ĠA M
Ġco ver
w here
ens ion
Ġb ott
Ġare as
en ces
op e
ĠTw itter
a el
Ġget s
ĠGo ogle
Ġs n
i ant
Ġv ote
Ġnear ly
Ġinclud ed
Ġrec ogn
z z
m m
al ed
Ġhappen ed
0 4
Ġh ot
Ġwho se
Ġc ivil
Ġsu ff
o es
it iz
ĠSy ri
Ġresp ond
Ġh on
Ġfeat ures
Ġeconom ic
ĠApr il
r im
Ġtechn ology
Ġo ption
ag ing
Ġpur ch
R e
Ġl at
ch ie
is l
Ġrec omm
u f
Ġtr aining
Ġeffect s
Ġf ast
Ġ201 0
Ġocc ur
Ġwebs ite
Ġem ail
Ġs ens
e ch
Ġo il
Ġinf lu
Ġcurrent ly
ĠS ch
ĠAd d
Ġgo al
Ġsc ient
Ġcon v
1 00
em y
Ġdec ided
Ġtra vel
Ġm ention
L L
0 3
Ġe lection
Ġph one
Ġlook s
Ġsit uation
Ġc y
Ġh or
b ed
ĠCour t
a ily
av es
Ġqu ality
ĠCom p
w ise
Ġt able
Ġst aff
ĠW ind
et t
Ġtri ed
ide red
Ġadd ition
Ġb ox
Ġl ack
ar ily
Ġw ide
Ġm id
Ġbo ard
ys is
Ġant i
h a
Ġd ig
en ing
Ġd ro
C on
6 8
Ġsl ow
b ased
se qu
Ġp ath
E x
ak er
Ġwork ed
Ġp en
Ġeng ine
Ġlook ed
ĠSu per
ĠS erv
Ġvict im
U n
Ġproper ty
Ġint rodu
Ġexec ut
ĠP M
L e
Ġcol or
ĠM ore
Ġ6 0
Ġnet work
Ġd ate
c ul
id ge
Ġext ra
3 1
Ġs le
6 7
Ġw ond
Ġreport s
j ust
ĠAust ral
Ġcap ital
Ġen s
Ġcomm and
Ġallow ed
Ġpre p
Ġca pt
h ib
Ġnum bers
ch an
Ġf air
m p
om s
Ġre ach
W ith
t ain
Ġbro ad
Ġcou ple
ec ause
ly ing
ĠF eb
Ġsc reen
Ġl ives
Ġpri or
ĠCong ress
A r
Ġappro ach
Ġe mer
ar ies
ĠD is
s erv
ĠN e
Ġbu ilt
c ies
Ġre pe
Ġrul es
for ce
ĠP al
Ġfin ancial
Ġcons idered
ĠCh ar
n ces
ĠI S
Ġb rought
Ġb i
i ers
ĠS im
O P
Ġproduct s
Ġvis it
Ġdoc ument
Ġcon duct
Ġcomplete ly
in ing
ĠCal if
ib ly
Ġwr itten
ĠT V
em ents
Ġd raw
O ne
Ġpub lished
Ġsec ret
r ain
he t
ĠF acebook
ond ay
ĠU p
Ġsex ual
Ġth ous
ĠP at
Ġ ess
Ġstand ard
Ġar m
g es
ect ion
Ġf ell
Ġfore ign
an i
ĠFr iday
Ġreg ular
in ary
Ġincre ased
Ġus ually
Ġdem on
Ġd ark
Ġadd itional
ro l
ĠO f
Ġprodu ction
! !
und red
Ġintern ational
id ents
ĠF ree
rou p
Ġr ace
Ġm ach
Ġh uge
A ll
le ar
ove mber
Ġto wn
Ġatt ention
ĠO ff
y ond
ĠThe n
f ield
Ġter ror
ra z
ĠB o
Ġmeet ing
ĠP ark
Ġar rest
Ġf ear
Ġa w
ĠV al
or ing
' ,
Ġext reme
ar r
Ġwork ers
A fter
Ġ3 1
n et
am ent
Ġdirect ly
Ġpop ulation
ub e
ĠOct ober
ĠI N
ĠJan uary
5 9
ĠDav id
Ġc ross
ce mber
ĠF irst
Ġmess age
ir it
Ġn ation
Ġp oll
is ions
Ġansw er
n y
is ode
Ġcar ry
ĠRuss ia
Ġhe ar
eng th
ro y
Ġn atural
in ally
Ġdo g
m itted
Ġtr ade
Ġsub st
Ġmult iple
ĠAf ric
Ġf ans
Ġs ort
Ġgl obal
ic ation
ĠW ed
ar a
Ġa chie
Ġlangu age
ve y
Ġt al
Ġnecess ary
Ġdet ails
Ġs en
ĠS und
ĠRe g
ĠR ec
0 6
Ġs il
ress ive
Ġmed ical
un ch
orn ia
Ġu nd
f ort
oc ks
ĠM onday
ues day
c raft
7 7
ur t
Ġ ver
ĠH ill
Ġrece ive
Ġmor ning
es tern
Ġb ank
Ġs at
ir th
ĠH igh
Ġdev ice
ĠTH E
ĠCent er
Ġsaf e
Ġp le
ĠCanad a
Ġsystem s
Ġass ist
Ġsur v
Ġb attle
ĠS oc
vert is
S he
Ġp aper
Ġgrow th
Ġc ast
S c
Ġpl ans
ll ed
Ġpart s
Ġw all
Ġmove ment
Ġpract ice
im ately
Ġdis play
Ġsomet imes
om p
ĠP aul
ĠY es
k ing
5 8
o ly
Ġs on
Ġav oid
ok es
ĠJ ew
Ġto wards
as c
Ġ //
ĠK ore
Ġtalk ing
Ġcor rect
Ġsp ent
ic ks
i able
e ared
Ġter m
Ġwant s
om ing
Ġ ut
Ġdou b
Ġfor ces
Ġp lease
6 9
ĠN ovember
at form
ond on
Ġon es
Ġimmedi ately
ĠRuss ian
ĠM et
Ġde g
Ġparent s
C H
ĠAmeric ans
al y
ĠM od
Ġsh own
Ġcond itions
Ġst uff
Ġre b
ĠY our
Ġinclud es
n own
ĠS am
Ġexper ien
m ission
ĠE ven
augh t
Ġannoun ced
ĠRepublic an
Ġdeter min
Ġdescrib ed
ĠCount y
( )
Ġdo or
Ġchang ed
Ġne igh
ĠH ere
Ġcle an
Ġp an
ĠDe cember
ĠEurope an
ir ing
ap ter
Ġcl ub
ĠT uesday
Ġp aid
ĠN et
Ġattack s
Ġcharact ers
Ġal one
Ġdirect or
d om
Ġ3 5
Ġl oad
Ġr out
ĠCalif ornia
Ġfin ally
Ġr ac
Ġcont r
Ġexact ly
res h
p ri
ĠIs lam
Ġn ature
Ġcare er
Ġlat est
Ġcon vers
ĠS l
p ose
ci ent
ĠIn c
iv ity
8 8
ĠA tt
ĠM or
nes day
Ġwe ight
k en
Ġnot e
Ġteam s
Ġ \
air s
ĠG reen
Ġh undred
on ent
Ġstre ng
Ġcons ist
ic ated
Ġreg ul
Ġl ic
ast ic
Ġt en
urs day
ellig ence
ous ly
ĠU K
B I
Ġcost s
Ġind epend
ĠA P
Ġnorm al
Ġh om
Ġob vious
Ġs we
Ġst ar
Ġread y
ac her
Ġimp lement
g est
Ġs ong
ĠG et
ĠL ab
Ġinterest ing
us ing
Ġg iving
ĠSund ay
Ġet c
Ġm iddle
Ġrem ember
r ight
os ition
ut ions
Ġm ax
4 6
Ġyour self
Ġdem and
Ġtreat ment
Ġd anger
ĠC ons
Ġgu y
ĠBrit ish
Ġphys ical
Ġrel ated
Ġrem ain
Ġcould n
Ġref er
Ġc itiz
b ox
EN T
bo ard
Ġin n
I G
er o
ĠSt reet
osp ital
ren ch
cher s
Ġst ra
O L
ag er
ĠA N
Ġeas ily
I A
en ge
in y
Ġcl os
ock ed
Ġus es
ĠC oun
I m
u ild
? ?
m ore
Ġan g
Ġwr ite
ol ute
5 7
Ġlead er
Ġread ing
< /
Ġaut om
est s
4 3
Ġleg isl
ĠG old
Ġdesign ed
ĠS T
ĠLe g
a res
Ġbe aut
ĠT ex
Ġappear s
Ġstru gg
ĠR om
Ġ 00
Ġcho ice
Ġparticular ly
ĠF rom
op er
ĠL ondon
ann ed
Ġallow s
ob ile
Ġdiffere nce
âĢ ¢
ĠV iew
ĠWed nesday
Ġal though
Ġrel ative
Ġapplic ation
ate ver
Ġare n
Ġmy self
Ġim ag
Ġdis e
Ġsoc iety
Ġfre qu
ĠEng lish
Ġpo or
ĠD ay
Ġwrit ing
Ġse ven
Ġstart ing
Ġb ud
Ġpr int
ĠTr ans
uf act
ĠSt ud
n ew
Ġcr im
Ġg ives
Ġco ol
a e
i ance
ĠGener al
Ġthink ing
Ġsa ve
Ġlim ited
ĠPart y
Ġmean ing
p en
ow ers
ĠJ ack
E M
Ġn ice
ru pt
Ġg as
Ġe ight
Ġfe et
Ġeff ort
Ġ ign
ic it
B l
co in
Ġop in
Ġbr ain
Wh ile
he st
ĠTh ursday
Ġwould n
augh ter
Ġtou ch
le ments
Ġstud ies
Ġcent er
c ont
or ge
Ġcomput er
Ġinvestig ation
P l
or ks
Ġ200 8
Ġincre asing
Ġst ore
Ġcom ments
Ġb al
m en
Ġdo ll
Ġl iber
Ġw ife
Ġlaw s
atur day
it ness
Ġmod ern
ĠS k
Ġadminist ration
Ġopportun ity
Ġs al
Ġpower ful
M y
Ġclaim s
ĠEar th
ord s
Ġt itle
Ġes c
n ame
N ot
om en
Ġbe yond
Ġc amer
Ġse ll
it ute
ear ch
Ġapp l
im ent
4 2
ĠAr t
Ġun f
Ġviol ence
ur g
ĠE ast
Ġcomp ared
Ġopt ions
Ġthrough out
Ġv s
ig r
. [
ac hes
7 8
Ġfil es
F L
E L
ar ian
ĠJ ames
ĠA ir
an ch
Ġdet ail
Ġpie ce
P S
Ġn amed
Ġeduc ation
Ġdri ve
Ġitem s
Ġstud ent
ic ed
: :
ic o
Ġth row
Ġsc ene
Ġcomple x
Ġ200 9
Ġpre c
ĠB re
7 9
Ġcon cept
Ġstat us
am ing
Ġd ied
Ġknow ledge
Ġbegin ning
O D
ru ary
Ġcertain ly
Ġgu ys
Ġsl ight
in n
ound s
Ġf ine
Ġf at
ic ations
Ġper haps
ĠA nt
Ġinc ome
Ġhtt ps
Ġmajor ity
port s
st on
Ġgreat er
Ġfe ed
ent ially
Ġsaf ety
Ġun ique
and om
Ġg one
Ġshow ed
Ġhist or
Ġcoun ter
i us
id a
Ġlead ing
i pe
Ġs end
ĠDon ald
er ve
Ġdef ense
ines e
Ġy es
ĠF ire
ĠMus lim
ra q
Ġcontin ued
os h
Ġprov ides
Ġpr ison
ĠP re
Ġhapp y
Ġeconom y
Ġtr ust
ag s
ĠG ame
Ġweap ons
um an
ĠC le
it ation
Ġanal ysis
ĠT imes
Ġsc ience
- >
Ġfig ure
Ġdis app
ent y
Ġsoft ware
Ġu lt
Ġoffic ers
N ew
I s
Ġrem ains
ĠInd ia
Ġp sych
ri ef
Ġc at
es c
Ġob serv
Ġst age
ĠD ark
Ġent er
ch ange
Ġpass ed
Ġdes pite
ĠO ut
Ġmov ie
r s
Ġv oice
m ine
ĠPl ay
Ġto ward
ĠT er
Ġreg ion
Ġval ues
or ters
Ġm ount
Ġoffic er
ĠO ther
b an
Ġh ous
w ood
ro om
I V
ĠS un
se e
ĠO ver
ro g
9 0
Ġl ay
ĠT ur
a wn
Ġpress ure
ĠS ub
Ġbook s
ed om
ĠS and
A A
ag o
Ġre asons
f ord
Ġactiv ity
U T
N ow
ĠSen ate
ce ll
n ight
Ġcall s
in ter
Ġlet ter
ĠR ob
ĠJ e
Ġcho ose
ĠL aw
G et
B e
Ġro b
Ġtyp es
Ġpl atform
Ġqu arter
R A
ĠT ime
Ġmay be
ĠC r
9 5
p re
Ġmov ing
Ġl if
Ġgo ld
Ġs om
Ġpat ients
Ġtr uth
ĠK e
ur ance
ant ly
m ar
Ġchar ge
ĠG reat
Ġce le
---------------- ----------------
Ġro ck
ro id
an cy
Ġcred it
a ud
B y
ĠE very
Ġmov ed
ing er
rib ution
Ġn ames
Ġstra ight
ĠHe alth
ĠW ell
Ġfe ature
Ġr ule
Ġsc he
in ated
ĠMich ael
ber g
4 1
il ed
b and
Ġcl ick
ĠAng el
on ents
Â Ń
ĠI raq
ĠS aturday
Ġa ware
p art
Ġpat tern
O W
ĠL et
Ġgr ad
ign ed
Ġassoci ated
Ġst yle
n o
i ation
a ith
il ies
Ġst ories
ur ation
Ġindividual s
ĠâĢ ¦
m iss
ĠAss oci
ish ing
ab y
Ġsum mer
ĠB en
Ġ3 2
Ġar ch
ut y
ĠTex as
h ol
Ġfull y
Ġm ill
Ġfollow ed
ĠB ill
ĠInd ian
ĠSec ret
ĠB el
ĠFeb ruary
Ġjob s
Ġseem ed
ĠGo vern
i pped
Ġreal ity
Ġl ines
Ġp ark
Ġmeas ure
ĠO ur
I M
Ġbro ther
Ġgrow ing
Ġb an
Ġest im
Ġc ry
ĠS chool
Ġme chan
ĠO F
ĠWind ows
Ġr ates
ĠO h
Ġpos itive
Ġcult ure
ist ics
ic a
Ġh ar
y a
ite ly
i pp
Ġm ap
en cies
ĠWill iam
I I
ak ers
5 6
ĠM art
ĠR em
Ġal tern
it ude
Ġco ach
row d
D on
Ġk ids
Ġj ournal
Ġcor por
Ġf alse
Ġwe b
Ġsle ep
Ġcont ain
Ġst o
Ġb ed
iver se
ĠR ich
ĠCh inese
Ġp un
Ġme ant
k nown
Ġnot ice
Ġfavor ite
a ven
Ġcond ition
Ġpur pose
) )
Ġorgan ization
Ġchall eng
Ġman ufact
Ġsus p
ĠA c
Ġcrit ic
un es
uc lear
Ġm er
vent ion
Ġ8 0
Ġm ist
ĠU s
ĠT or
htt p
ol f
Ġlarg er
Ġadv ant
Ġrese ar
Ġact ions
m l
Ġke pt
Ġa im
, '
c ol
Ġbenef its
if ying
Ġact ual
ĠIntern ational
Ġveh icle
Ġch ief
Ġeff orts
ĠLe ague
ĠM ost
Ġwa it
Ġad ult
Ġover all
Ġspe ech
Ġhigh ly
Ġfem ale
Ġer ror
Ġeffect ive
5 4
Ġenc our
w ell
Ġfail ed
Ġcons erv
Ġprogram s
Ġt rou
Ġa head
5 00
vertis ement
I P
ĠF ound
p ir
Ġ %
Ġcr ime
and er
Ġloc ation
ĠI ran
Ġbehav ior
az ing
Ġr are
Ġem b
Ġca used
Ġsh ip
Ġact ive
Ġcont ribut
Ġg reen
Ġac qu
Ġref lect
ven ue
Ġf irm
Ġb irth
] .
Ġclear ly
Ġem ot
Ġag ency
ri age
Ġmem ory
9 8
S A
ĠSe e
ac ing
C C
Ġbig gest
Ġr ap
Ġbas ic
Ġb and
e at
Ġsus pect
ĠM ac
Ġ9 0
m ark
ist an
Ġsp read
am s
k i
as y
ra v
ĠR ober
Ġdemon str
r ated
Ġabs olute
Ġpl aces
Ġim pl
ibr ary
Ġc ards
Ġdest roy
Ġv irt
ve re
Ġapp eared
y an
p oint
Ġbe g
Ġtem per
s pe
ant ed
ear s
ĠD irect
Ġl ength
Ġbl og
am b
Ġint eg
Ġres ources
ac c
if ul
Ġsp ot
Ġfor ced
Ġthous ands
ĠMin ister
Ġqu al
ĠF rench
at ically
Ġgener ally
Ġdr ink
Ġth us
I L
od es
Ġappro pri
ĠRe ad
Ġwh om
Ġey e
Ġcol lege
Ġ4 5
ire ction
Ġens ure
Ġapp arent
id ers
Ġrelig ious
Ġmin or
ol ic
Ġt ro
ĠWh y
rib ute
m et
Ġprim ary
Ġdevelop ed
Ġpe ace
Ġsk in
st e
av a
Ġbl ue
Ġfam ilies
Ġ ir
Ġapp ly
Ġin form
ĠSm ith
C T
i i
Ġlim it
Ġres ist
........ ........
um n
Ġconf lic
Ġtw e
ud d
ĠT om
Ġl iter
qu e
b on
Ġha ir
Ġevent ually
Ġp us
Ġhelp ed
Ġag g
or ney
ĠApp le
Ġf it
ĠS ur
Ġpre m
Ġs ales
Ġsecond s
Ġstreng th
Ġfeel ing
¿ ½
Ġt our
Ġknow s
o om
Ġex erc
Ġsom ew
ï ¿½
> >
Ġsp okes
Ġide as
Ġreg ist
so ft
ĠD el
ĠP C
Ġpro pos
Ġlaun ch
Ġbott om
T H
ĠP lease
v est
it z
ĠIn ter
Ġsc ript
Ġr at
ar ning
Ġ il
ĠJ er
ĠA re
Ġwh atever
ok en
ci ence
Ġmod e
Ġag ree
Ġs ources
Ġinit ial
Ġrest rict
Ġwond er
us ion
## ##
ĠS il
vil le
Ġb urn
t w
as ion
ĠÂ £
Ġn or
u ing
Ġre ached
Ġs un
Ġc ateg
ig ration
Ġc ook
Ġprom ot
Ġm ale
Ġcl imate
Ġf ix
Ġalleg ed
U R
all ed
Ġim ages
C ont
ot a
Ġschool s
i os
Ġd rop
Ġst ream
ĠM o
Ġprevious ly
al ing
Ġp et
Ġdou ble
Ġ( @
ann el
Ġdef ault
t ies
Ġr ank
ĠD ec
ĠCoun cil
Ġweap on
Ġst ock
Ġanal y
ĠSt r
Ġpict ure
ĠPol ice
f erence
Ġcent ury
Ġcitiz ens
Ġon to
Ġexp and
Ġhe ro
ĠS ol
Ġw ild
Ġupd ate
Ġcustom ers
r ont
d ef
Ġl ik
Ġcrim inal
ĠChrist ian
S P
7 6
Ġle aving
Ġother wise
ĠD ist
Ġbas is
5 2
5 3
ic ip
ĠB er
Ġrecomm end
Ġfl oor
Ġc rowd
ol es
Ġ7 0
Ġcent ral
ĠE v
Ġd ream
Ġdown load
Ġconf ir
ĠTh om
Ġwind ow
Ġhapp ens
Ġun it
Ġt end
Ġs pl
Ġbec omes
Ġfight ing
Ġpred ict
ĠP ress
ĠP ower
Ġhe avy
ak ed
Ġf an
or ter
ate gy
B A
iz es
Ġsp end
H ere
Ġ200 7
Ġad op
ĠH am
Ġfoot ball
ĠP ort
od ay
5 1
amp ions
Ġtrans fer
h t
Ġ3 8
ter m
ac ity
Ġb ur
] ,
tern al
r ig
b ut
Ġthere fore
ĠB ecause
res p
re y
Ġm ission
S ome
Ġnot ed
Ġass um
Ġdise ase
Ġed it
Ġprog ress
r d
ĠB rown
oc al
Ġadd ing
Ġra ised
ĠAn y
Ġt ick
Ġsee ing
ĠPe ople
Ġagre ement
Ġser ver
Ġw at
Ġdeb ate
Ġsupp osed
il ing
Ġlarg est
Ġsuccess ful
ĠP ri
ĠDemocr atic
Ġj ump
ĠSyri a
Ġown ers
Ġoff ers
Ġshoot ing
Ġeff ic
se y
Ġha ven
ver se
te red
ĠL ight
im al
ĠB ig
Ġdef end
Ġbe at
Ġrecord s
% )
Ġsc en
Ġemploy ees
Ġdev ices
he m
Ġcom mer
ĠM ex
Ġbenef it
ĠPro f
Ġil leg
Ġsur face
ĠAl so
Ġh arm
ing ly
w ide
ĠA lex
Ġsh ut
ĠC ur
Ġl ose
p m
Ġchall enge
se mb
Ġst ation
Ġint elligence
Ġacc ur
ĠFl or
Ġrequ ires
ĠM al
b um
Ġh ospital
Ġsp irit
Ġoff ered
Ġprodu ce
ĠComm un
Ġcreat ing
Ġcr is
s pect
Ġend ed
Ġd aily
Ġvot ers
land s
i as
i h
on a
Ġsm art
ĠOff ice
ĠL ord
ri al
ĠIntern et
Ġcirc um
Ġextreme ly
' .
Ġopin ion
ĠM il
Ġg ain
B S
ĠF in
y p
Ġuse ful
Ġbud get
Ġcom fort
is f
Ġback ground
el ine
Ġep isode
Ġen emy
Ġtri al
Ġestab lish
d ate
ĠC ap
Ġcontin ues
Ġshow ing
ĠUn ion
w ith
Ġpost ed
ĠSy stem
Ġe at
ri an
Ġr ise
ĠGerman y
il s
Ġsign ed
Ġv ill
Ġgr and
m or
ĠEng land
Ġproject s
um ber
Ġconf erence
z a
Ġrespons ible
ĠAr ab
Ġlearn ed
âĢĶ âĢĶ
i pping
ĠGe orge
O C
Ġreturn ed
ĠAustral ia
Ġb rief
Q u
Ġbr and
ill ing
ab led
Ġhig hest
Ġtr ain
ĠComm ission
wh ile
Ġn om
cept ion
Ġm ut
ĠBl ue
Ġinc ident
v ant
8 6
ĠI D
Ġn uclear
7 4
ĠL ike
ĠR E
ĠM icro
l i
m ail
Ġcharg es
8 9
Ġad just
ad o
Ġear th
N A
Ġpr ices
P A
Ġd raft
Ġrun s
Ġcandid ate
ens es
Ġmanag ement
ĠPh il
ĠM iss
Ġte ach
g ram
Ġunderstand ing
a it
ic ago
A dd
ĠE p
sec ut
Ġsepar ate
Ġinst ance
Ġe th
Ġun less
**** ****
ĠF ore
in ate
Ġoper ations
S p
Ġf aith
g ar
ĠCh urch
ron ic
Ġconf ig
os ure
Ġactiv ities
Ġtrad itional
Ġ3 6
Ġd irection
Ġmach ine
Ġsur round
Ġp ush
un ction
ĠE U
Ġeas ier
Ġarg ument
G B
Ġm icro
Ġsp ending
iz ations
Ġthe ory
ad ow
Ġcall ing
ĠL ast
Ġd er
Ġinflu ence
Ġcomm it
Ġph oto
Ġun c
ist ry
g n
ast e
ack s
Ġdis p
ad y
d o
ĠG ood
Ġ `
Ġw ish
Ġreve aled
Âł Âł
l ig
Ġen force
ĠComm ittee
Ġche m
Ġmil es
Ġinterest ed
Ġsol ution
ic y
in ct
Ġ- >
ĠD et
Ġrem oved
Ġcomp ar
e ah
Ġpl ant
ĠS ince
Ġachie ve
Ġadvant age
Ġslight ly
b ing
Ġpl aced
u nder
201 5
ĠM ad
Ġt im
os es
Ġc ru
ĠR ock
Ġmost ly
Ġneg ative
Ġset ting
Ġprodu ced
Ġm ur
Ġconnect ion
ĠM er
Ġdri ver
Ġexecut ive
Ġass ault
Ġb orn
ĠV er
t ained
Ġstruct ure
Ġredu ce
Ġdec ades
Ġd ed
u ke
ĠM any
idd en
Ġle ague
S e
Ġjo in
Ġdis co
Ġd ie
c ks
act ions
Ġass ess
ag n
Ġgo als
our s
I R
Ġsen ior
ill er
m od
ip ment
oc ol
u y
ĠQ ue
Ġpart ies
ir gin
Ġle arning
it able
Ġstre et
Ġcamer a
A pp
Ġsk ills
b re
c ious
Ġcele br
ĠFr anc
Ġexist ing
Ġwill ing
l or
Ġ id
ĠSp ace
Ġcrit ical
ĠL a
ortun ately
Ġser ve
Ġc old
Ġspec ies
T S
Ġanim als
ĠB ay
Ġold er
ĠU nder
est ic
ĠT re
Ġte acher
Ġpre fer
v is
Ġth read
ĠM att
Ġmanag er
ãĥ »
Ġprofess ional
ĠV ol
Ġnot es
The se
ul a
Ġf resh
ent ed
u zz
ed y
clus ion
ĠR el
Ġdoub t
E O
Ġopen ed
ĠB it
Ad vertisement
Ġgu ess
ĠU N
Ġse qu
Ġexpl ain
ott en
Ġatt ract
ak s
Ġstr ing
Ġcont ext
oss ible
ĠRepublic ans
Ġsol id
Ġc ities
Ġask ing
Ġr andom
u ps
ur ies
ar ant
dd en
g l
ĠFlor ida
Ġdep end
ĠSc ott
Ġ3 3
Ġi T
ic on
Ġmention ed
Ġ2 000
Ġclaim ed
Ġdefin itely
ul f
Ġc ore
Ġopen ing
ĠCon st
wh ich
ĠT ra
A G
7 2
Ġbelie ved
ad a
Ġ4 8
ĠSec urity
yr ight
ĠP et
ĠL ou
Ġhold ing
======== ========
Ġ ice
Ġb row
Ġauthor ities
h ost
w ord
Ġsc ore
ĠD iv
Ġcell s
Ġtrans l
Ġneigh bor
Ġrem ove
u ct
Ġdist rict
ĠA ccording
Ġwor se
Ġconcern s
Ġpresident ial
Ġpolic ies
ĠH all
7 3
Ġh us
A Y
Ġ200 6
ĠJ ud
Ġindepend ent
ĠJust ice
ili ar
pr int
igh ter
Ġprotect ion
z en
Ġsu dden
h ouse
ĠJ es
P R
ĠIn f
Ġb ul
Ġ _
ĠServ ice
ĠP R
Ġstr ategy
ff ect
Ġgirl s
Ġmiss ing
oy al
ĠTe am
ul ated
Ġd at
Ġpolit ics
ab or
A ccording
Ġspe ll
Ġg raph
ort hern
T C
A b
Ġlab or
is her
Ġk ick
ĠiT unes
Ġstep s
pos es
Ġsmall er
E n
ber t
Ġro ll
Ġresear chers
Ġcl osed
Ġtrans port
Ġlaw y
________ ________
ĠCh icago
Ġas pect
Ġn one
Ġmar riage
9 6
Ġe lements
ĠF re
ĠS al
Ġd ram
F C
t op
e qu
Ġhe aring
Ġsupport ed
Ġtest ing
co hol
Ġmass ive
Ġst ick
Ġgu ard
is co
ph one
F rom
How ever
Ġb order
Ġcop y
ograph y
l ist
7 1
Ġown er
cl ass
ru it
r ate
ĠO nce
Ġdig ital
Ġt ask
ER S
Ġinc red
t es
+ +
ĠFr ance
Ġb reat
ow l
Ġiss ued
ĠW estern
Ġdet ect
Ġpart ners
Ġsh ared
ĠC all
Ġcan cer
ac he
rib e
Ġexpl ained
Ġhe at
{ "
Ġinvest ment
ĠB ook
Ġw ood
Ġtool s
ĠAl though
Ġbelie f
Ġcris is
Ġg e
ĠM P
Ġoper ation
ty pe
~ ~
g a
Ġcont ains
ant a
Ġexp ress
ĠG roup
ĠJ ournal
k a
Ġam b
ĠUS A
Ġfind ing
Ġfund ing
h ow
Ġestab lished
ide os
Ġdeg ree
Ġdanger ous
ang ing
Ġfre edom
pp ort
out hern
Ġch urch
Ġc atch
ĠTw o
Ġpres ence
ĠGu ard
U p
Ġauthor ity
ĠPro ject
Ġbut ton
Ġcon sequ
Ġval id
Ġwe ak
Ġstart s
Ġref erence
ĠM em
" )
U N
or age
ĠO pen
Ġcol lection
y m
g ency
Ġbeaut iful
ro s
Ġtell s
Ġwa iting
n el
Ġprov iding
ĠDemocr ats
Ġd aughter
Ġm aster
Ġpur poses
ĠJapan ese
Ġequ al
Ġturn s
Ġdoc uments
Ġwatch ing
R es
Ġr an
201 4
Ġre ject
ĠKore a
Ġvictim s
Le vel
ere nces
Ġw itness
Ġ3 4
Ġre form
com ing
Ġocc up
Ġc aught
Ġtra ffic
ad ing
Ġmod els
ar io
Ġserv ed
Ġb atter
u ate
ĠSecret ary
Ġagre ed
Ġtr uly
yn am
ĠR et
Ġun its
ĠRes earch
h and
az ine
ĠM ike
Ġvar iety
ot al
Ġam azing
Ġconfir med
Ġentire ly
Ġpurch ase
Ġe lement
Ġc ash
Ġdeter mine
D e
Ġc ars
ĠW all
â ĸ
Ġview s
Ġdrug s
Ġdep artment
ĠSt ep
u it
Ġ3 9
as ure
ĠCl ass
Ġc overed
ĠB ank
Ġme re
u ana
Ġmult i
Ġm ix
Ġun like
lev ision
Ġsto pped
Ġs em
ĠG al
ul es
Ġwe l
ĠJohn son
l a
Ġsk ill
Ġbec oming
ri e
Ġappropri ate
f e
ell ow
ĠPro t
ul ate
oc ation
Ġweek end
od ies
Ġsit es
Ġanim al
ĠT im
Ġsc ale
Ġcharg ed
Ġinst ruct
ill a
Ġmethod s
Ġc ert
Ġjud ge
ĠH el
Ġdoll ars
Ġstand ing
ĠS qu
Ġdeb t
l iam
Ġdri ving
ĠS um
ĠEd ition
Ġal bum
and on
I F
ĠU k
6 3
ad er
Ġcommer cial
es h
ĠGovern ment
Ġdisc overed
Ġout put
ĠHill ary
ĠCar ol
Ġ200 5
Ġab use
anc ing
Ġsw itch
Ġann ual
T w
Ġst ated
ag ement
in ner
Ġdem ocr
Ġres idents
Ġallow ing
Ġfact ors
od d
Ġf uck
em ies
Ġoccur red
ot i
Ġn orth
ĠP ublic
Ġinj ury
Ġins urance
C L
oll y
ã Ģ
Ġrepe ated
Ġar ms
ang ed
Ġconst ruction
Ġf le
P U
ic ians
Ġfor ms
ĠMc C
ant ic
Ġm ental
p ire
Ġequ ipment
Ġf ant
Ġdiscuss ion
Ġregard ing
k in
ar p
Ġch air
og ue
Ġpro ceed
ĠI d
O ur
Ġmur der
M an
Ġ4 9
as p
Ġsupp ly
Ġin put
Ġwe alth
liam ent
Ġpro ced
or ial
ĠSt at
ĠN FL
hen s
ĠInst itute
Ġput ting
ourn ament
et ic
Ġloc ated
Ġk id
er ia
r un
Ġpr inc
Ġ !
go ing
ĠB et
Ġcl ot
Ġtell ing
Ġprop osed
i ot
or ry
Ġfund s
g ment
ĠL ife
Ġb aby
ĠB ack
Ġsp oke
Im age
Ġear n
ĠA T
g u
Ġex change
ĠL in
ov ing
Ġp air
M ore
az on
Ġarrest ed
Ġkill ing
c an
ĠC ard
y d
Ġident ified
Ġm obile
Ġthan ks
ony m
ĠF orm
Ġhundred s
ĠCh ris
ĠC at
Ġtre nd
h at
ĠA v
om an
Ġelect ric
ĠW il
S E
O f
Ġrest aur
ot ed
Ġtr ig
Ġn ine
Ġb omb
Wh y
Â ¯
Ġco verage
Ġapp eal
ĠRober t
ĠS up
Ġfin ished
Ġfl ow
Ġdel iver
Ġcal cul
Ġphot os
Ġph il
Ġpie ces
Ġapp re
k es
Ġr ough
D o
Ġpart ner
Ġconcern ed
Ġ3 7
ĠG en
C ol
ct ors
Ġ= >
st ate
Ġsuggest ed
ĠFor ce
C E
Ġher self
ĠPl an
w orks
o oth
ren cy
Ġcor ner
Ġhus band
Ġintern et
ĠA ut
em s
os en
ĠAt l
g en
Ġbal ance
6 2
Ġsound s
te xt
Ġar r
ov es
Ġmill ions
Ġrad io
Ġsat isf
ĠD am
M r
G o
S pe
Ġcomb at
r ant
ĠG ree
Ġf uel
Ġdist ance
Ġtest s
Ġdec re
ĠE r
Ġman aged
D S
Ġt it
Ġmeas ures
ĠL iber
Ġatt end
as hed
ĠJ ose
ĠN ight
d it
ĠN ov
ĠE nd
out s
Ġgener ation
Ġadv oc
y th
Ġconvers ation
ĠS ky
act ive
ce l
ri er
ĠFr ank
Ġg ender
Ġcon cent
Ġcar ried
and a
ĠV irgin
Ġarri ved
ic ide
ad ed
Ġfail ure
Ġmin imum
le ts
Ġwor st
Ġkeep ing
Ġint ended
Ġilleg al
Ġsub sc
Ġdetermin ed
Ġtri p
Y es
Ġra ise
Ġ ~
Ġfeel s
Ġpack age
ĠJ o
h i
201 6
re al
Ġf ra
Ġsy mb
M e
uck y
p ret
ĠK h
ĠEd it
ĠWe b
em ic
ĠCol or
Ġjust ice
I nt
Ġfar m
ck now
" >
el ess
Ġredu ced
Ġ5 00
x x
ĠR ad
ĠW ood
Ġcl in
Ġhy p
il er
ur a
k ins
8 5
6 1
ĠThe ir
ĠM ary
Ġs an
Ġno vel
ĠWh o
Ġcap acity
Ġimp ossible
Ġpl ays
Ġmin ister
ij uana
ic ate
ĠS et
Ġf ram
Ġ ing
Ġcommun ities
ĠF BI
it a
Ġb on
Ġstr ateg
Ġinterest s
l ock
g ers
m as
ĠAN D
Ġconflic t
Ġrequire ments
Ġs ac
Ġoper ating
in i
rel ated
Ġcomm itted
Ġrelative ly
Ġs outh
Â¯ Â¯
Ġaff ord
Ġident ity
Ġdec isions
Ġacc used
pl ace
Ġvict ory
o ch
i at
N ame
C om
t ion
ed s
Ġsee k
Ġt ight
ĠIm ages
Ġinit i
Ġhum ans
Ġfam iliar
Ġaud ience
Ġintern al
vent ure
Ġs ides
ĠT O
Ġd im
Ġcon clud
Ġapp oint
Ġenforce ment
ĠJ im
ĠAssoci ation
Ġcircum st
ĠCanad ian
Ġjo ined
Ġdiffere nces
ĠL os
Ġprot est
Ġtw ice
w in
Ġgl ass
ars h
ĠAr my
Ġexp ression
Ġdec ide
Ġplan ning
an ia
Ġhand le
ĠMicro soft
ĠN or
Ġmax imum
ĠRe v
Ġse a
Ġev al
Ġhel ps
re f
Ġb ound
Ġm outh
Ġstand ards
Ġcl im
ĠC amp
ĠF ox
cl es
Ġar my
ĠTe chn
ack ing
x y
S S
Ġ4 2
Ġbu g
ĠUk rain
ĠM ax
ĠJ ones
ĠSh ow
l o
Ġplan et
Ġ7 5
Ġwin ning
Ġf aster
Ġspe ct
Ġbro ken
T R
Ġdef ined
Ġhealth y
Ġcompet ition
htt ps
ĠIs land
ĠF e
Ġannoun ce
ĠC up
ĠInst ead
Ġcl ient
Ġposs ibly
se ction
ock et
l ook
Ġfin ish
Ġcre w
Ġres erv
Ġed itor
Ġh ate
Ġs ale
Ġcontro vers
Ġp ages
w ing
Ġnum er
Ġopp osition
Ġ200 4
Ġref uge
Ġfl ight
Ġap art
ĠL at
A meric
ĠAfric a
Ġapplic ations
ĠPal est
ĠB ur
Ġg ar
ĠSoc ial
Ġup gr
Ġsh ape
Ġspe aking
ans ion
a o
ĠS n
Ġwor ry
ĠBrit ain
P lease
rou d
Ġh un
Ġintrodu ced
Ġd iet
I nd
ĠSec ond
Ġfun ctions
ut s
ĠE ach
ĠJe ff
Ġst ress
Ġaccount s
Ġgu arant
ĠAn n
ed ia
Ġhon est
Ġt ree
ĠAfric an
ĠB ush
} ,
Ġs ch
ĠOn ly
Ġf if
ig an
Ġexerc ise
ĠEx p
Ġscient ists
Ġlegisl ation
ĠW ork
ĠS pr
Ã Ĥ
ĠH uman
Ġ è
Ġsur vey
Ġr ich
ri p
Ġmain tain
Ġfl o
Ġleaders hip
st ream
ĠIslam ic
Ġ 01
ĠCol lege
Ġmag ic
ĠPr ime
Ġfig ures
201 7
ind er
x ual
ĠDe ad
Ġabsolute ly
Ġfour th
Ġpresent ed
resp ond
rib le
Ġal cohol
at o
ĠD E
por ary
Ġgr ab
Ġvar i
Ġqu ant
ĠPh oto
Ġpl us
r ick
ar ks
Ġaltern ative
Ġp il
Ġappro x
th at
Ġobject s
ĠR o
ĠAnd roid
Ġsignificant ly
ĠR oad
k ay
R ead
av or
Ġa cknow
ĠH D
ĠS ing
O r
ĠM ont
Ġun s
pro f
Ġneg oti
ĠAr ch
ik i
Ġte levision
ĠJew ish
Ġcomm ittee
Ġmot or
Ġappear ance
Ġs itting
Ġstri ke
ĠD own
com p
ĠH ist
Ġf old
ac ement
ĠLou is
Ġbel ong
ĠâĢ ¢
Ġm ort
Ġprep ared
Ġ6 4
ĠM aster
Ġind eed
ĠD en
Ġre nt
T A
our ney
ar c
S u
9 7
Ġadv ice
Ġchang ing
Ġlist ed
Ġlaun ched
is ation
ĠP eter
is hes
Ġl ived
ĠM el
ĠSup reme
ĠF ederal
Ġ) ;
ruct ure
Ġset s
Ġphil os
u ous
ĠÂ ł
Ġappl ied
ĠN OT
Ġhous ing
ĠM ount
Ġo dd
Ġsu st
D A
ffic ient
Ġ ?
ol ved
Ġp owers
Ġth r
Ġrem aining
ĠW ater
L C
Ġca uses
ãģ ®
Ġman ner
ad s
Ġsuggest s
Ġend s
stand ing
f ig
ĠD un
id th
Ġg ay
Ġter min
ĠAngel es
M S
Ġscient ific
Ġco al
ap ers
b ar
ĠThom as
Ġsy m
ĠR un
th is
P C
igr ants
Ġmin ute
ĠDist rict
cell ent
Ġle aves
Ġcomple ted
am in
Ġfoc used
Ġmon itor
Ġveh icles
M A
ĠM ass
ĠGr and
Ġaffect ed
itution al
Ġconst ruct
Ġfollow s
Ġt on
re ens
Ġh omes
ĠE xt
ĠLe vel
r ast
ĠI r
Ġel im
Ġlarge ly
ĠJ oe
Ġvot es
all s
Ġbusiness es
ĠFound ation
ĠCent ral
Ġy ards
Ġmaterial s
ul ner
Ġgu ide
Ġclos er
um s
Ġsp orts
ed er
J ust
Ġtax es
8 4
ĠO ld
Ġdec ade
ol a
Ġv ir
Ġdro pped
Ġdel ay
it ect
Ġsec ure
ste in
le vel
Ġtre ated
Ġfil ed
ain e
Ġv an
Ġm ir
Ġcol umn
ict ed
e per
Ġro t
Ġcons ult
Ġent ry
Ġmar ijuana
ĠD ou
Ġapparent ly
ok ing
clus ive
Ġincre ases
an o
Ġspecific ally
Ġte le
ens ions
Ġrelig ion
ab ilities
Ġfr ame
ĠN ote
ĠLe e
Ġhelp ing
Ġed ge
ost on
Ġorgan izations
Ã ĥ
ĠB oth
hip s
Ġbig ger
Ġbo ost
ĠSt and
Ġro w
ul s
ab ase
Ġr id
L et
are n
ra ve
Ġst ret
P D
Ġv ision
Ġwe aring
Ġappre ci
Ġa ward
ĠU se
Ġfact or
w ar
ul ations
) (
Ġg od
Ġter rit
Ġpar am
ast s
8 7
Ġen emies
ĠG ames
F F
Ġacc ident
W ell
ĠMart in
T ER
Ġat h
ĠHe ll
Ġfor g
Ġve ter
ĠMed ic
f ree
Ġst ars
Ġexp ensive
Ġac ad
ra wn
ĠW he
Ġl ock
Ġform at
Ġsold iers
s m
Ġag ent
Ġrespons ibility
or a
ĠS cience
Ġrap id
Ġt ough
ĠJes us
Ġbelie ves
M L
Ġwe ar
le te
Ãĥ ÃĤ
ĠD ri
Ġcomm ission
ĠB ob
O h
ap ed
Ġwar m
ÃĥÃĤ ÃĥÃĤ
Ġ200 3
ort ion
Ġhas n
ust er
Ġun ivers
ĠI ll
Ġk ing
olog ies
9 4
ĠT em
ĠM os
Ġpat ient
ĠMex ico
ce an
ĠDe ath
ĠSand ers
y ou
ĠC ast
ĠComp any
pt y
Ġhappen ing
F P
ĠB attle
Ġb ought
A m
M od
U s
ut ers
ĠC re
ĠTh ose
Ġ4 4
is er
Ġs oul
ĠT op
ĠHar ry
ĠA w
Ġse at
ff ee
Ġrev olution
Ġ( "
ĠD uring
et te
Ġr ing
Ġoff ensive
Ġreturn s
Ġv ideos
Ġdis cl
Ġfam ous
en ced
ĠS ign
ĠR iver
Ġ3 00
P M
ĠB us
ĠC H
Ġcandid ates
ard en
Ġpercent age
Ġvis ual
Ġthan k
Ġtrou ble
ner gy
Ġ200 1
Ġpro ve
ash ion
Ġen h
ĠL ong
U M
Ġconnect ed
Ġposs ibility
O ver
Ġexper t
Ġl ibrary
art s
ĠDirect or
Ġfell ow
9 2
ir ty
Ġd ry
Ġsign s
ĠL ove
Ġqu iet
f oot
Ġp ure
ĠH un
Ġf illed
ph as
ĠE lect
end ment
ĠEx pl
Ġun able
n s
m o
Ġv ast
ob e
Ġident ify
app ing
ĠCarol ina
g ress
Ġpro te
Ġf ish
Ġcircumst ances
raz y
ĠPh ot
Ġb odies
ĠM ur
Ġdevelop ing
ĠA R
Ġexperien ced
Ġsubst ant
ĠBo ard
es ome
Ġdom estic
Ġcomb ined
ĠP ut
Ġchem ical
ĠCh ild
Ġpo ol
ĠC y
Ġe gg
c ons
st ers
Ġh urt
Ġmark ets
Ġconserv ative
Ġsupp orters
Ġag encies
id el
O b
ur b
Ġ4 3
ĠDef ense
y e
ĠA p
du le
Ġtemper ature
Ġconduct ed
ĠCh ief
Ġpull ed
Ġf ol
L ast
ont o
os is
V ER
D es
ĠP an
F irst
Ġadv ance
Ġlic ense
r ors
ĠJ on
Ġimag ine
Ġhe ll
Ġf ixed
Ġinc or
os ite
ĠL og
ick en
] :
Ġsurpr ise
h ab
Ġc raft
ol t
ĠJ ul
Ġd ial
Ġrele vant
Ġent ered
Ġlead s
ĠA D
ĠCle an
Ġpict ures
ess or
Ġal t
Ġpay ing
P er
ĠMark et
Ġupd ates
am ily
ĠT ype
ĠH ome
Ġ5 5
semb ly
rom e
8 3
Ġgreat est
Ġhe ight
Ġhe av
ain ts
Ġlist en
as er
ĠS H
Ġcap able
ac le
Ġpers pect
in ating
Ġoff ering
ry pt
ĠDe velop
ab in
r c
Ġbr ight
al ty
ar row
Ġsupp l
ind ing
ack ed
gy pt
ĠAn other
p g
ĠVirgin ia
ĠL u
Ġpl anned
Ġp it
Ġswe et
T ype
ĠD i
Ġtyp ically
ĠFranc isco
Ġpro spect
ĠD an
Ġte en
re es
Ġsc hed
Ġh ol
Ġsc r
Ġlot s
l ife
Ġnews p
Ġfor get
ĠN one
ĠM iddle
ĠR yan
ed d
Ġse vere
Ġsu it
ll er
9 3
Ġcor respond
Ġexpl os
u ations
Ġfl ag
g ame
r id
Ġpr in
ĠD ata
Ġde ploy
ĠEn ter
su it
gh an
ĠM en
Ġthough ts
Ġmat ters
Ġad apt
ĠA ri
Ġf ill
Ġfor th
Ġs am
Ġ4 1
Ġpay ment
ĠH or
Ġsp ring
du c
Ġl osing
Ġbring ing
F O
al a
Ġdist ribution
he red
b our
ĠIsrael i
om a
Ġcomb ination
Ġpl enty
V E
C an
ĠH aw
Ġper man
ĠSpe cial
Ġto w
Ġsee king
Ġexam ples
Ġclass es
c r
Ġbe er
Ġmov es
ĠI P
ĠK n
Ġpan el
E ven
Ġproper ly
Ġr is
Ġpl ug
Ġestim ated
E very
Ġdef ensive
ag raph
Ġpre gn
Ġinst it
ĠV ict
Ġvol ume
Ġpos itions
Ġl inks
ĠPro gram
ĠWe ek
ag ues
Ġtrans form
k er
ĠC EO
Ġc as
Ġopp onent
Ġtwe et
ĠC ode
Ġsh op
Ġf ly
Ġtal ks
Ġb ag
Ph one
Ġa id
Ġpl ants
Ġ6 5
Ġatt orney
ar ters
qu est
ĠMag ic
Ġbeg ins
Ġmy ster
Ġenvironment al
Ġst orage
N N
Ġm arg
Ġs ke
Ġmet al
ell y
Ġord ered
Ġrem ained
Ġl oved
Ġprom pt
Ġupd ated
Ġexper ts
Ġwalk ing
Ġan cient
Ġperform ed
AT E
Ġne ither
i ency
Ġmanufact ure
ĠP ak
Ġselect ed
Ġm ine
Ġult imately
Ġexpl an
Ġlab el
ĠServ ices
ribut ed
Tr ump
Ġsy n
ĠU lt
S C
Ġme at
Ġg iant
ĠW ars
ĠO N
Ġad m
Ġinter pret
Ġeven ing
Ġev il
ĠB oston
ĠW ild
Ġ Ã
ĠBit coin
ĠAm azon
D r
ĠIn formation
Ġobvious ly
Ġadv anced
Ph oto
ol ar
Ġwe ather
Ġsymb ol
Ġso le
Ġpot entially
ost er
Ġorig inally
m un
3 00
az e
ess ions
Ġde ck
Ġst ood
Ġyou th
ĠB ern
R ep
ĠT est
Ġbas ically
ot ic
Ġinvol ve
ol it
ly n
S ee
Ġair craft
Ġconf irm
E W
Ġmess ages
ĠRich ard
Ġk it
Ġpro hib
Ġv ulner
is ters
Ġexist ence
Ġturn ing
ĠS P
Ġdes ire
Ġfl at
Ġm ent
se ason
ang es
Ġneighbor hood
ĠL ake
AT ION
Ġpoint ed
b ur
Ġinn ov
uc ks
U L
Ġprofess or
Ġexp ressed
A B
ic ious
Ġ200 2
ĠDe v
Ġs ession
Ġb are
s en
Ġdis s
ĠC ath
ĠP ass
ĠP oint
Ġdo ctor
or row
ail ed
ĠR ub
ĠD C
ĠChar l
p erson
Ġwrit er
igh ters
ure au
Ġob lig
Ġrecord ed
Ġbro ke
Ġord ers
il ty
Ġmot ion
in ity
l aw
ad ium
Ġimm igration
Ġcontr ast
Ġb att
Ġex cellent
Ġtechn ical
am i
Ġt un
Ġcl oud
ĠY ear
ge on
Ġcre ation
Ġstr ange
Ġa uth
Ġfor t
b orn
Ġext ent
ĠT oday
ĠCl ub
Ġr ain
Ġs ample
Ġaccept ed
Ġt act
Ġf ired
ĠS on
Ġstand s
Ġb oot
Ġ4 7
Ġstat ements
Ġvers ions
Ġse lling
ound ed
Ġ199 0
Ġwere n
ĠW atch
Ġexper iment
P ost
Ġret ail
ul ed
In st
un te
ãĥ ¼
Ġdep art
Ġb ond
i very
om pl
Ġre action
ĠSyri an
ĠP ac
app ed
ani el
D P
Ġres olution
Ġre act
Ġappro ved
on om
m ond
ĠO ffic
-- -
Ġrepl ace
Ġt ack
Ġsp ort
Ġch ain
Ġemer gency
r ad
ĠPalest in
Ġ4 6
Ġautom atically
Ġrout e
Ġp al
Ġb anks
ĠPar is
ĠMed ia
ro ad
ic ing
i xt
ist ed
Ġg rew
Ġco ord
ĠW here
om in
Ġsub s
ï¿½ ï¿½
ĠÂ ±
Ġcorpor ate
Ġse lection
n oon
ĠRep ort
c s
clud ing
ord ers
anc he
ĠIt s
Ġslow ly
ĠE gypt
ĠA cc
Ġcol le
iqu es
E X
Ġattempt s
ur l
ĠC ross
Ġfind ings
ĠS C
ĠO R
Ġind ex
ens ity
ĠW ay
ĠL and
Ġsh ock
d is
Ġd ynam
Ġc art
m osp
S ince
i est
ĠB oy
Ġst orm
ĠCont in
201 3
he w
il it
Ġess ential
iqu id
O ther
ive red
Ġreason able
A ct
Ġsub sequ
ĠP ack
ĠF ort
Ġconsider ing
Ġun iversity
l og
Ġmar ried
Ġill ust
ĠTr ue
£ ı
Ġnumer ous
rast ructure
Ġserious ly
Ġrefer red
u a
Ġconsist ent
on na
ĠRe al
ru ption
ci ples
Ġfact s
9 1
ot es
er g
The n
Ġacc ompl
N ote
Ġre venue
Ġpass ing
Ġm al
e en
ĠY et
Ġg ather
ter day
ew ork
ĠA uthor
P e
Ġopt im
Ġr ub
Ġè £ı
Ġun known
st one
Ġun ion
ol ve
Ġopportun ities
Ġbrow ser
ĠW al
ĠC ost
Ġreport ing
st s
p et
Ġs and
Ġsudden ly
Ġsurpr ising
ĠV R
Ġsomew hat
ĠB as
ult ure
iz z
ĠC D
Ġchalleng es
Ġsett ings
Ġexperien ces
ĠF ull
Ġcan n
Ġrece iving
ES T
Ġj oint
Ġcult ural
Ġa st
8 2
as tern
ce ived
ĠC ru
Ġb ull
p ired
am m
Ġfac ing
p ower
Ġb oss
ĠH ol
Ġinst r
Ġincreasing ly
Ġsh ift
Ġstre ets
ĠWilliam s
ab b
Ġl ie
Ġl augh
ĠC a
P L
Ġadult s
Ġcustom er
Ġob tained
Ġsupport ing
ht ml
f ire
Ġdetail ed
Ġpick ed
ĠR ight
ld er
E E
st ood
ĠK im
Ġw ire
Ġs ight
Ġdevelop ers
Ġpers ons
Ġs ad
Ġc up
Ġwar ning
Ġboy s
l ong
Ġb ird
f o
Ġw al
Ġobserv ed
Ġz one
iven ess
Ġch annel
c ript
Ġref used
ĠAg ain
Ġsu c
Ġspokes man
ĠRe f
r ite
ou ston
ãĥ ³
ĠS her
Ġact s
ĠN ame
Ġstrugg le
ar ry
omet imes
Ġdisc rim
H T
Ġcateg ory
Ġreal ize
Ġemploy ee
ĠAf ghan
en ger
Ġgun s
ĠSte ve
ĠM ot
ĠO l
ok ed
Ġth ick
Ġfair ly
ill y
Ġsur ve
ĠM at
we ight
â Ķ
Ġtro ops
Ġag ents
Ġbatter y
Ġmot iv
Ã ¡
S ec
d en
o very
L S
Ġfl u
Ġconf ident
ĠO per
Ġem pty
Ġp hen
Ġse ctor
Ġexc ited
Ġrem ote
ap h
o en
Ġdestroy ed
Ġmor al
ĠH P
ĠR on
Ġd ress
ĠB at
Ġl it
ĠM S
Ġa f
H L
r um
is ms
Ġshould n
Ġsym pt
ĠTor onto
het ic
Ġcar bon
Ġinstall ed
Ġviol ent
Ġsol ar
j a
Ġpract ices
Ġr ide
ĠP enn
Ġimpro ved
Ġaud io
Ġbehav i
ĠP S
Ġe ating
D ata
ĠRe view
p ass
cl aim
u ated
ang ers
c hen
Ġproper ties
Ġany where
An other
Ġbl ow
ĠJack son
Ġp roud
Ġplan e
l ines
Ġsqu are
Ġpro of
ans as
Ġtalk ed
m akers
Ġs ister
Ġhold s
Ġres ident
Ġ= =
Ġresist ance
Ġspl it
Ġpro secut
Ġconf idence
res ents
Ġcut s
Ġexcept ion
Ġz ero
Get ty
Ġcop yright
Ġtot ally
orm al
ific ations
ĠAustral ian
Ġs ick
Ġ1 50
Ġhouse hold
Ġfe es
Ġdri vers
og en
ĠN Y
Ġnecess arily
Ġregul ations
ear ing
s l
Ġperspect ive
c are
ic ial
H is
Ġesc ape
Ġsurpr ised
ĠV an
ur rent
Ġv ac
8 1
ĠTh us
Ġem phas
ĠCh ampions
ĠI ce
Ġn arr
Ġhead s
Ġca using
b el
f ortunately
ĠM a
Ġtarg ets
ci pl
Ġafter noon
Ġadd s
ĠMay be
ĠF our
ess ed
ple te
Ġus ual
ch o
ing u
Ġwith d
ĠE nergy
ĠE conom
O O
Ġart icles
Ġinj ured
Ġman age
Ġexpl ains
Ġdi agn
R ec
at ures
Ġlink ed
Ġdiscuss ed
Ġexpl o
Ġocc asion
ath an
Ġopp osite
Ġfac es
Ġden ied
ĠK night
Ġn ut
Ġapprox imately
Ġdisapp oint
onym ous
ĠB est
ĠL o
ĠH y
ĠA ff
Ġvot ing
an while
ĠII I
Ġinstit utions
ag ram
ĠD aily
Ġdr ag
Ġnear by
Ġgu ilty
Ġcon ver
P re
s hip
Ġre ward
Ġphilos oph
ĠS S
u gh
Ġapp s
f riend
Ġu pper
Ġad vert
Ġs now
Ġfr ust
Ġour selves
F r
ĠD ie
amp ion
Ġdis miss
Ġc ere
Ġsign al
f rom
Ġ ).
Ġ5 2
Ġcr imes
it ors
est ival
use um
Ġcoun cil
ĠS aud
M ay
ĠG un
ic ian
et her
Ġsu fficient
ĠH en
so le
Ġhistor ical
ĠF ar
ĠT urn
Ġp in
Ġsuc ceed
m at
ly mp
Ġtrad ition
ĠO k
Ġc ro
Ġdesc ription
al le
Ġsk y
T e
Ġwide ly
Ġw ave
Ġdefin ition
ĠJew s
Ġcy cle
Ġref ere
Ġbr ings
us al
Ġal ive
Ġfrequ ently
Ġint ention
ĠCont rol
l v
y stem
Ġpriv acy
g ent
ren ce
ĠQu est
ĠChrist mas
Ġr ail
Ġco oper
Ġtest ed
ĠC apt
as ks
Ġcomfort able
Ġdel ivered
sc ape
Ġdep th
ĠG OP
Ġwrit es
Ġass ets
Ġsa v
im ents
Ġtrans ition
Ġart ist
ĠL ook
Ġl ob
Ġcomp onents
ar ity
Ġwalk ed
Ġro ot
Ġparticip ants
Ġnot iced
Ġres c
Ġn av
ĠAd minist
d a
ut ral
pl ate
Ġimport ance
Ġass ert
ious ly
c ription
Ġinj uries
ĠChe ck
Ġregist ered
Ġint ent
Ġmiss ed
ograph ic
Ġsent ence
oun ter
Ġassist ance
ev in
Ġdat abase
Ġbuild ings
Ġclass ic
Ġth inks
ĠOh io
P r
ug g
Ġfe e
p an
Ġeffect ively
Ġfac ility
Ġbe ar
Ġch apter
Ġdog s
ĠCol umb
Ġl atter
it ial
Ġad mitted
T V
ĠGe org
Ġpost s
\ \
Ġlawy er
Ġequ ival
Ġm and
Ġcontro lled
ĠW alk
ĠAnd rew
Ġmen u
am ental
Ġprotect ed
v a
Ġadminist r
or al
Ġre in
ĠS ar
Ġamount s
Ġn ative
ĠM oon
Ġrep resents
Ġab andon
Ġcarry ing
Ġt ank
m ary
Ġdecl ared
T ube
Ġh at
Ġpun ish
el lect
m es
Ġun iverse
ĠR od
ph y
Ġinf rastructure
Ġ5 1
Ġopp osed
ow nt
c a
ĠM ake
Ġhard ware
Ġco ffee
R el
b al
w orld
ĠS af
ĠSe a
in als
Ġown ed
Ġh all
ers ion
Ġdescrib e
ĠP ot
Ġport ion
Ġat mosp
Ġgovern ments
Ġdep ending
Ġoff ense
Ġtr ick
aw a
ĠL ine
ĠV is
ĠH ard
ĠOr ig
ĠCl ick
Ġdes k
ĠVal ley
ĠS ov
Ġmov ies
Ġrem ark
Ġm ail
Ġcons cious
Ġrul ing
ĠR ights
Ġmed ic
he nt
ĠW omen
> <
Ġrepl aced
ĠP rem
ĠTh anks
Ġre new
ĠB all
if orm
Ġsh ots
C omm
Ġar med
Ġconst ant
Ġt aste
Ġreal ized
Ġbu ff
Ġm o
Ġeffic ient
M ost
or ation
if ies
Ġcommun ication
Ġfl ood
Ġconsequ ences
Ġany way
ig g
ĠG M
ĠTh ank
Ġ iron
Ġev olution
ĠC op
tw itter
Ġ9 5
Ġrelationship s
ad el
ĠYou ng
Ġpropos al
ay ers
uild ing
ĠH ot
OR E
c os
Ġcoll abor
P G
ax y
Ġknow ing
Ġsupport s
ow ed
Ġcontrol s
Ġmere ly
um er
Ġath let
Ġf ashion
p ath
Ġg ift
Ġer a
AN D
Ġkind s
ĠKore an
Ġleg it
ul ous
Ġess entially
Ġthe rap
n ic
Ġsuff ered
Ġh ur
Ġprom ise
Ġex cess
Ġover w
Ġpr ime
ĠH ouston
er ry
ĠM s
R S
201 2
Ġst ores
ĠO lymp
Ġj ourney
Al though
S ub
ĠE duc
ĠCh apter
Ġrequest s
Ġconsum ers
Ġt iny
Ġis ol
ĠF air
b a
ĠY OU
Ġcr ash
ce ler
Ġemot ional
Ġgood s
Ġelect ed
Ġmod er
ĠLin ux
Ġbl ocks
Ġis land
ĠSoc iety
Ġelect ions
Ġbroad cast
Ġche ap
Ġn ations
Ġse asons
4 00
Ġwas te
ĠS at
Ġfield s
em ploy
Ġprof ile
Ġauth ors
AL L
ĠG ra
w est
ĠT y
Ġdeath s
Ġv acc
Ġfor med
Ġd u
Ġon going
ĠMuslim s
el f
ig ure
Ġass ume
ĠUkrain e
w ater
Ġco ast
Ġvot ed
g or
ĠA S
ĠMich igan
az a
ĠAr m
i ro
Ġf lex
as ters
' '
Ġwel come
ar l
Ġloc ations
ig ation
ĠF il
Ġbu ying
Ġarch itect
Ġhard er
ĠC ub
Ġinter face
Ġrestaur ant
Ġdisco ver
Ġex ceed
Ġfav our
ger y
Ġd uty
Ġp itch
ad or
ĠM ach
b oy
Ġrespond ed
Ġext ended
her s
M any
ra id
if er
ĠIn s
S er
Ġmed ium
s he
ĠS ports
Ġmag azine
ut ation
Ġlim its
ĠG all
Ġex ternal
raz il
Ġyoung er
t le
Ġrem ind
ĠC ON
Ġimmedi ate
Ġh idden
Ġvol unte
Ġsim pl
od cast
Ġph ase
d r
Ġpl ot
Ġexp osure
R I
og rap
v in
an ish
ĠAc ad
ĠEng ine
Ġexp ansion
ĠP ay
Y our
Ġpus hed
ĠE ll
ĠHe ad
Ġmarket ing
ĠA C
k et
Ġh its
Ġg ro
ĠA ge
ĠSc ot
] [
Ġst im
Ġi Phone
Ī Ĵ
Ġn arrow
ĠGet ty
ĠTur key
Ġperfect ly
Ġen able
ut ch
Ġprec ise
Ġreg ime
Ġsh if
Ġcomp ens
g un
d iv
Ġch osen
ĠK en
An y
Ġtre es
Ġrecomm ended
ĠR en
u able
ĠH T
F ollow
E G
ĠH and
ĠK enn
Ġarg uments
Ġex ists
Ġb ike
ĠCons erv
Ġbre aking
ĠG ar
Ġc razy
Ġvirt ual
ay lor
ix el
Ġ19 80
Ġper mission
ĠSer ies
Ġconsum er
Ġclose ly
c alled
Ġ5 4
Ġhop es
Ġar ray
ĠW in
ĠLab our
Ġsp ons
ĠI re
Ġp ow
Ġread ers
Ġemploy ment
Ġcreat ure
Ġresult ing
Ġaccur ate
Ġmom ents
Ġarg ued
Ġp ed
D uring
Ġ5 3
ĠT al
Ġs ought
Ġsuff ering
Ġ icon
le e
Ġ( $
al ian
Â °
Ġp ra
Ġbon us
( "
k o
Ġact ing
D E
f all
Ġcompar ison
Ġsm ooth
ĠN AS
u pp
ĠJose ph
ep ing
ĠT ake
ĠM id
Ġs ending
f ast
ĠF all
Ġdeal ing
us er
ĠOr gan
C o
Ġatt ached
Ġse es
% .
Ġtyp ical
AR T
Ġfind s
ĠAs ia
um in
ĠC ore
ĠE nt
in ent
u ce
ĠBl ood
ĠN ever
Ġem ails
Ġhigh light
Ġconf ront
at us
ut ed
Ġun us
Ġtop ic
ĠAd am
Ġb le
at i
Ġunder stood
S et
st ruct
T P
Ġm ob
a a
ĠSt art
pect ed
se ll
Ġded icated
ĠC A
u an
Ġsong s
esc ription
Ġte ch
Ġr ape
Ġas ide
Ġgr ant
Ġ5 6
s ub
Ġarg ue
Ġcont aining
Ġsche dule
Ġliber al
Ġpublic ly
Ġheav ily
ĠU t
in er
ĠS ection
ĠC are
we et
l s
D is
âĶ Ģ
ĠF ollow
B ack
ĠI T
Ġb es
j i
ĠH it
est ed
Ġevery body
ĠSw ed
Ġfem in
Ġfac ilities
Ġcon ven
C omp
ĠO S
c ore
Ġan x
Ġdiv ision
ĠC am
ĠSt an
m ates
Ġexpl ore
pl om
Ġsh ares
pl oad
an es
Ġide al
et ers
ĠB ase
Ġpl astic
Ġdist inct
ĠNet work
ĠSe attle
Ġtrad ing
ens us
int end
Ġex hib
Ġinit ially
ĠF ood
Ġthous and
ĠBus iness
act er
Ġpar agraph
Ġrough ly
Ġw ww
Ġcreat ive
ĠCon f
Ġconsum ption
Ġfil ms
ag an
Ġob tain
Ġt all
Ġt or
Ġacknow led
Ġg rown
al o
K E
Ġ4 00
end ers
t aining
U G
Ġsu icide
Ġwat ched
ĠL ist
al i
re hens
Ġsurround ing
Ġp ip
Ġf lying
ĠJ ava
ord an
Ġserv ing
in ations
p ost
Ġsh o
A v
Ġj ail
z y
Ġ199 9
Ġ< /
Ġliter ally
ĠS ir
Ġexp osed
Ġl ies
st ar
Ġb at
Ġear ned
ĠD ig
Ġspec ified
ĠSe ason
Ġdeg rees
Don ald
Ġcent re
Ġsh aring
Ġwin ter
ĠC O
C he
Ġ Î
M P
Ġun w
Ġfew er
ĠM ir
Ġsomew here
ĠK ey
Ġattack ed
ĠK ir
Ġdom ain
Ġstrong er
Ġ9 9
Ġpen alty
I d
Sc ript
Ġdecl ined
Ġne ck
Ġfra ud
Ġcur rency
Ġr ising
R C
âĢ¦ âĢ¦
H z
Ġt ab
Ġtal ent
n am
ĠN BA
Ġvill age
Ġleg s
ĠN ext
E d
Ġac id
Ġhy d
8 00
Ġinvol ving
ĠIm age
ĠBe fore
F l
Ġyes terday
S ource
Ġterror ist
Ġsu p
Ġsy nt
ĠSaud i
Ġw est
Ġr u
b urg
Ġvis ible
Ġstru ck
r ison
Ġaw esome
Ġd rawn
Ġansw ers
ĠG irl
ĠR am
Ġthreat s
Ġdef eat
os it
Ġv ent
atur ally
Americ an
end a
ĠH oly
Ġr um
% ,
c ase
ĠHist ory
ĠYou Tube
Ġsit uations
ĠD NA
S te
Ġsa ved
It em
Ġrec ip
olog ist
Ġfac ed
Ġel ig
O nce
ĠL i
u h
Ġmist ake
ĠDiv ision
ĠB ell
Ġsympt oms
Â ®
Ġdom in
Ġfall ing
Ġend ing
as hes
Ġmat ches
ĠOn line
Ġexplan ation
D ef
red it
Ġany more
ĠT otal
ĠF OR
us hed
Ġlet ters
Ġris ks
ĠO K
Ġreported ly
: \
Ġpl ate
Ġsubject s
Ġattempt ed
if ier
ian a
Ġunlike ly
ĠTh ough
um a
ĠIn vest
ĠPr in
ic an
ĠD ar
ĠColor ado
au g
Ġve get
a os
ri a
Ġshe l
Ġmark ed
Ġ( )
Ġsp r
p o
ĠL ink
Ġdef e
ĠJ r
Ġthem e
Ġpass ion
ĠP en
Ġinf o
iz er
Ġsh it
ĠC ivil
ap se
c re
Ġpo ly
Ġcomp onent
ĠChar les
ĠIre land
ĠPro v
Ġdo ctors
Ġgr anted
Ġpain t
Ġhon or
Ġsm oke
Ġpay ments
Ġprim arily
ĠKing dom
r ich
ate ll
Ġde als
Ġsched uled
Ġfund amental
Ġprote in
Ġnewsp aper
Ġcl ients
yth on
ĠD ate
h us
Ġfeed back
Ġstret ch
Ġc ock
Ġhot el
ĠQue en
Ġsu gar
Ġj u
Ġmil k
Ġappro val
ĠL ive
Ġequival ent
ef ully
Ġins ert
z ona
Ġext ension
d ri
J ohn
Ġacc omp
S m
ĠF und
Ġconst antly
Ġ` `
Ġgener ated
ĠA ction
ĠP sych
ĠT ri
Ġrecogn ize
Ġv ary
ph a
ĠR a
d f
et ch
ĠSov iet
Tw o
Ġpattern s
Ġprof ession
an ing
T ime
ĠL im
Ġcol ors
ĠA z
ĠT R
Ġinf ect
Ġphen omen
Ġshe ll
Al so
Ġput s
Ġdel ivery
Ġbro wn
Ġprocess ing
Ġlight s
ess age
ĠBro ok
ĠA ud
l ation
Ġindust rial
L ike
ĠB razil
rou s
ES S
ĠL uc
Ġsome how
Ġ8 5
Ġpro port
Ġpolit icians
Ġindic ate
Ġh ole
Ġtechn iques
Ġcompet itive
Ġph r
Ġv o
ist ent
ĠD ream
Ġcamp us
Ġaspect s
Ġhelp ful
Ġsh ield
or se
Ġtrig ger
m al
Ġ5 8
Ġt ort
Ġperson ally
Ġt ag
Ġkeep s
ĠV ideo
Ġben ch
Ġg ap
a ire
Ġe ast
Ġrec overy
per ial
Ġprof it
ĠM ic
Ġ5 7
Ġcol on
Ġstrong ly
st yle
Ġalleg ations
h an
Ġrep orters
j o
r ine
arg et
and al
Ġ0 3
Ġfl ash
tr ans
Ġstr ict
Ġpark ing
ĠPak istan
Ġl i
Ġwe ird
ĠE ric
Ġreg ions
ĠJ un
Ġint ellect
ĠW H
od ing
rib utes
up id
ĠT it
Ġf inger
or ia
Ġe lev
ĠF ield
Ġcon clusion
; ;
Ġfeel ings
Ġext ensive
Ġm ixed
Ġne uro
v y
Ġhar ass
ĠC irc
ou ch
Ġterrit ory
Ġsuccess fully
M ar
Ġing red
Ġoverw hel
Ġl ayer
V iew
Ġall ies
ill ance
ĠTh ree
Ġb unch
Ġnorm ally
Ġnet works
Ġsac r
ĠC IA
b les
Ġch ose
Ġopp onents
Ġregard less
Ġfr anch
Ġpre f
ĠP o
Ġbr idge
ann a
ĠSil ver
Ġw age
p age
ri or
Ġrad ical
ĠL ittle
Ġman ip
Ġsecret ary
Ġg ang
D R
F A
Ġdec ent
ĠSp irit
Ġun cle
ĠDevelop ment
Ġinvest ors
Ġwall s
Ġpub lish
Ġgener ate
iss ions
c ar
Ġprom ote
Ġcut ting
Ġche st
Ġdrink ing
Ġcollect ed
Ġ7 2
Ġhop ing
Ġem br
gor ith
Ġwar ned
Ġinstruct ions
O G
ĠD id
ĠAg ency
Ġg ear
Ġcritic ism
ĠF urther
Ġut il
ann y
R ed
Ġcoun sel
ĠAs ian
Ġredu ction
p ool
Ġteach ing
Ġdeep ly
i y
Ġestim ates
Ġcho ices
Ġperman ent
in em
ke l
Ġf asc
p se
f ile
ĠL ow
ĠP erson
Ġt ournament
st al
Ġm el
U ST
ĠR ay
az i
V al
Ġcont ained
ĠH olly
Ġw ake
Ġreve al
Ġprocess es
ĠIS IS
Ġ0 9
Ġbl ind
Ġste el
ĠB ad
Ġcare fully
app y
ro it
Ġg aming
Ġhous es
ĠC oll
Ġtr uck
er m
Ġsc ored
Ġocc as
ret urn
b ound
v ar
Ġsh arp
Ġaf raid
ĠE X
am ber
c ific
Ġsche me
N C
ĠPol it
Ġdecl ine
Ġ199 8
Ġpus hing
Ġposs ession
Ġpriv ile
Ġteacher s
Ġy ield
H A
ĠDav is
it led
#### ####
Ġr ig
ĠD aniel
ac on
Ġh ide
ut en
Ġcolle agues
Ġprin ciples
Ġl oud
Ġs in
ĠDem on
Ġst one
Ġ0 2
Ġt aught
Ġter rible
Ġst uck
ĠPol icy
te en
Ġimplement ation
ĠB BC
ĠAP I
Ġwhe el
all as
Ġch ampions
ol ars
play er
Ġrepeated ly
ĠSt ill
Ġlik es
ast y
es ter
ĠCath olic
R L
Ġb ath
Ġno ise
t itle
Ġn orthern
P art
Ġmag n
Ġf ab
ĠAs h
Ġdis pl
Ġtick et
Ġm urd
Ġalong side
ĠMus ic
Ġr iver
ĠSte el
ĠC L
ĠPl ayer
ĠM ult
ow ing
re p
s ize
Ġt ur
ĠGeorg ia
isc al
ra ction
Ġc able
Ġ5 9
Ġw ins
Ġup coming
Ġsurv ive
Ġins pired
ĠEduc ation
Ġstat istics
ĠF oot
iam i
Ġy ellow
ĠP age
. -
ĠH as
Ġur ban
Ġa x
es sel
\ "
Ġquarter back
Ġreg ister
ĠLab or
Ġab ilities
ĠF amily
Ġvar iable
ĠPr ice
Ġcont em
Ġth in
ĠE qu
d ata
Ġg otten
Ġconst it
Ġas ks
Ġt ail
Ġexc iting
ĠE ffect
ĠSp anish
Ġencour age
ins on
ĠA h
Ġcommit ment
C S
Ġr ally
Ġ: :
Ġsubs id
Ġsp in
Ġcapt ured
201 8
Ġinn oc
Ġalleged ly
ĠC ome
Ġart ists
ĠN umber
Ġelect ronic
Ġreg ional
ap es
Ġw ra
Ġmy th
pr ise
ĠM iller
ĠC reat
ĠEp isode
b ell
Ġdirect ed
Ġext ract
Ġs orry
Ġv ice
ag ger
ĠSu pport
Ġ6 6
ĠI ron
Ġwonder ful
Ġg ra
N et
ion e
E ng
Ġsh ips
ik es
ĠK evin
it ar
Ġactiv ists
tr ue
ĠAri zona
ent h
ĠDes pite
ĠS E
Ġha bit
ern el
Ġin qu
Ġab ortion
Ġv oid
Ġexpl icit
Ġeng aged
Ġang ry
Ġr ating
Ġfr ag
b ro
ick ing
d ev
Ġwor ried
Ġob ser
Ġap artment
ĠG T
Ġest ate
ĠConst itution
em on
ĠS now
Ġcount y
Ġdis ag
ĠStep hen
Ġimm igrants
w ind
ĠN ations
Ġfol ks
O ut
Ġg all
Ġtarget ed
Ġst ead
ĠB on
ĠL ib
Ġinform ed
Ġ12 0
ch ain
idel ines
or ough
Ġdri ven
Ġregular ly
Ġbas ket
Ġprinc iple
oc ument
Ġst un
ib ilities
ĠRom an
ĠAb out
Ġal ert
Ġdemocr acy
Ġrepresent ed
H S
c ers
p arent
Ar t
p ack
Ġdi plom
re ts
ĠN O
Ġcapt ure
ĠAd v
Ħ ¢
Ġannounce ment
ĠL ear
Ġh ook
Ġpur s
ĠS uch
ĠC amer
Ġrefuge es
ĠV e
P ol
Ġrecogn ized
l ib
Ġhad n
A ss
Ġpil ot
us hing
Ġreturn ing
Ġtra il
ĠSt one
Ġrout ine
Ġcour ts
Ġdes per
Ġfriend ly
ĠIt aly
Ġpl ed
Ġbreat h
Ġstud io
N S
Ġimp ressive
ĠAfghan istan
Ġf ing
Ġd ownt
ink ing
ĠR og
i ary
col or
se x
ar on
Ġf ault
ĠN ick
D own
ĠR ose
ĠS outhern
X X
is odes
L ist
6 00
Ġout come
er r
Ġelse where
Ġret ire
Ġp ounds
ĠGl obal
Pe ople
Ġcommun ications
Ġlo an
Ġrat io
ĠEm pire
Ġg onna
Ġinv ent
D F
Ġ19 70
ĠComm on
p at
Ġprom ised
Ġd inner
ĠH om
Ġcreat es
Ġoper ate
ver ty
ĠJ ordan
et ime
Ġsust ain
R eg
Ġincred ible
im a
Ġwar rant
Ġm m
A tt
Ġlaw suit
Ġreview s
it ure
ĠS ource
l ights
ĠF ord
Ġ6 3
g roup
st ore
Ġfeat ured
Ġfore ver
Ġpo verty
ĠP op
ĠC NN
az z
ab is
ach ing
Ġl aid
ĠSu pp
Ġfil ter
en a
ĠCommun ity
Ġcreat ures
u ction
ĠR oyal
Ġassoci ation
ĠCon nect
ĠBr ad
âĸ Ī
l ers
the re
ĠG i
Ġval uable
AC K
ĠT aylor
Ġl iquid
ĠAtt orney
ĠCar l
ĠF inal
ag a
ĠWil son
B ecause
ĠProf essor
ak a
Ġincred ibly
r ance
! )
R ef
s k
Ġsol utions
Ġatmosp here
Ġbl ame
um es
ĠN ob
C A
um ps
r ical
ĠPut in
ĠD est
or ic
ĠP A
Ġrespect ively
w an
Ġfif th
â Ħ¢
ĠC ry
Ġgovern or
res ident
Ġpurch ased
Ġh ack
Ġint ense
ob s
Ġorig in
Ġdef ine
Ġcare ful
** *
Ġshould er
Cl ick
Ġt ied
Ġdest ruction
ou red
Ġno body
Ġh o
ĠEx per
Ġt ip
" ;
Ġtechn ique
Ġj ur
ĠP ok
b ow
Ġleg end
Ġacc ord
Ġbus y
ĠInt el
Ġh ang
ak i
. ]
âĢĶâĢĶ âĢĶâĢĶ
Ġsur gery
Ġrep rodu
Ġun iform
Ġscen es
c ode
Ġ6 2
l isher
ĠH ave
ph ia
Ġcry pt
Ġrec on
Ġsc ream
Ġadop ted
Ġsc ores
N e
ĠIt alian
in cluding
B O
Ġindic ated
Ġent ertain
G u
T ext
i el
Ġtw enty
Ġeng age
off s
ĠPac ific
Ġsm ile
Ġperson nel
Ġto ler
Ġdo ors
Ġt one
Ġmach ines
Ġent ering
ten ance
C O
ĠJer sey
Ġfore st
Ġhor se
Ġcompl aint
ĠSpr ing
y o
ĠPl us
ed ing
ĠRet urn
qu arters
ial s
c ow
Ġacad emic
Ġf ruit
Ġ199 6
og ether
Ġw ine
Ġpur su
ĠSte ven
Ġlic ens
Wh o
Ġclot hes
re ction
Ġsqu ad
Ġst able
Ġr aw
z ens
St ar
ut ies
anc er
Ġke ys
ĠM u
Ġcompl icated
ig er
ĠTe xt
Ġabs or
Ġ6 8
Ġfun ny
Ġrel ief
ĠL ew
ĠC ook
Ġch art
Ġdraw ing
G E
Ġmod ule
ĠB ull
I LL
Ġs alt
0000 0000
il le
Ġres ource
aw ay
adel phia
ĠB ru
Ġ6 7
Ġsome body
Ġparticip ate
Ġro se
we red
Ġmus cle
Ġcons ent
Ġcontin uing
ĠGuard ian
ĠOr der
reg on
Ġre ar
Ġprov ision
Ġlik ed
ri ent
Ġb ra
Tr ans
Ġmeet ings
Ġto x
Ġcon vent
Ġaut o
Ġrec ording
ĠSo ft
00 1
ĠR oll
Ġprogram ming
Ġp ic
Ġprov ed
Ġst ab
ĠA st
Ġca ption
ul ating
ĠAtt ack
Ġnew ly
Ġ199 7
f r
Ġdis cipl
ĠGree k
Ġed ition
ĠDo es
ĠB ox
if le
ack et
Ġpass es
Ġgu est
Ġac celer
it als
U D
Ġaut hent
ĠR est
ov al
t a
u ine
Ġarm or
ĠT own
Ġcomp at
Ġinc hes
Des pite
Ġass ign
he rent
Ġprep are
ĠM eg
oc key
Ġdep ends
Ġtrack s
w atch
Ġl ists
ĠN orthern
Ġal ter
re c
ĠE astern
Ġcond em
Ġevery where
? '
Ġaff ili
Ġf ought
": {"
Ġm ac
it arian
Ġsc ope
ĠA L
aw s
ar ms
Ġqu e
Ġenjoy ed
nes ota
Ġagg ressive
ĠSt ory
ĠI V
Ġrec ipe
Ġrare ly
ĠMed ical
val ue
ang el
ay ing
omet hing
Ġsub section
Ġs outhern
Ġfrequ ency
re te
roll ed
ult s
ĠN ic
Ġbeh alf
Ġsequ ence
ab et
Ġcontrovers ial
Ġcomp rom
Ġwork er
Ġmain ly
Ġal gorith
ĠM ajor
or ce
g ender
Ġorgan ized
Ġf ake
Ġconclud ed
ĠE D
ĠEx ec
r age
Ġch ances
ber ry
ĠTr ad
Ġconfig uration
Ġwithd raw
Ġf ro
ud es
ĠBro ther
ĠB rian
Ġtri es
Ġsam ples
Ġb id
ĠGold en
Ġphot ograph
if est
ĠD O
ĠPar liament
******** ********
R em
Ġcont est
Ġsign ing
p x
ĠZ eal
âĶĢ âĶĢ
E ar
Ġex it
Be fore
ĠCor por
n ull
mon th
Ġrac ial
ott ed
ĠV eg
ĠRe uters
Ġsw ord
ps on
ĠRom ney
a ed
Ġt rib
Ġin ner
Ġprot ocol
ĠB i
ĠM iami
ever al
p ress
Ġsh ipping
ĠAm endment
ĠHow ard
con nect
ĠD isc
ĠJ ac
iam ond
ĠThere fore
s es
ĠPrin cess
ĠUS B
ĠAn th
Ġsurve illance
Ġap olog
Ġ6 1
ow a
Ġf ulf
j s
Ġl uck
ust ed
ĠÂ §
n i
Ġant icip
em an
Ġwin ner
Ġsil ver
ll a
ic ity
Ġunus ual
Ġcr ack
Ġt ies
e z
Ġpract ical
Ġprov ince
ĠPl ace
Ġprior ity
IC E
Ġdescrib es
Ġbr anch
F orm
ask a
miss ions
b i
Ġp orn
ĠTur k
Ġent hus
Ġf ighters
Ġ0 8
ĠDet roit
Ġfound ation
av id
A re
Ġjud gment
cl ing
Ġsol ve
ĠDes ign
W here
hes is
ĠT ro
a fter
Ġne utral
ĠPalestin ian
ĠHolly wood
Ġadv is
ĠN on
y es
ol is
Ġrep utation
Ġsm ell
Ġb read
ĠB ul
ĠBe ach
Ġclaim ing
Ġgen etic
Ġtechn ologies
Ġupgr ade
row s
Ġdevelop er
ĠJ osh
ĠDis ney
erv ed
ip al
Ġun ex
Ġbare ly
t hen
ĠP ub
Ġill ness
et ary
ĠB al
Ġp atch
Ġbut t
Ġst upid
ĠD og
ĠD allas
f ront
ie ce
Ġprot ests
Ġch at
oen ix
Ġw ing
Ġpar liament
Ġ7 7
ose xual
Ġre nder
pt ions
ĠCo ast
os a
ĠG reg
h op
ĠMan agement
Ġbit coin
Ġrec over
Ġincor por
or ne
ĠUs ing
Ġpre ced
Ġthreat ened
Ġspirit ual
ĠE vent
ĠF red
Ġadvert ising
Ġimprove ments
ĠC ustom
Ġer rors
Ġsens itive
ĠN avy
Ġcre am
L ook
Ġex clusive
Ġcomp rehens
Ġde leg
Ġcon ce
Ġrem em
Ġstruct ures
Ġst ored
N D
Ġ1 000
U P
ĠB udd
A F
w oman
ĠAcad emy
ð Ł
se a
Ġtem porary
Ab out
es ters
Ġtick ets
Ġposs ess
in ch
o z
Ġl a
Ġcontract s
Ġun p
Ġc ig
ĠK at
ult ural
as m
Ġmount ain
ĠCapt ain
St ep
m aking
ĠSp ain
Ġequ ally
Ġl ands
at ers
Ġreject ed
er a
im m
ri x
C D
Ġtrans action
g ener
less ly
Ġ| |
Ġc os
ĠHen ry
Ġprov isions
Ġg ained
Ġdirect ory
Ġra ising
ĠS ep
ol en
ond er
Ġcon sole
in st
Ġb om
Ġunc ertain
1 50
ock ing
Ġmeas ured
Ġpl ain
Ġse ats
Ġd ict
S L
af e
Ġest imate
iz on
at hered
Ġcontribut ed
Ġep isodes
omm od
G r
AN T
Ġ6 9
G ener
Ġ2 50
vious ly
rog en
Ġterror ism
Ġmove ments
ent le
oun ce
ĠS oul
Ġpre v
ĠT able
act s
ri ors
t ab
Ġsuff er
Ġn erv
Ġmain stream
ĠW olf
Ġfranch ise
b at
Ġdem ands
Ġag enda
Ġdo zen
Ġclin ical
iz ard
ĠO p
t d
Ġvis ited
ĠPer haps
Ġact or
Ġde lic
Ġcont ribute
Ġin ject
ĠE s
ac co
Ġlist ening
Ġcon gress
epend ent
Ġprem ium
Ġ7 6
ĠIr ish
Ġass igned
ĠPh ys
Ġworld wide
Ġnarr ative
ot ype
m ont
b ase
ĠB owl
ĠAdminist ration
Ġrel ation
ĠE V
C P
Ġco vers
Ġ7 8
Ġcert ific
Ġgr ass
Ġ0 4
pir acy
ir a
Ġengine ering
ĠM ars
Ġun employ
ĠFore ign
st ract
Ġv en
Ġst eal
Ġrepl ied
Ġult imate
Ġtit les
d ated
Ġj oy
a us
Ġhy per
ak u
Ġoffic ially
ĠPro duct
Ġdifficult y
per or
Ġresult ed
rib ed
l ink
wh o
~~ ~~
ĠSpe ed
ĠV iet
W ind
ĠBar ack
Ġrestrict ions
ĠSh are
Ġ199 5
ition ally
Ġbeaut y
op t
Ġm aps
ĠC R
ĠN ation
ĠCru z
W ill
Ġelectric ity
Ġor g
Ġb urd
Ġviol ation
Ġus age
Ġper mit
ĠCh ron
ĠF ant
Ġn aturally
Ġ0 7
Ġth rown
ĠAw oken
Ġal ien
ĠHer o
ĠK ent
ĠR ick
ri ke
Ġp ace
}, {"
G L
Ġpo ison
ĠT ower
Ġform al
al ysis
Ġgen uine
Ġk il
a ver
Ġproced ure
ĠPro p
intend o
ĠM ain
as ant
Ġtr ained
G ame
ĠL oad
ĠM A
Ġcru cial
Ġle ts
ĠF R
Ġch ampion
1 01
ĠCon ference
Ġwrit ers
Ġconnect ions
Ġo kay
ir ms
ĠR and
Ġenc ounter
ĠB uff
Ġachie ved
Ġche cks
isc ons
Ġassist ant
Ġwhen ever
ĠA ccess
ĠU r
b in
Ġcl ock
is p
op her
Ġb orrow
Ġm ad
Ġperson ality
on ly
IS T
ab ama
Ġg ains
Ġcommon ly
Ġter r
Ġhyp ot
Ġre ly
Ġt iss
iscons in
Ġrid ic
f unction
ĠO regon
Ġun com
r ating
el and
ĠN C
Ġm oon
ann on
Ġvulner able
ut ive
ÂłÂł ÂłÂł
ĠRad io
Ġw estern
se ct
ĠT ony
Ġocc urs
ĠO s
ĠH on
Ã Ń
Ġv essel
ĠScot land
Ġdiscrim ination
Ġsubsequ ent
st ring
Ġfant asy
ĠSh adow
Ġtest im
W E
it i
r as
Ġbo at
Ġmar ks
Ġord inary
Ġre n
Ġrepresent ative
Ġpet ition
Ġ7 3
Ġad venture
Ġign ore
ĠPhil adelphia
ĠS av
V P
Ġfact ory
Ġt asks
Ġdep ression
z ed
................ ................
ĠSt orm
Ġc ogn
Ġelig ible
Ġredu cing
v ia
Ġ0 5
Ġstri king
Ġdoll ar
h o
O V
Ġinstr ument
Ġphilosoph y
ĠMo ore
ĠA venue
Ġrul ed
ĠFr ont
IN E
ĠM ah
Ġscen ario
ĠNAS A
Ġen orm
Ġdeb ut
Ġte a
T oday
Ġabs ence
S im
Ġh am
le ep
Ġt ables
ĠHe art
M I
K e
re qu
V D
m ap
Ġchair man
Ġp ump
Ġrapid ly
v i
Ġsubstant ial
E P
d es
ch ant
ili pp
ĠS anta
ri ers
anche ster
L oad
ĠC ase
Ġsa ving
Ġ7 4
ĠA FP
er ning
oun ced
ĠMin nesota
ĠW as
Ġrec ru
Ġassess ment
ĠB ron
U E
Ġdynam ic
Ġf urn
ul ator
Ġprop ag
h igh
Ġacc ommod
Ġst ack
ĠS us
w rit
Ġre ven
ĠGod d
ĠZeal and
ab s
Ġbr ut
Ġper pet
h ot
Ġhard ly
ĠB urn
ãĤ ¹
Ġst y
Ġtrans actions
Ġg ate
Ġsc reens
Ġsub mitted
Ġ1 01
Ġlangu ages
ugh t
em en
Ġfall s
Ġc oc
Ĥ ¬
Ġstri kes
p a
Ġdel iber
ĠI M
Ġrel ax
ann els
ĠSen ator
Ġext rem
Ġ} ,
ĠDe b
Ġbe ll
Ġdis order
c ut
Ġi OS
Ġl ocked
Ġem issions
Ġshort ly
" ]
ĠJud ge
ĠS ometimes
Ġr ival
Ġd ust
Ġreach ing
F ile
Â¯Â¯ Â¯Â¯
ino is
ĠJ ason
Ġs atell
are t
Ġst ations
Ġag ric
ĠTechn ology
com es
ĠUn fortunately
ĠChild ren
Ġappl ies
ast ed
Ġan ger
ail ability
ĠDam age
Ġcomp are
ĠStand ard
Ġaim ed
ĠB a
angu age
Ġreg ulation
Ġj ury
Ġair port
Ġse ctions
ĠPr ince
em ed
Ġmedic ine
Ġh itting
Ġsp ark
ol ves
Ġad s
St ate
Ġfood s
Ġrepl acement
Ġch icken
Ġlow est
Ġmind s
Ġinvol ves
u i
Ġarr ang
Ġproced ures
ĠWh ich
ivers ary
Ġb ills
Ġimprove ment
Ġin ev
Ġexpect ations
Ġintellect ual
Ġsp aces
Ġmechan ism
2 50
bre ak
ĠZ e
ĠT enn
ĠB alt
Ġbar rel
Ġstat ic
man n
Pol ice
Ġt ips
Ġhand ling
c us
od ed
il ton
ir y
Ġjournal ists
our se
Ġcom ic
Ġnom ine
IT Y
Ġvers us
Ġlo op
Ġsur f
ĠInd ust
ĠHun ter
Ġbelief s
is an
Ġset up
Ġbre w
im age
Ġcomput ers
f ol
} ,"
ĠMed al
Ġtax p
Ġdisplay ed
Ġg rav
Ġf iscal
M on
ĠMos cow
ĠK ong
ĠCent re
Ġcamer as
ĠMr s
ĠH ay
Ġa ver
ĠK elly
p y
Ġrequire ment
Ġent itled
omb ie
Ġsh adow
ag ic
ĠA k
Ġel ite
Ġdiv ided
Ġhead ing
Ġcop ies
Ġloss es
Ġv it
k ed
ĠB ry
Ġan s
ĠSte am
Ġrep orter
he im
ĠIt em
Ġsuper ior
d on
ere nt
Ã ¶
Ġtherap y
Ġpe ak
ĠMod el
Ġl ying
Ġg am
z er
r itten
Ġrespons es
Ġconsider ation
ĠB ible
Ġl oyal
Ġinst ant
Ġp m
ĠFore st
Ã ¼
Ġext end
Ġconv icted
Ġfound er
Ġconv in
ĠO ak
che ck
Ġsch olars
p ed
Ġover se
T op
c ount
ĠAr k
Â ·
Ġ0 6
ĠL A
m d
ĠLat in
im ental
ĠC PU
Ġsubst ance
Ġminor ity
Ġmanufact uring
E r
ocol ate
Ġatt ended
ĠMan ager
r ations
Ġappreci ate
om y
GB T
id ency
B L
Ġguarant ee
pos ition
Ġo cean
clud e
Ġhead ed
Ġt ape
Ġlo ose
Ġlog ic
Ġpro ven
Ġsp ir
Ġad mit
is a
Ġinvestig ate
Ġ199 4
sy lv
ĠL ost
c est
Ġ7 1
Ġrequest ed
Ġwind ows
ĠPok Ã©
ĠWith out
M et
Ġbehavi our
Ġread er
Ġh ung
ĠKe ep
Ġro les
Ġimplement ed
Ġbl ank
Ġserv es
ĠJ ay
Ġc ited
ĠF riend
prof it
ap on
Ġrep air
it em
arr ass
Ġcrit ics
ad i
ĠF ather
Ġsh out
Ġf ool
Ġ8 8
Ġprodu cing
Ġl ib
Ġround s
Ġcirc le
Ġpre par
Ġsub mit
Ġn ic
mor row
ãĥ «
U nder
Ġv ital
ater n
Ġpass word
Ġpublic ation
Ġprom inent
Ġspeak s
Ġb ars
Ġde eper
ĠM ill
port ed
Ġw id
Ġbut ter
Ġsm oking
Ġindic ates
K ey
rop ri
ĠF ile
all ing
ast ing
ĠR us
Ġad j
Ġ7 9
av al
Ġpres um
bur gh
on ic
Ġf ur
Ġpoll s
ik a
Ġsecond ary
Ġmon ster
ig s
ĠCur rent
E vent
Ġowners hip
end ar
Ġarri ve
ĠT ax
Ġn ull
ĠPri v
Ġth ro
Ġk iss
c at
Ġup set
ang le
it ches
ect or
olog ists
ĠGal axy
Ġcor ruption
Ġh int
ent er
ĠH ospital
Ġgreat ly
Ġbeg un
es y
Ġso il
ĠAnt on
Ġmain tenance
ãĥ ©
Ġdo zens
Ġhuman ity
ĠAl abama
Ġr om
w orth
ap ing
sylv ania
l ah
Ġg athered
G A
Ġattack ing
f ound
ĠSqu are
Ġar bit
ict ions
ĠW isconsin
Ġd ance
ĠS aint
arch y
Ġbase ball
Ġcontribut ions
Ġliter ature
Ġex ha
per ty
t est
Ġb ab
Ġcontain er
let ter
Ġfall en
Ġwebs ites
Ġbott le
ĠS ac
Ġbre ast
ĠP L
Ġveter an
Ġinterview s
ĠA le
Ġb anned
eng ers
ĠRev olution
in th
Ġconc erning
IV E
Ġexp enses
ĠMatt hew
ĠColumb ia
d s
ist ance
Ġent ity
.. ."
Ġrel iable
Ġpar alle
ĠChrist ians
Ġopin ions
Ġin du
l ow
Ġcompet e
Ġth orough
Ġemploy ed
Ġestablish ment
ig en
ĠC ro
Ġlawy ers
ĠSt ation
T E
ĠL ind
ĠP ur
it ary
Ġeffic iency
âĢ Ĳ
ĠL y
Ġm ask
Ġdis aster
Ġag es
ER E
es is
ĠH old
Ġcas ual
b led
Ġen abled
ĠEn vironment
ĠInt elligence
i per
ĠM ap
ĠB E
Ġemer ged
is dom
Ġc abin
Ġregist ration
Ġfing ers
Ġro ster
Ġfram ework
ĠDo ctor
et ts
Ġtransport ation
Ġaware ness
H er
Ġattempt ing
O ff
ĠSt ore
ÃĥÃĤÃĥÃĤ ÃĥÃĤÃĥÃĤ
ĠK now
Ġdef ence
Ġsc an
ĠT en
ĠCh air
ĠP H
ĠAtl anta
Ġfuck ing
Ġans wered
b n
ĠK ar
Ġcateg ories
Ġr ational
Ġc ust
Ġrob ot
Ġcorrect ly
Ġg if
Ġgraph ics
m ic
Ġground s
ĠO pp
i ate
Ġdist ributed
Ġsan ctions
Ġchalleng ing
ut o
Ġingred ients
Ġinv ited
Ġfound ed
ĠRe qu
d ed
Ġb owl
Ġbrother s
ĠH a
I O
Ġw ages
im ore
oc ial
Ġse ed
ative ly
Ġaddress es
ĠI owa
ab eth
Ġatt itude
is d
ch ild
Ġm ole
Ġdisco very
y ard
B r
Ġ8 2
Ġsuppl ies
ell ing
Ġdist ingu
C R
Ġre cept
Ġ vert
Ġsw im
b ec
d oor
ĠY eah
Ġg al
Ġinter act
ĠE SP
ĠC S
amp s
Ġconvin ced
Ġobject ive
Ġdis h
ĠPhot os
l ad
Ġdownt own
o il
in ction
Ġto morrow
ĠC OM
Ġsurv ival
sh ot
Ġsett lement
C ons
ĠX box
int erest
ĠS M
arg o
en ess
Ġeth nic
b ered
M in
ĠT ok
Ġinc ent
ĠComm and
Ġmain tained
Ġbreak s
br idge
at ar
ag g
ĠF inally
un icip
ĠO nt
le ft
Ġrecogn ition
Ġ* /
ĠP ers
Ġwe lf
Ġaddress ed
ĠK ansas
Ġvir us
Ġwhere as
Ġp apers
ram s
ĠMin istry
Ġple asure
Ġacqu ired
Ġd uration
j pg
Ġcal m
ĠN HL
Ġburn ing
Ġfold er
ick ed
ĠP y
ĠIll inois
Cl ass
ĠGodd ess
Ġperform ing
Ġwelf are
j ar
In ter
Ġl in
Ġenh ance
Ġnot ion
f are
yp es
ĠAre a
Ġcann abis
ĠDie go
f s
ĠM anchester
com m
in ite
Ġcover ing
ĠS ound
Ġ19 60
Ġ8 4
e lect
z ing
Ġcitiz en
Ġph ones
Ġr aid
Ġign ored
ĠOb ject
Ġu pload
c ard
Ġmod ified
Ġroom s
ia h
r ange
he ast
ach us
Ġsuggest ing
âĢ ĭ
gr ade
E l
Ġclot hing
Ġr h
ĠH an
un ity
en cing
ĠAust in
sec ution
t ra
d em
ĠQ ual
Ġhe aven
Ġst ages
Ġw edd
pl us
ific ial
ĠIm m
ĠH o
iet ies
Ġphr ase
Ġbr ill
act ory
Ġprov iders
Ġsil ence
Ġa er
ĠA I
ĠAd venture
Ġplatform s
Ġdemonstr ated
Ġinter f
ing ton
Ġr aces
Ġgr ade
ult ane
ĠTh rough
f alse
Ġb ow
ĠA B
Ġfl avor
Ġhistor ic
g ov
Ġcol our
Ġview ed
ĠEm ail
el come
Ġinter vention
Ġd iversity
Ġperiod s
Ġre verse
ĠV ery
Ġqu ote
ĠLe ft
th rough
Ġsc rew
Ġland ing
Ġp ill
Ġw et
Ġprot esters
Ġrepe at
av ed
er k
Ġsal ary
ĠPenn sylvania
St ill
Ġmay or
Ġkit chen
Ġfeat uring
ĠM useum
ĠT ournament
ĠF al
Ġser vers
U C
Ġany body
im g
ĠTr ade
ixt ure
the less
Ġfin ance
Ġcl osing
ĠPat ri
i ac
ab el
Ġ> >
or ous
Ġf irms
sc reen
un a
Ġemb arrass
ul se
Ġlet ting
Ġth rew
ile y
Ġch annels
l an
ĠVeg as
Ġse ar
Ġfant astic
ar re
uzz le
ĠD er
Th ose
Ġsw ing
Ġshe et
ind ex
co ver
og an
Ġvari ables
ĠTe ch
Ġsp oken
ac hel
ĠD a
ĠMount ain
Ġload ed
Ġfoot age
vers ion
Ġun l
ĠPh oenix
Ġthrow ing
Ġf iring
Ġtrack ing
Ġw idth
Ġstrugg ling
ro oms
ot ion
Ġmonth ly
ĠSer ver
Ġegg s
op en
M C
Ġ199 3
Ġh ired
Ġstay ed
ĠAll en
Ġst ro
Ġ9 8
st ep
ĠTurk ish
Ġfab ric
ist ing
ĠD om
Ġd ates
Ġpr on
Ġbasket ball
Ġl ucky
ĠArab ia
Ġassum ed
est y
Ġaff airs
Ġgl ad
ĠInd eed
ĠF A
ĠW ord
Ġjo ining
if ice
p read
ir ts
ĠSe lect
Ġpop ulations
aw are
Ġn ose
Ġcompl aints
st art
Ġsc oring
Th anks
Ġmin ing
Ġvisit ors
S H
Ġdam aged
Ġcharacter istics
ĠP ent
D C
Ġ8 3
ĠS ix
r ates
Ġfl ags
ĠB rew
d og
M ark
// //
Ġexec ution
Ġj oke
ph ones
Ġtestim ony
Ġob st
Q L
ĠC ut
Ġstud ied
ĠN intendo
ick et
ĠN BC
Ġl ad
ĠB ra
ĠM oh
Ġk ernel
Ġoverwhel ming
Ġag ed
Ġapplic able
ĠC ond
Ġroad s
ĠBl ock
m ade
od ge
Ġcomm ands
Ġoff ices
vel and
Ġt ut
Ġrece iver
ĠF ro
Ġsho pping
Ġi P
ĠSt re
ĠA BC
Ġentertain ment
ĠB ow
ort ed
M c
Ġread s
gr ad
ĠCol lect
Ġâ ĪĴ
ĠCap ital
eder ation
Ġemploy er
Ġinvolve ment
Ġanx iety
al ia
Ġro of
ĠAm ong
ĠDemocr at
Ġstat s
ĠV ill
Ġconst itutional
Ġrefer ring
itt y
Ġtack le
out ube
Ġback ed
ĠH ong
ĠBro ad
Ġe le
ĠO tt
Ġ199 2
h our
achus etts
C al
Ġdefe ated
Ġ8 1
es p
Ġseem ingly
w as
ĠJ enn
ĠK urd
Ġg ene
Ġdisc ount
R et
EC T
( );
Ġclub s
Ġs id
ĠM arsh
Che ck
Ġp p
ĠE ag
ides pread
Ġbe ings
F T
Ġintrodu ction
ĠCh ange
AR D
Ġ1 10
ad ows
ier ce
Ġme al
a uthor
ĠB ang
lah oma
Ġr anks
201 1
?? ??
m ax
Ġcoll apse
Ġop ens
Ġe cho
Ġs oph
Ġrac ist
Ġenorm ous
Ġw aves
Ġt ap
Ġcomprehens ive
. --
ĠR oy
Ġfarm ers
Rel ated
a ired
ron es
ĠC rim
Ġproport ion
Ġdesign s
Ġnegoti ations
Ġvirt ually
ĠBat man
Ġwar n
Ġlegit imate
m ate
Ġcon vention
, ,
net ic
ĠS D
Ġconsist ently
Ġcompens ation
Ġpunish ment
Ġy e
Ġt ie
ĠB ureau
ir lf
ĠB u
ĠA ren
ĠPh ilipp
Ġkn ife
Ġmem ories
ĠR oss
Ġang le
Ġ8 6
ĠTh under
Ġre nd
ĠT our
Ġcount s
s ung
ĠIm p
Ġeduc ational
Ġaccess ible
C OM
Ġd rew
y er
G l
am ine
OR T
O B
I B
m aster
Ġtri als
og y
h ar
ĠTr ust
Ġprefer red
irlf riend
ĠN ev
Ġb in
Ġc ow
P age
Ġsign ature
ĠB L
7 00
Ġret ired
Ġby tes
Ġneigh b
ĠLeg end
Ġdev ast
Ġsuspect ed
is ons
ĠPokÃ© mon
sc ale
Ġcap abilities
Ġre vel
Ġche ese
d y
igr ant
Ġfail ing
b its
ĠHer oes
ĠG host
ĠS cient
Ġappoint ed
ur i
Ġinst itution
Ġexpand ed
g reg
Ġmonitor ing
Ġp odcast
Ġcoal ition
Ġ9 6
J o
Ġst olen
ĠS ab
Ġstop s
Ġhol iday
Ġint r
C ar
Bl ack
ĠL GBT
Ġwar ming
ĠAnd erson
Ġ8 9
Ġprodu cer
M ed
Ġaccur acy
ĠMar vel
iz abeth
ĠPat rick
m ony
Ġmin i
ac les
Ġover t
the y
Ġmembers hip
ĠV en
Ġex ch
Ġrem oval
ĠD ave
T Y
m ad
ĠF ind
Ġad equ
Ġe c
Ġte eth
Ġemot ion
Ġper m
Ġsole ly
d b
Ġextra ord
IG HT
c al
Ġgu idelines
Ġd ying
Ġsusp ended
ĠPrem ier
ĠAnth ony
el ve
Ġd ad
ĠE th
ĠFoot ball
Ġabandon ed
Ġ< <
Ġm arch
Ġhor ror
âĢ¦ "
Ġchild hood
Ġcampaign s
Ġl unch
ĠAl bert
bl ock
âĸĪ âĸĪ
ound ing
Ġb one
or gan
ad ers
ĠFl ash
ĠDri ve
Ġton ight
Ġw ars
ĠF L
Ġform ation
con st
New s
Ġcom pe
or ious
ĠSt aff
Ġdiscuss ions
ĠProt ection
ĠJ am
Ġcrit eria
Ġinstall ation
Ġaccompl ish
iz za
Ġpub lisher
Ġresc ue
ĠT ry
U LL
ĠS om
ĠH op
ore t
th s
ord on
Ġp ocket
ĠIn v
Down load
ĠCr ime
Ġb ene
ĠGu ide
ĠAs sembly
Ġparam eters
I E
ĠAlex ander
Ġconc ert
ĠSc he
Ġsh oes
Ġvis iting
Ġrec all
Ġb ub
Ġr ural
Ġconc rete
ĠR os
N ext
R uss
Ġlo ans
ĠSh ield
Ġtre m
hem at
k g
ĠHar ris
is ition
ĠM ove
ĠF C
Ġf ate
ĠCh o
Ġt ired
Ġprinc ipal
h ist
ien ces
ath y
Ġse vent
Ġm ood
Ġstrateg ic
Ġdise ases
Ġfor um
Ġtem por
Ġhead quarters
P ar
ig e
fl ix
Ġgu itar
Ġ9 4
On ly
Ġrele ases
ro ph
================ ================
Ġ6 00
ĠContin ue
ig ate
ĠC rit
sy stem
Ġdis abled
Ġunex pected
ith ub
Ġuncle ar
ĠE st
Ġcontr ad
Ġstrateg ies
vent ures
Ġpass age
AM E
Ġimpro ving
Ġreve als
Ġdecre ase
ov a
Ġann oy
ĠSh ort
ĠL ibrary
Ġcy ber
n ell
ĠH ur
ĠC B
Ġphot ograp
U I
Ġs ed
G e
Ġ8 7
Ġd iverse
Ġencour aged
Ġcons piracy
Ġbird s
Ġoper ator
Ġhand ful
Ġclass ified
? )
Ġdram atic
Ġinvestig ators
it o
Ġw idespread
ĠR oom
-------------------------------- --------------------------------
Ġcollect ive
Ġjournal ist
St ring
Ġtemper atures
il a
Ġgu id
Ġins pect
Ġmiss ile
ĠMay or
Ġman ual
Ġsim ultane
Ġrat ings
Ġsu ck
Ġ9 7
Ġunivers al
Ġph arm
Ġdis rupt
ian o
A V
Ġf t
Ġstat ist
old s
ĠWalk er
ph p
Ġunder t
ĠL as
ish op
nt il
res hold
ĠWhe ther
M s
Ġden y
ĠCl oud
Ġprov ider
Ġsurv iv
ĠUp date
h as
Ġmist akes
ch arge
pl ed
r ity
Ġn ode
ĠMass achusetts
ool s
lic ation
Ġf ails
em ale
or i
back s
Ġsh irt
Ġ' '
ĠN AT
Ġwat ers
els on
Ġe ase
Ġsc ar
Ġcont ents
m ind
Ġcont ribution
Ġsh r
Ġhand ed
Ġst ability
Ġtra ve
E m
Ġmir ror
12 3
Ġwe igh
Ġf iction
ou ver
ist ant
r ition
ĠF ed
Ġphys ically
Ġst ake
ĠArt icle
ĠAr c
ĠLew is
ĠM ind
Ġdemonstr ate
Ġprof its
v ision
om ic
ol id
Ġbatt les
Ġdri ves
Ġeas tern
ĠS ony
!! !
ar ation
v ard
ĠG L
port ation
Ġ9 2
Ġlaw makers
Ġprotect ing
ĠE PA
Ġy eah
Ġsh ame
ol ph
e ven
x it
Ġatt ach
Ġrepresent ing
Ġob s
ĠUt ah
iff s
ĠFre edom
Ã ³
A K
Ġinc idents
it age
Ġview ers
c d
Ġm ouse
Ġcl ar
Ġaccord ance
Ġb ot
c or
ĠSum mer
he ld
Ġinnoc ent
Ġiniti ative
ol s
________________ ________________
Ġsp ots
p ace
Ġconvent ional
Ġcorpor ations
Ġblock ed
H D
at tered
Ġref ers
Ġbu ck
ĠDig ital
12 0
Ġtop ics
T F
Ä ģ
br id
re ement
Ġunder lying
ĠM ember
Ġinvestig ating
Ġpregn ancy
Ġtouch down
ĠB and
ĠCall er
Ġinst ances
P P
w a
G ood
Ġ199 1
ĠC old
Ġfear s
Ġrem arks
Ĩ Ĵ
at al
Ġm it
Ġexper iments
i pt
Col or
ind u
Up date
Ġ9 3
A g
Ġ å
anc ouver
B oth
Ġjud ges
Ob ject
Ġst ere
umb n
Ġparticip ation
ĠSt ars
ĠJ ere
Ġweek ly
ĠB an
Ġconvers ations
ĠP itt
u z
ĠIndian a
ĠK ick
Ġinf ection
Ġhero es
Ġsett led
Ġstri p
Ġh al
Ġd ump
ĠS ci
Ġl es
Ġref erences
ĠU RL
ĠBr idge
Ġwant ing
For ce
Ġex clus
Me anwhile
m n
Ġg entle
m aker
sen al
ĠG ro
ou ri
ĠR ain
ĠAll iance
Ġl ift
el a
S D
ĠCle veland
Ġrank ed
Ġst adium
Ġdead ly
ä ¸
Ġr iding
ar ia
ĠAr mor
Ġdocument ation
ĠGree ce
ree k
Ġl ens
ĠS a
Ġg ross
ĠE mer
ag ers
ĠD ub
ĠR h
ĠAM D
Ġarri val
Ġdes ert
Ġsupp lement
ĠRes p
Ġkn ee
Ġmarg in
f ont
og g
201 0
ĠP ir
ĠP rom
iv als
Ġint ake
Ġdifferent ly
ug s
Ġb its
clud ed
Ġsearch ing
ĠD u
um ble
Ġfunction al
ĠBalt imore
ĠC ould
Ġdes ired
Ġcirc uit
ĠL yn
ĠG O
ĠF alse
re pre
' :
alt ies
Ġmin im
Ġdro ve
ĠSh ould
Ġh ip
Ġpro s
Ġut ility
ĠN ature
ĠM ode
P resident
o pp
r at
form ance
Ġconcent ration
Ġf ont
ĠB ud
Ġam id
Ġre vers
ĠM L
B ar
Ġinter action
Ġjur isd
Ġspell s
d ep
f il
Ġcivil ians
ut ter
ĠCo oper
ĠBel ow
Ġent rance
Ġcon vert
Ġcontrovers y
ow ered
Ġcontr ary
Ġar c
ĠExec utive
ĠOffic er
Ġpack ages
Ġprog ressive
w idth
Ġreserv ed
v ol
ĠSam sung
Ġprint ed
Ġcent ers
Ġintrodu ce
ĠKenn edy
Ġodd s
Ġsure ly
Ġindepend ence
Ġpass engers
repre ne
ĠBe h
Ġl oves
ĠESP N
Ġfac ilit
Ġident ical
Ġdo ct
Ġpartners hip
con f
ĠH ide
Ġconf used
ĠC ow
M en
Ġw rest
ĠIraq i
Ġh oles
ĠStud ies
Ġpregn ant
h ard
Ġsign als
I X
Ġpull ing
Ġgrad uate
Ġnomine e
D ate
Ġper mitted
Ġâ Ĥ¬
ĠOk lahoma
St art
Ġauthor ized
Ġal arm
ĠC os
v an
Ġgener ations
c ular
Ġdr agon
ĠSoft ware
ĠEd ward
Ġcontro ller
S en
ge red
ĠV ik
Ġappro ached
Th ank
Ġcan ce
Ġform ula
ĠSm all
Ġweak ness
Ġr amp
it udes
j ud
Ġbrill iant
Ġacc us
s ource
Ġ8 00
ĠE vil
S w
Ġhom eless
we ek
i ens
r ics
ĠTh ird
T O
Ġorgan ic
Ġpresent ation
ag h
ĠDown load
v ation
Ġas sembly
or able
hold ers
ĠBern ie
ĠHel p
Ġt ong
ĠF ight
Ġbe ach
B ook
ĠL ic
Ġr ush
ĠR ound
ou p
ĠMar x
Ġcalcul ated
ĠDe vil
ĠSar ah
Ġoccasion ally
Ġbul let
Av ailable
g ate
Ġ9 1
Ġh osp
Ġprom ises
ĠH IV
ĠSt adium
ĠSt ock
ĠCorpor ation
g age
N G
ĠC redit
Ġs ne
ib l
Ġacc um
s uch
Ġterror ists
Ġconscious ness
ĠZ h
Ġdram a
ool a
pir ation
Ġlab our
ĠN in
Ġut ter
Ġdemocr atic
Ġass ass
il ation
Ġg est
Ġab road
Ġmet ab
Ġs orts
Ġfl av
U B
Ġm g
ĠNot hing
ĠO d
Ġmus ical
200 9
Ġdro ps
oc ated
ater al
0000 00
Ġg re
Ġequ ality
Ġburd en
Ġv ig
ĠLe ader
-------- ----
Ġcere mony
Ġf ighter
Ġact ors
Ġ æ
am an
F i
Ġal ign
put er
Ġe lder
ĠN SA
Ġrepresent ation
ĠOnt ario
IT H
usal em
Ġharass ment
itz er
Ġsy mp
Ġbox es
ĠD R
Ġman ifest
at re
Ġ ^
Ġd ies
le ton
Ġmiss ions
et he
Ġres olve
Ġfollow ers
Ġas c
Ġk m
l ord
am med
Ġsil ent
ĠAssoci ated
Ġtim ing
Ġprison ers
ĠK ings
ĠF ive
Ġtow er
Ġappro aches
Ġprecise ly
Ġb ureau
ĠM other
ĠI ss
Ġkey board
it ual
Ġfund ed
Ġstay ing
Ġpsych ological
Ġm ile
ĠLe on
ĠBar b
w ill
Ġw ider
ĠAtl antic
Ġt ill
ĠR ome
ro t
Ġaccomp an
Ġfl our
ac o
W orld
ĠExp ress
ĠY u
C or
Ġple ased
part y
Ġpoint ing
Ġinf lation
Ġro y
Ġ ),
ain er
Ġwedd ing
orm on
Ġrequ iring
Ġqual ified
Ġse gment
EN D
Ġs izes
e als
Ġcor rupt
ass ador
Ġcele b
Ġdream s
ĠM ess
Ġcheck ing
ĠV ersion
Ġprep aring
Ġact ively
ĠD iff
Ġl ux
ĠW inter
act eria
ĠN E
Ġdep uty
Ġtrans gender
Ġsum mary
Ġin her
er ies
ch ar
ĠY an
Ġkn ock
ĠP ath
Ġl ip
roll er
Ġimp ression
Ġcelebr ate
Ġsl ide
Ġgu ests
Ġcl ip
F S
Ġsav ings
Ġcapt ain
Ġleg acy
ĠDen ver
Ġw ounded
tab oola
AC T
Ġpurs ue
Ġo xy
Ġ q
Ġsem i
ĠN eed
ĠAff airs
Ġob sc
Ġcheck ed
Ġd ual
C ode
ĠM D
le m
ult y
ĠÂ ©
ĠEl izabeth
Ġcent uries
ard ed
s rc
Ġev ident
enn is
at in
Ġunemploy ment
ĠMar io
Ġint im
Ch rist
Ġbi ological
Ġsold ier
ĠAdd ed
Ġm ath
ĠG il
Ġbi as
Ġd ating
ĠO cean
Ġm ice
M us
h ire
ĠT es
Ser ver
lim ited
S ize
Ġmet ers
Ġrock et
es see
Ġcertific ate
ĠIran ian
AS S
Ġgr id
D ec
Ġro lling
com mun
ĠSwed en
b ury
Ġtiss ue
Ġrac ism
ĠL ocal
Ġmyster y
Ġexam ine
Ġst em
Ġs its
Ġhop ed
ot ing
Ġdial ogue
Ġpers u
W atch
l ay
M AN
Ġch ronic
ĠPort land
mark et
ĠS EC
Ġparalle l
Ġsc andal
Ġcar ries
Ġphenomen on
h uman
ack er
ĠO x
Ġretire ment
tain ment
ov ie
ĠG ear
Ġd uties
Ġdo se
Ġsc roll
M B
in f
Ġsa uce
Ġland scape
red dit
ĠChampions hip
ĠRed dit
al id
Ġco in
Ġover s
Ġpost ing
ab out
Ġf el
and y
Ġb old
Ġfocus ing
e ffect
G R
Ġde emed
Ġrecommend ations
Ġste pped
Ġvot er
ĠDe ep
ĠInst agram
Ġmoder ate
ĠMary land
Ġrestrict ed
ĠM B
ĠCh all
Ġto b
Ġc ir
ĠO cc
ĠE ver
Ġcoll aps
IN FO
= -
ĠP ict
ĠAcc ount
n c
Ġo ught
Ġex port
Ġdr unk
( '
Ġw ise
ĠM ort
ne cess
Ġan cest
ĠInc re
Ġfrequ ent
m ir
Ġinterpret ation
Ġdepend ent
Ġco ins
ĠB ol
V ideo
ĠJust in
Ġfat al
Ġcook ing
Ġconf usion
ip her
Ġcust ody
ĠMor gan
om ach
ĠGovern or
Ġrestaur ants
el ing
Ġacknowled ged
Ġthe r
Ġgen es
ch ing
He y
Ġtact ics
ĠMex ican
Ġv end
Ġhe s
qu er
Ġnot ing
ĠCamer on
Ġtarget ing
ro ck
Ġcred its
Ġemot ions
Ġrepresent atives
new s
Ġlegisl ative
Ġrem oving
Ġtweet ed
ĠCar ter
ĠF ixed
Ġfor cing
Ġspeak er
Ġm ales
ĠViet nam
l ined
Ġconcept s
Ġvo ices
o ir
ĠT rib
W he
ĠJer usalem
ĠS ant
Ġc ul
Ġl ady
ĠHaw ai
Ġar ts
ĠIn n
ĠMach ine
ĠEm peror
Ġsl ot
g ly
ĠPro cess
II I
Ġathlet es
ĠTem ple
ĠRep resent
Ġpres c
Ġt ons
Ġgold en
Ġp unch
ĠG R
iver pool
Ġen act
Ġlob by
Ġm os
Ġpick ing
Ġlif etime
Ġcogn itive
E ach
z o
Ġd ub
Ġcons ists
ol n
Ġf estival
am ous
Ġint ellig
w ords
ĠSm art
Ġde le
Ġl apt
Ġmag ical
ĠS in
b us
ur ities
igh th
ĠRub y
ĠS ure
ol ving
Ġj un
O ST
Ġimp osed
Ġast ron
Ġcor rel
ĠN S
ĠK it
ĠF uture
b urn
Ġimm une
oc us
Ġcour ses
ĠSt ring
Ġle an
Ġg host
Ġout comes
Ġexp ense
Ġevery day
Ġaccept able
A h
Ġequ ipped
Ġor ange
F R
ĠD utch
Th ough
ĠR ank
Q U
ĠRober ts
wh at
re nd
Ġdisapp ear
Ġsp awn
ĠL am
o is
Ġdes erve
Ġmin imal
Ġnerv ous
ĠW ould
Ġro ok
ĠV ancouver
Ġres ign
sh ire
ĠW orks
ĠB uild
Ġafford able
ĠG ary
ĠAren a
Ġh anging
Ġimpl ications
ĠS ong
Ġmain taining
Ġgu ards
C ON
Ġder ived
Ġexecut ed
Ġthe ories
Ġqu oted
ĠAnd re
og a
sel ess
in fo
ĠBel g
Ġt ears
ĠSur v
Ġbirth day
ig ious
im mer
Ġspect rum
Ġarchitect ure
Ġrec ruit
arm a
T able
Ġmon sters
ĠG ov
Ġdest ination
Ġattract ive
Ġf oss
ĠMore over
Ġpres ents
TH E
Ġrep ly
pt on
Ġc um
Ġdel ight
Ġaffect s
Ġdon ations
ĠT oy
ĠH im
M ENT
Ġover come
it ched
ĠFant asy
ĠH at
ĠBe ast
b ott
Ġinvestig ations
R un
Ġhun ting
d i
f und
Ġs essions
est yle
Ġport ray
oid s
Y eah
Ġcommun icate
Ġcom edy
ĠY ang
Ġbel t
ĠMar ine
Ġpredict ed
Pl ay
Ġimportant ly
Ġremark able
Ġelim inate
D avid
Ġb ind
V ID
Ġadvoc ates
ĠG aza
im p
D B
ĠN a
ĠSim ilar
I ES
Ġchar ity
v as
m ath
Ġâ ĸ
ok er
nd um
Ġcap s
ĠH al
2 000
e an
Ġfle et
Ġrec re
R ight
Ġsleep ing
ij ing
k ind
Ġdesign ated
Ã ¤
Ġanim ation
ke e
ĠInt rodu
Ġ/ >
Ġdelay ed
Ġtrem end
Ġcur ious
U se
Ġle ct
d am
Ġinnov ation
ĠPoint s
Ġload ing
Ġdisp ute
ct ic
ird s
ĠB Y
Ġn urs
ĠVal ue
ION S
ĠH um
Ġtem plate
m ers
Ġappear ances
ĠEnter tainment
Ġtransl ation
Ġsa ke
Ġbene ath
Ġin hib
Ġe uro
abet es
Ġstud ying
ĠM as
Ġper ceived
Ġexam ined
Ġe ager
Ġco aches
Ġim per
ch i
Ġprodu ces
" ).
ĠEvery one
Ġm unicip
Ġg irlfriend
Ġh ire
ĠV ice
Ġsu itable
op y
Ġin equ
ĠD uke
f ish
f irst
ĠO bs
Ġinter ior
ĠBru ce
ĠR y
Ġanal ys
Ġconsider able
Ġfore cast
Ġf ert
ors hip
ĠD rug
ĠA LL
: "
th ur
ĠM ail
Ġball ot
Ġinst antly
ĠCh annel
Ġp icks
Ġ198 9
Ġt ent
ol i
Ġcivil ian
b ling
ell o
b u
Ġin ch
Ġlog o
Ġcooper ation
Ġwal ks
Ġinvest ments
Ġimp rison
ĠF estival
ĠK y
Ġleg ally
Ġg ri
ch arg
S l
Ġthreat ening
du ction
fl ow
Ġdismiss ed
ibr aries
c ap
e le
ĠMc G
ĠHar vard
ĠConserv ative
ĠC BS
p ng
Ġro ots
ĠH aving
umb led
ĠF un
\ /
ĠS earch
ple x
Ġdiscuss ing
Ġcontin u
ĠT ai
ĠW ik
F ree
f it
Ġref use
Ġmanag ing
Ġsy nd
ip edia
w alk
Ġprofession als
Ġguid ance
Ġunivers ities
Ġas semb
unt u
F inally
AS E
ĠAut o
ĠH ad
Ġann iversary
L D
ĠD ur
ĠUlt imate
ih ad
pro duct
Ġtrans it
Ġrest ore
Ġexpl aining
Ġass et
Ġtransfer red
Ġbur st
ap olis
ĠMag azine
ĠC ra
ĠB R
gg ed
ĠH E
M ich
b et
ĠL ady
yl um
erv es
Ġme ets
wh ite
L og
Ġcorrespond ing
Ġins isted
G G
Ġsurround ed
Ġt ens
Ġl ane
Ġco inc
h ome
Ġexist ed
ect ed
ĠDou ble
lam m
Ġske pt
ex p
Ġper ception
ie v
ĠBe ing
o ft
Ġadop t
. :
] ;
Wind ows
Ġsatell ite
AS H
Ġinf ant
d escription
ĠMe anwhile
c m
oc a
ĠT reat
act or
Ġtob acco
ĠN orm
em ption
Ġfl esh
Ġj e
o op
ĠHe aven
Ġbe ating
an im
Ġgather ing
Ġcult iv
G O
ab e
ĠJon athan
ĠSaf ety
Ġbad ly
pro t
Ġcho osing
Ġcontact ed
Ġqu it
Ġdist ur
Ġst ir
Ġto ken
D et
ĠP a
Ġfunction ality
00 3
s ome
Ġlimit ations
Ġmet h
b uild
con fig
N T
re ll
ble m
ĠM om
Ġveter ans
ĠH u
Ġtrend s
are r
ĠG iven
ĠCa ption
m ay
AS T
Ġwond ering
ĠCl ark
n ormal
Ġsepar ated
Ġdes p
st ic
b rew
Ġrel ating
ĠN ik
ĠF arm
Ġenthus i
g ood
d eb
Ġactiv ist
Ġm art
Ġexplos ion
ĠEconom ic
L ink
Ġins ight
Ġconven ient
Ġcounter part
su pport
ĠV irt
ag en
ĠTenn essee
ĠSim on
ĠA ward
OC K
ĠF igure
Ġoverse as
Ġpr ide
ĠC as
n ote
m g
C urrent
Ġdispl ays
cont ent
Ġtravel ing
Ġhosp itals
ĠFin ancial
ĠP ast
Ġdefend ant
Ġstream ing
m ble
ĠBer lin
uk i
Ġdist ribut
Ġant ib
Ġch ocolate
ĠCast le
Ġinter rupt
ĠR ow
Ġconvers ion
Ġbug s
ĠR ather
li est
L Y
ĠJe an
com mon
ak h
Ġ1 30
ot ton
ĠDe an
Ġam endment
Ġgame play
ĠWar ren
od a
Ġhigh lights
Ġir re
ĠNAT O
Ġball s
Ġdemand ing
U RE
ĠL uke
F igure
st op
on ia
z one
iz ers
ĠW R
Ġaward ed
Ġregul atory
ĠH art
ĠS N
pl ing
Ġs our
ĠP ixel
us ive
Ġf et
ĠS ent
Ġautom atic
Ġf er
vern ment
ĠKh an
T ON
f ather
Ġextraord inary
th rop
ĠP ython
ĠG PU
Ġsex ually
Ġdesk top
it ivity
ĠAnton io
Ġo rient
Ġe ars
ob by
ous es
vertis ements
Ġmanufacture rs
ic ient
min ute
Ġconv iction
Ġg arden
p ublic
Ġsatisf ied
f old
O K
Ġin hab
ĠTh ink
Ġprogram me
Ġst omach
Ġcoord in
Ġh oly
Ġth reshold
Ġr het
Ġser ial
Ġemploy ers
ĠEvery thing
ra h
Ġb other
Ġbr ands
Val ue
ĠT ed
ĠPlan et
Ġp ink
ĠFurther more
s a
P E
re ck
ĠUS D
ot te
Ġ& &
Ġland ed
g ets
Ġprodu cers
Ġhealth care
Ġdomin ant
Ġdest ro
Ġam ended
ch ron
Ġf its
ĠSy d
ĠAuthor ity
AT CH
Ġfight s
ĠL LC
Ġ-- -
ĠCor p
Ġtox ic
spe cific
ĠC orn
ĠChe l
Ġtele phone
ĠP ant
Ġmyster ious
aun ch
od ox
med ia
Ġwitness es
ag u
Ġquestion ed
ĠBre xit
ĠRem ember
ene z
Ġend orse
iat ric
ĠId ent
Ġridic ulous
1 10
Ġpr ayer
Ġscient ist
Ġ19 50
ĠA qu
Ġunder ground
ĠU FC
m are
ĠL ater
w ich
Ġsubsc rib
Ġhost s
Ġer r
Ġgr ants
ant om
Ġsum mon
ear ly
ĠC lear
ĠPr im
Ġsusp ension
Ġguarant eed
app er
Ġr ice
ĠSe an
ĠSh in
Ġrefere ndum
Ġfl ed
r ust
Ġ3 60
ter y
Ġsh ocked
B R
ĠO il
ĠAll ah
Ġpart ly
Ġign or
Ġtrans mission
Ġhom osexual
ivers al
Ġhop efully
ãĤ ¤
Ġless on
L eg
Ġ ..
Y et
t able
app ropri
re tt
Ġbo ards
Ġincor rect
Ġb acteria
ar u
am ac
Ġsn ap
.' "
Ġpar ad
t em
he art
Ġav ailability
Ġw isdom
Ġ( +
Ġpri est
ĠÂł ĠÂł
O pen
Ġsp an
Ġparam eter
Ġconv ince
Ġ( %)
r ac
Ġf o
Ġsafe ly
Ġconver ted
ĠOlymp ic
Ġres erve
Ġhe aling
ĠM ine
M ax
Ġin herent
ĠGra ham
Ġinteg rated
D em
Ġpip eline
Ġapp lying
Ġem bed
ĠCharl ie
Ġc ave
200 8
Ġcons ensus
Ġre wards
P al
ĠHT ML
Ġpopular ity
look ing
ĠSw ord
ĠAr ts
' )
Ġelect ron
clus ions
Ġinteg rity
Ġexclus ively
Ġgr ace
Ġtort ure
Ġburn ed
tw o
Ġ18 0
P rodu
Ġent reprene
raph ics
Ġg ym
ric ane
ĠT am
Ġadministr ative
Ġmanufacture r
Ġ vel
ĠN i
Ġisol ated
ĠMedic ine
Ġback up
Ġpromot ing
Ġcommand er
Ġfle e
ĠRus sell
Ġforg otten
ĠMiss ouri
Ġres idence
m ons
Ġrese mb
Ġw and
Ġmeaning ful
P T
Ġb ol
Ġhe lic
Ġwealth y
Ġr ifle
str ong
row ing
pl an
as ury
âĢ¦ .
Ġexpand ing
ĠHam ilton
Ġrece ives
S I
eat ures
ĠAn im
RE E
P ut
Ġbrief ly
ri ve
Ġstim ul
Ġ`` (
Ġ __
Ġch ip
Ġha z
Ġpri ze
ĠTh ings
AC E
ul in
d ict
ok u
Ġassoci ate
ock ets
y outube
St ory
ateg ory
Ġm ild
ail ing
ĠY e
O rig
ĠK a
or ig
Ġpropag anda
Ġan onymous
Ġstrugg led
Ġout rage
AT ED
ĠBe ijing
r ary
Ġle ather
Ġworld s
Ġbroad er
12 5
id al
ĠBet ter
Ġt ear
E xt
Ġpropos als
Ġit er
ĠSqu ad
Ġvol unt
m i
D id
ĠP u
p in
Ġspeak ers
Ġb orders
Ġfig ured
= '
Ġsimultane ously
aed a
Ġcharg ing
Ġur ged
Ġcon j
25 6
ĠG ordon
mer ce
Ġdocument ary
Sh are
it ol
ON E
ĠG arden
h att
ĠThom pson
ane ous
ap ore
Ġt anks
Ġless ons
tr ack
Ġout standing
Ġvolunte ers
Ġsp ray
Ġmanag ers
l arge
Ġcamp s
Ġart ificial
ĠR u
Ġb ags
th al
Ġcompat ible
ĠBl ade
Ġf ed
Ġarg ues
F I
Ġunf air
Ġcor n
Ġoff set
Ġdirect ions
Ġdisappoint ed
ĠCon vention
Ġview ing
M E
oc ity
Ġtown s
Ġlay ers
Ġro lled
Ġjump ed
Ġatt ribute
Ġun necess
inc oln
Ġsupp ose
ĠNet her
ch a
Ġbur ied
Ġsix th
B en
ress ing
OU R
Ġw ound
Ġcy cl
Ġmechan isms
Ġcongress ional
ĠE lement
Ġagre ements
Ġdec or
Ġclos est
ĠM it
Go ogle
} }
Ġm ixture
Ġflu id
S ign
ĠSch olar
Ġp ist
ask et
ab ling
Ġrac ing
he ro
ri el
ass y
Ġche aper
b en
Ġvert ical
amac are
ĠRead ing
g ments
Ġhelic op
Ġsacr ifice
ay a
p aren
V A
ĠL es
ĠStud io
Ġviol ations
ĠAn na
ac er
é ¾
ĠR at
ĠBe ck
ĠD ick
ĠA CT
Ġcomp osition
Ġtext ure
ĠO wn
Ġsmart phone
ĠN A
Ġfor b
im port
Ġdef ending
il st
re r
Ġo h
ĠJere my
Ġbank ing
cept ions
Ġrespect ive
/ .
Ġdr inks
ĠW i
Ġb ands
ĠL iverpool
Ġg rip
ĠB uy
Ġopen ly
Ġreview ed
per t
Ġver ify
ĠCo le
ĠW ales
M O
Ġun pre
Ġshel ter
ĠIm perial
Ġgu i
ĠD ak
Ġsuggest ions
Ġexplicit ly
Ġsl ave
Ġblock chain
Ġcompet ing
Ġprom ising
S ON
Ġsoc cer
Ġconst itution
4 29
Ġdist ract
ĠU ser
es ides
ĠMet hod
ĠTok yo
Ġaccompan ied
Cl ient
s ur
al og
Ġident ification
Ġinv asion
as ma
Ġindust ries
pp ers
Ġsub tle
ĠUn it
n atural
Ġsurv ived
Ġfl aw
ĺ ħ
ĠH oll
Ġdef icit
Ġtut orial
ĠCh ance
Ġarg uing
Ġcontem porary
Ġinteg ration
for ward
Ġt um
it is
Ġh iding
ĠD omin
ĠT an
ĠB uilding
ĠV in
Ġspokes person
ĠNot es
Ġemer ging
Ġprepar ation
Ġpro st
Ġsuspect s
Ġaut onom
D escription
Ġdeal t
ĠP ear
Ġstead y
Ġdecre ased
Ġso vere
ĠCl in
Ġgrad ually
ors es
ĠW AR
S erv
ãĤ ¢
h r
Ġd irty
ĠB arn
ĠB C
Ġd il
Ġcal endar
Ġcompl iance
Ġch amber
b b
Ġpass enger
ate ful
ĠT itle
ĠSyd ney
ĠG ot
Ġdark ness
Ġdef ect
Ġpack ed
ass ion
Ġgod s
Ġh arsh
IC K
le ans
Ġalgorith m
Ġoxy gen
Ġvis its
Ġbl ade
Ġkil omet
ĠKent ucky
Ġkill er
P ack
enn y
Ġdiv ine
Ġnom ination
be ing
Ġeng ines
Ġc ats
Ġbuff er
ĠPh ill
Ġtra ff
AG E
Ġtong ue
Ġrad iation
ere r
m em
ĠExpl icit
é¾ į
Ġcou ples
Ġphys ics
ĠMc K
Ġpolit ically
aw ks
ĠBl oom
Ġwor ship
e ger
ut er
ĠF O
Ġmat hemat
Ġsent enced
Ġdis k
ĠM arg
Ġ/ *
P I
Ġoption al
Ġbab ies
Ġse eds
ĠScott ish
Ġth y
] ]
ĠHit ler
P H
ng th
Ġrec overed
ing e
Ġpow der
Ġl ips
Ġdesign er
Ġdis orders
Ġcour age
Ġch aos
" },{"
Ġcar rier
b ably
H igh
ĠR T
es ity
l en
Ġrout es
u ating
F il
N OT
w all
s burgh
Ġeng aging
ĠJava Script
ore r
li hood
Ġun ions
ĠF ederation
ĠTes la
Ġcomple tion
ĠT a
Ġprivile ge
ĠOr ange
Ġne ur
paren cy
Ġb ones
Ġtit led
Ġprosecut ors
ĠM E
Ġengine er
ĠUn iverse
ĠH ig
n ie
o ard
Ġheart s
ĠG re
uss ion
Ġmin istry
Ġpen et
ĠN ut
ĠO w
ĠX P
in stein
Ġbul k
S ystem
ic ism
ĠMarket able
Ġpre val
Ġpost er
Ġatt ending
ur able
Ġlicens ed
ĠG h
et ry
ĠTrad able
Ġbl ast
à ¤
ĠTit an
ell ed
d ie
H ave
ĠFl ame
Ġprof ound
Ġparticip ating
Ġan ime
ĠE ss
Ġspec ify
Ġregard ed
ĠSpe ll
Ġs ons
own ed
Ġm erc
Ġexper imental
land o
h s
ĠDun geon
in os
Ġcomp ly
ĠSystem s
ar th
Ġse ized
l ocal
ĠGirl s
ud o
on ed
ĠF le
Ġconstruct ed
Ġhost ed
Ġsc ared
act ic
ĠIs lands
ĠM ORE
Ġbl ess
Ġblock ing
Ġch ips
Ġev ac
P s
Ġcorpor ation
Ġo x
Ġlight ing
Ġneighb ors
ĠU b
ar o
Ġbe ef
ĠU ber
F acebook
ar med
it ate
ĠR ating
ĠQu ick
Ġoccup ied
Ġaim s
ĠAdd itionally
ĠInt erest
Ġdram atically
Ġhe al
Ġpain ting
Ġengine ers
M M
ĠM ust
Ġquant ity
P aul
Ġearn ings
ĠPost s
st ra
ãĥ¼ ãĥ
Ġst ance
Ġdro pping
sc ript
Ġd ressed
M ake
Ġjust ify
ĠL td
Ġprompt ed
Ġscr ut
Ġspeed s
ĠGi ants
om er
ĠEd itor
Ġdescrib ing
ĠL ie
ment ed
Ġnow here
oc aly
Ġinst ruction
fort able
Ġent ities
Ġc m
ĠN atural
Ġinqu iry
Ġpress ed
iz ont
for ced
Ġra ises
ĠNet flix
ĠS ide
Ġout er
Ġamong st
im s
ows ki
Ġclim b
ne ver
Ġcomb ine
d ing
Ġcomp r
Ġsignific ance
Ġremem bered
ĠNev ada
ĠT el
ĠSc ar
ĠWar riors
ĠJ ane
Ġcou p
b as
Ġtermin al
, -
O H
Ġt ension
Ġw ings
ĠMy ster
ï¿½ï¿½ ï¿½ï¿½
ĠUn like
val id
viron ments
ĠAl i
Ġn aked
book s
ĠM un
ĠG ulf
Ġd ensity
Ġdim in
Ġdesper ate
Ġpres idency
Ġ198 6
h y
IN D
Ġun lock
im ens
Ġhand led
ĠE b
Ġdisapp eared
Ġgen re
Ġ198 8
Ġdetermin ation
St ream
ik o
ap ters
Ġacknow ledge
J an
Ġcapital ism
P at
Ġ20 20
Ġpain ful
Ġcur ve
Ġbom bs
st orm
ĠMet al
en cer
ĠF ig
ĠA aron
anc hes
Ġins piration
Ġexha ust
t ains
ash i
Ġdesc ript
Ġr itual
ĠChel sea
Ġpromot ion
ĠH ung
ĠW ard
iv a
ĠE T
Ġto ss
all ow
ĠFranc is
D ep
Ġhapp iness
ĠGl ass
Ġbet a
Ġstreng then
N E
o a
Ġbutt ons
ĠMur ray
Ġkick ed
Qu est
ĠT alk
ĠS everal
ĠZ ero
Ġdr one
ul k
Ġc am
ĠM obile
Ġprevent ing
Ġret ro
ĠA x
Ġcru el
Ġflo at
. ),
Ġfil ing
ĠGr ant
ĠB or
Ġr ib
Ġchampions hip
ĠM erc
Ġsty les
Ġc ake
Ġbuild s
ĠS elf
io x
Ġep ic
oy d
B el
ĠSt ew
. (
ah u
ĠBe yond
Ġout s
Ġsol o
ĠT ree
Ġpres erve
Ġt ub
AR E
ro c
ĠIm pro
ĠW right
Ġbu nd
Ġtr aged
Ġoccas ional
b ian
Sec ond
r ons
Ġinter actions
form ed
s ing
Ġown s
Ġh ockey
Gener al
Ġlog ical
Ġexp end
Ġesc al
ĠGr iff
ĠC rown
ĠRes erve
Ġsto pping
Ġexc use
sec ond
Ġoper ated
Ġre aches
ĠMal ays
Ġpoll ution
ĠBrook lyn
Ġde lete
Ġhas h
Bl ock
ah a
âĢ ³
Ġsh orter
p iece
> </
Ġh orm
ĠW at
ĠBre ak
Ġprohib ited
Ġint ensity
ĠAl an
Ġli ability
? !
and ed
Ġneigh bour
ĠCol lection
Ġf ires
Ġrevolution ary
f ly
ĠOr leans
Wh ite
ĠW rit
ĠD awn
Ġsett le
Ġexec ute
B M
Ġspokes woman
Ġlif estyle
Ġclick ing
ĠK ill
ĠLiber al
ĠN azi
Ġtra iler
Ġmount ains
Ġdam n
z es
p es
Ġpress ing
Ġb ail
ĠOrgan ization
Ġp ir
Ġth irty
Ġelect rical
Ġ1 15
ĠP oly
ĠR ap
ĠSt rike
ĠC ann
Ġdemand ed
Ġback ing
def ault
spe ed
ĠLeg isl
Ġmother s
ĠB ody
Ġvar iation
ced ented
p owered
le ading
N ever
Ġg rave
ĠAnt i
A W
Ġinterview ed
ĠG ab
ĠF at
Ġrook ie
u u
Ġdep os
ix on
Ġam pl
ret ion
ĠHe at
Ġpeace ful
S M
ie ve
Ġd iver
ĠVict oria
Ġm ic
p df
Ġst ating
Ġl ung
Ġcritic ized
Ġvacc ine
ĠLoad ing
ur se
T ake
ĠFr an
ĠS old
ĠRob in
Ġdetect ed
ĠSc ript
Ġadjust ed
Ġsen ator
Ġopp osing
Er ror
C ount
Ġconflic ts
Ġo w
ĠAr gent
Ġmatch ing
h h
ĠTre k
st arter
" ),
ĠA F
od er
xx xx
ĠAl t
ac re
ĠP ick
ĠSol ar
ĠD al
O ct
ĠB att
Ġs rc
Ġeng agement
Ġexecut ives
Ġliber ty
j ava
Ġtal ented
igen ous
Ġcon secut
.. ...
In fo
Ġhor rible
Ġsurprising ly
f eed
ic ating
ĠL ED
Ġfem ales
St ation
ell er
ĠOak land
Ġmechan ical
i ology
ĠV ar
Ġrob ust
ett ings
ott a
Ġthe oret
Ġret ain
k ward
Ġd a
Ġdeploy ed
d el
ĠAnd y
Ġsubsc ribe
we b
Ġn a
ĠMic hel
Ġpart ially
ĠCome y
Ġc rown
ĠM aj
ĠBl u
r ator
D ay
IN T
Ġdocument ed
ĠG DP
g i
che ll
Ġbrut al
ĠB ab
st ration
Ġthe ft
Ġt ube
@ @
Ġqu ery
ĠL incoln
Ġpublish ing
Ġw ore
or ical
Ġr ic
Ġnot able
Ġsubsequ ently
ne x
Ġobser ve
ĠB oe
Ġc odes
m ain
W H
ĠS L
Ġresident ial
av an
Ġm as
are st
ade on
OU T
Ġsoph istic
ant e
Ġc ens
Ġ **
Ġmort ality
Ġyour s
Ġoccas ions
Ġrec alled
ĠDri ver
Ġv ocal
Ġbath room
Ġsh ops
Ġcollabor ation
ĠOb amacare
ĠC ell
Ch ar
Su per
C re
Ġt ends
Ġt orn
Ġeconom ics
a very
ĠR aid
ĠS em
Ġshould ers
Ġexpect ing
Ġexam ination
en ame
ĠU I
i ability
ol as
ĠAm b
ĠD ra
Ġmid field
ĠI C
Ġlay out
Ġflo ating
f i
it ative
Ġtremend ous
Ġ Ð
Ġab und
W ork
ĠLight ning
Ġsimilar ly
Ġconserv atives
Ġpr ay
B E
iz arre
Ġt empt
Ġemphas is
ĠMet ro
Ġf ishing
Ġmar ry
ne g
ĠStud y
Ġrec k
Ġdis pos
on ing
bs ite
Ġsusp ic
Ġmer ch
ĠG ib
ĠDes cription
ĠD VD
w he
ĠY emen
Ġen vironments
oot ing
ĠMod ern
e u
Ġreflect s
Ġh oney
Ġanaly st
Ġg ut
d ec
A ction
Ġhousehold s
Ġst er
Ġtem ple
Ġreform s
Ġfavour ite
Ġdead line
ĠL E
Th ree
ĠWith in
A ug
Ġnight s
elt a
Ġinv alid
ĠEx change
ĠDel hi
w hen
inc ome
Ġ ðŁ
Ġwire less
sc ribe
ist a
Ġhost ile
Ġall y
Ġg ig
Ġout lets
ĠD or
EM ENT
Ġas h
Ġab stract
OR D
ĠMot or
Ġadv iser
ist le
Ġb ases
Ġcourt esy
Ġcross ing
Ġcle ared
Ġrefuge e
cos ystem
Ġthrow s
f un
bour ne
d ays
Ġdisag ree
ĠN ative
Ġreflect ed
ĠF ast
ĠY ellow
ĠSing apore
ĠR aven
Ġembr ace
ĠK u
ĠC hen
ĠEar ly
Ġappoint ment
ĠMin i
it ement
Ġpl acing
Ġb icy
S R
Ġwh is
S U
Ġinvestig ated
Ġphotograph s
g ithub
ĠBe at
ĠR ing
ig hed
i ar
Ġev olved
eral d
Ġd un
Ġh ub
I AL
Ġencour aging
ĠPr int
ĠD ays
Ġpro secution
Ġp ants
az y
l ive
Ġfoss il
ĠJ u
Ġro cks
ud ge
ĠR ace
Ġg reet
b ie
Ġf illing
ĠL en
Ġdi abetes
Ġfire arms
um ing
enez uel
ĠB B
Ġaccept ing
AT H
Ġres ort
Ġh unt
ri k
uck er
am ents
Ġsust ained
Ġcross ed
Ġbreak fast
Ġatt ributes
lect ed
at ile
Ġv ibr
ĠK al
ars on
op les
Ġtou ched
Ġdam ages
Ġimp ressed
ru p
Ġan ch
ĠAd ams
H el
ĠVict or
Ġmount ed
ĠC C
Ġdelic ious
sp an
ell a
Ġel abor
am ples
Ġdef ic
Ġconstit u
u ates
ĠM ission
ĠT her
ĠMon ster
b es
Re uters
ĠInd ones
h ill
mun ition
Ġconfirm ation
ĠCons ider
ac ent
Ġj et
ĠEm ploy
ĠGT X
n an
ĠSp ider
Ġprocess or
Ġpat ri
ĠPent agon
ĠRob inson
Ġreal istic
Ã ±
Ġappear ing
Ġp ipe
om ed
Ġf ru
Ġaw ful
Ġeval uation
Ġintellig ent
ĠC itiz
Ġfund ra
od ium
Ġtwe ets
Ġwor n
pr ing
Ġkid n
Ġreb els
ĠK am
ĠNether lands
ĠS W
Ġacqu isition
ĠM ale
ãĥ ª
omb ies
Ġtrad em
ĠStat us
B re
ĠTH IS
Ġad verse
ĠN EW
s ign
Ġorgan isation
en c
ĠHar per
ap or
ĠMem bers
ĠPe ace
ĠAir port
ĠOther s
Ġscr atch
ĠP il
Ġsens or
Ġadop tion
ĠHot el
ĠDr ag
Ġhonest ly
Ġy ard
ĠFor ces
Ġpat ent
Ġb ass
Ġquiet ly
Ġbreat hing
Ġp ose
i ors
ĠJ ess
st atic
IT E
O ffic
Ġj ew
w cs
Ġ14 0
Ġpre view
ipp i
Ġunf ortunately
oke mon
Ġh orn
Ġre ass
Ġpe er
ock er
Ġunt o
ĠGr ay
Ġclean ing
Ġattract ed
200 7
P oint
k ill
ĠAg reement
ur ches
Ġhor r
ĠMiss iss
Ġworth y
Ġfl owers
t own
d ll
Ġre actions
Ġde ce
Ġindic ating
M D
Ġpre ference
ĠM VP
ess ional
ĠT arget
g ence
ĠInd ians
Ġm isc
Ġfree ly
Ġmus cles
Ġline up
Ġimpact s
ous ing
om i
ac ular
Ġcontro lling
ag ine
c ery
he ll
Ġrank ing
ĠN ich
ĠA ve
12 8
Ġhigh way
Ġinc ons
Ġb inding
Ġstrugg les
ĠPitt sburgh
Ġgr ay
r in
Ġcom ics
ĠS port
Ġrel atives
Ġfr ight
Ġpro be
ĠPort ug
Ġv oc
Ġt u
ĠCor ps
Ġposs ibilities
Ġqual ify
wcs store
Ġl ibraries
Ġm igrants
Ġent ries
Ġconsecut ive
v als
ĠChair man
Ġh ill
IM E
ĠG ard
Ġinequ ality
f ox
ĠS ave
Ġc ort
claim ed
Ġtra its
Ġp our
Ġmiss iles
Ġess ence
Ġs ends
Ġall iance
Ġw ishes
ĠChrist opher
B ig
N Y
ĠJac ob
s an
ur red
ĠS O
ll y
Ġadvoc ate
ĠB ond
Ġ" /
Us ing
Ġdistrict s
ĠG ate
ĠB ir
r idge
ĠN az
ĠR s
bo ards
ĠG a
ĠRe agan
Ġinflu enced
1 000
ap y
Ġchalleng ed
Ġb arg
Ġfac ulty
ĠF if
Ġacqu ire
A c
Ġin sect
Ġinstr uments
Ġle af
th odox
M essage
Ġt ale
Ġthere by
Ġtra p
Ġstrong est
ĠMil itary
is ible
Ġ198 4
ethe less
Ġflex ible
Ġkill s
Ġfin ishing
ĠS ize
Ġredu ces
Ġep id
Ġorient ation
f ull
Ġtr ace
Ġl aser
Ġopp ose
Ġed iting
Ġmoment um
ä º
sh ow
V I
ĠL ad
Ġ198 5
Ġmurd ered
9 00
ut her
Ġprob ability
ĠP oll
Ġrel uct
ĠChe m
ĠMont real
Ġadequ ate
ĠPol and
ĠSher iff
um ph
Ġo k
Ġ 000
Ġ" [
Ġoper ators
ĠF er
Ġmod es
ĠE ve
Ġdiscipl ine
N ET
H and
Ġor al
ĠW E
em ail
J P
ĠPalestin ians
Ġhe nce
ĠL ess
Ġover l
d ig
Ġintim id
ĠCo al
Ġr anging
th a
Ġdist ant
Ġf ib
ĠInd ex
ĠW onder
ĠP el
hatt an
ĠH ug
Ã Ĺ
ra it
Ġwra pped
ĠR PG
Ġchemical s
ĠM oney
Ġfro zen
Ġind irect
ĠAgain st
E nd
Ġuncom fortable
ĠGall ery
ĠPost ed
Ø §
ond uct
Ġconsequ ence
Ġbit ter
Ġ198 7
p op
Ġcount less
ĠAl aska
ff ff
Ġdepart ure
Ġref und
ĠI an
i ated
Ġsee ks
Ġmechan ics
Ġjurisd iction
lyn n
Ġal ike
ĠH unt
ath on
Ġres olved
Ġc ache
Ġdist inction
d irect
Ġenc ount
ou b
be at
ĠCount ry
se arch
Ġcontin uous
Ġmod est
ĠR ail
th ood
1 30
B UG
Ġcrim inals
Ġindic ation
Ġencount ered
l ast
ĠW y
Ġide ology
ĠP DF
sec urity
] )
ĠJim my
ĠE N
Ġh iring
T em
Ġp ig
aun t
ĠCry stal
Ġpen alties
Ġcap ability
Ġp y
Ġproduct ive
Ġbal anced
ĠGe Force
cl ick
olit an
od s
Ġafter wards
Ġplay offs
ĠG ill
U ser
Ġback s
p ub
t ag
Ġabs urd
p iring
Ġc iting
Ġtr illion
Ġoblig ation
Ġmax im
ah oo
c f
um i
ĠAl pha
ĠN elson
Ġpursu ant
in itely
Ġf ract
ent ry
ber y
ĠTh or
Add ed
ĠD J
ĠG ene
Ġaw kward
St ud
Ġwal let
ĠDiv ine
ari os
Ġrele asing
Ġed ited
Ġaccompl ished
B est
Ġed ges
Ġplan es
Ġfeed ing
" },"
Ġdiscl osure
Ġgr ain
air y
o ons
ern and
V R
Ġreason ably
Ġdr um
Ġpart ial
Ġgraph ic
Ġunpre cedented
Ġadv ised
M icro
ĠAss ad
point s
sc ar
ĠZ one
tt es
Ġ7 00
v o
ĠH amp
Ġfix es
Ġca ution
Ġstr ings
Ġpan els
Ġle ak
Ġpr icing
row th
ĠEr ror
ĠS aints
f ix
Ġobserv ations
ĠA bs
Ġsuggest ion
ĠUkrain ian
Ġbar rier
Ġpain ted
B et
im ir
ĠS pect
p ot
orne ys
Ġcomp ound
Ġbe ars
ĠR ush
Ġlux ury
S um
Ġor bit
ĠMar c
Ġex empt
ĠTra il
ĠM O
ĠH ans
ĠWe apon
oc used
umin um
ĠJer ry
Ġb ust
ĠA G
ĠW iki
Ġend less
ĠV lad
ĠB ah
ĠR adeon
ke ys
ĠSur vey
ĠV iol
def ine
le an
Ġcomm od
Ġreven ues
Å į
Ġfurn iture
Ġcast ing
Ġdiplom atic
ĠPlay ers
ĠK illed
Ġmod ify
Ġinnov ative
ĠAb u
n or
Ġbond s
Ġcoach ing
M er
Ġmod ules
ĠPatri ots
Ġenh anced
Ġproceed ings
Ġteam mates
Ġ12 8
ard o
Ġcomprom ise
ĠM uch
Ġfle w
ĠEd ge
Ġunnecess ary
Ġdoct rine
re port
ĠOr lando
ĠProf ile
Ġplay off
friend ly
Ġcompl ain
ĠM C
ĠO pt
ĠG B
Ġbeat en
Ġg olf
Ġpl acement
B it
Ġnews letter
Ġ201 9
vis or
raw l
ĠiP ad
Ġact ed
Ġju ice
Ġdec ks
P N
su ccess
ĠH alf
Ġdele ted
Ġsec rets
Ġas ylum
M art
ĠAct iv
ĠGu y
ĠT s
Ġd ys
Ġassum ing
Ġman a
Ġsub ur
Ġ12 5
M edia
AR Y
r ide
c p
Ġdifficult ies
Ġcollect ing
Ġbank rupt
n on
Ġcomp osed
Ġvol t
Ġmilit ants
Ġ> >>
ĠM ormon
t or
Ġpartic les
ĠB art
ry ption
Ġad min
Ġsqu ee
VID IA
Ġcreat or
iam eter
ic ular
N BC
Ġgrab bed
Ġn odd
Ġr ated
Ġrot ation
Ġgr asp
Ġexcess ive
ĠE C
ĠWh it
Ġinvent ory
ault s
ĠF B
Ġe cosystem
Ġbill ions
Ġvent ure
n amed
Ġdef ender
out e
Inst ead
ir able
W ar
Ġassum ption
Ġb ite
Ġearth qu
t ail
sp ace
Ġgif ts
boy s
Ġinev itable
Ġstruct ural
Ġbenef icial
Ġcompe lling
h ole
erv ation
Ġco at
o j
inc arn
ĠY ears
Ġdetermin ing
Ġrhet oric
Ġbound aries
Ġwh ites
A nt
add y
) -
ra ham
eter min
Ġhar vest
ĠCon c
Ġlapt op
ĠM atch
Ġenjoy ing
cc a
oll ar
Ġtri ps
Ġadd iction
ĠS ak
Ġpow ered
Ġc ous
ĠRuss ians
ie re
Ġret rie
qu ality
Ġdiff er
Ġking dom
ĠL aur
ĠCap itol
Ġcon clusions
ĠAl tern
ĠN av
Ġtrans parent
B ER
G roup
ĠCom plete
Ġinf er
Ġint rig
Ġins ane
R O
oph ob
is en
qu al
Mich ael
Ġm useum
ĠP ope
Ġres et
r ative
f ive
Ġagg reg
itte es
osit ory
Ġcar b
ĠRec ord
Ġdec ides
ĠF ix
Ġexcept ions
ĠCommission er
un s
ĠEnvironment al
Ġlegend ary
ist ence
Ġtun nel
k m
Ġins ult
Ġt roll
Ġsh ake
Ġdet ention
qu es
ĠCh rome
ĠF iles
Ġsub t
Ġprospect s
Ġpro l
re nder
pro of
Ġperform ances
St r
Ġh ref
ern ame
Ġachieve ment
Ġf ut
F ull
ĠLe ban
go ogle
ãĥ Ī
amp a
May be
Ġproject ed
ĠE mb
Ġcol leg
Ġa wards
Ġâ Ķ
G old
ĠBl ake
ĠR aj
if ting
Ġp ending
Ġinst inct
Ġdevelop ments
Con nect
ĠM and
ĠW ITH
ĠPhilipp ines
prof ile
Ġalt ogether
ĠB und
ĠT D
oo oo
amp ed
ip h
Ġste am
Ġold est
Ġdet ection
ul pt
Ġ ç
ĠWay ne
200 6
f a
Ġcir cles
ĠF u
Ġdon ors
appropri ate
ĠDak ota
j amin
Ġmotiv ated
Ġpurch ases
ĠLouis iana
ĠS pl
Ġgl obe
Ġ10 5
z ip
c all
Ġdepart ments
Ġsustain able
10 5
ĠO P
if iers
Ġprevent ed
Ġinc omp
ĠComm ander
Ġdom inated
ĠÂ »
Ġinvest ed
Ġcomplex ity
Ġin cl
Ġens uring
Ġreal m
yn c
ĠInd ependent
r ained
ĠJ en
ĠFl ight
Ġat he
Ġspec ulation
ĠT E
oc ate
t ic
Ġpl aint
her ry
Ġto y
Ġ1 11
Ġpl ates
st atus
ĠIs a
Ġdev oted
C op
ĠE S
25 5
ur rency
M ain
Ġsl aves
Ġpe pper
Ġqu otes
Ġce iling
ĠF ish
Ġtrans formation
Ġfra ction
Ġadvant ages
Ġto ile
Ġstun ning
Ġmo ist
bre aking
s i
ĠL ocation
ĠMed ium
Ġtext s
Ġu gly
Ġb io
. âĢĶ
ĠB ased
Ġtr ains
ĠW ing
ĠAn cient
ĠRec ords
ĠH ope
Spe cial
ades h
ob i
[ /
Ġtempor arily
V er
h u
os er
Ġover night
Ġm amm
ĠTre asury
ĠV enezuel
ĠMeg a
Ġt ar
Ġexpect s
bl ack
or ph
\\ \\
Ġaccept ance
Ġrad ar
s is
Ġjun ior
Ġfram es
Ġobserv ation
ac ies
P ower
ĠAdv anced
M ag
olog ically
ĠMe chan
Ġsent ences
Ġanaly sts
augh ters
force ment
Ġv ague
Ġcl ause
Ġdirect ors
Ġeval uate
Ġcabin et
M att
ĠClass ic
A ng
Ġcl er
ĠB uck
Ġresear cher
Ġ16 0
Ġpoor ly
Ġexperien cing
ĠP ed
ĠMan hattan
Ġfre ed
Ġthem es
ad vant
Ġn in
Ġpra ise
10 4
ĠLib ya
b est
Ġtrust ed
Ġce ase
Ġd ign
D irect
Ġbomb ing
Ġm igration
ĠSci ences
Ġmunicip al
ĠA verage
Ġgl ory
Ġreve aling
Ġare na
Ġuncertain ty
Ġbattle field
ia o
G od
Ġc inem
ra pe
el le
ap ons
Ġlist ing
Ġwa ited
Ġsp otted
ke ley
ĠAud io
e or
ard ing
idd ing
ig ma
ĠN eg
Ġl one
Ġ ----
ex e
d eg
Ġtrans f
Ġwas h
Ġsl avery
Ġexpl oring
ĠW W
ats on
Ġen cl
l ies
ĠC reek
Ġwood en
Man ager
ĠBr and
um my
ĠAr thur
Ġbureau cr
Ġbl end
ar ians
F urther
Ġsupposed ly
Ġwind s
Ġ19 79
Ġgrav ity
Ġanalys es
ĠTra vel
ĠV eter
Ġd umb
Ġaltern ate
g al
Ġconsum ed
Ġeffect iveness
.' '
Ġpath s
ond a
L A
ĠStr ong
Ġen ables
Ġesc aped
Ġ" "
Ġ1 12
Ġ198 3
Ġsm iled
Ġtend ency
F ire
Ġp ars
ĠR oc
Ġl ake
Ġf itness
ĠA th
ĠH orn
Ġh ier
Ġimp ose
m other
Ġp ension
ic ut
bor ne
ic iary
. _
ĠS U
Ġpol ar
is y
eng u
itial ized
AT A
w rite
Ġexerc ises
ĠD iamond
ot ypes
Ġharm ful
on z
Ġprint ing
st ory
Ġexpert ise
ĠG er
Ġtraged y
ĠF ly
Ġd ivid
amp ire
st ock
M em
Ġre ign
Ġun ve
Ġam end
ĠProp het
Ġmut ual
ĠF ac
Ġrepl acing
H ar
ĠCirc uit
Ġthro at
ĠSh ot
Ġbatter ies
Ġto ll
Ġaddress ing
ĠMedic aid
Ġp upp
ĠN ar
ol k
Ġequ ity
M R
ĠHis pan
ĠL arge
m id
D ev
Ġexp ed
Ġdem o
ĠMarsh all
erg us
Ġf iber
Ġdiv orce
ĠCre ate
Ġsl ower
ĠPark er
ĠStud ent
ĠTr aining
Ret urn
ĠT ru
Ġc ub
ĠRe ached
Ġpan ic
Ġqu arters
Ġre ct
Ġtreat ing
Ġr ats
ĠChristian ity
ol er
Ġsac red
Ġdecl are
ul ative
et ing
Ġdeliver ing
est one
Ġt el
ĠL arry
Ġmet a
ac cept
art z
ĠRog er
hand ed
Ġhead er
Ġtra pped
ĠCent ury
Ġkn ocked
ĠOx ford
Ġsurviv ors
b ot
Ġdemon stration
Ġd irt
Ġass ists
OM E
ĠD raft
ortun ate
fol io
pe red
ust ers
g t
ĠL ock
Ġjud icial
ver ted
Ġsec ured
out ing
ĠBook s
Ġhost ing
Ġlif ted
l ength
Ġj er
Ġwhe els
ĠR ange
umbn ails
Ġdiagn osis
te ch
ĠStew art
ĠP ract
Ġnation wide
Ġde ar
Ġoblig ations
Ġgrow s
Ġmand atory
Ġsusp icious
! '
A pr
G reat
Ġmort gage
Ġprosecut or
Ġeditor ial
ĠK r
Ġprocess ed
ung le
Ġflex ibility
Ear lier
ĠC art
ĠS ug
Ġfoc uses
Ġstart up
Ġbre ach
ĠT ob
cy cle
ãĢ Į
ro se
Ġb izarre
ãĢ į
Ġveget ables
$ $
Ġret reat
osh i
ĠSh op
ĠG round
ĠSt op
ĠHawai i
ĠA y
Per haps
ĠBe aut
uff er
enn a
Ġproduct ivity
F ixed
cont rol
Ġabs ent
ĠCamp aign
G reen
Ġident ifying
Ġreg ret
Ġpromot ed
ĠSe ven
Ġer u
ne ath
aug hed
ĠP in
ĠL iving
C ost
om atic
me ga
ĠN ig
oc y
Ġin box
Ġem pire
Ġhor izont
Ġbr anches
Ġmet aph
Act ive
ed i
ĠFil m
ĠS omething
Ġmod s
inc ial
ĠOrig inal
G en
Ġspir its
Ġear ning
H ist
Ġr iders
Ġsacr ific
M T
ĠV A
ĠS alt
Ġoccup ation
ĠM i
Ġdis g
lic t
Ġn it
Ġn odes
e em
ĠP ier
Ġhat red
ps y
ãĥ ī
Ġthe ater
Ġsophistic ated
Ġdef ended
Ġbes ides
Ġthorough ly
ĠMedic are
Ġbl amed
arent ly
Ġcry ing
F OR
pri v
Ġsing ing
ĠI l
Ġc ute
o ided
olit ical
ĠNe uro
å ¤
Ġdon ation
ĠEag les
ĠG ive
T om
Ġsubstant ially
ĠLic ense
ĠJ a
Ġg rey
ĠAn imal
ĠE R
ĠU nd
Ġke en
Ġconclud e
ĠMississ ippi
Eng ine
ĠStud ios
P ress
o vers
ll ers
Ġ3 50
ĠR angers
Ġr ou
ert o
E p
iss a
iv an
Ġse al
ĠReg ist
dis play
Ġwe aken
u um
ĠComm ons
ĠS ay
Ġcult ures
Ġl aughed
Ġsl ip
Ġtreat ments
iz able
m art
ĠR ice
Ġbe ast
Ġob esity
ĠLa ure
ig a
Wh ich
hold er
Ġelder ly
Ġp ays
Ġcompl ained
Ġc rop
Ġpro c
Ġexplos ive
ĠF an
ĠAr senal
A uthor
ef ul
Ġme als
Ġ( -
id ays
Ġimag ination
Ġann ually
Ġm s
as ures
H ead
ik h
m atic
Ġboy friend
ĠCom puter
Ġb ump
Ġsur ge
ĠCra ig
ĠKir k
D el
medi ate
Ġscen arios
ĠM ut
ĠSt ream
Ġcompet itors
Ù Ħ
ĠStan ford
ĠRes ources
az ed
b age
Ġorgan is
ĠRe lease
Ġsepar ately
Ġha bits
Ġmeasure ments
ĠCl ose
Ġaccomp any
Ġg ly
Ġt ang
ĠR ou
Ġplug in
Ġcon vey
ĠChall enge
oot s
j an
Ġcur s
ĠRel ations
ke eper
Ġapproach ing
p ing
Spe aking
Ġarrang ement
ĠV I
are ttes
Ġaffect ing
Ġperm its
b ecause
Ġu seless
ĠH us
!! !!
Ġdestro ying
Un fortunately
Ġfasc inating
S em
Ġelect oral
Ġtrans parency
ĠCh aos
Ġvolunte er
Ġstatist ical
Ġactiv ated
ro x
We b
H E
ĠHamp shire
is ive
M ap
Ġtr ash
ĠLaw rence
st ick
C r
Ġr ings
EX T
Ġoper ational
op es
D oes
ĠEv ans
Ġwitness ed
P ort
Ġlaunch ing
ec onom
w ear
ĠPart icip
um m
cul es
ĠR AM
ĠT un
Ġass ured
Ġb inary
Ġbet ray
Ġexpl oration
ĠF el
Ġad mission
it ated
S y
Ġav oided
ĠSim ulator
Ġcelebr ated
ĠElect ric
¥ ŀ
Ġcl uster
itzer land
he alth
L ine
ĠN ash
at on
Ġsp are
Ġenter prise
ĠD IS
clud es
Ġfl ights
Ġreg ards
ĠÃ Ĺ
h alf
Ġtr ucks
Ġcontact s
Ġunc ons
ĠCl imate
Ġimm ense
N EW
oc c
ect ive
Ġemb od
Ġpat rol
Ġbes ide
Ġv iable
Ġcre ep
Ġtrig gered
ver ning
Ġcompar able
q l
Ġg aining
ass es
Ġ( );
ĠG rey
ĠM LS
s ized
Ġpros per
" ?
Ġpoll ing
Ġsh ar
ĠR C
Ġfire arm
or ient
Ġf ence
Ġvari ations
g iving
ĠP i
osp el
Ġpled ge
Ġc ure
Ġsp y
Ġviol ated
Ġr ushed
Ġstro ke
ĠBl og
sel s
ĠE c
,' '
Ġp ale
ĠColl ins
ter ror
ĠCanad ians
Ġt une
Ġlabor atory
Ġn ons
t arian
Ġdis ability
ĠG am
Ġsing er
al g
ĠSen ior
Ġtrad ed
ĠWar rior
Ġinf ring
ĠFrank lin
Ġstr ain
ĠSwed ish
Ġsevent h
ĠB enn
ĠT ell
Ġsynd rome
Ġwond ered
id en
++ ++
ig o
Ġpur ple
Ġjournal ism
Ġreb el
Ġf u
bl og
Ġinv ite
ren cies
ĠCont act
Is rael
ĠCont ent
Ġche er
Ġbed room
ĠEngine ering
ĠQue ens
Ġd well
ĠPlay Station
ĠD im
ĠCol on
l r
Ġoper ates
Ġmotiv ation
US A
ast ered
C ore
ĠTr uth
ol o
OS E
ĠMem ory
Ġpred ec
Ġan arch
Ġ19 20
ĠY am
Ã ¨
b id
Ġgr ateful
Ġexc itement
Ġtre asure
Ġlong est
ct ive
Ġdes erves
Ġreserv es
Ġcop s
ĠOtt awa
ĠEgypt ian
ank ed
Ġart if
Ġhypot hesis
: /
Ġpurch asing
Ġlove ly
H P
Ġdiv ide
Ġstrict ly
Ġquestion ing
Ġtaxp ayers
ĠJ oy
Ġroll s
ĠHe avy
Ġp orts
Ġmag netic
Ġinf lamm
Ġbr ush
t ics
â ĪĴ
Ġbott les
pp y
Ġp add
ãĤ ¯
m illion
Ġdevast ating
Ġcomp iled
Ġmed ication
Ġtw elve
ĠPer ry
Sp ace
im b
y our
Ġle aked
ĠT ar
Ġun ity
Ġinfect ed
Ġtravel ed
ID E
ĠMc Donald
t xt
ĠPr inc
Ġinter ven
ĠTai wan
ĠP ow
Ġbe aring
ĠTh read
Ġz ones
iz ards
un ks
Ch apter
ll or
ĠÂ ·
Ġw ounds
Ġdisc retion
Ġsucceed ed
ik ing
Ġicon ic
C all
Ġscreen ing
ĠM is
ict s
Ġmin isters
Ġsepar ation
Pl ayer
Ġb ip
Ġbel oved
Ġcount ing
ĠE ye
ar ound
ing ing
Ġtable t
Ġoff ence
in ance
h ave
ĠInf o
ĠNin ja
Ġprotect ive
ĠC ass
M ac
ĠQual ity
N orth
Ġ ic
ĠCub a
ĠChron icle
ĠPro perty
Ġfast est
ot os
ĠG erm
OW N
Ġbo om
ĠStan ley
ergus on
Ġcle ver
Ġent ers
m ode
ter ior
ĠS ens
Ġlin ear
AR K
Ġcomp aring
Ġpure ly
Ġsaf er
ĠPot ter
Ġc ups
R T
Ġgl uc
Ġatt ributed
Ġdu pl
ĠP ap
Ġprec ious
Ġp a
iction ary
ĠT ig
ĠTo o
ol utions
st an
Ġrob ots
Ġlob b
Ġstat ute
Ġprevent ion
w estern
16 0
ĠAct ive
ĠMar ia
h al
N one
ell ar
ĠK B
ĠPart ners
ĠSing le
ĠFollow ing
ang o
ac ious
Ġth ou
Ġk g
Ġinflu ential
ĠFriend s
S ur
ain ted
Ġfor ums
Ġst arter
Ġcitizens hip
ĠE lection
on ge
ot ation
os ph
;; ;;
ut ical
p ur
ere n
Ġaccus ations
bit ious
ab bit
ĠOr d
Post ed
ir k
Ġsens itivity
ic he
ĠAm y
ĠF ab
Ġsum mit
Ġped est
Ġrub ber
Ġagric ultural
Ġcan cel
A E
Ġin aug
Ġcont am
Ġfirm ly
i w
st age
ĠK an
Ġt ier
Ġinv ention
Ġtransl ated
ĠR ules
B ox
Tw itter
ID S
Ġp izza
Ġdeb ug
ĠD rop
v s
Ġh orses
b ig
Ġb oring
Ġh ood
ĠMcC ain
at ched
ĠBro s
Ġsk ip
Ġess ay
st at
ĠLeg ends
Ġam munition
au c
Ġshoot er
Ġun h
Ġsuppl ied
Ġgener ic
ĠS K
ib an
yr ics
Ġ25 5
Ġclim bing
Form er
Ġfl ip
Ġjump ing
Ġfrust ration
ĠTer ry
Ġneighborhood s
Ġmed ian
be an
Ġbr ains
Follow ing
Ġsh aped
Ġdraw s
Ġal tered
J ack
Ġrecip es
Ġsk illed
we alth
ach i
e lection
Ġbehavi ors
de als
ĠU ntil
F e
Ġdecl aration
mar ks
ĠBet ween
cel ona
Ġres on
Ġbub ble
Am ong
Ġim perial
G S
Ġfemin ist
200 5
ĠK yle
Ġaccount ing
ĠTe le
ĠT yr
Ġconnect ing
Ġre hab
ĠP red
s im
Ġmeant ime
Ġphys ician
M W
ĠCamp bell
ĠBr andon
Ġcontribut ing
ĠR ule
ĠWe ight
ĠN ap
Ġinter active
Ġv ag
Ġhel met
ĠCom b
f our
Ġsh ipped
Ġcomple ting
ĠP D
PD ATE
Ġspread ing
Ġsc ary
erv ing
ĠG as
Ġfr ank
s chool
Ġrom antic
Ġstab il
R ob
Ġaccur ately
Ġac ute
ĠH ann
Ġsymbol s
Ġcivil ization
ĠA W
Ġlight ning
Ġcons iders
Ġven ue
Ġ ×
Ġo ven
ĠS F
h is
Ġn u
ĠLear n
Ġpe oples
Ġst d
Ġsle e
Ġs lic
ĠStat istics
Ġcor ners
ĠB aker
Ġ: )
ment ation
ol ver
Ġlaugh ing
ĠT odd
ond e
ĠH ills
Ġn uts
ĠW oman
pl ane
Ġl iver
ĠIn side
S orry
Ġagre es
Ġfund ament
ĠF isher
Ġa uction
Ġthread s
gl as
ĠBas ic
ĠN at
Ġlack ing
Ġceleb ration
j u
Ġs illy
E uro
Ġt att
ight y
cont rolled
T est
ĠSing h
Ġr age
Ġrh yth
o ffic
ĠPh antom
Ġhead lines
Ġrespond ing
ĠMor ning
Ġvit amin
Ġboot s
ĠS ite
al in
p i
Ġvir al
ĠU C
D ER
ĠSe x
Ġst ocks
c urrent
Ġch urches
ĠR are
ĠMur phy
Ġden ial
ĠG aming
Ġtou g
Ġn ick
Ġm akers
ĠRon ald
Ġgener ous
ĠD oc
ĠMor ris
Ġtransform ed
ĠN ormal
Ġ10 4
ĠKick starter
ĠUp on
On line
ĠI RS
Ġw rap
Ġl oving
Ġarri ves
ĠD ue
Ġhe ter
ĠM ade
Ġrent al
Ġbelong s
Ġatt orneys
Ġcro ps
Ġmat ched
ul um
ol ine
10 9
Ġdis par
Ġbuy ers
ĠCam bridge
Ġeth ics
rou ps
Ġjust ified
Ġmarg inal
Ġrespect ed
win ning
Ġnodd ed
ĠSer ge
ĠForm er
C raft
######## ########
ĠWar ner
Ġd ash
et e
Ġent ert
ĠE scape
out heast
Ġkn ees
ĠB omb
Ġr ug
P ass
Ġatt itudes
go vernment
ĠPri or
Ġqual ities
Ġnot ification
ĠPh one
l ie
Ġanticip ated
ĠCom bat
ĠBar ry
Ġ198 2
Us ers
on er
Ġcomput ing
ĠConnect icut
Ġless er
Ġpe ers
ĠC u
Ġtechn ically
Ġsub mission
ĠUn iversal
Ġman ually
our ge
Ġrespond ents
ĠB TC
ĠH ost
Ġf are
ĠB ird
Ġrece ipt
al so
Ġj ack
Ġagric ulture
Ġsk ull
Ġ! =
Ġpass ive
ĠC I
Ġsoc ieties
Ġremind ed
Ġinter ference
B uy
Ġâ ľ
g on
Ġscrut iny
ĠW itch
Ġconduct ing
Ġ ãĥ
Ġexch anges
ĠMit chell
Ġinhab it
Ġtw ist
B D
Ġwhere ver
group on
Ġj okes
ĠBen jamin
ĠR andom
fr ame
ĠL ions
Ġhighlight ed
ĠArk ansas
E nt
Ġp ile
Ġpre lim
g s
mind ed
Ġfel ony
ĠG A
ĠL uck
Ġpract ically
ĠB os
Ġact ress
D am
ĠB ou
Ġvis a
Ġembed ded
Ġhy brid
Ġear liest
Ġsoon er
s ocial
ĠH A
Ġste ep
Ġdis advant
Ġexplo it
ĠE gg
ĠUlt ra
Ġnecess ity
L ocal
ie ge
Ġd ated
Ġmass es
Ġsubsc ription
pl ess
Ġan onym
Ġpresum ably
Bl ue
The ir
asket ball
ĠPhil ip
Ġcom ed
load ed
r ane
Ġref lection
Ch ina
Ġext ends
Ġform ing
Ġund ers
200 1
Ġgr at
Ġconcent rations
Ġins ulin
Ġsec ular
Ġwh ilst
Ġwin ners
Ad vertisements
Ġdeliber ately
ĠWork ing
Ġs ink
et ics
d ale
Ġmand ate
Ġg ram
Ġvac ation
Ġwarn ings
ri pp
ĠTH AT
Ġcomment ary
Ġint u
Ġa est
Ġreason ing
Ġbreak down
ĠZ ombie
Ġ-- >
ĠPolit ical
c ott
Ġthr ust
Ġtechn ological
Ġdec iding
Ġtraff icking
L ong
W elcome
pr ising
ĠCommun ications
Ġend ors
Ġsw ift
Ġmetab ol
co ins
res a
ĠHT TP
Ġen roll
ĠH appy
us r
int age
Ġ[ "
u ably
ĠM aterial
Ġrepe al
Se pt
k h
ĠMod i
Ġunder neath
ĠI L
sh ore
Ġdiagn osed
ace utical
Ġsh ower
au x
ĠSw itch
ĠStre ngth
Ġj ihad
n ational
Ġtra uma
uss y
on i
Ġcons olid
Ġcal ories
ĠF lynn
ag ged
16 8
ĠP ink
Ġfulf ill
Ġch ains
Ġnot ably
ĠA V
L ife
ĠCh uck
m us
ĠUr ban
ĠH end
Ġdep osit
ĠS ad
Ġaff air
OR K
ie val
ĠF DA
Ġt rop
ĠOver all
Ġvirt ue
Ġsatisf action
au nd
Ġl un
ĠSw itzerland
ĠOper ation
pro cess
Ġsh ook
Ġcount ies
le ased
ĠCharl otte
1 12
Ġtrans cript
Ġre dd
p ush
ĠHe y
ĠAn alysis
[ "
Ġaltern atives
ard less
Ġele ph
Ġpre jud
ĠLe af
H aving
ĠH ub
Ġexpress ions
ĠVol ume
Ġshock ing
ĠRed s
Ġread ily
Ġplan ets
ad ata
Ġcollaps ed
ĠMad rid
Ġir rit
i pper
ĠEn c
ĠW ire
Ġbu zz
ĠG P
ash a
Ġaccident ally
ur u
Ġfrust rated
ĠS A
Ġhung ry
ĠH uff
Ġlab els
ant o
ĠE P
Ġbar riers
) |
ĠBer keley
ĠJ ets
Ġp airs
ĠL an
J ames
ĠB ear
Ġhum or
ĠLiber ty
Ġmagn itude
Ġag ing
ĠM ason
Ġfriends hip
umb ling
Ġemer ge
Ġnewsp apers
Ġam bitious
ĠRich ards
atern al
Ġ198 1
Ġcook ies
Ġsc ulpt
Ġpur suit
L ocation
Ġscript s
p c
Ġarrang ements
Ġd iameter
Ġl oses
am ation
Ġl iqu
ĠJ ake
aret te
Ġunderstand s
ĠZ en
v m
Ġappro ve
Ġw ip
Ġult ra
Ġint end
ĠD I
asc ular
Ġst ays
ĠK or
ĠK l
Ġinvest ing
L a
Ġbelie ving
b ad
m outh
Ġtaxp ayer
ãĥ ĥ
ĠQue bec
Ġl ap
ĠSw iss
d rop
Ġdr ain
ir i
et c
ft en
ĠN ex
Ġst raw
Ġscream ing
Ġcount ed
Ġdam aging
Ġamb assador
cent ury
Ġpro x
Ġarrest s
u v
il ateral
ĠCh arg
Ġpresc ribed
Ġindepend ently
Ġf ierce
ĠB aby
Ġb rave
Ġsu its
= >
Ġbas eline
ĠR ate
Ġis lands
Ġ( (
g reen
ix els
Ġname ly
ĠVill age
th an
am y
V ersion
g mail
ential s
ĠS ud
ĠMel bourne
Ġarri ving
Ġquant um
e ff
rop olitan
T ri
Ġfun eral
ĠI R
ÃĥÃĤÃĥÃĤÃĥÃĤÃĥÃĤ ÃĥÃĤÃĥÃĤÃĥÃĤÃĥÃĤ
ĠC ob
it ably
Ġt urb
Ġcomb o
Re view
Ġdeploy ment
u ity
ĠB ott
Ġinv isible
Ġrender ing
Ġunl ocked
Ġa qu
ĠVlad imir
Ġp ad
ĠBr ain
ĠLeg acy
dr agon
ĠKurd ish
Ġsound ed
Ġdet ained
ĠD M
g ary
Ġd aughters
Ġdistur bing
uk a
ĠPar ad
Ġt ast
Ġunf ortunate
Ġu l
em in
Ġattend ance
tr l
Ġpar ks
ĠMem orial
ĠAl ice
oth y
gu ard
ĠD ise
ĠSh an
ĠFor um
R ich
Ġshif ted
ue z
Ġl ighter
ĠMag n
Ġc od
S ch
ham mad
P ub
3 50
ĠP okemon
Ġprot otype
Ġun re
B ase
ĠStud ents
ĠRep ly
ĠCommun ist
Ġg au
ĠTy ler
I Z
Ġparticip ated
Ġsup rem
ĠDet ails
Ġvessel s
ro d
Ġt ribe
ke ep
Ġassum ptions
Ġp ound
Ġcr ude
ĠAv ailable
Ġswim ming
Ġin clusion
Ġadv ances
c ulation
Ġconserv ation
Ġover d
ĠBuff alo
Art icle
ed ge
Ġaw a
ĠMad ison
Ġsid ew
Ġcat ast
ĠK rist
uc le
ĠHigh way
ĠTer ror
Ġactiv ation
Ġuncons cious
ĠSat an
ĠSus an
ill ery
Ġarr anged
i op
Ġrum ors
ur ring
th ink
ĠKe ith
ĠK ind
Ġavoid ing
by n
n ut
ĠSpe aker
r us
n ames
Ġgu ilt
ĠOlymp ics
Ġsa il
ĠM es
lev ant
ĠColumb us
a ft
C ity
S outh
ĠHar vey
ĠP un
S everal
Ġment ally
Ġimp ress
m ount
ĠUb untu
âĢĶâĢĶâĢĶâĢĶ âĢĶâĢĶâĢĶâĢĶ
ĠSuper man
ĠMP s
Ġintent ions
ĠR acing
Ġlike lihood
Ġ2 40
T otal
Ġto ys
ĠW atson
Ġur ge
L ear
ĠP aper
Ġoccur ring
ĠB eng
ĠC ert
Ġst ones
T im
ĠTw in
z b
ĠD ynam
Ġpolit ician
k ens
ĠEnter prise
UT ERS
Ġab ol
Ġref resh
Ġarbit rary
pe ction
Ġtrou bles
Ġ} );
t v
Ġpil ots
Ġdist ribute
Ġaud it
Ġp ause
orig inal
Ġr ivals
Â £
F ig
T L
ab il
ry ing
L in
ion ed
l on
Ġf ancy
Ġcr ashed
Ġt ract
Ġshe d
Ġcons ume
B ased
down load
in it
Ġvolt age
Int rodu
Ġcondem ned
ĠFin ance
res pect
Ġex cluded
Ġestablish ing
her ic
Ġher itage
Ġspect acular
Ġun st
ĠSnow den
ĠL ane
S an
Ġprotect ions
st ruction
inc inn
Ġmac ro
C ustom
ios ity
Ġes p
Ġfunction ing
Ġm ush
Ġp uzzle
Ġeth ical
M al
Ġgo verning
ĠF erguson
Ġrest ored
Ġst ressed
ĠCoun ter
ĠK as
cl ip
AN S
Ġse iz
U K
by ss
old own
ap i
Ġperman ently
oun ters
W est
Th rough
L ight
at oes
Ġne at
Ġc ord
ure r
Ġsevere ly
ĠA ven
Ġinter rog
Ġtri ple
G iven
N umber
Ġar ise
Ġs her
pl ant
Ġfl ower
ĠC ou
Ġat e
Ġnew er
b ul
Ġmean while
ĠL air
Ġadjust ment
ĠCop yright
Ġd ivers
i ological
Ġgam ers
o at
Ġhistor ically
Ġanal og
Ġlong time
Ġpres cription
ĠM ist
ĠHy per
ĠM aine
ĠDe ity
Ġmulti pl
ĠRe incarn
ĠH yd
ĠP ic
S il
r ants
ĠC ris
. ;
( {
epend ence
Ġrec y
ate ur
Ġqu ad
Ġgl ob
Ġcon ced
te am
Ġcapital ist
ĠL ot
Ġroy al
ĠCy ber
Ġblack s
met ic
ri v
ĠD anny
Ġsp o
ĠR O
Ġanim ated
rypt ed
ĠDep uty
Ġrend ered
F E
Ġstre ak
Ġcloud s
ĠDou g
~~~~ ~~~~
Ġdisc our
ĠVe h
Ġpsych ology
ĠJ ourney
Ġcry stal
ĠFro st
Ġsuspic ion
Ġrel ate
or us
ĠC rypt
ĠN VIDIA
com ed
ut ing
incinn ati
Ġvulner ability
ost ic
Ġisol ation
Ġcool ing
ĠCoal ition
Ġ1 19
F our
ĠDe al
Ġâ ī
se mble
ram ent
ĠBar celona
Ġ10 2
Ġcoc aine
ocaly pse
F eb
ogen ic
Ġmut ation
Ġcrypt oc
ĠK el
ĠG it
a is
Ġs isters
AN K
Ġactiv ate
T er
Ġd read
yl on
Ġprop ri
A ust
ĠDef ault
Ġout door
Ġshe er
ce ive
Ġg ently
Ð ¾
Pro gram
Ġâ ĨĴ
Ġve gan
ĠCr us
Ġrespons ibilities
ĠH R
OL D
Ġprev ents
Ġst iff
ĠW ere
Ġathlet ic
ĠSc ore
Ġ) :
Ġcolumn s
ĠL oc
av ailable
ĠF ram
ĠS essions
Ġcompan ion
Ġpack s
14 0
ĠKn ights
Ġf art
Ġstream s
Ġsh ore
Ġapp eals
ĠPer formance
h aul
ĠSt ra
ĠN ag
10 3
ĠTrans portation
B B
E v
z an
P ublic
Ġtw in
uls ion
M ult
Ġelect ro
Ġstat ue
ation ally
ĠN ort
Ġins pection
/ *
ig ue
Ġcomp assion
ĠT ales
ĠSte in
ĠSc reen
ĠB ug
ĠL ion
g irl
Ġwithdraw al
Ġobject ives
Ġblood y
Ġprelim inary
Ġj acket
Ġdim ensions
ĠC ool
ĠOcc up
Ġw reck
Ġdoub led
ank ing
Ġ19 75
Ġglass es
ĠW ang
pro v
P ath
connect ed
ĠMult i
ĠNor way
agon ist
Ġfe ared
Ġtouch ing
Ġarg uably
Â¯Â¯Â¯Â¯ Â¯Â¯Â¯Â¯
ĠNC AA
che m
Ġsp at
ĠW WE
ĠC el
ig ger
Ġattack er
ĠJo in
ob ject
ett a
Ġelim inated
d et
Ġdest ruct
ĠLuc as
ct uary
18 0
ĠBr ady
ĠBl ues
B ay
au kee
Ġtim eline
Ġdeleg ates
w ritten
uff icient
Ġsh apes
Cop yright
ou ble
serv ice
Ġp ione
Ġcolleg es
Ġrow s
Ġsp ite
Ġassess ed
3 60
Ġle ase
Ġconfident ial
ck er
ĠMan ning
ĠV oice
Ġse aled
Ġcalcul ate
N O
ĠAss istant
Ġteen ager
ul ent
ather ine
Ġm ock
Ġd iamond
Ġf est
Ġsw itched
Ġres ume
ĠPu erto
Ġl anes
ir ation
ĠSimilar ly
Ġro d
ĠS el
ĠPal ace
ĠLim ited
e ous
Ġvar iant
Ġw ard
Ġ) )
Sh ow
OO K
A lex
ĠN ep
br is
ĠWik ipedia
Ġexcept ional
Ġman ages
ĠD raw
Ag ain
Ġco pper
ut t
Ġex ports
Ġport folio
Ġelev ated
R ated
ĠOther wise
ĠT act
ĠShe l
ĠT X
" âĢĶ
Ġres ur
ĠW a
ven ant
Ġmon etary
pe ople
E mail
Ġfif ty
ĠS weet
ĠMalays ia
Ġconf using
ĠR io
ud a
uten ant
" );
Ġpra ised
Ġvol umes
t urn
Ġm ature
Ġnon profit
Ġpassion ate
ĠPriv ate
Ġ10 3
Ġdesc end
ç ¥ŀ
uff y
head ed
Whe ther
ri en
ze ch
be it
Ġch rom
ĠMc M
Ġd ancing
Ġe leg
ĠNot iced
11 5
Ġadvoc acy
ENT S
amb ling
ĠMin or
ĠF inn
Ġprior ities
Ġthere of
ĠSt age
ĠRog ers
Ġsubst itute
ĠJ ar
ĠJeff erson
Ġlight ly
10 2
ĠL isa
u its
ys ical
Ġshif ts
Ġd rones
Ġwork place
Ġres id
ens ed
ah n
Ġpref erences
ser ver
Ġdeb ates
d oc
ĠGod s
Ġhelicop ter
Ġhon our
Ġconsider ably
ed ed
ĠF emale
ĠAn ne
Ġre un
ĠF ace
ĠHall ow
ĠBud get
Ġcondem n
Ġt ender
Pro f
ocr atic
ĠTurn er
ĠAg ric
Ġ19 76
Ġa pt
d isc
ĠF ighter
ĠA ur
Ġgar bage
in put
ĠK arl
ĠOl iver
ĠL anguage
k n
N on
ĠCl ar
Ġtrad itions
Ġad vertisement
ĠS or
Ġarch ive
Ġvill ages
7 50
Ġimplement ing
w aukee
Ġdiet ary
Ġswitch ing
Rep ublic
Ġvel ocity
Ġc it
ĠA wards
Ġfin ancing
Ġlast ed
) ]
Ġrem inder
P erson
Ġprec ision
Ġdesign ers
ĠF ried
ĠB order
Ġtr agic
Ġw ield
Ġiniti atives
ĠT ank
w er
Ġjo ins
R o
in ery
Ġar row
Ġgener ating
found er
Ġsear ches
Ġrandom ly
A ccess
Ġb atch
Ġp osed
l at
Ġpursu ing
as a
Ġtest ified
form ing
ĠSh ar
w iki
ĠE ither
S ometimes
Ġsen ators
ĠJohn ny
ĠTal iban
ĠG PS
":" /
ãģ® å
Ġanaly zed
ĠRub io
ĠMove ment
op ard
ii i
St and
f ight
Ġign oring
i ang
ĠG N
so ever
ĠST AT
Ġref using
Ġswe at
Ġb ay
P ORT
ir med
ak y
Ġdis pro
Ġlabel ed
Ġ10 8
H ello
Ġple asant
ab a
Ġtri umph
Ġab oard
Ġinc om
ĠC row
le tt
Ġfol k
Ġch ase
` `
ĠBr us
Ġte ens
c ue
Ġter rain
h yd
il ight
OR Y
Su pport
ew s
ll i
rain ts
ĠC and
Ġab used
ach ment
l arg
B as
ĠC ancer
Ġ19 78
Ġsupp orter
ac cess
ĠTer min
ĠT ampa
ĠAN Y
Ġnew est
ĠCrim inal
ed u
Ġ19 30
Ġadm its
Ġend e
Ġfail ures
ur ate
ful ness
cy cl
ĠSub ject
Ġinf inite
th ree
W A
p it
ĠInst all
R ad
ili ation
G M
Ġcontin ent
Ġaccommod ate
ĠCl ay
Ġp up
ĠF unction
Ġham mer
ĠAlbert a
Ġrev ised
Ġminor ities
Ġmeasure ment
Con nell
Ġdis able
ĠM ix
In cre
Ġfor k
ĠR osen
Ġimpl ies
umb lr
AN G
Ġprote ins
Ġagg ression
Ġfacilit ate
S N
Ġilleg ally
u er
Ġacad em
Ġp uzz
ĠSh ift
p ay
oll o
Ġaud iences
B uild
Ġno ble
Ġsynt ax
â ĺħ
Ġbe am
ĠB ed
ĠA ld
Ġorig ins
v ideo
Ġ19 77
ĠAss ault
Ġgar age
Te am
Ġver dict
Ġd war
ĠVirt ual
e vent
Ke ep
Ġsent iment
Ġwild life
sh irt
Ġb urg
Ġrecommend ation
rep resent
Ġgall ery
own ers
Ġsch olar
Ġconven ience
ĠSw ift
Ġconv inc
C ap
Ġwar fare
ĠVis ual
Ġconst itute
Ġab ort
ĠWe ather
ĠLook ing
ĠH em
Ġmart ial
Ġinc oming
et ition
Ġtoler ance
ĠCre ated
Ġfl ows
ĠE lder
Ġsoul s
Ġf oul
ĠP ain
ĠC AN
Ġ2 20
b c
he nd
Ġgen ius
R eal
ĠW r
omet er
p ad
Ġlim iting
ĠS i
ĠL ore
ĠAd ventures
Ġvar ied
D isc
f in
ĠPerson al
Ch ris
Ġinv ented
Ġd ive
ĠR ise
Ġo z
ĠCom ics
Ġexp ose
ĠRe b
let ters
s ite
im ated
Ġh acking
Ġeduc ated
ĠNob ody
Ġdep ri
Ġincent ive
ãĤ ·
Ġovers ight
Ġtrib es
ĠBelg ium
Ġlicens ing
our t
Produ ct
ah l
ĠG em
Ġspecial ist
Ġc ra
ann ers
ĠCor byn
Ġ19 73
RE AD
Ġsum mar
Ġover look
ĠApp lication
Ġin appropriate
Ġdownload ed
Q ue
ĠB ears
Ġth umb
ĠChar acter
ĠReincarn ated
ĠS id
Ġdemonstr ates
s ky
ĠBloom berg
ĠAr ray
ĠRes ults
ĠFour th
ĠED T
ĠO scar
c end
Ġ10 6
ĠN ULL
ĠH ERE
m atch
ĠBr un
Ġgluc ose
ie g
eg u
Ġcert ified
Ġrel ie
Ġhuman itarian
Ġpr ayers
K ing
Ġn an
h ou
10 8
ul u
Ġrenew able
Ġdistingu ish
Ġd ense
ĠV ent
ĠPack age
ĠB oss
Ġedit ors
Ġm igr
T ra
ĠPet ers
ĠAr ctic
200 4
ĠC ape
Ġloc ally
Ġlast ing
Ġhand y
. ).
P an
ĠR ES
Ind ex
Ġt ensions
Ġformer ly
Ġide ological
Ġsens ors
Ġdeal ers
Ġdef ines
S k
Ġproceed s
Ġpro xy
az ines
ĠB ash
ĠP ad
ĠC raft
eal ous
Ġshe ets
omet ry
J une
cl ock
T T
ĠThe atre
ĠB uzz
Ġch apters
Ġmill enn
Ġd ough
ĠCongress ional
Ġimag ined
av ior
Ġclin ic
Ġ19 45
Ġhold er
ro ot
oles ter
Ġrest art
B N
ĠHam as
ĠJ ob
Ġor b
Ġr am
Ġdiscl ose
Ġtransl ate
Ġimm igrant
Ġannoy ing
Ġtreat y
an ium
ĠTe a
ĠLeg ion
Ġcrowd s
ĠB ec
ĠA er
oh yd
B ro
Look ing
Ġl bs
Ġagg ress
Ġse am
Ġinter cept
ĠM I
mer cial
act iv
ĠC it
Ġdim ension
Ġconsist ency
Ġr ushing
ĠDou glas
Ġtr im
Inst all
ick er
Ġsh y
10 6
Ġment ions
pe lled
ĠT ak
c ost
Ġclass room
Ġfort une
dri ven
Ġun le
ĠWhe el
Ġinvest or
ĠM asters
k it
Ġassoci ations
ĠEv olution
op ing
us cript
Ġprov incial
ĠWal ter
av i
S O
Ġun limited
Eng lish
ĠC ards
ĠEb ola
ne red
Ġreven ge
Ġout right
um per
Ġf itting
ĠSol id
Ġform ally
Ġproblem atic
Ġhaz ard
Ġenc ryption
Ġstraight forward
ĠA K
Ġp se
ĠOr b
ĠCh amber
ĠM ak
Cont ents
Ġloyal ty
Ġl yrics
ĠSy m
Ġwel comed
Ġcook ed
Ġmon op
Ġn urse
Ġmis leading
Ġe ternal
Ġshif ting
Ġ+ =
V is
Ġinst itutional
ill ary
Ġp ant
VER T
ĠA CC
ĠEn h
Ġinc on
ĠRE UTERS
Ġdon ated
âĢ¦âĢ¦ âĢ¦âĢ¦
In tern
Ġexhib it
Ġt ire
ĠR ic
ĠCh ampion
ĠMu hammad
N ING
ĠSoc cer
Ġmob ility
Ġvary ing
ĠM ovie
Ġl ord
o ak
F ield
Ġve ctor
us ions
Ġsc rap
Ġen abling
m ake
T or
. *
| |
ĠWe bsite
ĠN PC
Ġsocial ist
ĠBill y
ĠAdd itional
Ġc argo
Ġfar ms
ĠSo on
ĠPri ze
Ġmid night
Ġ9 00
se en
ĠSp ot
Ġshe ep
Ġspons ored
ĠH i
ĠJ ump
Ġ19 67
Micro soft
ĠAg ent
Ġch arts
d ir
Ġadj acent
Ġtr icks
Ġman ga
Ġex agger
/ >
foot ball
ĠF CC
G C
ĠT ier
and ra
OU ND
% ),
Ġfru its
V C
ĠA A
R ober
Ġmid st
â Ĺ
ank a
Ġlegisl ature
ĠNe il
Ġtour ists
" "
ĠWar ning
ĠNever theless
ĠOffic ial
ĠWh atever
Ġm old
Ġdraft ed
Ġsubst ances
Ġbre ed
Ġt ags
ĠT ask
Ġver b
Ġmanufact ured
com ments
ĠPol ish
Pro v
Ġdetermin es
Ob ama
k ers
Ġutter ly
Ġse ct
sc he
ĠG ates
ĠCh ap
Ġal uminum
Ġz ombie
ĠT ouch
ĠU P
Ġsatisf y
Ġpred omin
asc ript
Ġelabor ate
Ġ19 68
Ġmeas uring
ĠV ari
any ahu
Ġs ir
ul ates
id ges
ick ets
ĠSp encer
T M
oub ted
Ġpre y
Ġinstall ing
ĠC ab
re ed
re ated
Su pp
Ġwr ist
ĠK erry
10 7
ĠK le
ĠR achel
Ġc otton
ĠA RE
ĠE le
Cont rol
Ġload s
ĠD od
an as
b one
Ġclass ical
ĠReg ional
ĠInt eg
V M
Ġdes ires
Ġaut ism
support ed
ĠM essage
Ġcomp act
writ er
Ġ10 9
ĠHur ricane
c ision
Ġcy cles
Ġdr ill
Ġcolle ague
Ġm aker
G erman
Ġmist aken
S un
ĠG ay
Ġwhat soever
Ġsell s
ĠA irl
l iv
ĠO ption
Ġsol ved
Ġse ctors
Ġhorizont al
Ġequ ation
ĠSk ill
ĠB io
g ement
ĠSn ap
ĠLeg al
Ġtradem ark
Ġmake up
Ġassemb led
Ġsa ves
ĠHallow een
ĠVer mont
ĠFR OM
Ġfar ming
ĠP odcast
accept able
ĠHig her
Ġas leep
ull ivan
Ġrefere n
ĠLe v
Ġbul lets
ok o
H C
Ġst airs
Ġmain tains
ĠL ower
ĠV i
Ġmar ine
Ġac res
Ġcoordin ator
ĠJ oh
Ġcounterpart s
ĠBrother s
Ġind ict
b ra
Ġch unk
Ġc ents
H ome
ĠMon th
Ġaccording ly
if les
ĠGerm ans
ĠSy n
H ub
Ġey eb
âĶĢâĶĢ âĶĢâĶĢ
Ġr anges
ĠHoll and
ĠRob ot
f c
M ike
Ġpl asma
Ġsw ap
Ġath lete
ĠR ams
,' "
Ġinfect ions
Ġcor rid
Ġv ib
Ġpat ches
Ġtradition ally
Ġrevel ation
Ġswe ep
Ġgl ance
Ġin ex
200 3
ĠR aw
work ing
os ures
ĠD at
ĠLyn ch
Ġle verage
ĠRe id
Ġcorrel ation
ian ces
av ascript
Ġrep ository
ret ty
Ġ19 72
24 0
Ġo un
p ol
ĠRe ed
Ġtact ical
is ite
App le
ĠQu inn
Ġrap ed
ill o
Euro pe
Ġalgorith ms
ĠRod rig
i u
Ġill um
Ġf ame
Ġintrodu cing
Ġdel ays
ĠRaid ers
Ġwh istle
Ġnovel s
ĠRe ally
Ġder iv
Ġpublic ations
ĠNe ither
ĠCom merce
Ġa ston
l anguage
Not es
ĠR oth
ĠF ear
Ġm ate
Ġpar ade
ĠQ B
Ġman eu
ĠC incinnati
m itting
Ġwa ist
ĠR ew
Ġdisc ont
Ð °
Ġst aring
Ġal ias
Ġsec urities
Ġtoile t
ĠJ edi
Ġun law