
#version: 0.2
Ġ t
Ġ a
h e
i n
r e
o n
Ġt he
e r
Ġ s
a t
Ġ w
Ġ o
e n
Ġ c
i t
i s
a n
o r
e s
Ġ b
e d
Ġ f
in g
Ġ p
o u
Ġa n
a l
a r
Ġt o
Ġ m
Ġo f
Ġ in
Ġ d
Ġ h
Ġan d
i c
a s
l e
Ġt h
i on
o m
l l
en t
Ġ n
Ġ l
s t
Ġ re
v e
Ġ e
r o
l y
Ġb e
Ġ g
Ġ T
c t
Ġ S
i d
o t
Ġ I
u t
e t
Ġ A
Ġ is
Ġ on
i m
a m
o w
a y
a d
s e
Ġth at
Ġ C
i g
Ġf or
a c
Ġ y
v er
u r
Ġ u
l d
Ġs t
Ġ M
' s
Ġ he
Ġ it
at ion
it h
i r
c e
Ġy ou
i l
Ġ B
Ġw h
o l
Ġ P
Ġw ith
Ġ 1
t er
c h
Ġa s
Ġw e
Ġ (
n d
i ll
Ġ D
i f
Ġ 2
a g
er s
k e
Ġ "
Ġ H
e m
Ġc on
Ġ W
Ġ R
he r
Ġw as
Ġ r
o d
Ġ F
u l
at e
Ġa t
r i
p p
o re
ĠT he
Ġs e
u s
Ġp ro
Ġh a
u m
Ġa re
Ġd e
a in
an d
Ġo r
ig h
es t
is t
a b
r om
Ġ N
t h
Ġc om
Ġ G
u n
o p
0 0
Ġ L
Ġn ot
es s
Ġe x
Ġ v
re s
Ġ E
e w
it y
an t
Ġb y
e l
o s
or t
o c
q u
Ġf rom
Ġha ve
Ġs u
i ve
ou ld
Ġs h
Ġth is
n t
r a
p e
igh t
ar t
m ent
Ġa l
u st
en d
- -
al l
Ġ O
ac k
Ġc h
Ġ le
i es
re d
ar d
â Ģ
ou t
Ġ J
Ġa b
e ar
i v
al ly
ou r
o st
g h
p t
Ġp l
as t
Ġc an
a k
om e
u d
T he
Ġh is
Ġd o
Ġg o
Ġh as
g e
' t
Ġ U
r ou
Ġs a
Ġ j
Ġb ut
Ġw or
Ġa ll
e ct
Ġ k
am e
Ġw ill
o k
Ġw he
Ġthe y
id e
0 1
f f
ic h
p l
t her
Ġt r
. .
Ġin t
i e
u re
ag e
Ġn e
i al
a p
in e
ic e
Ġm e
Ġo ut
an s
on e
on g
ion s
Ġwh o
Ġ K
Ġu p
Ġthe ir
Ġa d
Ġ 3
Ġu s
at ed
ou s
Ġm ore
u e
o g
ĠS t
in d
i ke
Ġs o
im e
p er
. "
b er
i z
a ct
Ġon e
Ġsa id
Ġ -
a re
Ġyou r
c c
ĠT h
Ġc l
e p
a ke
ab le
i p
Ġcon t
Ġwh ich
i a
Ġ im
Ġab out
Ġwe re
ver y
u b
Ġh ad
Ġ en
Ġcom p
, "
ĠI n
Ġu n
Ġa g
i re
ac e
a u
ar y
Ġw ould
as s
r y
Ġ âĢ
c l
o ok
e re
s o
Ġ V
ig n
i b
Ġof f
Ġt e
v en
Ġ Y
i le
o se
it e
or m
Ġ2 01
Ġre s
Ġm an
Ġp er
Ġo ther
or d
ul t
Ġbe en
Ġl ike
as e
an ce
k s
ay s
ow n
en ce
Ġd is
ct ion
Ġan y
Ġa pp
Ġs p
in t
res s
ation s
a il
Ġ 4
ic al
Ġthe m
Ġhe r
ou nt
ĠC h
Ġa r
Ġ if
Ġthe re
Ġp e
Ġy ear
a v
Ġm y
Ġs ome
Ġwhe n
ou gh
ac h
Ġth an
r u
on d
ic k
Ġo ver
ve l
Ġ qu
Ċ Ċ
Ġs c
re at
re e
ĠI t
ou nd
p ort
Ġal so
Ġp art
f ter
Ġk n
Ġbe c
Ġt ime
en s
Ġ 5
op le
Ġwh at
Ġn o
d u
m er
an g
Ġn ew
-- --
Ġg et
or y
it ion
ing s
Ġj ust
Ġint o
Ġ 0
ent s
o ve
t e
Ġpe ople
Ġp re
Ġit s
Ġre c
Ġt w
i an
ir st
ar k
or s
Ġwor k
ad e
o b
Ġs he
Ġo ur
w n
in k
l ic
Ġ1 9
ĠH e
is h
nd er
au se
Ġh im
on s
Ġ [
Ġ ro
f orm
i ld
at es
ver s
Ġon ly
o ll
Ġs pe
c k
e ll
am p
Ġa cc
Ġb l
i ous
ur n
f t
o od
Ġh ow
he d
Ġ '
Ġa fter
a w
Ġat t
o v
n e
Ġpl ay
er v
ic t
Ġc ould
it t
Ġa m
Ġf irst
Ġ 6
Ġa ct
Ġ $
e c
h ing
u al
u ll
Ġcom m
o y
o ld
c es
at er
Ġf e
Ġbe t
w e
if f
Ġtw o
oc k
Ġb ack
) .
id ent
Ġu nder
rou gh
se l
x t
Ġm ay
rou nd
Ġp o
p h
is s
Ġd es
Ġm ost
Ġd id
Ġad d
j ect
Ġin c
f ore
Ġp ol
on t
Ġag ain
cl ud
ter n
Ġkn ow
Ġne ed
Ġcon s
Ġc o
Ġ .
Ġw ant
Ġse e
Ġ 7
n ing
i ew
ĠTh is
c ed
Ġe ven
Ġin d
t y
ĠW e
at h
Ġthe se
Ġp r
Ġu se
Ġbec ause
Ġf l
n g
Ġn ow
ĠâĢ ĵ
c om
is e
Ġm ake
Ġthe n
ow er
Ġe very
ĠU n
Ġse c
os s
u ch
Ġe m
Ġ =
ĠR e
i ed
r it
Ġin v
le ct
Ġsu pp
at ing
Ġl ook
m an
pe ct
Ġ 8
ro w
Ġb u
Ġwhe re
if ic
Ġyear s
i ly
Ġd iff
Ġsh ould
Ġre m
T h
I n
Ġe v
d ay
' re
ri b
Ġre l
s s
Ġde f
Ġr ight
Ġs y
) ,
l es
00 0
he n
Ġth rough
ĠT r
_ _
Ġw ay
Ġd on
Ġ ,
Ġ1 0
as ed
Ġas s
ub lic
Ġre g
ĠA nd
i x
Ġ very
Ġin clud
ot her
Ġim p
ot h
Ġsu b
ĠâĢ Ķ
Ġbe ing
ar g
ĠW h
= =
ib le
Ġdo es
an ge
r am
Ġ 9
er t
p s
it ed
ation al
Ġb r
Ġd own
Ġman y
ak ing
Ġc all
ur ing
it ies
Ġp h
ic s
al s
Ġde c
at ive
en er
Ġbe fore
il ity
Ġwe ll
Ġm uch
ers on
Ġth ose
Ġsu ch
Ġ ke
Ġ end
ĠB ut
as on
t ing
Ġl ong
e f
Ġth ink
y s
Ġbe l
Ġs m
it s
a x
Ġo wn
Ġpro v
Ġs et
if e
ment s
b le
w ard
Ġsh ow
Ġp res
m s
om et
Ġo b
Ġs ay
ĠS h
t s
f ul
Ġe ff
Ġg u
Ġin st
u nd
re n
c ess
Ġ ent
ĠY ou
Ġgo od
Ġst art
in ce
Ġm ade
t t
st em
ol og
u p
Ġ |
um p
Ġhe l
ver n
ul ar
u ally
Ġa c
Ġm on
Ġl ast
Ġ2 00
1 0
Ġst ud
u res
ĠA r
sel f
ar s
mer ic
u es
c y
Ġm in
oll ow
Ġc ol
i o
Ġm od
Ġc ount
ĠC om
he s
Ġf in
a ir
i er
âĢ Ķ
re ad
an k
at ch
e ver
Ġst r
Ġpo int
or k
ĠN ew
Ġs ur
o ol
al k
em ent
Ġus ed
ra ct
we en
Ġs ame
ou n
ĠA l
c i
Ġdiff ere
Ġwh ile
---- ----
Ġg ame
ce pt
Ġs im
.. .
Ġin ter
e k
Ġre port
Ġpro du
Ġst ill
l ed
a h
Ġhe re
Ġwor ld
Ġth ough
Ġn um
ar ch
im es
al e
ĠS e
ĠI f
/ /
ĠL e
Ġre t
Ġre f
Ġtr ans
n er
ut ion
ter s
Ġt ake
ĠC l
Ġcon f
w ay
a ve
Ġgo ing
Ġs l
u g
ĠA meric
Ġspe c
Ġh and
Ġbet ween
ist s
ĠD e
o ot
I t
Ġe ar
Ġagain st
Ġh igh
g an
a z
at her
Ġex p
Ġo p
Ġin s
Ġg r
Ġhel p
Ġre qu
et s
in s
ĠP ro
is m
Ġf ound
l and
at a
us s
am es
Ġp erson
Ġg reat
p r
Ġs ign
ĠA n
' ve
Ġs omet
Ġs er
h ip
Ġr un
Ġ :
Ġt er
ire ct
Ġf ollow
Ġd et
ic es
Ġf ind
1 2
Ġm em
Ġc r
e red
e x
Ġex t
ut h
en se
c o
Ġte am
v ing
ou se
as h
at t
v ed
Ġsy stem
ĠA s
d er
iv es
m in
Ġle ad
ĠB l
c ent
Ġa round
Ġgo vern
Ġc ur
vel op
an y
Ġc our
al th
ag es
iz e
Ġc ar
od e
Ġl aw
Ġre ad
' m
c on
Ġre al
Ġsupp ort
Ġ1 2
.. ..
Ġre ally
n ess
Ġf act
Ġd ay
Ġb oth
y ing
Ġs erv
ĠF or
Ġth ree
Ġw om
Ġm ed
od y
ĠThe y
5 0
Ġex per
t on
Ġe ach
ak es
Ġc he
Ġc re
in es
Ġre p
1 9
g g
ill ion
Ġg rou
ut e
i k
W e
g et
E R
Ġm et
Ġs ays
o x
Ġd uring
er n
iz ed
a red
Ġf am
ic ally
Ġha pp
ĠI s
Ġch ar
m ed
v ent
Ġg ener
i ent
p le
i et
re nt
1 1
v es
pt ion
Ġ2 0
form ation
Ġc or
Ġoff ic
ie ld
Ġto o
is ion
Ġin f
Ġ Z
t he
o ad
Ġp ublic
Ġpro g
r ic
* *
Ġw ar
Ġp ower
v iew
Ġf ew
Ġl oc
Ġdiffere nt
Ġst ate
Ġhe ad
' ll
Ġp oss
Ġst at
re t
ant s
Ġv al
Ġis s
Ġc le
i vers
an c
Ġex pl
Ġan other
Ġ Q
Ġa v
th ing
n ce
W h
Ġch ild
Ġs ince
i red
l ess
Ġl ife
Ġde velop
itt le
Ġde p
Ġp ass
ã ĥ
Ġt urn
or n
Th is
b ers
ro ss
ĠA d
Ġf r
Ġres p
Ġsec ond
o h
Ġ /
Ġdis c
Ġ &
Ġsomet hing
Ġcomp le
Ġ ed
Ġf il
Ġmon th
a j
u c
Ġgovern ment
Ġwith out
Ġle g
Ġd ist
Ġp ut
Ġqu est
an n
Ġpro t
2 0
Ġne ver
i ence
Ġle vel
Ġar t
Ġth ings
Ġm ight
Ġeff ect
Ġcont ro
Ġc ent
Ġ1 8
Ġall ow
Ġbel ie
ch ool
ot t
Ġinc re
Ġfe el
Ġres ult
Ġl ot
Ġf un
ot e
Ġt y
ere st
Ġcont in
Ġus ing
Ġb ig
2 01
Ġas k
Ġb est
Ġ )
I N
Ġo pp
3 0
Ġnum ber
in ess
S t
le ase
Ġc a
Ġm ust
Ġd irect
Ġg l
Ġ <
Ġop en
Ġp ost
Ġcom e
Ġse em
ord ing
Ġwe ek
ate ly
it al
Ġe l
ri end
Ġf ar
Ġt ra
in al
Ġp ri
ĠU S
Ġpl ace
Ġfor m
Ġto ld
" :
ain s
at ure
ĠTr ump
Ġst and
Ġ #
id er
ĠF r
Ġne xt
Ġs oc
Ġp ur
Ġle t
Ġl ittle
Ġh um
Ġ i
r on
1 5
Ġ1 5
Ġcomm un
Ġm ark
ĠThe re
Ġw r
ĠTh at
Ġin formation
w ays
Ġb us
a pp
Ġinv est
m e
Ġh ard
ain ed
e ad
Ġim port
Ġapp ro
Ġt est
Ġt ri
Ġre st
os ed
Ġf ull
Ġc are
ĠS p
Ġc ase
O N
Ġs k
Ġl ess
Ġ +
Ġpart ic
ĠP l
ab ly
u ck
is hed
ch n
b e
Ġl ist
at or
Ġto p
Ġad v
ĠB e
ru ct
Ġd em
r ation
l ing
g y
re en
g er
Ġh ome
Ġle ft
Ġbet ter
Ġd ata
Ġ1 1
Ġatt ack
Ġpro ble
l ine
ard s
Ġbe h
r al
ĠH ow
ĠS he
ar ge
Ġ --
: //
Ġb ro
ĠP h
at s
Ġbu ild
w w
id ed
a im
as es
en cy
Ġm ain
in ed
Ġinclud ing
Ġ {
Ġg ot
Ġint erest
Ġke ep
Ġ X
Ġe as
ain ing
Ġcl ass
âĢ ¦
ĠN o
Ġv ar
Ġsm all
amp le
A T
Ġ ide
ĠS o
Ġre ce
Ġpol it
Ġm ov
Ġpl an
Ġper cent
iv ing
Ġc amp
Ġp ay
1 4
s c
is ed
Ġu nt
one y
pl oy
== ==
Ġdid n
ĠI nd
el s
ert ain
Ġp os
__ __
i ver
Ġpro cess
Ġprog ram
if ied
ĠR ep
1 6
u ro
olog y
at ter
in a
Ġn ame
ĠA ll
Ġf our
Ġret urn
v ious
b s
Ġcall ed
Ġm ove
ĠS c
ir d
Ġgrou p
Ġb re
Ġm en
Ġc ap
t en
e e
Ġd ri
le g
he re
uth or
Ġp at
Ġcur rent
id es
Ġp op
t o
ent ion
Ġal ways
Ġm il
Ġwom en
Ġ1 6
Ġo ld
iv en
ra ph
ĠO r
r or
ent ly
Ġn ear
ĠE x
re am
s h
Ġ1 4
Ġf ree
iss ion
st and
ĠC on
al ity
us ed
1 3
Ġdes ign
Ġch ange
Ġch ang
Ġb o
Ġv is
em ber
Ġb ook
read y
Ġk ill
2 5
pp ed
Ġa way
Ġab le
Ġcount ry
Ġcon st
ar n
Ġor der
A R
i or
i um
or th
1 8
ail able
Ġs w
Ġm illion
Ġ1 3
at ic
t ed
ĠG o
Ġo per
en g
Ġth ing
aj or
con om
ĠCom m
Ġwh y
u red
ur al
Ġs chool
b y
ĠM ar
Ġa ff
Ġd ays
Ġan n
us h
an e
I f
e g
Ġpro f
Ġhe alth
ou th
B ut
ion al
. ,
Ġs ol
Ġal ready
Ġ3 0
Ġchar act
H e
Ġf riend
E S
i ans
ic le
' d
ĠO n
Ġle ast
Ġp rom
Ġd r
Ġh ist
it her
Ġ est
i qu
1 7
s on
Ġte ll
Ġt alk
oh n
o int
le ction
A N
Ġunt il
au gh
Ġl ater
Ġ ve
Ġv iew
end ing
iv ed
Ġwor d
w are
Ġc ost
Ġen ough
Ġg ive
ĠUn ited
Ġte chn
are nt
O R
Ġp ar
ĠD r
Ġ201 6
r ist
er ing
Ġ Â
Ġl arge
s ide
ac y
cc ess
Ġw in
Ġimport ant
Ġ19 9
Ġdoes n
Ġ1 7
Ġbus iness
Ġcle ar
Ġre se
" ,
ur y
Ġe qu
as ter
al f
ĠAmeric an
n ect
Ġex pect
ivers ity
Ġo cc
ĠF l
Ġk ind
Ġme an
Ġp ast
Ġde v
Ġb as
le t
ra ft
Ġor gan
Ġde l
Ġper form
Ġst ory
Ġse ason
ĠC ol
Ġcl aim
Ġc ame
Ġwith in
Ġl ine
Ġpro ject
ĠA t
Ġcontro l
end ed
ĠS y
Ġa ir
iz ation
Ġ *
le y
Ġm oney
id d
Y ou
f or
Ġfam ily
Ġm aking
Ġb it
Ġpol ice
Ġhapp en
Ġ vers
on y
u ff
ĠW hen
Ġs it
ide o
l f
is on
Ġsu re
g in
Ġapp ear
Ġl ight
Ġ es
o f
Ġw ater
Ġt imes
n ot
Ġg row
Ġcomp any
ĠT e
ow s
Ġm ar
our ce
i ol
ar m
b r
Ġex ample
Ġcon c
Ġf ore
ĠT o
p ro
E N
ri es
Ġ2 5
ĠC an
ne y
Ġact ually
Ġe ver
ur ity
ak en
ap s
Ġt ax
Ġm ajor
am a
Ġof ten
er al
Ġhum an
Ġj ob
is ter
Ġav ailable
oc r
en n
a id
iv id
Ġrec ord
? "
Ġs ing
ĠA m
id ence
Ġnew s
st er
Ġe conom
Ġfollow ing
ĠB r
is ing
Ġh our
m ost
um ent
Ġse x
Ġdes c
Ġbec ome
ĠE d
Ġto ok
Ġha ving
Ġprodu ct
a ult
A s
ar ing
Ġme ans
Ġh op
un e
Ġch o
Ġc ertain
Ġn on
Ġde al
2 4
le ment
oc i
en e
Ġs ide
ĠP r
ĠM ay
Ġre ason
u ed
c hed
ul ation
Ġe lect
Ġoffic ial
Ġposs ible
Ġh old
and s
ot s
Ġc ity
or ies
Ġse ver
Ġchild ren
Ġon ce
Ġact iv
l er
Ġn ight
it ions
ĠJ ohn
a pe
pl ay
Ġd one
Ġl im
Ġwork ing
ĠP res
or ld
e b
ĠC o
Ġb ody
ail s
ut es
ĠM r
Ġwhe ther
Ġa uthor
ro p
Ġpro per
Ġse en
) ;
Ġf ac
ĠS u
Ġcon d
it ing
Ġcour se
Ġ }
-------- --------
a ign
Ġev ent
Ġen g
Ġp ot
Ġin tern
i am
Ġsh ort
em pt
ã Ĥ
ĠG od
il ar
8 0
Ġor ig
I S
our n
ab ility
it ive
Ġd am
Ġ1 00
Ġp ress
Ġdo ing
Ġprot ect
r ing
Ġthough t
Ġquest ion
re w
ĠW ar
Ġsever al
ĠSt ate
Ġg iven
Ġf und
ĠT w
Ġw ent
an ces
w ork
p or
m y
4 0
Ġar g
art ment
ust om
Ġpol ic
Ġme et
Ġc reat
2 2
ĠSt ates
Ġg ames
ra w
ut ure
Ġunder stand
ur s
ĠO b
l ish
s y
Ġm akes
Ġw on
ag on
Ġh tt
Ġl ove
ent ial
Ġcomple te
p ar
ĠI m
A L
Ġacc ount
Â ł
ore d
ver t
Ġ ident
Ġ201 5
Ġother s
ĠM in
i ber
ver age
The re
ition al
d d
Ġpro b
Ġyou ng
Ġal ong
Ġacc ording
Ġy et
Ġmem bers
ĠWh at
o id
ĠM an
A nd
Ġam ong
a i
Ġem ploy
ĠR es
Ġ >
Ġinv ol
Ġl ow
a f
ĠC ar
Ġh ig
ĠO ne
ĠS ec
in ation
Ġlike ly
Ġan t
ag ed
ĠR uss
Ġb en
Ġre le
F or
b ack
ĠN ot
Ġpres ident
b all
Ġacc ess
ivid ual
ĠD em
ĠE uro
6 0
Ġkn own
ir l
ĠG r
Ġear ly
u se
iet y
âĢ ĵ
Ġf ight
Ġs ent
Ġto day
Ġmark et
" .
Ġb ased
Ġstr ong
ur ther
Ġde b
m ber
Ġproble m
Ġde ath
Ġsoc ial
im ate
A S
ort un
Ġcamp aign
er y
C h
Ġe y
i ally
Ġm us
w h
p os
Ġ er
Ġsa f
Ġmonth s
ir on
Ġv iol
Ġf ive
Ġst re
Ġplay ers
in c
al d
y ear
a un
Ġsu ccess
Ġpres ent
ere nce
Ġ201 4
Ġsu gg
Ġpartic ular
Ġtr y
Ġsugg est
ĠCh rist
on es
Ġpri v
2 3
Ġc rit
Ġl and
Ġloc al
if y
2 9
Ġa ut
E D
ĠG u
Ġm ult
Ġpolit ical
Ġask ed
Ġfor mer
it ter
ri pt
Ġcl ose
Ġp ract
ĠY ork
Ġget ting
Ġac ross
Ġcom b
Ġbelie ve
Ġ z
Ġto get
Ġtoget her
ĠC ent
ir c
Ġind ividual
ĠM c
2 7
is k
ĠE ng
Ġf ace
Ġ2 4
Ġval ue
Ġare a
e v
Ġw rit
ĠPres ident
Ġv ot
Ġke y
Ġm om
p ut
Ġany thing
Ġexper ience
att le
Ġm ind
a ff
om m
Ġf uture
g ed
Ġc ut
Ġto t
it ch
Ġv ideo
Ġinvest ig
Ġn et
ĠM y
r ict
i en
. )
Ġimp ro
th ough
ward s
Ġcon nect
ĠM ed
sel ves
ens ive
m b
o ber
at ors
A n
Ġ5 0
Ġre du
res ent
Ġab ove
Ġf re
ĠEuro pe
s w
Ġam ount
ĠA pp
Ġe ither
Ġmil it
Ġan al
Ġf ail
ĠE n
al es
Ġspec ial
Ġbl ack
I T
c her
Ġlook ing
Ġf ire
y n
Ġal most
o on
Ġstud y
Ġm iss
c hes
ro wn
Ġt re
Ġcommun ity
Ġmed ia
Ġf ood
Ġcom es
ĠUn iversity
Ġsing le
Wh at
u ly
Ġh alf
ag ue
h od
ĠRep ublic
Ġstart ed
Ġqu ick
ot o
b ook
Ġiss ue
it or
Ġel se
Ġcons ider
2 6
ro du
Ġt aken
2 8
9 9
ĠW ith
Ġtr ue
Ġw a
Ġtr ad
Ġag o
Ġm ess
ie f
Ġadd ed
o ke
Ġb ad
Ġf av
3 3
Ġsim ilar
as k
ĠD on
Ġcharact er
ort s
ĠH ouse
Ġreport ed
Ġty pe
v al
i od
ĠHow ever
Ġt arg
Ġent ire
pp ing
Ġhist ory
Ġl ive
ff ic
.... ....
ed eral
Ġtr ying
Ġdisc uss
ĠH ar
ac es
l ished
Ġse lf
os p
re st
Ġro om
el t
Ġf all
ol ution
Ġe t
Ġ x
Ġis n
Ġide a
b o
Ġs ound
ĠD ep
Ġsome one
ci ally
ull y
Ġf oc
Ġob ject
if t
ap er
Ġplay er
Ġr ather
Ġserv ice
as hing
ĠD o
ĠP art
ru g
m on
p ly
Ġm or
Ġnot hing
Ġprov ide
I C
un g
Ġpart y
Ġex ist
Ġm ag
7 0
Ġr ul
Ġh ouse
Ġbeh ind
Ġhow ever
ĠW orld
Ġs um
Ġapp lic
Ġ ;
Ġfun ction
g r
ĠP ol
Ġfr ont
2 00
Ġser ies
Ġt em
Ġty p
ill s
Ġo pt
Ġpoint s
Ġbel ow
itt ed
Ġspec ific
Ġ201 7
um b
Ġr a
Ġpre vious
Ġpre t
re me
Ġc ustom
Ġcour t
ĠM e
Ġre pl
Ġwho le
g o
c er
Ġt reat
ĠA ct
Ġprob ably
Ġle arn
end er
ĠA ss
Ġvers ion
n ow
Ġche ck
ĠC al
R E
min ist
O n
our ces
Ġben ef
Ġd oc
Ġdet er
Ġen c
Ġsu per
Ġadd ress
Ġv ict
Ġ201 3
Ġme as
t r
Ġf ield
W hen
Ġsign ific
u ge
Ġfe at
Ġcomm on
l oad
Ġbe gin
Ġbr ing
Ġa ction
er man
Ġdesc rib
Ġind ust
Ġwant ed
ri ed
m ing
Ġatt empt
4 5
f er
Ġd ue
ress ion
# #
Ġsh all
Ġs ix
o o
Ġst ep
Ġp ub
Ġhim self
Ġ2 3
Ġc op
Ġd est
Ġst op
A C
ib ility
Ġl ab
ic ult
Ġhour s
Ġcre ate
Ġf urther
ĠAmeric a
ĠC ity
Ġd ou
he ad
S T
ĠN orth
c ing
Ġn ational
u le
ĠIn st
Ġt aking
ĠQ u
ir t
Ġre d
Ġrese arch
v iron
ĠG e
Ġbre ak
an a
Ġsp ace
ater ial
Ġrec ent
ĠA b
Ġgener al
Ġh it
Ġper iod
Ġevery thing
ive ly
Ġph ys
Ġsay ing
an ks
Ġc ou
Ġc ult
ac ed
e al
u ation
Ġc oun
l u
Ġinclud e
Ġpos ition
ĠA fter
ĠCan ad
ĠE m
Ġim m
ĠR ed
Ġp ick
Ġcom pl
Ġm atter
re g
e xt
ang u
is c
o le
a ut
Ġcomp et
e ed
f ect
Ġ2 1
ĠS en
ĠThe se
as ing
Ġcan not
Ġin it
Ġrel ations
ac hed
Ġb ar
Ġ4 0
ĠT H
Ġ201 2
Ġv ol
Ġg round
Ġsec urity
Ġup d
il t
3 5
Ġconc ern
ĠJ ust
Ġwh ite
Ġseem s
ĠH er
pe cially
i ents
Ġann oun
Ġf ig
ight s
Ġst ri
l ike
id s
Ġs us
Ġw atch
Ġ â
Ġw ind
ĠC ont
Ġit self
Ġm ass
A l
y le
iqu e
ĠN ational
Ġab s
Ġp ack
Ġout side
Ġan im
Ġp ain
et er
Ġman ag
du ct
og n
Ġ ]
ĠSe pt
se c
o ff
ĠJ an
Ġf oot
ad es
Ġth ird
Ġm ot
Ġev idence
int on
Ġth reat
a pt
pl es
c le
Ġl o
Ġde cl
Ġit em
med i
Ġrep resent
om b
am er
Ġsignific ant
og raph
s u
Ġc al
i res
00 00
I D
A M
Ġsim ply
Ġlong er
Ġf ile
O T
c he
S o
ate g
or g
ĠH is
Ġen er
Ġd om
Ġup on
il i
": "
Ġthem selves
Ġcom ing
Ġqu ite
Ġdiff icult
ĠB ar
il ities
re l
end s
c ial
6 4
Ġwom an
ra p
y r
Ġne cess
ip s
Ġte xt
Ġrequ ire
Ġmilit ary
Ġre view
Ġresp ons
7 5
Ġsub ject
Ġinst ead
Ġiss ues
Ġg en
" ,"
Ġmin utes
Ġwe ap
r ay
am ed
t ime
b l
H ow
Ġc ode
ĠS m
Ġhig her
ĠSt e
r is
Ġp age
Ġstud ents
ĠIn tern
Ġmet hod
ĠA ug
ĠP er
ĠA g
Ġpolic y
ĠS w
Ġex ec
Ġac cept
um e
rib ut
Ġword s
Ġfin al
Ġchang es
ĠDem ocr
Ġfriend s
Ġres pect
Ġe p
Ġcomp an
iv il
Ġdam age
** **
og le
viron ment
Ġne g
ent al
Ġa p
Ġtot al
iv al
! "
l im
Ġneed s
Ġag re
Ġdevelop ment
Ġa ge
ip le
2 1
Ġresult s
ĠA f
S h
Ġg un
ĠOb ama
ro ll
Ġ @
Ġright s
ĠB rit
Ġrun ning
Ġwas n
Ġp ort
Ġr ate
Ġpret ty
Ġtarg et
Ġsa w
Ġc irc
Ġwor ks
ic ro
al t
o ver
ww w
Th at
l ier
Ġevery one
ud e
Ġp ie
idd le
ra el
Ġr ad
Ġbl ock
Ġw alk
T o
ã ģ
n es
ĠA ust
a ul
ro te
ĠS outh
ess ion
op h
Ġshow s
Ġs ite
Ġj o
Ġr isk
cl us
l t
Ġin j
id ing
ĠS pe
Ġch all
ir m
Ġ2 2
itt ing
st r
Ġh y
L E
ke y
Ġbe gan
at ur
ashing ton
l am
ĠD av
b it
Ġs ize
ĠP ar
3 8
ourn al
f ace
Ġdec ision
Ġl arg
Ġj ud
re ct
Ġcontin ue
ĠO ct
ove red
ĠI nt
==== ====
Ġp arent
ĠW ill
Ġeas y
Ġd rug
ang er
Ġs ense
Ġd i
id ay
Ġener gy
ist ic
Ġass oci
ar ter
ob al
e ks
ĠE l
ur ch
Ġg irl
o e
it le
Ġ2 8
ĠC he
Ġrequ est
Ġso on
Ġh ost
k y
Ġst ates
om es
Ġm aterial
le x
Ġmom ent
Ġan sw
on se
Ġes pecially
Ġn orm
Ġserv ices
p ite
r an
Ġro le
4 4
) :
Ġc red
C l
____ ____
Ġm at
Ġl og
ĠCl inton
O U
Ġoff ice
Ġ2 6
Ġch arg
Ġtr ack
m a
Ġhe art
Ġb all
Ġperson al
Ġbuild ing
n a
s et
b ody
ĠBl ack
Ġincre ase
itt en
Ġneed ed
3 6
3 2
= "
Ġl ost
Ġbec ame
Ġgrou ps
ĠM us
Ġw rote
ĠP e
Ġpro p
j oy
Ã ©
ĠWh ite
Ġde ad
. '
Ġhtt p
Ġwe bs
O S
Ġins ide
Ġwr ong
Ġstat ement
Ġ ...
y l
Ġfil m
Ġmus ic
Ġsh are
ific ation
Ġre lease
Ġfor ward
Ġst ay
Ġcomp ut
it te
s er
Ġorig inal
Ġc ard
Ġc and
Ġd iv
at ural
Ġfav or
O M
Ġc ases
us es
Ġse ction
Ġle ave
g ing
ov ed
ĠW ashington
3 9
ĠG l
Ġrequ ired
act ion
ap an
o or
it er
ĠK ing
Ġcount ries
ĠG erman
ll ing
Ġ2 7
3 4
Ġquest ions
Ġpr im
Ġc ell
Ġsh oot
Ġany one
ĠW est
Ġaff ect
ep end
Ġon line
ĠIs rael
ĠSept ember
Ġab ility
Ġcont ent
is es
Ġre ve
Ġl aun
Ġind ic
Ġfor ce
c ast
Ġso ld
av ing
f l
Ġso ft
Ġcompan ies
ce ed
Ġart icle
Ġa ud
Ġre v
Ġed uc
Ġplay ing
0 5
Ġhe ld
ct or
Ġrele ased
Ġf ederal
3 7
Ġad minist
Ġinter view
Ġinst all
Ġrece ived
Ġs ource
u k
P h
Ġser ious
Ġcre ated
Ġc ause
Ġim medi
Ġdef in
u el
ĠDep artment
ct ions
ĠC our
ĠN ow
z e
it es
it ution
Ġl ate
Ġspe ak
n ers
Ġleg al
ar i
ĠC or
Ġwe eks
Ġmod el
Ġp red
Ġex act
B C
ĠB y
IN G
os ing
Ġt akes
Ġreg ard
Ġopp ortun
Ġpr ice
Ġ19 8
ĠA pr
f ully
Ġor d
Ġproble ms
ru ction
h am
ĠC ount
le ge
Ġlead ers
E T
le v
Ġde ep
olog ical
es e
h aps
ĠS ome
Ġp ers
Ġcont ract
Ġrelations hip
s p
ou d
Ġb ase
4 8
m it
A d
anc ial
Ġcons um
Ġpot ential
Ġl angu
re m
et h
Ġrel ig
ress ed
6 6
Ġl ink
Ġl ower
ay er
ĠJ une
Ġf em
un t
er c
ur d
Ġcont act
Ġ ill
Ġm other
Ġest ab
h tt
ĠM arch
ĠB ro
ĠCh ina
Ġ2 9
Ġs qu
Ġprov ided
Ġa verage
as ons
Ġ201 1
Ġex am
l in
5 5
n ed
Ġper fect
Ġt ou
al se
u x
Ġbu y
Ġsh ot
Ġcol lect
Ġph ot
Ġplay ed
Ġsur pr
Ġofficial s
Ġsim ple
av y
Ġindust ry
Ġhand s
g round
Ġp ull
Ġr ound
Ġus er
Ġr ange
u ary
Ġpriv ate
op s
e es
Ġw ays
ĠM ich
Ġve h
Ġex cept
Ġter ms
im um
pp er
I ON
ore s
ĠDr agon
ou l
Ġd en
Ġperform ance
Ġb ill
c il
4 7
Ġen vironment
Ġex c
ad d
Ġwor th
Ġp ict
Ġch ance
Ġ201 8
b or
Ġspe ed
ict ion
Ġal leg
ĠJ apan
at ory
re et
Ġm atch
ĠI I
Ġst ru
ord er
Ġst e
Ġl iving
Ġst ruct
in o
Ġse par
her n
Ġresp onse
Ġen joy
Ġv ia
A D
um ents
ace book
Ġmem ber
ib r
iz ing
Ġto ol
ĠM on
ĠWh ile
h ood
ĠA ng
ĠD ef
Ġoff er
T r
a ur
Ġturn ed
ĠJ uly
d own
an ced
Ġrec ently
ĠE ar
Ġc e
ĠSt ar
ĠC ong
rough t
Ġbl ood
Ġhop e
Ġcom ment
ain t
Ġar ri
il es
Ġpartic ip
ough t
ri ption
0 8
4 9
Ġg ave
Ġse lect
Ġkill ed
sy ch
Ġgo es
i j
Ġc oll
Ġimp act
at ives
ĠS er
0 9
ĠAug ust
Ġb oy
d e
ĠD es
Ġf elt
U S
Ġexpect ed
Ġim age
ĠM ark
cc ording
o ice
E C
ĠM ag
en ed
h old
ĠP ost
Ġpre vent
N o
Ġinvol ved
Ġey es
Ġquick ly
A t
un k
Ġbeh av
Ġ ur
Ġl ed
c ome
e y
Ġcand id
Ġear lier
Ġfoc us
et y
P ro
led ge
ix ed
ill ed
Ġpop ular
A P
Ġset t
l ight
Ġvar ious
in ks
Ġlevel s
Ġro ad
ell ig
ab les
he l
itte e
ĠG ener
y pe
Ġhe ard
ic les
Ġm is
Ġus ers
ĠS an
Ġimpro ve
Ġf ather
Ġse arch
The y
v il
Ġprof ess
Ġkn ew
Ġl oss
Ġev ents
6 5
Ġb illion
0 7
0 2
ĠNew s
ĠA M
Ġco ver
w here
ens ion
Ġb ott
Ġare as
en ces
op e
ĠTw itter
a el
Ġget s
ĠGo ogle
Ġs n
i ant
Ġv ote
Ġnear ly
Ġinclud ed
Ġrec ogn
z z
m m
al ed
Ġhappen ed
0 4
Ġh ot
Ġwho se
Ġc ivil
Ġsu ff
o es
it iz
ĠSy ri
Ġresp ond
Ġh on
Ġfeat ures
Ġeconom ic
ĠApr il
r im
Ġtechn ology
Ġo ption
ag ing
Ġpur ch
R e
Ġl at
ch ie
is l
Ġrec omm
u f
Ġtr aining
Ġeffect s
Ġf ast
Ġ201 0
Ġocc ur
Ġwebs ite
Ġem ail
Ġs ens
e ch
Ġo il
Ġinf lu
Ġcurrent ly
ĠS ch
ĠAd d
Ġgo al
Ġsc ient
Ġcon v
1 00
em y
Ġdec ided
Ġtra vel
Ġm ention
L L
0 3
Ġe lection
Ġph one
Ġlook s
Ġsit uation
Ġc y
Ġh or
b ed
ĠCour t
a ily
av es
Ġqu ality
ĠCom p
w ise
Ġt able
Ġst aff
ĠW ind
et t
Ġtri ed
ide red
Ġadd ition
Ġb ox
Ġl ack
ar ily
Ġw ide
Ġm id
Ġbo ard
ys is
Ġant i
h a
Ġd ig
en ing
Ġd ro
C on
6 8
Ġsl ow
b ased
se qu
Ġp ath
E x
ak er
Ġwork ed
Ġp en
Ġeng ine
Ġlook ed
ĠSu per
ĠS erv
Ġvict im
U n
Ġproper ty
Ġint rodu
Ġexec ut
ĠP M
L e
Ġcol or
ĠM ore
Ġ6 0
Ġnet work
Ġd ate
c ul
id ge
Ġext ra
3 1
Ġs le
6 7
Ġw ond
Ġreport s
j ust
ĠAust ral
Ġcap ital
Ġen s
Ġcomm and
Ġallow ed
Ġpre p
Ġca pt
h ib
Ġnum bers
ch an
Ġf air
m p
om s
Ġre ach
W ith
t ain
Ġbro ad
Ġcou ple
ec ause
ly ing
ĠF eb
Ġsc reen
Ġl ives
Ġpri or
ĠCong ress
A r
Ġappro ach
Ġe mer
ar ies
ĠD is
s erv
ĠN e
Ġbu ilt
c ies
Ġre pe
Ġrul es
for ce
ĠP al
Ġfin ancial
Ġcons idered
ĠCh ar
n ces
ĠI S
Ġb rought
Ġb i
i ers
ĠS im
O P
Ġproduct s
Ġvis it
Ġdoc ument
Ġcon duct
Ġcomplete ly
in ing
ĠCal if
ib ly
Ġwr itten
ĠT V
em ents
Ġd raw
O ne
Ġpub lished
Ġsec ret
r ain
he t
ĠF acebook
ond ay
ĠU p
Ġsex ual
Ġth ous
ĠP at
Ġ ess
Ġstand ard
Ġar m
g es
ect ion
Ġf ell
Ġfore ign
an i
ĠFr iday
Ġreg ular
in ary
Ġincre ased
Ġus ually
Ġdem on
Ġd ark
Ġadd itional
ro l
ĠO f
Ġprodu ction
! !
und red
Ġintern ational
id ents
ĠF ree
rou p
Ġr ace
Ġm ach
Ġh uge
A ll
le ar
ove mber
Ġto wn
Ġatt ention
ĠO ff
y ond
ĠThe n
f ield
Ġter ror
ra z
ĠB o
Ġmeet ing
ĠP ark
Ġar rest
Ġf ear
Ġa w
ĠV al
or ing
' ,
Ġext reme
ar r
Ġwork ers
A fter
Ġ3 1
n et
am ent
Ġdirect ly
Ġpop ulation
ub e
ĠOct ober
ĠI N
ĠJan uary
5 9
ĠDav id
Ġc ross
ce mber
ĠF irst
Ġmess age
ir it
Ġn ation
Ġp oll
is ions
Ġansw er
n y
is ode
Ġcar ry
ĠRuss ia
Ġhe ar
eng th
ro y
Ġn atural
in ally
Ġdo g
m itted
Ġtr ade
Ġsub st
Ġmult iple
ĠAf ric
Ġf ans
Ġs ort
Ġgl obal
ic ation
ĠW ed
ar a
Ġa chie
Ġlangu age
ve y
Ġt al
Ġnecess ary
Ġdet ails
Ġs en
ĠS und
ĠRe g
ĠR ec
0 6
Ġs il
ress ive
Ġmed ical
un ch
orn ia
Ġu nd
f ort
oc ks
ĠM onday
ues day
c raft
7 7
ur t
Ġ ver
ĠH ill
Ġrece ive
Ġmor ning
es tern
Ġb ank
Ġs at
ir th
ĠH igh
Ġdev ice
ĠTH E
ĠCent er
Ġsaf e
Ġp le
ĠCanad a
Ġsystem s
Ġass ist
Ġsur v
Ġb attle
ĠS oc
vert is
S he
Ġp aper
Ġgrow th
Ġc ast
S c
Ġpl ans
ll ed
Ġpart s
Ġw all
Ġmove ment
Ġpract ice
im ately
Ġdis play
Ġsomet imes
om p
ĠP aul
ĠY es
k ing
5 8
o ly
Ġs on
Ġav oid
ok es
ĠJ ew
Ġto wards
as c
Ġ //
ĠK ore
Ġtalk ing
Ġcor rect
Ġsp ent
ic ks
i able
e ared
Ġter m
Ġwant s
om ing
Ġ ut
Ġdou b
Ġfor ces
Ġp lease
6 9
ĠN ovember
at form
ond on
Ġon es
Ġimmedi ately
ĠRuss ian
ĠM et
Ġde g
Ġparent s
C H
ĠAmeric ans
al y
ĠM od
Ġsh own
Ġcond itions
Ġst uff
Ġre b
ĠY our
Ġinclud es
n own
ĠS am
Ġexper ien
m ission
ĠE ven
augh t
Ġannoun ced
ĠRepublic an
Ġdeter min
Ġdescrib ed
ĠCount y
( )
Ġdo or
Ġchang ed
Ġne igh
ĠH ere
Ġcle an
Ġp an
ĠDe cember
ĠEurope an
ir ing
ap ter
Ġcl ub
ĠT uesday
Ġp aid
ĠN et
Ġattack s
Ġcharact ers
Ġal one
Ġdirect or
d om
Ġ3 5
Ġl oad
Ġr out
ĠCalif ornia
Ġfin ally
Ġr ac
Ġcont r
Ġexact ly
res h
p ri
ĠIs lam
Ġn ature
Ġcare er
Ġlat est
Ġcon vers
ĠS l
p ose
ci ent
ĠIn c
iv ity
8 8
ĠA tt
ĠM or
nes day
Ġwe ight
k en
Ġnot e
Ġteam s
Ġ \
air s
ĠG reen
Ġh undred
on ent
Ġstre ng
Ġcons ist
ic ated
Ġreg ul
Ġl ic
ast ic
Ġt en
urs day
ellig ence
ous ly
ĠU K
B I
Ġcost s
Ġind epend
ĠA P
Ġnorm al
Ġh om
Ġob vious
Ġs we
Ġst ar
Ġread y
ac her
Ġimp lement
g est
Ġs ong
ĠG et
ĠL ab
Ġinterest ing
us ing
Ġg iving
ĠSund ay
Ġet c
Ġm iddle
Ġrem ember
r ight
os ition
ut ions
Ġm ax
4 6
Ġyour self
Ġdem and
Ġtreat ment
Ġd anger
ĠC ons
Ġgu y
ĠBrit ish
Ġphys ical
Ġrel ated
Ġrem ain
Ġcould n
Ġref er
Ġc itiz
b ox
EN T
bo ard
Ġin n
I G
er o
ĠSt reet
osp ital
ren ch
cher s
Ġst ra
O L
ag er
ĠA N
Ġeas ily
I A
en ge
in y
Ġcl os
ock ed
Ġus es
ĠC oun
I m
u ild
? ?
m ore
Ġan g
Ġwr ite
ol ute
5 7
Ġlead er
Ġread ing
< /
Ġaut om
est s
4 3
Ġleg isl
ĠG old
Ġdesign ed
ĠS T
ĠLe g
a res
Ġbe aut
ĠT ex
Ġappear s
Ġstru gg
ĠR om
Ġ 00
Ġcho ice
Ġparticular ly
ĠF rom
op er
ĠL ondon
ann ed
Ġallow s
ob ile
Ġdiffere nce
âĢ ¢
ĠV iew
ĠWed nesday
Ġal though
Ġrel ative
Ġapplic ation
ate ver
Ġare n
Ġmy self
Ġim ag
Ġdis e
Ġsoc iety
Ġfre qu
ĠEng lish
Ġpo or
ĠD ay
Ġwrit ing
Ġse ven
Ġstart ing
Ġb ud
Ġpr int
ĠTr ans
uf act
ĠSt ud
n ew
Ġcr im
Ġg ives
Ġco ol
a e
i ance
ĠGener al
Ġthink ing
Ġsa ve
Ġlim ited
ĠPart y
Ġmean ing
p en
ow ers
ĠJ ack
E M
Ġn ice
ru pt
Ġg as
Ġe ight
Ġfe et
Ġeff ort
Ġ ign
ic it
B l
co in
Ġop in
Ġbr ain
Wh ile
he st
ĠTh ursday
Ġwould n
augh ter
Ġtou ch
le ments
Ġstud ies
Ġcent er
c ont
or ge
Ġcomput er
Ġinvestig ation
P l
or ks
Ġ200 8
Ġincre asing
Ġst ore
Ġcom ments
Ġb al
m en
Ġdo ll
Ġl iber
Ġw ife
Ġlaw s
atur day
it ness
Ġmod ern
ĠS k
Ġadminist ration
Ġopportun ity
Ġs al
Ġpower ful
M y
Ġclaim s
ĠEar th
ord s
Ġt itle
Ġes c
n ame
N ot
om en
Ġbe yond
Ġc amer
Ġse ll
it ute
ear ch
Ġapp l
im ent
4 2
ĠAr t
Ġun f
Ġviol ence
ur g
ĠE ast
Ġcomp ared
Ġopt ions
Ġthrough out
Ġv s
ig r
. [
ac hes
7 8
Ġfil es
F L
E L
ar ian
ĠJ ames
ĠA ir
an ch
Ġdet ail
Ġpie ce
P S
Ġn amed
Ġeduc ation
Ġdri ve
Ġitem s
Ġstud ent
ic ed
: :
ic o
Ġth row
Ġsc ene
Ġcomple x
Ġ200 9
Ġpre c
ĠB re
7 9
Ġcon cept
Ġstat us
am ing
Ġd ied
Ġknow ledge
Ġbegin ning
O D
ru ary
Ġcertain ly
Ġgu ys
Ġsl ight
in n
ound s
Ġf ine
Ġf at
ic ations
Ġper haps
ĠA nt
Ġinc ome
Ġhtt ps
Ġmajor ity
port s
st on
Ġgreat er
Ġfe ed
ent ially
Ġsaf ety
Ġun ique
and om
Ġg one
Ġshow ed
Ġhist or
Ġcoun ter
i us
id a
Ġlead ing
i pe
Ġs end
ĠDon ald
er ve
Ġdef ense
ines e
Ġy es
ĠF ire
ĠMus lim
ra q
Ġcontin ued
os h
Ġprov ides
Ġpr ison
ĠP re
Ġhapp y
Ġeconom y
Ġtr ust
ag s
ĠG ame
Ġweap ons
um an
ĠC le
it ation
Ġanal ysis
ĠT imes
Ġsc ience
- >
Ġfig ure
Ġdis app
ent y
Ġsoft ware
Ġu lt
Ġoffic ers
N ew
I s
Ġrem ains
ĠInd ia
Ġp sych
ri ef
Ġc at
es c
Ġob serv
Ġst age
ĠD ark
Ġent er
ch ange
Ġpass ed
Ġdes pite
ĠO ut
Ġmov ie
r s
Ġv oice
m ine
ĠPl ay
Ġto ward
ĠT er
Ġreg ion
Ġval ues
or ters
Ġm ount
Ġoffic er
ĠO ther
b an
Ġh ous
w ood
ro om
I V
ĠS un
se e
ĠO ver
ro g
9 0
Ġl ay
ĠT ur
a wn
Ġpress ure
ĠS ub
Ġbook s
ed om
ĠS and
A A
ag o
Ġre asons
f ord
Ġactiv ity
U T
N ow
ĠSen ate
ce ll
n ight
Ġcall s
in ter
Ġlet ter
ĠR ob
ĠJ e
Ġcho ose
ĠL aw
G et
B e
Ġro b
Ġtyp es
Ġpl atform
Ġqu arter
R A
ĠT ime
Ġmay be
ĠC r
9 5
p re
Ġmov ing
Ġl if
Ġgo ld
Ġs om
Ġpat ients
Ġtr uth
ĠK e
ur ance
ant ly
m ar
Ġchar ge
ĠG reat
Ġce le
---------------- ----------------
Ġro ck
ro id
an cy
Ġcred it
a ud
B y
ĠE very
Ġmov ed
ing er
rib ution
Ġn ames
Ġstra ight
ĠHe alth
ĠW ell
Ġfe ature
Ġr ule
Ġsc he
in ated
ĠMich ael
ber g
4 1
il ed
b and
Ġcl ick
ĠAng el
on ents
Â Ń
ĠI raq
ĠS aturday
Ġa ware
p art
Ġpat tern
O W
ĠL et
Ġgr ad
ign ed
Ġassoci ated
Ġst yle
n o
i ation
a ith
il ies
Ġst ories
ur ation
Ġindividual s
ĠâĢ ¦
m iss
ĠAss oci
ish ing
ab y
Ġsum mer
ĠB en
Ġ3 2
Ġar ch
ut y
ĠTex as
h ol
Ġfull y
Ġm ill
Ġfollow ed
ĠB ill
ĠInd ian
ĠSec ret
ĠB el
ĠFeb ruary
Ġjob s
Ġseem ed
ĠGo vern
i pped
Ġreal ity
Ġl ines
Ġp ark
Ġmeas ure
ĠO ur
I M
Ġbro ther
Ġgrow ing
Ġb an
Ġest im
Ġc ry
ĠS chool
Ġme chan
ĠO F
ĠWind ows
Ġr ates
ĠO h
Ġpos itive
Ġcult ure
ist ics
ic a
Ġh ar
y a
ite ly
i pp
Ġm ap
en cies
ĠWill iam
I I
ak ers
5 6
ĠM art
ĠR em
Ġal tern
it ude
Ġco ach
row d
D on
Ġk ids
Ġj ournal
Ġcor por
Ġf alse
Ġwe b
Ġsle ep
Ġcont ain
Ġst o
Ġb ed
iver se
ĠR ich
ĠCh inese
Ġp un
Ġme ant
k nown
Ġnot ice
Ġfavor ite
a ven
Ġcond ition
Ġpur pose
) )
Ġorgan ization
Ġchall eng
Ġman ufact
Ġsus p
ĠA c
Ġcrit ic
un es
uc lear
Ġm er
vent ion
Ġ8 0
Ġm ist
ĠU s
ĠT or
htt p
ol f
Ġlarg er
Ġadv ant
Ġrese ar
Ġact ions
m l
Ġke pt
Ġa im
, '
c ol
Ġbenef its
if ying
Ġact ual
ĠIntern ational
Ġveh icle
Ġch ief
Ġeff orts
ĠLe ague
ĠM ost
Ġwa it
Ġad ult
Ġover all
Ġspe ech
Ġhigh ly
Ġfem ale
Ġer ror
Ġeffect ive
5 4
Ġenc our
w ell
Ġfail ed
Ġcons erv
Ġprogram s
Ġt rou
Ġa head
5 00
vertis ement
I P
ĠF ound
p ir
Ġ %
Ġcr ime
and er
Ġloc ation
ĠI ran
Ġbehav ior
az ing
Ġr are
Ġem b
Ġca used
Ġsh ip
Ġact ive
Ġcont ribut
Ġg reen
Ġac qu
Ġref lect
ven ue
Ġf irm
Ġb irth
] .
Ġclear ly
Ġem ot
Ġag ency
ri age
Ġmem ory
9 8
S A
ĠSe e
ac ing
C C
Ġbig gest
Ġr ap
Ġbas ic
Ġb and
e at
Ġsus pect
ĠM ac
Ġ9 0
m ark
ist an
Ġsp read
am s
k i
as y
ra v
ĠR ober
Ġdemon str
r ated
Ġabs olute
Ġpl aces
Ġim pl
ibr ary
Ġc ards
Ġdest roy
Ġv irt
ve re
Ġapp eared
y an
p oint
Ġbe g
Ġtem per
s pe
ant ed
ear s
ĠD irect
Ġl ength
Ġbl og
am b
Ġint eg
Ġres ources
ac c
if ul
Ġsp ot
Ġfor ced
Ġthous ands
ĠMin ister
Ġqu al
ĠF rench
at ically
Ġgener ally
Ġdr ink
Ġth us
I L
od es
Ġappro pri
ĠRe ad
Ġwh om
Ġey e
Ġcol lege
Ġ4 5
ire ction
Ġens ure
Ġapp arent
id ers
Ġrelig ious
Ġmin or
ol ic
Ġt ro
ĠWh y
rib ute
m et
Ġprim ary
Ġdevelop ed
Ġpe ace
Ġsk in
st e
av a
Ġbl ue
Ġfam ilies
Ġ ir
Ġapp ly
Ġin form
ĠSm ith
C T
i i
Ġlim it
Ġres ist
........ ........
um n
Ġconf lic
Ġtw e
ud d
ĠT om
Ġl iter
qu e
b on
Ġha ir
Ġevent ually
Ġp us
Ġhelp ed
Ġag g
or ney
ĠApp le
Ġf it
ĠS ur
Ġpre m
Ġs ales
Ġsecond s
Ġstreng th
Ġfeel ing
¿ ½
Ġt our
Ġknow s
o om
Ġex erc
Ġsom ew
ï ¿½
> >
Ġsp okes
Ġide as
Ġreg ist
so ft
ĠD el
ĠP C
Ġpro pos
Ġlaun ch
Ġbott om
T H
ĠP lease
v est
it z
ĠIn ter
Ġsc ript
Ġr at
ar ning
Ġ il
ĠJ er
ĠA re
Ġwh atever
ok en
ci ence
Ġmod e
Ġag ree
Ġs ources
Ġinit ial
Ġrest rict
Ġwond er
us ion
## ##
ĠS il
vil le
Ġb urn
t w
as ion
ĠÂ £
Ġn or
u ing
Ġre ached
Ġs un
Ġc ateg
ig ration
Ġc ook
Ġprom ot
Ġm ale
Ġcl imate
Ġf ix
Ġalleg ed
U R
all ed
Ġim ages
C ont
ot a
Ġschool s
i os
Ġd rop
Ġst ream
ĠM o
Ġprevious ly
al ing
Ġp et
Ġdou ble
Ġ( @
ann el
Ġdef ault
t ies
Ġr ank
ĠD ec
ĠCoun cil
Ġweap on
Ġst ock
Ġanal y
ĠSt r
Ġpict ure
ĠPol ice
f erence
Ġcent ury
Ġcitiz ens
Ġon to
Ġexp and
Ġhe ro
ĠS ol
Ġw ild
Ġupd ate
Ġcustom ers
r ont
d ef
Ġl ik
Ġcrim inal
ĠChrist ian
S P
7 6
Ġle aving
Ġother wise
ĠD ist
Ġbas is
5 2
5 3
ic ip
ĠB er
Ġrecomm end
Ġfl oor
Ġc rowd
ol es
Ġ7 0
Ġcent ral
ĠE v
Ġd ream
Ġdown load
Ġconf ir
ĠTh om
Ġwind ow
Ġhapp ens
Ġun it
Ġt end
Ġs pl
Ġbec omes
Ġfight ing
Ġpred ict
ĠP ress
ĠP ower
Ġhe avy
ak ed
Ġf an
or ter
ate gy
B A
iz es
Ġsp end
H ere
Ġ200 7
Ġad op
ĠH am
Ġfoot ball
ĠP ort
od ay
5 1
amp ions
Ġtrans fer
h t
Ġ3 8
ter m
ac ity
Ġb ur
] ,
tern al
r ig
b ut
Ġthere fore
ĠB ecause
res p
re y
Ġm ission
S ome
Ġnot ed
Ġass um
Ġdise ase
Ġed it
Ġprog ress
r d
ĠB rown
oc al
Ġadd ing
Ġra ised
ĠAn y
Ġt ick
Ġsee ing
ĠPe ople
Ġagre ement
Ġser ver
Ġw at
Ġdeb ate
Ġsupp osed
il ing
Ġlarg est
Ġsuccess ful
ĠP ri
ĠDemocr atic
Ġj ump
ĠSyri a
Ġown ers
Ġoff ers
Ġshoot ing
Ġeff ic
se y
Ġha ven
ver se
te red
ĠL ight
im al
ĠB ig
Ġdef end
Ġbe at
Ġrecord s
% )
Ġsc en
Ġemploy ees
Ġdev ices
he m
Ġcom mer
ĠM ex
Ġbenef it
ĠPro f
Ġil leg
Ġsur face
ĠAl so
Ġh arm
ing ly
w ide
ĠA lex
Ġsh ut
ĠC ur
Ġl ose
p m
Ġchall enge
se mb
Ġst ation
Ġint elligence
Ġacc ur
ĠFl or
Ġrequ ires
ĠM al
b um
Ġh ospital
Ġsp irit
Ġoff ered
Ġprodu ce
ĠComm un
Ġcreat ing
Ġcr is
s pect
Ġend ed
Ġd aily
Ġvot ers
land s
i as
i h
on a
Ġsm art
ĠOff ice
ĠL ord
ri al
ĠIntern et
Ġcirc um
Ġextreme ly
' .
Ġopin ion
ĠM il
Ġg ain
B S
ĠF in
y p
Ġuse ful
Ġbud get
Ġcom fort
is f
Ġback ground
el ine
Ġep isode
Ġen emy
Ġtri al
Ġestab lish
d ate
ĠC ap
Ġcontin ues
Ġshow ing
ĠUn ion
w ith
Ġpost ed
ĠSy stem
Ġe at
ri an
Ġr ise
ĠGerman y
il s
Ġsign ed
Ġv ill
Ġgr and
m or
ĠEng land
Ġproject s
um ber
Ġconf erence
z a
Ġrespons ible
ĠAr ab
Ġlearn ed
âĢĶ âĢĶ
i pping
ĠGe orge
O C
Ġreturn ed
ĠAustral ia
Ġb rief
Q u
Ġbr and
ill ing
ab led
Ġhig hest
Ġtr ain
ĠComm ission
wh ile
Ġn om
cept ion
Ġm ut
ĠBl ue
Ġinc ident
v ant
8 6
ĠI D
Ġn uclear
7 4
ĠL ike
ĠR E
ĠM icro
l i
m ail
Ġcharg es
8 9
Ġad just
ad o
Ġear th
N A
Ġpr ices
P A
Ġd raft
Ġrun s
Ġcandid ate
ens es
Ġmanag ement
ĠPh il
ĠM iss
Ġte ach
g ram
Ġunderstand ing
a it
ic ago
A dd
ĠE p
sec ut
Ġsepar ate
Ġinst ance
Ġe th
Ġun less
**** ****
ĠF ore
in ate
Ġoper ations
S p
Ġf aith
g ar
ĠCh urch
ron ic
Ġconf ig
os ure
Ġactiv ities
Ġtrad itional
Ġ3 6
Ġd irection
Ġmach ine
Ġsur round
Ġp ush
un ction
ĠE U
Ġeas ier
Ġarg ument
G B
Ġm icro
Ġsp ending
iz ations
Ġthe ory
ad ow
Ġcall ing
ĠL ast
Ġd er
Ġinflu ence
Ġcomm it
Ġph oto
Ġun c
ist ry
g n
ast e
ack s
Ġdis p
ad y
d o
ĠG ood
Ġ `
Ġw ish
Ġreve aled
Âł Âł
l ig
Ġen force
ĠComm ittee
Ġche m
Ġmil es
Ġinterest ed
Ġsol ution
ic y
in ct
Ġ- >
ĠD et
Ġrem oved
Ġcomp ar
e ah
Ġpl ant
ĠS ince
Ġachie ve
Ġadvant age
Ġslight ly
b ing
Ġpl aced
u nder
201 5
ĠM ad
Ġt im
os es
Ġc ru
ĠR ock
Ġmost ly
Ġneg ative
Ġset ting
Ġprodu ced
Ġm ur
Ġconnect ion
ĠM er
Ġdri ver
Ġexecut ive
Ġass ault
Ġb orn
ĠV er
t ained
Ġstruct ure
Ġredu ce
Ġdec ades
Ġd ed
u ke
ĠM any
idd en
Ġle ague
S e
Ġjo in
Ġdis co
Ġd ie
c ks
act ions
Ġass ess
ag n
Ġgo als
our s
I R
Ġsen ior
ill er
m od
ip ment
oc ol
u y
ĠQ ue
Ġpart ies
ir gin
Ġle arning
it able
Ġstre et
Ġcamer a
A pp
Ġsk ills
b re
c ious
Ġcele br
ĠFr anc
Ġexist ing
Ġwill ing
l or
Ġ id
ĠSp ace
Ġcrit ical
ĠL a
ortun ately
Ġser ve
Ġc old
Ġspec ies
T S
Ġanim als
ĠB ay
Ġold er
ĠU nder
est ic
ĠT re
Ġte acher
Ġpre fer
v is
Ġth read
ĠM att
Ġmanag er
ãĥ »
Ġprofess ional
ĠV ol
Ġnot es
The se
ul a
Ġf resh
ent ed
u zz
ed y
clus ion
ĠR el
Ġdoub t
E O
Ġopen ed
ĠB it
Ad vertisement
Ġgu ess
ĠU N
Ġse qu
Ġexpl ain
ott en
Ġatt ract
ak s
Ġstr ing
Ġcont ext
oss ible
ĠRepublic ans
Ġsol id
Ġc ities
Ġask ing
Ġr andom
u ps
ur ies
ar ant
dd en
g l
ĠFlor ida
Ġdep end
ĠSc ott
Ġ3 3
Ġi T
ic on
Ġmention ed
Ġ2 000
Ġclaim ed
Ġdefin itely
ul f
Ġc ore
Ġopen ing
ĠCon st
wh ich
ĠT ra
A G
7 2
Ġbelie ved
ad a
Ġ4 8
ĠSec urity
yr ight
ĠP et
ĠL ou
Ġhold ing
======== ========
Ġ ice
Ġb row
Ġauthor ities
h ost
w ord
Ġsc ore
ĠD iv
Ġcell s
Ġtrans l
Ġneigh bor
Ġrem ove
u ct
Ġdist rict
ĠA ccording
Ġwor se
Ġconcern s
Ġpresident ial
Ġpolic ies
ĠH all
7 3
Ġh us
A Y
Ġ200 6
ĠJ ud
Ġindepend ent
ĠJust ice
ili ar
pr int
igh ter
Ġprotect ion
z en
Ġsu dden
h ouse
ĠJ es
P R
ĠIn f
Ġb ul
Ġ _
ĠServ ice
ĠP R
Ġstr ategy
ff ect
Ġgirl s
Ġmiss ing
oy al
ĠTe am
ul ated
Ġd at
Ġpolit ics
ab or
A ccording
Ġspe ll
Ġg raph
ort hern
T C
A b
Ġlab or
is her
Ġk ick
ĠiT unes
Ġstep s
pos es
Ġsmall er
E n
ber t
Ġro ll
Ġresear chers
Ġcl osed
Ġtrans port
Ġlaw y
________ ________
ĠCh icago
Ġas pect
Ġn one
Ġmar riage
9 6
Ġe lements
ĠF re
ĠS al
Ġd ram
F C
t op
e qu
Ġhe aring
Ġsupport ed
Ġtest ing
co hol
Ġmass ive
Ġst ick
Ġgu ard
is co
ph one
F rom
How ever
Ġb order
Ġcop y
ograph y
l ist
7 1
Ġown er
cl ass
ru it
r ate
ĠO nce
Ġdig ital
Ġt ask
ER S
Ġinc red
t es
+ +
ĠFr ance
Ġb reat
ow l
Ġiss ued
ĠW estern
Ġdet ect
Ġpart ners
Ġsh ared
ĠC all
Ġcan cer
ac he
rib e
Ġexpl ained
Ġhe at
{ "
Ġinvest ment
ĠB ook
Ġw ood
Ġtool s
ĠAl though
Ġbelie f
Ġcris is
Ġg e
ĠM P
Ġoper ation
ty pe
~ ~
g a
Ġcont ains
ant a
Ġexp ress
ĠG roup
ĠJ ournal
k a
Ġam b
ĠUS A
Ġfind ing
Ġfund ing
h ow
Ġestab lished
ide os
Ġdeg ree
Ġdanger ous
ang ing
Ġfre edom
pp ort
out hern
Ġch urch
Ġc atch
ĠTw o
Ġpres ence
ĠGu ard
U p
Ġauthor ity
ĠPro ject
Ġbut ton
Ġcon sequ
Ġval id
Ġwe ak
Ġstart s
Ġref erence
ĠM em
" )
U N
or age
ĠO pen
Ġcol lection
y m
g ency
Ġbeaut iful
ro s
Ġtell s
Ġwa iting
n el
Ġprov iding
ĠDemocr ats
Ġd aughter
Ġm aster
Ġpur poses
ĠJapan ese
Ġequ al
Ġturn s
Ġdoc uments
Ġwatch ing
R es
Ġr an
201 4
Ġre ject
ĠKore a
Ġvictim s
Le vel
ere nces
Ġw itness
Ġ3 4
Ġre form
com ing
Ġocc up
Ġc aught
Ġtra ffic
ad ing
Ġmod els
ar io
Ġserv ed
Ġb atter
u ate
ĠSecret ary
Ġagre ed
Ġtr uly
yn am
ĠR et
Ġun its
ĠRes earch
h and
az ine
ĠM ike
Ġvar iety
ot al
Ġam azing
Ġconfir med
Ġentire ly
Ġpurch ase
Ġe lement
Ġc ash
Ġdeter mine
D e
Ġc ars
ĠW all
â ĸ
Ġview s
Ġdrug s
Ġdep artment
ĠSt ep
u it
Ġ3 9
as ure
ĠCl ass
Ġc overed
ĠB ank
Ġme re
u ana
Ġmult i
Ġm ix
Ġun like
lev ision
Ġsto pped
Ġs em
ĠG al
ul es
Ġwe l
ĠJohn son
l a
Ġsk ill
Ġbec oming
ri e
Ġappropri ate
f e
ell ow
ĠPro t
ul ate
oc ation
Ġweek end
od ies
Ġsit es
Ġanim al
ĠT im
Ġsc ale
Ġcharg ed
Ġinst ruct
ill a
Ġmethod s
Ġc ert
Ġjud ge
ĠH el
Ġdoll ars
Ġstand ing
ĠS qu
Ġdeb t
l iam
Ġdri ving
ĠS um
ĠEd ition
Ġal bum
and on
I F
ĠU k
6 3
ad er
Ġcommer cial
es h
ĠGovern ment
Ġdisc overed
Ġout put
ĠHill ary
ĠCar ol
Ġ200 5
Ġab use
anc ing
Ġsw itch
Ġann ual
T w
Ġst ated
ag ement
in ner
Ġdem ocr
Ġres idents
Ġallow ing
Ġfact ors
od d
Ġf uck
em ies
Ġoccur red
ot i
Ġn orth
ĠP ublic
Ġinj ury
Ġins urance
C L
oll y
ã Ģ
Ġrepe ated
Ġar ms
ang ed
Ġconst ruction
Ġf le
P U
ic ians
Ġfor ms
ĠMc C
ant ic
Ġm ental
p ire
Ġequ ipment
Ġf ant
Ġdiscuss ion
Ġregard ing
k in
ar p
Ġch air
og ue
Ġpro ceed
ĠI d
O ur
Ġmur der
M an
Ġ4 9
as p
Ġsupp ly
Ġin put
Ġwe alth
liam ent
Ġpro ced
or ial
ĠSt at
ĠN FL
hen s
ĠInst itute
Ġput ting
ourn ament
et ic
Ġloc ated
Ġk id
er ia
r un
Ġpr inc
Ġ !
go ing
ĠB et
Ġcl ot
Ġtell ing
Ġprop osed
i ot
or ry
Ġfund s
g ment
ĠL ife
Ġb aby
ĠB ack
Ġsp oke
Im age
Ġear n
ĠA T
g u
Ġex change
ĠL in
ov ing
Ġp air
M ore
az on
Ġarrest ed
Ġkill ing
c an
ĠC ard
y d
Ġident ified
Ġm obile
Ġthan ks
ony m
ĠF orm
Ġhundred s
ĠCh ris
ĠC at
Ġtre nd
h at
ĠA v
om an
Ġelect ric
ĠW il
S E
O f
Ġrest aur
ot ed
Ġtr ig
Ġn ine
Ġb omb
Wh y
Â ¯
Ġco verage
Ġapp eal
ĠRober t
ĠS up
Ġfin ished
Ġfl ow
Ġdel iver
Ġcal cul
Ġphot os
Ġph il
Ġpie ces
Ġapp re
k es
Ġr ough
D o
Ġpart ner
Ġconcern ed
Ġ3 7
ĠG en
C ol
ct ors
Ġ= >
st ate
Ġsuggest ed
ĠFor ce
C E
Ġher self
ĠPl an
w orks
o oth
ren cy
Ġcor ner
Ġhus band
Ġintern et
ĠA ut
em s
os en
ĠAt l
g en
Ġbal ance
6 2
Ġsound s
te xt
Ġar r
ov es
Ġmill ions
Ġrad io
Ġsat isf
ĠD am
M r
G o
S pe
Ġcomb at
r ant
ĠG ree
Ġf uel
Ġdist ance
Ġtest s
Ġdec re
ĠE r
Ġman aged
D S
Ġt it
Ġmeas ures
ĠL iber
Ġatt end
as hed
ĠJ ose
ĠN ight
d it
ĠN ov
ĠE nd
out s
Ġgener ation
Ġadv oc
y th
Ġconvers ation
ĠS ky
act ive
ce l
ri er
ĠFr ank
Ġg ender
Ġcon cent
Ġcar ried
and a
ĠV irgin
Ġarri ved
ic ide
ad ed
Ġfail ure
Ġmin imum
le ts
Ġwor st
Ġkeep ing
Ġint ended
Ġilleg al
Ġsub sc
Ġdetermin ed
Ġtri p
Y es
Ġra ise
Ġ ~
Ġfeel s
Ġpack age
ĠJ o
h i
201 6
re al
Ġf ra
Ġsy mb
M e
uck y
p ret
ĠK h
ĠEd it
ĠWe b
em ic
ĠCol or
Ġjust ice
I nt
Ġfar m
ck now
" >
el ess
Ġredu ced
Ġ5 00
x x
ĠR ad
ĠW ood
Ġcl in
Ġhy p
il er
ur a
k ins
8 5
6 1
ĠThe ir
ĠM ary
Ġs an
Ġno vel
ĠWh o
Ġcap acity
Ġimp ossible
Ġpl ays
Ġmin ister
ij uana
ic ate
ĠS et
Ġf ram
Ġ ing
Ġcommun ities
ĠF BI
it a
Ġb on
Ġstr ateg
Ġinterest s
l ock
g ers
m as
ĠAN D
Ġconflic t
Ġrequire ments
Ġs ac
Ġoper ating
in i
rel ated
Ġcomm itted
Ġrelative ly
Ġs outh
Â¯ Â¯
Ġaff ord
Ġident ity
Ġdec isions
Ġacc used
pl ace
Ġvict ory
o ch
i at
N ame
C om
t ion
ed s
Ġsee k
Ġt ight
ĠIm ages
Ġinit i
Ġhum ans
Ġfam iliar
Ġaud ience
Ġintern al
vent ure
Ġs ides
ĠT O
Ġd im
Ġcon clud
Ġapp oint
Ġenforce ment
ĠJ im
ĠAssoci ation
Ġcircum st
ĠCanad ian
Ġjo ined
Ġdiffere nces
ĠL os
Ġprot est
Ġtw ice
w in
Ġgl ass
ars h
ĠAr my
Ġexp ression
Ġdec ide
Ġplan ning
an ia
Ġhand le
ĠMicro soft
ĠN or
Ġmax imum
ĠRe v
Ġse a
Ġev al
Ġhel ps
re f
Ġb ound
Ġm outh
Ġstand ards
Ġcl im
ĠC amp
ĠF ox
cl es
Ġar my
ĠTe chn
ack ing
x y
S S
Ġ4 2
Ġbu g
ĠUk rain
ĠM ax
ĠJ ones
ĠSh ow
l o
Ġplan et
Ġ7 5
Ġwin ning
Ġf aster
Ġspe ct
Ġbro ken
T R
Ġdef ined
Ġhealth y
Ġcompet ition
htt ps
ĠIs land
ĠF e
Ġannoun ce
ĠC up
ĠInst ead
Ġcl ient
Ġposs ibly
se ction
ock et
l ook
Ġfin ish
Ġcre w
Ġres erv
Ġed itor
Ġh ate
Ġs ale
Ġcontro vers
Ġp ages
w ing
Ġnum er
Ġopp osition
Ġ200 4
Ġref uge
Ġfl ight
Ġap art
ĠL at
A meric
ĠAfric a
Ġapplic ations
ĠPal est
ĠB ur
Ġg ar
ĠSoc ial
Ġup gr
Ġsh ape
Ġspe aking
ans ion
a o
ĠS n
Ġwor ry
ĠBrit ain
P lease
rou d
Ġh un
Ġintrodu ced
Ġd iet
I nd
ĠSec ond
Ġfun ctions
ut s
ĠE ach
ĠJe ff
Ġst ress
Ġaccount s
Ġgu arant
ĠAn n
ed ia
Ġhon est
Ġt ree
ĠAfric an
ĠB ush
} ,
Ġs ch
ĠOn ly
Ġf if
ig an
Ġexerc ise
ĠEx p
Ġscient ists
Ġlegisl ation
ĠW ork
ĠS pr
Ã Ĥ
ĠH uman
Ġ è
Ġsur vey
Ġr ich
ri p
Ġmain tain
Ġfl o
Ġleaders hip
st ream
ĠIslam ic
Ġ 01
ĠCol lege
Ġmag ic
ĠPr ime
Ġfig ures
201 7
ind er
x ual
ĠDe ad
Ġabsolute ly
Ġfour th
Ġpresent ed
resp ond
rib le
Ġal cohol
at o
ĠD E
por ary
Ġgr ab
Ġvar i
Ġqu ant
ĠPh oto
Ġpl us
r ick
ar ks
Ġaltern ative
Ġp il
Ġappro x
th at
Ġobject s
ĠR o
ĠAnd roid
Ġsignificant ly
ĠR oad
k ay
R ead
av or
Ġa cknow
ĠH D
ĠS ing
O r
ĠM ont
Ġun s
pro f
Ġneg oti
ĠAr ch
ik i
Ġte levision
ĠJew ish
Ġcomm ittee
Ġmot or
Ġappear ance
Ġs itting
Ġstri ke
ĠD own
com p
ĠH ist
Ġf old
ac ement
ĠLou is
Ġbel ong
ĠâĢ ¢
Ġm ort
Ġprep ared
Ġ6 4
ĠM aster
Ġind eed
ĠD en
Ġre nt
T A
our ney
ar c
S u
9 7
Ġadv ice
Ġchang ing
Ġlist ed
Ġlaun ched
is ation
ĠP eter
is hes
Ġl ived
ĠM el
ĠSup reme
ĠF ederal
Ġ) ;
ruct ure
Ġset s
Ġphil os
u ous
ĠÂ ł
Ġappl ied
ĠN OT
Ġhous ing
ĠM ount
Ġo dd
Ġsu st
D A
ffic ient
Ġ ?
ol ved
Ġp owers
Ġth r
Ġrem aining
ĠW ater
L C
Ġca uses
ãģ ®
Ġman ner
ad s
Ġsuggest s
Ġend s
stand ing
f ig
ĠD un
id th
Ġg ay
Ġter min
ĠAngel es
M S
Ġscient ific
Ġco al
ap ers
b ar
ĠThom as
Ġsy m
ĠR un
th is
P C
igr ants
Ġmin ute
ĠDist rict
cell ent
Ġle aves
Ġcomple ted
am in
Ġfoc used
Ġmon itor
Ġveh icles
M A
ĠM ass
ĠGr and
Ġaffect ed
itution al
Ġconst ruct
Ġfollow s
Ġt on
re ens
Ġh omes
ĠE xt
ĠLe vel
r ast
ĠI r
Ġel im
Ġlarge ly
ĠJ oe
Ġvot es
all s
Ġbusiness es
ĠFound ation
ĠCent ral
Ġy ards
Ġmaterial s
ul ner
Ġgu ide
Ġclos er
um s
Ġsp orts
ed er
J ust
Ġtax es
8 4
ĠO ld
Ġdec ade
ol a
Ġv ir
Ġdro pped
Ġdel ay
it ect
Ġsec ure
ste in
le vel
Ġtre ated
Ġfil ed
ain e
Ġv an
Ġm ir
Ġcol umn
ict ed
e per
Ġro t
Ġcons ult
Ġent ry
Ġmar ijuana
ĠD ou
Ġapparent ly
ok ing
clus ive
Ġincre ases
an o
Ġspecific ally
Ġte le
ens ions
Ġrelig ion
ab ilities
Ġfr ame
ĠN ote
ĠLe e
Ġhelp ing
Ġed ge
ost on
Ġorgan izations
Ã ĥ
ĠB oth
hip s
Ġbig ger
Ġbo ost
ĠSt and
Ġro w
ul s
ab ase
Ġr id
L et
are n
ra ve
Ġst ret
P D
Ġv ision
Ġwe aring
Ġappre ci
Ġa ward
ĠU se
Ġfact or
w ar
ul ations
) (
Ġg od
Ġter rit
Ġpar am
ast s
8 7
Ġen emies
ĠG ames
F F
Ġacc ident
W ell
ĠMart in
T ER
Ġat h
ĠHe ll
Ġfor g
Ġve ter
ĠMed ic
f ree
Ġst ars
Ġexp ensive
Ġac ad
ra wn
ĠW he
Ġl ock
Ġform at
Ġsold iers
s m
Ġag ent
Ġrespons ibility
or a
ĠS cience
Ġrap id
Ġt ough
ĠJes us
Ġbelie ves
M L
Ġwe ar
le te
Ãĥ ÃĤ
ĠD ri
Ġcomm ission
ĠB ob
O h
ap ed
Ġwar m
ÃĥÃĤ ÃĥÃĤ
Ġ200 3
ort ion
Ġhas n
ust er
Ġun ivers
ĠI ll
Ġk ing
olog ies
9 4
ĠT em
ĠM os
Ġpat ient
ĠMex ico
ce an
ĠDe ath
ĠSand ers
y ou
ĠC ast
ĠComp any
pt y
Ġhappen ing
F P
ĠB attle
Ġb ought
A m
M od
U s
ut ers
ĠC re
ĠTh ose
Ġ4 4
is er
Ġs oul
ĠT op
ĠHar ry
ĠA w
Ġse at
ff ee
Ġrev olution
Ġ( "
ĠD uring
et te
Ġr ing
Ġoff ensive
Ġreturn s
Ġv ideos
Ġdis cl
Ġfam ous
en ced
ĠS ign
ĠR iver
Ġ3 00
P M
ĠB us
ĠC H
Ġcandid ates
ard en
Ġpercent age
Ġvis ual
Ġthan k
Ġtrou ble
ner gy
Ġ200 1
Ġpro ve
ash ion
Ġen h
ĠL ong
U M
Ġconnect ed
Ġposs ibility
O ver
Ġexper t
Ġl ibrary
art s
ĠDirect or
Ġfell ow
9 2
ir ty
Ġd ry
Ġsign s
ĠL ove
Ġqu iet
f oot
Ġp ure
ĠH un
Ġf illed
ph as
ĠE lect
end ment
ĠEx pl
Ġun able
n s
m o
Ġv ast
ob e
Ġident ify
app ing
ĠCarol ina
g ress
Ġpro te
Ġf ish
Ġcircumst ances
raz y
ĠPh ot
Ġb odies
ĠM ur
Ġdevelop ing
ĠA R
Ġexperien ced
Ġsubst ant
ĠBo ard
es ome
Ġdom estic
Ġcomb ined
ĠP ut
Ġchem ical
ĠCh ild
Ġpo ol
ĠC y
Ġe gg
c ons
st ers
Ġh urt
Ġmark ets
Ġconserv ative
Ġsupp orters
Ġag encies
id el
O b
ur b
Ġ4 3
ĠDef ense
y e
ĠA p
du le
Ġtemper ature
Ġconduct ed
ĠCh ief
Ġpull ed
Ġf ol
L ast
ont o
os is
V ER
D es
ĠP an
F irst
Ġadv ance
Ġlic ense
r ors
ĠJ on
Ġimag ine
Ġhe ll
Ġf ixed
Ġinc or
os ite
ĠL og
ick en
] :
Ġsurpr ise
h ab
Ġc raft
ol t
ĠJ ul
Ġd ial
Ġrele vant
Ġent ered
Ġlead s
ĠA D
ĠCle an
Ġpict ures
ess or
Ġal t
Ġpay ing
P er
ĠMark et
Ġupd ates
am ily
ĠT ype
ĠH ome
Ġ5 5
semb ly
rom e
8 3
Ġgreat est
Ġhe ight
Ġhe av
ain ts
Ġlist en
as er
ĠS H
Ġcap able
ac le
Ġpers pect
in ating
Ġoff ering
ry pt
ĠDe velop
ab in
r c
Ġbr ight
al ty
ar row
Ġsupp l
ind ing
ack ed
gy pt
ĠAn other
p g
ĠVirgin ia
ĠL u
Ġpl anned
Ġp it
Ġswe et
T ype
ĠD i
Ġtyp ically
ĠFranc isco
Ġpro spect
ĠD an
Ġte en
re es
Ġsc hed
Ġh ol
Ġsc r
Ġlot s
l ife
Ġnews p
Ġfor get
ĠN one
ĠM iddle
ĠR yan
ed d
Ġse vere
Ġsu it
ll er
9 3
Ġcor respond
Ġexpl os
u ations
Ġfl ag
g ame
r id
Ġpr in
ĠD ata
Ġde ploy
ĠEn ter
su it
gh an
ĠM en
Ġthough ts
Ġmat ters
Ġad apt
ĠA ri
Ġf ill
Ġfor th
Ġs am
Ġ4 1
Ġpay ment
ĠH or
Ġsp ring
du c
Ġl osing
Ġbring ing
F O
al a
Ġdist ribution
he red
b our
ĠIsrael i
om a
Ġcomb ination
Ġpl enty
V E
C an
ĠH aw
Ġper man
ĠSpe cial
Ġto w
Ġsee king
Ġexam ples
Ġclass es
c r
Ġbe er
Ġmov es
ĠI P
ĠK n
Ġpan el
E ven
Ġproper ly
Ġr is
Ġpl ug
Ġestim ated
E very
Ġdef ensive
ag raph
Ġpre gn
Ġinst it
ĠV ict
Ġvol ume
Ġpos itions
Ġl inks
ĠPro gram
ĠWe ek
ag ues
Ġtrans form
k er
ĠC EO
Ġc as
Ġopp onent
Ġtwe et
ĠC ode
Ġsh op
Ġf ly
Ġtal ks
Ġb ag
Ph one
Ġa id
Ġpl ants
Ġ6 5
Ġatt orney
ar ters
qu est
ĠMag ic
Ġbeg ins
Ġmy ster
Ġenvironment al
Ġst orage
N N
Ġm arg
Ġs ke
Ġmet al
ell y
Ġord ered
Ġrem ained
Ġl oved
Ġprom pt
Ġupd ated
Ġexper ts
Ġwalk ing
Ġan cient
Ġperform ed
AT E
Ġne ither
i ency
Ġmanufact ure
ĠP ak
Ġselect ed
Ġm ine
Ġult imately
Ġexpl an
Ġlab el
ĠServ ices
ribut ed
Tr ump
Ġsy n
ĠU lt
S C
Ġme at
Ġg iant
ĠW ars
ĠO N
Ġad m
Ġinter pret
Ġeven ing
Ġev il
ĠB oston
ĠW ild
Ġ Ã
ĠBit coin
ĠAm azon
D r
ĠIn formation
Ġobvious ly
Ġadv anced
Ph oto
ol ar
Ġwe ather
Ġsymb ol
Ġso le
Ġpot entially
ost er
Ġorig inally
m un
3 00
az e
ess ions
Ġde ck
Ġst ood
Ġyou th
ĠB ern
R ep
ĠT est
Ġbas ically
ot ic
Ġinvol ve
ol it
ly n
S ee
Ġair craft
Ġconf irm
E W
Ġmess ages
ĠRich ard
Ġk it
Ġpro hib
Ġv ulner
is ters
Ġexist ence
Ġturn ing
ĠS P
Ġdes ire
Ġfl at
Ġm ent
se ason
ang es
Ġneighbor hood
ĠL ake
AT ION
Ġpoint ed
b ur
Ġinn ov
uc ks
U L
Ġprofess or
Ġexp ressed
A B
ic ious
Ġ200 2
ĠDe v
Ġs ession
Ġb are
s en
Ġdis s
ĠC ath
ĠP ass
ĠP oint
Ġdo ctor
or row
ail ed
ĠR ub
ĠD C
ĠChar l
p erson
Ġwrit er
igh ters
ure au
Ġob lig
Ġrecord ed
Ġbro ke
Ġord ers
il ty
Ġmot ion
in ity
l aw
ad ium
Ġimm igration
Ġcontr ast
Ġb att
Ġex cellent
Ġtechn ical
am i
Ġt un
Ġcl oud
ĠY ear
ge on
Ġcre ation
Ġstr ange
Ġa uth
Ġfor t
b orn
Ġext ent
ĠT oday
ĠCl ub
Ġr ain
Ġs ample
Ġaccept ed
Ġt act
Ġf ired
ĠS on
Ġstand s
Ġb oot
Ġ4 7
Ġstat ements
Ġvers ions
Ġse lling
ound ed
Ġ199 0
Ġwere n
ĠW atch
Ġexper iment
P ost
Ġret ail
ul ed
In st
un te
ãĥ ¼
Ġdep art
Ġb ond
i very
om pl
Ġre action
ĠSyri an
ĠP ac
app ed
ani el
D P
Ġres olution
Ġre act
Ġappro ved
on om
m ond
ĠO ffic
-- -
Ġrepl ace
Ġt ack
Ġsp ort
Ġch ain
Ġemer gency
r ad
ĠPalest in
Ġ4 6
Ġautom atically
Ġrout e
Ġp al
Ġb anks
ĠPar is
ĠMed ia
ro ad
ic ing
i xt
ist ed
Ġg rew
Ġco ord
ĠW here
om in
Ġsub s
ï¿½ ï¿½
ĠÂ ±
Ġcorpor ate
Ġse lection
n oon
ĠRep ort
c s
clud ing
ord ers
anc he
ĠIt s
Ġslow ly
ĠE gypt
ĠA cc
Ġcol le
iqu es
E X
Ġattempt s
ur l
ĠC ross
Ġfind ings
ĠS C
ĠO R
Ġind ex
ens ity
ĠW ay
ĠL and
Ġsh ock
d is
Ġd ynam
Ġc art
m osp
S ince
i est
ĠB oy
Ġst orm
ĠCont in
201 3
he w
il it
Ġess ential
iqu id
O ther
ive red
Ġreason able
A ct
Ġsub sequ
ĠP ack
ĠF ort
Ġconsider ing
Ġun iversity
l og
Ġmar ried
Ġill ust
ĠTr ue
£ ı
Ġnumer ous
rast ructure
Ġserious ly
Ġrefer red
u a
Ġconsist ent
on na
ĠRe al
ru ption
ci ples
Ġfact s
9 1
ot es
er g
The n
Ġacc ompl
N ote
Ġre venue
Ġpass ing
Ġm al
e en
ĠY et
Ġg ather
ter day
ew ork
ĠA uthor
P e
Ġopt im
Ġr ub
Ġè £ı
Ġun known
st one
Ġun ion
ol ve
Ġopportun ities
Ġbrow ser
ĠW al
ĠC ost
Ġreport ing
st s
p et
Ġs and
Ġsudden ly
Ġsurpr ising
ĠV R
Ġsomew hat
ĠB as
ult ure
iz z
ĠC D
Ġchalleng es
Ġsett ings
Ġexperien ces
ĠF ull
Ġcan n
Ġrece iving
ES T
Ġj oint
Ġcult ural
Ġa st
8 2
as tern
ce ived
ĠC ru
Ġb ull
p ired
am m
Ġfac ing
p ower
Ġb oss
ĠH ol
Ġinst r
Ġincreasing ly
Ġsh ift
Ġstre ets
ĠWilliam s
ab b
Ġl ie
Ġl augh
ĠC a
P L
Ġadult s
Ġcustom er
Ġob tained
Ġsupport ing
ht ml
f ire
Ġdetail ed
Ġpick ed
ĠR ight
ld er
E E
st ood
ĠK im
Ġw ire
Ġs ight
Ġdevelop ers
Ġpers ons
Ġs ad
Ġc up
Ġwar ning
Ġboy s
l ong
Ġb ird
f o
Ġw al
Ġobserv ed
Ġz one
iven ess
Ġch annel
c ript
Ġref used
ĠAg ain
Ġsu c
Ġspokes man
ĠRe f
r ite
ou ston
ãĥ ³
ĠS her
Ġact s
ĠN ame
Ġstrugg le
ar ry
omet imes
Ġdisc rim
H T
Ġcateg ory
Ġreal ize
Ġemploy ee
ĠAf ghan
en ger
Ġgun s
ĠSte ve
ĠM ot
ĠO l
ok ed
Ġth ick
Ġfair ly
ill y
Ġsur ve
ĠM at
we ight
â Ķ
Ġtro ops
Ġag ents
Ġbatter y
Ġmot iv
Ã ¡
S ec
d en
o very
L S
Ġfl u
Ġconf ident
ĠO per
Ġem pty
Ġp hen
Ġse ctor
Ġexc ited
Ġrem ote
ap h
o en
Ġdestroy ed
Ġmor al
ĠH P
ĠR on
Ġd ress
ĠB at
Ġl it
ĠM S
Ġa f
H L
r um
is ms
Ġshould n
Ġsym pt
ĠTor onto
het ic
Ġcar bon
Ġinstall ed
Ġviol ent
Ġsol ar
j a
Ġpract ices
Ġr ide
ĠP enn
Ġimpro ved
Ġaud io
Ġbehav i
ĠP S
Ġe ating
D ata
ĠRe view
p ass
cl aim
u ated
ang ers
c hen
Ġproper ties
Ġany where
An other
Ġbl ow
ĠJack son
Ġp roud
Ġplan e
l ines
Ġsqu are
Ġpro of
ans as
Ġtalk ed
m akers
Ġs ister
Ġhold s
Ġres ident
Ġ= =
Ġresist ance
Ġspl it
Ġpro secut
Ġconf idence
res ents
Ġcut s
Ġexcept ion
Ġz ero
Get ty
Ġcop yright
Ġtot ally
orm al
ific ations
ĠAustral ian
Ġs ick
Ġ1 50
Ġhouse hold
Ġfe es
Ġdri vers
og en
ĠN Y
Ġnecess arily
Ġregul ations
ear ing
s l
Ġperspect ive
c are
ic ial
H is
Ġesc ape
Ġsurpr ised
ĠV an
ur rent
Ġv ac
8 1
ĠTh us
Ġem phas
ĠCh ampions
ĠI ce
Ġn arr
Ġhead s
Ġca using
b el
f ortunately
ĠM a
Ġtarg ets
ci pl
Ġafter noon
Ġadd s
ĠMay be
ĠF our
ess ed
ple te
Ġus ual
ch o
ing u
Ġwith d
ĠE nergy
ĠE conom
O O
Ġart icles
Ġinj ured
Ġman age
Ġexpl ains
Ġdi agn
R ec
at ures
Ġlink ed
Ġdiscuss ed
Ġexpl o
Ġocc asion
ath an
Ġopp osite
Ġfac es
Ġden ied
ĠK night
Ġn ut
Ġapprox imately
Ġdisapp oint
onym ous
ĠB est
ĠL o
ĠH y
ĠA ff
Ġvot ing
an while
ĠII I
Ġinstit utions
ag ram
ĠD aily
Ġdr ag
Ġnear by
Ġgu ilty
Ġcon ver
P re
s hip
Ġre ward
Ġphilos oph
ĠS S
u gh
Ġapp s
f riend
Ġu pper
Ġad vert
Ġs now
Ġfr ust
Ġour selves
F r
ĠD ie
amp ion
Ġdis miss
Ġc ere
Ġsign al
f rom
Ġ ).
Ġ5 2
Ġcr imes
it ors
est ival
use um
Ġcoun cil
ĠS aud
M ay
ĠG un
ic ian
et her
Ġsu fficient
ĠH en
so le
Ġhistor ical
ĠF ar
ĠT urn
Ġp in
Ġsuc ceed
m at
ly mp
Ġtrad ition
ĠO k
Ġc ro
Ġdesc ription
al le
Ġsk y
T e
Ġwide ly
Ġw ave
Ġdefin ition
ĠJew s
Ġcy cle
Ġref ere
Ġbr ings
us al
Ġal ive
Ġfrequ ently
Ġint ention
ĠCont rol
l v
y stem
Ġpriv acy
g ent
ren ce
ĠQu est
ĠChrist mas
Ġr ail
Ġco oper
Ġtest ed
ĠC apt
as ks
Ġcomfort able
Ġdel ivered
sc ape
Ġdep th
ĠG OP
Ġwrit es
Ġass ets
Ġsa v
im ents
Ġtrans ition
Ġart ist
ĠL ook
Ġl ob
Ġcomp onents
ar ity
Ġwalk ed
Ġro ot
Ġparticip ants
Ġnot iced
Ġres c
Ġn av
ĠAd minist
d a
ut ral
pl ate
Ġimport ance
Ġass ert
ious ly
c ription
Ġinj uries
ĠChe ck
Ġregist ered
Ġint ent
Ġmiss ed
ograph ic
Ġsent ence
oun ter
Ġassist ance
ev in
Ġdat abase
Ġbuild ings
Ġclass ic
Ġth inks
ĠOh io
P r
ug g
Ġfe e
p an
Ġeffect ively
Ġfac ility
Ġbe ar
Ġch apter
Ġdog s
ĠCol umb
Ġl atter
it ial
Ġad mitted
T V
ĠGe org
Ġpost s
\ \
Ġlawy er
Ġequ ival
Ġm and
Ġcontro lled
ĠW alk
ĠAnd rew
Ġmen u
am ental
Ġprotect ed
v a
Ġadminist r
or al
Ġre in
ĠS ar
Ġamount s
Ġn ative
ĠM oon
Ġrep resents
Ġab andon
Ġcarry ing
Ġt ank
m ary
Ġdecl ared
T ube
Ġh at
Ġpun ish
el lect
m es
Ġun iverse
ĠR od
ph y
Ġinf rastructure
Ġ5 1
Ġopp osed
ow nt
c a
ĠM ake
Ġhard ware
Ġco ffee
R el
b al
w orld
ĠS af
ĠSe a
in als
Ġown ed
Ġh all
ers ion
Ġdescrib e
ĠP ot
Ġport ion
Ġat mosp
Ġgovern ments
Ġdep ending
Ġoff ense
Ġtr ick
aw a
ĠL ine
ĠV is
ĠH ard
ĠOr ig
ĠCl ick
Ġdes k
ĠVal ley
ĠS ov
Ġmov ies
Ġrem ark
Ġm ail
Ġcons cious
Ġrul ing
ĠR ights
Ġmed ic
he nt
ĠW omen
> <
Ġrepl aced
ĠP rem
ĠTh anks
Ġre new
ĠB all
if orm
Ġsh ots
C omm
Ġar med
Ġconst ant
Ġt aste
Ġreal ized
Ġbu ff
Ġm o
Ġeffic ient
M ost
or ation
if ies
Ġcommun ication
Ġfl ood
Ġconsequ ences
Ġany way
ig g
ĠG M
ĠTh ank
Ġ iron
Ġev olution
ĠC op
tw itter
Ġ9 5
Ġrelationship s
ad el
ĠYou ng
Ġpropos al
ay ers
uild ing
ĠH ot
OR E
c os
Ġcoll abor
P G
ax y
Ġknow ing
Ġsupport s
ow ed
Ġcontrol s
Ġmere ly
um er
Ġath let
Ġf ashion
p ath
Ġg ift
Ġer a
AN D
Ġkind s
ĠKore an
Ġleg it
ul ous
Ġess entially
Ġthe rap
n ic
Ġsuff ered
Ġh ur
Ġprom ise
Ġex cess
Ġover w
Ġpr ime
ĠH ouston
er ry
ĠM s
R S
201 2
Ġst ores
ĠO lymp
Ġj ourney
Al though
S ub
ĠE duc
ĠCh apter
Ġrequest s
Ġconsum ers
Ġt iny
Ġis ol
ĠF air
b a
ĠY OU
Ġcr ash
ce ler
Ġemot ional
Ġgood s
Ġelect ed
Ġmod er
ĠLin ux
Ġbl ocks
Ġis land
ĠSoc iety
Ġelect ions
Ġbroad cast
Ġche ap
Ġn ations
Ġse asons
4 00
Ġwas te
ĠS at
Ġfield s
em ploy
Ġprof ile
Ġauth ors
AL L
ĠG ra
w est
ĠT y
Ġdeath s
Ġv acc
Ġfor med
Ġd u
Ġon going
ĠMuslim s
el f
ig ure
Ġass ume
ĠUkrain e
w ater
Ġco ast
Ġvot ed
g or
ĠA S
ĠMich igan
az a
ĠAr m
i ro
Ġf lex
as ters
' '
Ġwel come
ar l
Ġloc ations
ig ation
ĠF il
Ġbu ying
Ġarch itect
Ġhard er
ĠC ub
Ġinter face
Ġrestaur ant
Ġdisco ver
Ġex ceed
Ġfav our
ger y
Ġd uty
Ġp itch
ad or
ĠM ach
b oy
Ġrespond ed
Ġext ended
her s
M any
ra id
if er
ĠIn s
S er
Ġmed ium
s he
ĠS ports
Ġmag azine
ut ation
Ġlim its
ĠG all
Ġex ternal
raz il
Ġyoung er
t le
Ġrem ind
ĠC ON
Ġimmedi ate
Ġh idden
Ġvol unte
Ġsim pl
od cast
Ġph ase
d r
Ġpl ot
Ġexp osure
R I
og rap
v in
an ish
ĠAc ad
ĠEng ine
Ġexp ansion
ĠP ay
Y our
Ġpus hed
ĠE ll
ĠHe ad
Ġmarket ing
ĠA C
k et
Ġh its
Ġg ro
ĠA ge
ĠSc ot
] [
Ġst im
Ġi Phone
Ī Ĵ
Ġn arrow
ĠGet ty
ĠTur key
Ġperfect ly
Ġen able
ut ch
Ġprec ise
Ġreg ime
Ġsh if
Ġcomp ens
g un
d iv
Ġch osen
ĠK en
An y
Ġtre es
Ġrecomm ended
ĠR en
u able
ĠH T
F ollow
E G
ĠH and
ĠK enn
Ġarg uments
Ġex ists
Ġb ike
ĠCons erv
Ġbre aking
ĠG ar
Ġc razy
Ġvirt ual
ay lor
ix el
Ġ19 80
Ġper mission
ĠSer ies
Ġconsum er
Ġclose ly
c alled
Ġ5 4
Ġhop es
Ġar ray
ĠW in
ĠLab our
Ġsp ons
ĠI re
Ġp ow
Ġread ers
Ġemploy ment
Ġcreat ure
Ġresult ing
Ġaccur ate
Ġmom ents
Ġarg ued
Ġp ed
D uring
Ġ5 3
ĠT al
Ġs ought
Ġsuff ering
Ġ icon
le e
Ġ( $
al ian
Â °
Ġp ra
Ġbon us
( "
k o
Ġact ing
D E
f all
Ġcompar ison
Ġsm ooth
ĠN AS
u pp
ĠJose ph
ep ing
ĠT ake
ĠM id
Ġs ending
f ast
ĠF all
Ġdeal ing
us er
ĠOr gan
C o
Ġatt ached
Ġse es
% .
Ġtyp ical
AR T
Ġfind s
ĠAs ia
um in
ĠC ore
ĠE nt
in ent
u ce
ĠBl ood
ĠN ever
Ġem ails
Ġhigh light
Ġconf ront
at us
ut ed
Ġun us
Ġtop ic
ĠAd am
Ġb le
at i
Ġunder stood
S et
st ruct
T P
Ġm ob
a a
ĠSt art
pect ed
se ll
Ġded icated
ĠC A
u an
Ġsong s
esc ription
Ġte ch
Ġr ape
Ġas ide
Ġgr ant
Ġ5 6
s ub
Ġarg ue
Ġcont aining
Ġsche dule
Ġliber al
Ġpublic ly
Ġheav ily
ĠU t
in er
ĠS ection
ĠC are
we et
l s
D is
âĶ Ģ
ĠF ollow
B ack
ĠI T
Ġb es
j i
ĠH it
est ed
Ġevery body
ĠSw ed
Ġfem in
Ġfac ilities
Ġcon ven
C omp
ĠO S
c ore
Ġan x
Ġdiv ision
ĠC am
ĠSt an
m ates
Ġexpl ore
pl om
Ġsh ares
pl oad
an es
Ġide al
et ers
ĠB ase
Ġpl astic
Ġdist inct
ĠNet work
ĠSe attle
Ġtrad ing
ens us
int end
Ġex hib
Ġinit ially
ĠF ood
Ġthous and
ĠBus iness
act er
Ġpar agraph
Ġrough ly
Ġw ww
Ġcreat ive
ĠCon f
Ġconsum ption
Ġfil ms
ag an
Ġob tain
Ġt all
Ġt or
Ġacknow led
Ġg rown
al o
K E
Ġ4 00
end ers
t aining
U G
Ġsu icide
Ġwat ched
ĠL ist
al i
re hens
Ġsurround ing
Ġp ip
Ġf lying
ĠJ ava
ord an
Ġserv ing
in ations
p ost
Ġsh o
A v
Ġj ail
z y
Ġ199 9
Ġ< /
Ġliter ally
ĠS ir
Ġexp osed
Ġl ies
st ar
Ġb at
Ġear ned
ĠD ig
Ġspec ified
ĠSe ason
Ġdeg rees
Don ald
Ġcent re
Ġsh aring
Ġwin ter
ĠC O
C he
Ġ Î
M P
Ġun w
Ġfew er
ĠM ir
Ġsomew here
ĠK ey
Ġattack ed
ĠK ir
Ġdom ain
Ġstrong er
Ġ9 9
Ġpen alty
I d
Sc ript
Ġdecl ined
Ġne ck
Ġfra ud
Ġcur rency
Ġr ising
R C
âĢ¦ âĢ¦
H z
Ġt ab
Ġtal ent
n am
ĠN BA
Ġvill age
Ġleg s
ĠN ext
E d
Ġac id
Ġhy d
8 00
Ġinvol ving
ĠIm age
ĠBe fore
F l
Ġyes terday
S ource
Ġterror ist
Ġsu p
Ġsy nt
ĠSaud i
Ġw est
Ġr u
b urg
Ġvis ible
Ġstru ck
r ison
Ġaw esome
Ġd rawn
Ġansw ers
ĠG irl
ĠR am
Ġthreat s
Ġdef eat
os it
Ġv ent
atur ally
Americ an
end a
ĠH oly
Ġr um
% ,
c ase
ĠHist ory
ĠYou Tube
Ġsit uations
ĠD NA
S te
Ġsa ved
It em
Ġrec ip
olog ist
Ġfac ed
Ġel ig
O nce
ĠL i
u h
Ġmist ake
ĠDiv ision
ĠB ell
Ġsympt oms
Â ®
Ġdom in
Ġfall ing
Ġend ing
as hes
Ġmat ches
ĠOn line
Ġexplan ation
D ef
red it
Ġany more
ĠT otal
ĠF OR
us hed
Ġlet ters
Ġris ks
ĠO K
Ġreported ly
: \
Ġpl ate
Ġsubject s
Ġattempt ed
if ier
ian a
Ġunlike ly
ĠTh ough
um a
ĠIn vest
ĠPr in
ic an
ĠD ar
ĠColor ado
au g
Ġve get
a os
ri a
Ġshe l
Ġmark ed
Ġ( )
Ġsp r
p o
ĠL ink
Ġdef e
ĠJ r
Ġthem e
Ġpass ion
ĠP en
Ġinf o
iz er
Ġsh it
ĠC ivil
ap se
c re
Ġpo ly
Ġcomp onent
ĠChar les
ĠIre land
ĠPro v
Ġdo ctors
Ġgr anted
Ġpain t
Ġhon or
Ġsm oke
Ġpay ments
Ġprim arily
ĠKing dom
r ich
ate ll
Ġde als
Ġsched uled
Ġfund amental
Ġprote in
Ġnewsp aper
Ġcl ients
yth on
ĠD ate
h us
Ġfeed back
Ġstret ch
Ġc ock
Ġhot el
ĠQue en
Ġsu gar
Ġj u
Ġmil k
Ġappro val
ĠL ive
Ġequival ent
ef ully
Ġins ert
z ona
Ġext ension
d ri
J ohn
Ġacc omp
S m
ĠF und
Ġconst antly
Ġ` `
Ġgener ated
ĠA ction
ĠP sych
ĠT ri
Ġrecogn ize
Ġv ary
ph a
ĠR a
d f
et ch
ĠSov iet
Tw o
Ġpattern s
Ġprof ession
an ing
T ime
ĠL im
Ġcol ors
ĠA z
ĠT R
Ġinf ect
Ġphen omen
Ġshe ll
Al so
Ġput s
Ġdel ivery
Ġbro wn
Ġprocess ing
Ġlight s
ess age
ĠBro ok
ĠA ud
l ation
Ġindust rial
L ike
ĠB razil
rou s
ES S
ĠL uc
Ġsome how
Ġ8 5
Ġpro port
Ġpolit icians
Ġindic ate
Ġh ole
Ġtechn iques
Ġcompet itive
Ġph r
Ġv o
ist ent
ĠD ream
Ġcamp us
Ġaspect s
Ġhelp ful
Ġsh ield
or se
Ġtrig ger
m al
Ġ5 8
Ġt ort
Ġperson ally
Ġt ag
Ġkeep s
ĠV ideo
Ġben ch
Ġg ap
a ire
Ġe ast
Ġrec overy
per ial
Ġprof it
ĠM ic
Ġ5 7
Ġcol on
Ġstrong ly
st yle
Ġalleg ations
h an
Ġrep orters
j o
r ine
arg et
and al
Ġ0 3
Ġfl ash
tr ans
Ġstr ict
Ġpark ing
ĠPak istan
Ġl i
Ġwe ird
ĠE ric
Ġreg ions
ĠJ un
Ġint ellect
ĠW H
od ing
rib utes
up id
ĠT it
Ġf inger
or ia
Ġe lev
ĠF ield
Ġcon clusion
; ;
Ġfeel ings
Ġext ensive
Ġm ixed
Ġne uro
v y
Ġhar ass
ĠC irc
ou ch
Ġterrit ory
Ġsuccess fully
M ar
Ġing red
Ġoverw hel
Ġl ayer
V iew
Ġall ies
ill ance
ĠTh ree
Ġb unch
Ġnorm ally
Ġnet works
Ġsac r
ĠC IA
b les
Ġch ose
Ġopp onents
Ġregard less
Ġfr anch
Ġpre f
ĠP o
Ġbr idge
ann a
ĠSil ver
Ġw age
p age
ri or
Ġrad ical
ĠL ittle
Ġman ip
Ġsecret ary
Ġg ang
D R
F A
Ġdec ent
ĠSp irit
Ġun cle
ĠDevelop ment
Ġinvest ors
Ġwall s
Ġpub lish
Ġgener ate
iss ions
c ar
Ġprom ote
Ġcut ting
Ġche st
Ġdrink ing
Ġcollect ed
Ġ7 2
Ġhop ing
Ġem br
gor ith
Ġwar ned
Ġinstruct ions
O G
ĠD id
ĠAg ency
Ġg ear
Ġcritic ism
ĠF urther
Ġut il
ann y
R ed
Ġcoun sel
ĠAs ian
Ġredu ction
p ool
Ġteach ing
Ġdeep ly
i y
Ġestim ates
Ġcho ices
Ġperman ent
in em
ke l
Ġf asc
p se
f ile
ĠL ow
ĠP erson
Ġt ournament
st al
Ġm el
U ST
ĠR ay
az i
V al
Ġcont ained
ĠH olly
Ġw ake
Ġreve al
Ġprocess es
ĠIS IS
Ġ0 9
Ġbl ind
Ġste el
ĠB ad
Ġcare fully
app y
ro it
Ġg aming
Ġhous es
ĠC oll
Ġtr uck
er m
Ġsc ored
Ġocc as
ret urn
b ound
v ar
Ġsh arp
Ġaf raid
ĠE X
am ber
c ific
Ġsche me
N C
ĠPol it
Ġdecl ine
Ġ199 8
Ġpus hing
Ġposs ession
Ġpriv ile
Ġteacher s
Ġy ield
H A
ĠDav is
it led
#### ####
Ġr ig
ĠD aniel
ac on
Ġh ide
ut en
Ġcolle agues
Ġprin ciples
Ġl oud
Ġs in
ĠDem on
Ġst one
Ġ0 2
Ġt aught
Ġter rible
Ġst uck
ĠPol icy
te en
Ġimplement ation
ĠB BC
ĠAP I
Ġwhe el
all as
Ġch ampions
ol ars
play er
Ġrepeated ly
ĠSt ill
Ġlik es
ast y
es ter
ĠCath olic
R L
Ġb ath
Ġno ise
t itle
Ġn orthern
P art
Ġmag n
Ġf ab
ĠAs h
Ġdis pl
Ġtick et
Ġm urd
Ġalong side
ĠMus ic
Ġr iver
ĠSte el
ĠC L
ĠPl ayer
ĠM ult
ow ing
re p
s ize
Ġt ur
ĠGeorg ia
isc al
ra ction
Ġc able
Ġ5 9
Ġw ins
Ġup coming
Ġsurv ive
Ġins pired
ĠEduc ation
Ġstat istics
ĠF oot
iam i
Ġy ellow
ĠP age
. -
ĠH as
Ġur ban
Ġa x
es sel
\ "
Ġquarter back
Ġreg ister
ĠLab or
Ġab ilities
ĠF amily
Ġvar iable
ĠPr ice
Ġcont em
Ġth in
ĠE qu
d ata
Ġg otten
Ġconst it
Ġas ks
Ġt ail
Ġexc iting
ĠE ffect
ĠSp anish
Ġencour age
ins on
ĠA h
Ġcommit ment
C S
Ġr ally
Ġ: :
Ġsubs id
Ġsp in
Ġcapt ured
201 8
Ġinn oc
Ġalleged ly
ĠC ome
Ġart ists
ĠN umber
Ġelect ronic
Ġreg ional
ap es
Ġw ra
Ġmy th
pr ise
ĠM iller
ĠC reat
ĠEp isode
b ell
Ġdirect ed
Ġext ract
Ġs orry
Ġv ice
ag ger
ĠSu pport
Ġ6 6
ĠI ron
Ġwonder ful
Ġg ra
N et
ion e
E ng
Ġsh ips
ik es
ĠK evin
it ar
Ġactiv ists
tr ue
ĠAri zona
ent h
ĠDes pite
ĠS E
Ġha bit
ern el
Ġin qu
Ġab ortion
Ġv oid
Ġexpl icit
Ġeng aged
Ġang ry
Ġr ating
Ġfr ag
b ro
ick ing
d ev
Ġwor ried
Ġob ser
Ġap artment
ĠG T
Ġest ate
ĠConst itution
em on
ĠS now
Ġcount y
Ġdis ag
ĠStep hen
Ġimm igrants
w ind
ĠN ations
Ġfol ks
O ut
Ġg all
Ġtarget ed
Ġst ead
ĠB on
ĠL ib
Ġinform ed
Ġ12 0
ch ain
idel ines
or ough
Ġdri ven
Ġregular ly
Ġbas ket
Ġprinc iple
oc ument
Ġst un
ib ilities
ĠRom an
ĠAb out
Ġal ert
Ġdemocr acy
Ġrepresent ed
H S
c ers
p arent
Ar t
p ack
Ġdi plom
re ts
ĠN O
Ġcapt ure
ĠAd v
Ħ ¢
Ġannounce ment
ĠL ear
Ġh ook
Ġpur s
ĠS uch
ĠC amer
Ġrefuge es
ĠV e
P ol
Ġrecogn ized
l ib
Ġhad n
A ss
Ġpil ot
us hing
Ġreturn ing
Ġtra il
ĠSt one
Ġrout ine
Ġcour ts
Ġdes per
Ġfriend ly
ĠIt aly
Ġpl ed
Ġbreat h
Ġstud io
N S
Ġimp ressive
ĠAfghan istan
Ġf ing
Ġd ownt
ink ing
ĠR og
i ary
col or
se x
ar on
Ġf ault
ĠN ick
D own
ĠR ose
ĠS outhern
X X
is odes
L ist
6 00
Ġout come
er r
Ġelse where
Ġret ire
Ġp ounds
ĠGl obal
Pe ople
Ġcommun ications
Ġlo an
Ġrat io
ĠEm pire
Ġg onna
Ġinv ent
D F
Ġ19 70
ĠComm on
p at
Ġprom ised
Ġd inner
ĠH om
Ġcreat es
Ġoper ate
ver ty
ĠJ ordan
et ime
Ġsust ain
R eg
Ġincred ible
im a
Ġwar rant
Ġm m
A tt
Ġlaw suit
Ġreview s
it ure
ĠS ource
l ights
ĠF ord
Ġ6 3
g roup
st ore
Ġfeat ured
Ġfore ver
Ġpo verty
ĠP op
ĠC NN
az z
ab is
ach ing
Ġl aid
ĠSu pp
Ġfil ter
en a
ĠCommun ity
Ġcreat ures
u ction
ĠR oyal
Ġassoci ation
ĠCon nect
ĠBr ad
âĸ Ī
l ers
the re
ĠG i
Ġval uable
AC K
ĠT aylor
Ġl iquid
ĠAtt orney
ĠCar l
ĠF inal
ag a
ĠWil son
B ecause
ĠProf essor
ak a
Ġincred ibly
r ance
! )
R ef
s k
Ġsol utions
Ġatmosp here
Ġbl ame
um es
ĠN ob
C A
um ps
r ical
ĠPut in
ĠD est
or ic
ĠP A
Ġrespect ively
w an
Ġfif th
â Ħ¢
ĠC ry
Ġgovern or
res ident
Ġpurch ased
Ġh ack
Ġint ense
ob s
Ġorig in
Ġdef ine
Ġcare ful
** *
Ġshould er
Cl ick
Ġt ied
Ġdest ruction
ou red
Ġno body
Ġh o
ĠEx per
Ġt ip
" ;
Ġtechn ique
Ġj ur
ĠP ok
b ow
Ġleg end
Ġacc ord
Ġbus y
ĠInt el
Ġh ang
ak i
. ]
âĢĶâĢĶ âĢĶâĢĶ
Ġsur gery
Ġrep rodu
Ġun iform
Ġscen es
c ode
Ġ6 2
l isher
ĠH ave
ph ia
Ġcry pt
Ġrec on
Ġsc ream
Ġadop ted
Ġsc ores
N e
ĠIt alian
in cluding
B O
Ġindic ated
Ġent ertain
G u
T ext
i el
Ġtw enty
Ġeng age
off s
ĠPac ific
Ġsm ile
Ġperson nel
Ġto ler
Ġdo ors
Ġt one
Ġmach ines
Ġent ering
ten ance
C O
ĠJer sey
Ġfore st
Ġhor se
Ġcompl aint
ĠSpr ing
y o
ĠPl us
ed ing
ĠRet urn
qu arters
ial s
c ow
Ġacad emic
Ġf ruit
Ġ199 6
og ether
Ġw ine
Ġpur su
ĠSte ven
Ġlic ens
Wh o
Ġclot hes
re ction
Ġsqu ad
Ġst able
Ġr aw
z ens
St ar
ut ies
anc er
Ġke ys
ĠM u
Ġcompl icated
ig er
ĠTe xt
Ġabs or
Ġ6 8
Ġfun ny
Ġrel ief
ĠL ew
ĠC ook
Ġch art
Ġdraw ing
G E
Ġmod ule
ĠB ull
I LL
Ġs alt
0000 0000
il le
Ġres ource
aw ay
adel phia
ĠB ru
Ġ6 7
Ġsome body
Ġparticip ate
Ġro se
we red
Ġmus cle
Ġcons ent
Ġcontin uing
ĠGuard ian
ĠOr der
reg on
Ġre ar
Ġprov ision
Ġlik ed
ri ent
Ġb ra
Tr ans
Ġmeet ings
Ġto x
Ġcon vent
Ġaut o
Ġrec ording
ĠSo ft
00 1
ĠR oll
Ġprogram ming
Ġp ic
Ġprov ed
Ġst ab
ĠA st
Ġca ption
ul ating
ĠAtt ack
Ġnew ly
Ġ199 7
f r
Ġdis cipl
ĠGree k
Ġed ition
ĠDo es
ĠB ox
if le
ack et
Ġpass es
Ġgu est
Ġac celer
it als
U D
Ġaut hent
ĠR est
ov al
t a
u ine
Ġarm or
ĠT own
Ġcomp at
Ġinc hes
Des pite
Ġass ign
he rent
Ġprep are
ĠM eg
oc key
Ġdep ends
Ġtrack s
w atch
Ġl ists
ĠN orthern
Ġal ter
re c
ĠE astern
Ġcond em
Ġevery where
? '
Ġaff ili
Ġf ought
": {"
Ġm ac
it arian
Ġsc ope
ĠA L
aw s
ar ms
Ġqu e
Ġenjoy ed
nes ota
Ġagg ressive
ĠSt ory
ĠI V
Ġrec ipe
Ġrare ly
ĠMed ical
val ue
ang el
ay ing
omet hing
Ġsub section
Ġs outhern
Ġfrequ ency
re te
roll ed
ult s
ĠN ic
Ġbeh alf
Ġsequ ence
ab et
Ġcontrovers ial
Ġcomp rom
Ġwork er
Ġmain ly
Ġal gorith
ĠM ajor
or ce
g ender
Ġorgan ized
Ġf ake
Ġconclud ed
ĠE D
ĠEx ec
r age
Ġch ances
ber ry
ĠTr ad
Ġconfig uration
Ġwithd raw
Ġf ro
ud es
ĠBro ther
ĠB rian
Ġtri es
Ġsam ples
Ġb id
ĠGold en
Ġphot ograph
if est
ĠD O
ĠPar liament
******** ********
R em
Ġcont est
Ġsign ing
p x
ĠZ eal
âĶĢ âĶĢ
E ar
Ġex it
Be fore
ĠCor por
n ull
mon th
Ġrac ial
ott ed
ĠV eg
ĠRe uters
Ġsw ord
ps on
ĠRom ney
a ed
Ġt rib
Ġin ner
Ġprot ocol
ĠB i
ĠM iami
ever al
p ress
Ġsh ipping
ĠAm endment
ĠHow ard
con nect
ĠD isc
ĠJ ac
iam ond
ĠThere fore
s es
ĠPrin cess
ĠUS B
ĠAn th
Ġsurve illance
Ġap olog
Ġ6 1
ow a
Ġf ulf
j s
Ġl uck
ust ed
ĠÂ §
n i
Ġant icip
em an
Ġwin ner
Ġsil ver
ll a
ic ity
Ġunus ual
Ġcr ack
Ġt ies
e z
Ġpract ical
Ġprov ince
ĠPl ace
Ġprior ity
IC E
Ġdescrib es
Ġbr anch
F orm
ask a
miss ions
b i
Ġp orn
ĠTur k
Ġent hus
Ġf ighters
Ġ0 8
ĠDet roit
Ġfound ation
av id
A re
Ġjud gment
cl ing
Ġsol ve
ĠDes ign
W here
hes is
ĠT ro
a fter
Ġne utral
ĠPalestin ian
ĠHolly wood
Ġadv is
ĠN on
y es
ol is
Ġrep utation
Ġsm ell
Ġb read
ĠB ul
ĠBe ach
Ġclaim ing
Ġgen etic
Ġtechn ologies
Ġupgr ade
row s
Ġdevelop er
ĠJ osh
ĠDis ney
erv ed
ip al
Ġun ex
Ġbare ly
t hen
ĠP ub
Ġill ness
et ary
ĠB al
Ġp atch
Ġbut t
Ġst upid
ĠD og
ĠD allas
f ront
ie ce
Ġprot ests
Ġch at
oen ix
Ġw ing
Ġpar liament
Ġ7 7
ose xual
Ġre nder
pt ions
ĠCo ast
os a
ĠG reg
h op
ĠMan agement
Ġbit coin
Ġrec over
Ġincor por
or ne
ĠUs ing
Ġpre ced
Ġthreat ened
Ġspirit ual
ĠE vent
ĠF red
Ġadvert ising
Ġimprove ments
ĠC ustom
Ġer rors
Ġsens itive
ĠN avy
Ġcre am
L ook
Ġex clusive
Ġcomp rehens
Ġde leg
Ġcon ce
Ġrem em
Ġstruct ures
Ġst ored
N D
Ġ1 000
U P
ĠB udd
A F
w oman
ĠAcad emy
ð Ł
se a
Ġtem porary
Ab out
es ters
Ġtick ets
Ġposs ess
in ch
o z
Ġl a
Ġcontract s
Ġun p
Ġc ig
ĠK at
ult ural
as m
Ġmount ain
ĠCapt ain
St ep
m aking
ĠSp ain
Ġequ ally
Ġl ands
at ers
Ġreject ed
er a
im m
ri x
C D
Ġtrans action
g ener
less ly
Ġ| |
Ġc os
ĠHen ry
Ġprov isions
Ġg ained
Ġdirect ory
Ġra ising
ĠS ep
ol en
ond er
Ġcon sole
in st
Ġb om
Ġunc ertain
1 50
ock ing
Ġmeas ured
Ġpl ain
Ġse ats
Ġd ict
S L
af e
Ġest imate
iz on
at hered
Ġcontribut ed
Ġep isodes
omm od
G r
AN T
Ġ6 9
G ener
Ġ2 50
vious ly
rog en
Ġterror ism
Ġmove ments
ent le
oun ce
ĠS oul
Ġpre v
ĠT able
act s
ri ors
t ab
Ġsuff er
Ġn erv
Ġmain stream
ĠW olf
Ġfranch ise
b at
Ġdem ands
Ġag enda
Ġdo zen
Ġclin ical
iz ard
ĠO p
t d
Ġvis ited
ĠPer haps
Ġact or
Ġde lic
Ġcont ribute
Ġin ject
ĠE s
ac co
Ġlist ening
Ġcon gress
epend ent
Ġprem ium
Ġ7 6
ĠIr ish
Ġass igned
ĠPh ys
Ġworld wide
Ġnarr ative
ot ype
m ont
b ase
ĠB owl
ĠAdminist ration
Ġrel ation
ĠE V
C P
Ġco vers
Ġ7 8
Ġcert ific
Ġgr ass
Ġ0 4
pir acy
ir a
Ġengine ering
ĠM ars
Ġun employ
ĠFore ign
st ract
Ġv en
Ġst eal
Ġrepl ied
Ġult imate
Ġtit les
d ated
Ġj oy
a us
Ġhy per
ak u
Ġoffic ially
ĠPro duct
Ġdifficult y
per or
Ġresult ed
rib ed
l ink
wh o
~~ ~~
ĠSpe ed
ĠV iet
W ind
ĠBar ack
Ġrestrict ions
ĠSh are
Ġ199 5
ition ally
Ġbeaut y
op t
Ġm aps
ĠC R
ĠN ation
ĠCru z
W ill
Ġelectric ity
Ġor g
Ġb urd
Ġviol ation
Ġus age
Ġper mit
ĠCh ron
ĠF ant
Ġn aturally
Ġ0 7
Ġth rown
ĠAw oken
Ġal ien
ĠHer o
ĠK ent
ĠR ick
ri ke
Ġp ace
}, {"
G L
Ġpo ison
ĠT ower
Ġform al
al ysis
Ġgen uine
Ġk il
a ver
Ġproced ure
ĠPro p
intend o
ĠM ain
as ant
Ġtr ained
G ame
ĠL oad
ĠM A
Ġcru cial
Ġle ts
ĠF R
Ġch ampion
1 01
ĠCon ference
Ġwrit ers
Ġconnect ions
Ġo kay
ir ms
ĠR and
Ġenc ounter
ĠB uff
Ġachie ved
Ġche cks
isc ons
Ġassist ant
Ġwhen ever
ĠA ccess
ĠU r
b in
Ġcl ock
is p
op her
Ġb orrow
Ġm ad
Ġperson ality
on ly
IS T
ab ama
Ġg ains
Ġcommon ly
Ġter r
Ġhyp ot
Ġre ly
Ġt iss
iscons in
Ġrid ic
f unction
ĠO regon
Ġun com
r ating
el and
ĠN C
Ġm oon
ann on
Ġvulner able
ut ive
ÂłÂł ÂłÂł
ĠRad io
Ġw estern
se ct
ĠT ony
Ġocc urs
ĠO s
ĠH on
Ã Ń
Ġv essel
ĠScot land
Ġdiscrim ination
Ġsubsequ ent
st ring
Ġfant asy
ĠSh adow
Ġtest im
W E
it i
r as
Ġbo at
Ġmar ks
Ġord inary
Ġre n
Ġrepresent ative
Ġpet ition
Ġ7 3
Ġad venture
Ġign ore
ĠPhil adelphia
ĠS av
V P
Ġfact ory
Ġt asks
Ġdep ression
z ed
................ ................
ĠSt orm
Ġc ogn
Ġelig ible
Ġredu cing
v ia
Ġ0 5
Ġstri king
Ġdoll ar
h o
O V
Ġinstr ument
Ġphilosoph y
ĠMo ore
ĠA venue
Ġrul ed
ĠFr ont
IN E
ĠM ah
Ġscen ario
ĠNAS A
Ġen orm
Ġdeb ut
Ġte a
T oday
Ġabs ence
S im
Ġh am
le ep
Ġt ables
ĠHe art
M I
K e
re qu
V D
m ap
Ġchair man
Ġp ump
Ġrapid ly
v i
Ġsubstant ial
E P
d es
ch ant
ili pp
ĠS anta
ri ers
anche ster
L oad
ĠC ase
Ġsa ving
Ġ7 4
ĠA FP
er ning
oun ced
ĠMin nesota
ĠW as
Ġrec ru
Ġassess ment
ĠB ron
U E
Ġdynam ic
Ġf urn
ul ator
Ġprop ag
h igh
Ġacc ommod
Ġst ack
ĠS us
w rit
Ġre ven
ĠGod d
ĠZeal and
ab s
Ġbr ut
Ġper pet
h ot
Ġhard ly
ĠB urn
ãĤ ¹
Ġst y
Ġtrans actions
Ġg ate
Ġsc reens
Ġsub mitted
Ġ1 01
Ġlangu ages
ugh t
em en
Ġfall s
Ġc oc
Ĥ ¬
Ġstri kes
p a
Ġdel iber
ĠI M
Ġrel ax
ann els
ĠSen ator
Ġext rem
Ġ} ,
ĠDe b
Ġbe ll
Ġdis order
c ut
Ġi OS
Ġl ocked
Ġem issions
Ġshort ly
" ]
ĠJud ge
ĠS ometimes
Ġr ival
Ġd ust
Ġreach ing
F ile
Â¯Â¯ Â¯Â¯
ino is
ĠJ ason
Ġs atell
are t
Ġst ations
Ġag ric
ĠTechn ology
com es
ĠUn fortunately
ĠChild ren
Ġappl ies
ast ed
Ġan ger
ail ability
ĠDam age
Ġcomp are
ĠStand ard
Ġaim ed
ĠB a
angu age
Ġreg ulation
Ġj ury
Ġair port
Ġse ctions
ĠPr ince
em ed
Ġmedic ine
Ġh itting
Ġsp ark
ol ves
Ġad s
St ate
Ġfood s
Ġrepl acement
Ġch icken
Ġlow est
Ġmind s
Ġinvol ves
u i
Ġarr ang
Ġproced ures
ĠWh ich
ivers ary
Ġb ills
Ġimprove ment
Ġin ev
Ġexpect ations
Ġintellect ual
Ġsp aces
Ġmechan ism
2 50
bre ak
ĠZ e
ĠT enn
ĠB alt
Ġbar rel
Ġstat ic
man n
Pol ice
Ġt ips
Ġhand ling
c us
od ed
il ton
ir y
Ġjournal ists
our se
Ġcom ic
Ġnom ine
IT Y
Ġvers us
Ġlo op
Ġsur f
ĠInd ust
ĠHun ter
Ġbelief s
is an
Ġset up
Ġbre w
im age
Ġcomput ers
f ol
} ,"
ĠMed al
Ġtax p
Ġdisplay ed
Ġg rav
Ġf iscal
M on
ĠMos cow
ĠK ong
ĠCent re
Ġcamer as
ĠMr s
ĠH ay
Ġa ver
ĠK elly
p y
Ġrequire ment
Ġent itled
omb ie
Ġsh adow
ag ic
ĠA k
Ġel ite
Ġdiv ided
Ġhead ing
Ġcop ies
Ġloss es
Ġv it
k ed
ĠB ry
Ġan s
ĠSte am
Ġrep orter
he im
ĠIt em
Ġsuper ior
d on
ere nt
Ã ¶
Ġtherap y
Ġpe ak
ĠMod el
Ġl ying
Ġg am
z er
r itten
Ġrespons es
Ġconsider ation
ĠB ible
Ġl oyal
Ġinst ant
Ġp m
ĠFore st
Ã ¼
Ġext end
Ġconv icted
Ġfound er
Ġconv in
ĠO ak
che ck
Ġsch olars
p ed
Ġover se
T op
c ount
ĠAr k
Â ·
Ġ0 6
ĠL A
m d
ĠLat in
im ental
ĠC PU
Ġsubst ance
Ġminor ity
Ġmanufact uring
E r
ocol ate
Ġatt ended
ĠMan ager
r ations
Ġappreci ate
om y
GB T
id ency
B L
Ġguarant ee
pos ition
Ġo cean
clud e
Ġhead ed
Ġt ape
Ġlo ose
Ġlog ic
Ġpro ven
Ġsp ir
Ġad mit
is a
Ġinvestig ate
Ġ199 4
sy lv
ĠL ost
c est
Ġ7 1
Ġrequest ed
Ġwind ows
ĠPok Ã©
ĠWith out
M et
Ġbehavi our
Ġread er
Ġh ung
ĠKe ep
Ġro les
Ġimplement ed
Ġbl ank
Ġserv es
ĠJ ay
Ġc ited
ĠF riend
prof it
ap on
Ġrep air
it em
arr ass
Ġcrit ics
ad i
ĠF ather
Ġsh out
Ġf ool
Ġ8 8
Ġprodu cing
Ġl ib
Ġround s
Ġcirc le
Ġpre par
Ġsub mit
Ġn ic
mor row
ãĥ «
U nder
Ġv ital
ater n
Ġpass word
Ġpublic ation
Ġprom inent
Ġspeak s
Ġb ars
Ġde eper
ĠM ill
port ed
Ġw id
Ġbut ter
Ġsm oking
Ġindic ates
K ey
rop ri
ĠF ile
all ing
ast ing
ĠR us
Ġad j
Ġ7 9
av al
Ġpres um
bur gh
on ic
Ġf ur
Ġpoll s
ik a
Ġsecond ary
Ġmon ster
ig s
ĠCur rent
E vent
Ġowners hip
end ar
Ġarri ve
ĠT ax
Ġn ull
ĠPri v
Ġth ro
Ġk iss
c at
Ġup set
ang le
it ches
ect or
olog ists
ĠGal axy
Ġcor ruption
Ġh int
ent er
ĠH ospital
Ġgreat ly
Ġbeg un
es y
Ġso il
ĠAnt on
Ġmain tenance
ãĥ ©
Ġdo zens
Ġhuman ity
ĠAl abama
Ġr om
w orth
ap ing
sylv ania
l ah
Ġg athered
G A
Ġattack ing
f ound
ĠSqu are
Ġar bit
ict ions
ĠW isconsin
Ġd ance
ĠS aint
arch y
Ġbase ball
Ġcontribut ions
Ġliter ature
Ġex ha
per ty
t est
Ġb ab
Ġcontain er
let ter
Ġfall en
Ġwebs ites
Ġbott le
ĠS ac
Ġbre ast
ĠP L
Ġveter an
Ġinterview s
ĠA le
Ġb anned
eng ers
ĠRev olution
in th
Ġconc erning
IV E
Ġexp enses
ĠMatt hew
ĠColumb ia
d s
ist ance
Ġent ity
.. ."
Ġrel iable
Ġpar alle
ĠChrist ians
Ġopin ions
Ġin du
l ow
Ġcompet e
Ġth orough
Ġemploy ed
Ġestablish ment
ig en
ĠC ro
Ġlawy ers
ĠSt ation
T E
ĠL ind
ĠP ur
it ary
Ġeffic iency
âĢ Ĳ
ĠL y
Ġm ask
Ġdis aster
Ġag es
ER E
es is
ĠH old
Ġcas ual
b led
Ġen abled
ĠEn vironment
ĠInt elligence
i per
ĠM ap
ĠB E
Ġemer ged
is dom
Ġc abin
Ġregist ration
Ġfing ers
Ġro ster
Ġfram ework
ĠDo ctor
et ts
Ġtransport ation
Ġaware ness
H er
Ġattempt ing
O ff
ĠSt ore
ÃĥÃĤÃĥÃĤ ÃĥÃĤÃĥÃĤ
ĠK now
Ġdef ence
Ġsc an
ĠT en
ĠCh air
ĠP H
ĠAtl anta
Ġfuck ing
Ġans wered
b n
ĠK ar
Ġcateg ories
Ġr ational
Ġc ust
Ġrob ot
Ġcorrect ly
Ġg if
Ġgraph ics
m ic
Ġground s
ĠO pp
i ate
Ġdist ributed
Ġsan ctions
Ġchalleng ing
ut o
Ġingred ients
Ġinv ited
Ġfound ed
ĠRe qu
d ed
Ġb owl
Ġbrother s
ĠH a
I O
Ġw ages
im ore
oc ial
Ġse ed
ative ly
Ġaddress es
ĠI owa
ab eth
Ġatt itude
is d
ch ild
Ġm ole
Ġdisco very
y ard
B r
Ġ8 2
Ġsuppl ies
ell ing
Ġdist ingu
C R
Ġre cept
Ġ vert
Ġsw im
b ec
d oor
ĠY eah
Ġg al
Ġinter act
ĠE SP
ĠC S
amp s
Ġconvin ced
Ġobject ive
Ġdis h
ĠPhot os
l ad
Ġdownt own
o il
in ction
Ġto morrow
ĠC OM
Ġsurv ival
sh ot
Ġsett lement
C ons
ĠX box
int erest
ĠS M
arg o
en ess
Ġeth nic
b ered
M in
ĠT ok
Ġinc ent
ĠComm and
Ġmain tained
Ġbreak s
br idge
at ar
ag g
ĠF inally
un icip
ĠO nt
le ft
Ġrecogn ition
Ġ* /
ĠP ers
Ġwe lf
Ġaddress ed
ĠK ansas
Ġvir us
Ġwhere as
Ġp apers
ram s
ĠMin istry
Ġple asure
Ġacqu ired
Ġd uration
j pg
Ġcal m
ĠN HL
Ġburn ing
Ġfold er
ick ed
ĠP y
ĠIll inois
Cl ass
ĠGodd ess
Ġperform ing
Ġwelf are
j ar
In ter
Ġl in
Ġenh ance
Ġnot ion
f are
yp es
ĠAre a
Ġcann abis
ĠDie go
f s
ĠM anchester
com m
in ite
Ġcover ing
ĠS ound
Ġ19 60
Ġ8 4
e lect
z ing
Ġcitiz en
Ġph ones
Ġr aid
Ġign ored
ĠOb ject
Ġu pload
c ard
Ġmod ified
Ġroom s
ia h
r ange
he ast
ach us
Ġsuggest ing
âĢ ĭ
gr ade
E l
Ġclot hing
Ġr h
ĠH an
un ity
en cing
ĠAust in
sec ution
t ra
d em
ĠQ ual
Ġhe aven
Ġst ages
Ġw edd
pl us
ific ial
ĠIm m
ĠH o
iet ies
Ġphr ase
Ġbr ill
act ory
Ġprov iders
Ġsil ence
Ġa er
ĠA I
ĠAd venture
Ġplatform s
Ġdemonstr ated
Ġinter f
ing ton
Ġr aces
Ġgr ade
ult ane
ĠTh rough
f alse
Ġb ow
ĠA B
Ġfl avor
Ġhistor ic
g ov
Ġcol our
Ġview ed
ĠEm ail
el come
Ġinter vention
Ġd iversity
Ġperiod s
Ġre verse
ĠV ery
Ġqu ote
ĠLe ft
th rough
Ġsc rew
Ġland ing
Ġp ill
Ġw et
Ġprot esters
Ġrepe at
av ed
er k
Ġsal ary
ĠPenn sylvania
St ill
Ġmay or
Ġkit chen
Ġfeat uring
ĠM useum
ĠT ournament
ĠF al
Ġser vers
U C
Ġany body
im g
ĠTr ade
ixt ure
the less
Ġfin ance
Ġcl osing
ĠPat ri
i ac
ab el
Ġ> >
or ous
Ġf irms
sc reen
un a
Ġemb arrass
ul se
Ġlet ting
Ġth rew
ile y
Ġch annels
l an
ĠVeg as
Ġse ar
Ġfant astic
ar re
uzz le
ĠD er
Th ose
Ġsw ing
Ġshe et
ind ex
co ver
og an
Ġvari ables
ĠTe ch
Ġsp oken
ac hel
ĠD a
ĠMount ain
Ġload ed
Ġfoot age
vers ion
Ġun l
ĠPh oenix
Ġthrow ing
Ġf iring
Ġtrack ing
Ġw idth
Ġstrugg ling
ro oms
ot ion
Ġmonth ly
ĠSer ver
Ġegg s
op en
M C
Ġ199 3
Ġh ired
Ġstay ed
ĠAll en
Ġst ro
Ġ9 8
st ep
ĠTurk ish
Ġfab ric
ist ing
ĠD om
Ġd ates
Ġpr on
Ġbasket ball
Ġl ucky
ĠArab ia
Ġassum ed
est y
Ġaff airs
Ġgl ad
ĠInd eed
ĠF A
ĠW ord
Ġjo ining
if ice
p read
ir ts
ĠSe lect
Ġpop ulations
aw are
Ġn ose
Ġcompl aints
st art
Ġsc oring
Th anks
Ġmin ing
Ġvisit ors
S H
Ġdam aged
Ġcharacter istics
ĠP ent
D C
Ġ8 3
ĠS ix
r ates
Ġfl ags
ĠB rew
d og
M ark
// //
Ġexec ution
Ġj oke
ph ones
Ġtestim ony
Ġob st
Q L
ĠC ut
Ġstud ied
ĠN intendo
ick et
ĠN BC
Ġl ad
ĠB ra
ĠM oh
Ġk ernel
Ġoverwhel ming
Ġag ed
Ġapplic able
ĠC ond
Ġroad s
ĠBl ock
m ade
od ge
Ġcomm ands
Ġoff ices
vel and
Ġt ut
Ġrece iver
ĠF ro
Ġsho pping
Ġi P
ĠSt re
ĠA BC
Ġentertain ment
ĠB ow
ort ed
M c
Ġread s
gr ad
ĠCol lect
Ġâ ĪĴ
ĠCap ital
eder ation
Ġemploy er
Ġinvolve ment
Ġanx iety
al ia
Ġro of
ĠAm ong
ĠDemocr at
Ġstat s
ĠV ill
Ġconst itutional
Ġrefer ring
itt y
Ġtack le
out ube
Ġback ed
ĠH ong
ĠBro ad
Ġe le
ĠO tt
Ġ199 2
h our
achus etts
C al
Ġdefe ated
Ġ8 1
es p
Ġseem ingly
w as
ĠJ enn
ĠK urd
Ġg ene
Ġdisc ount
R et
EC T
( );
Ġclub s
Ġs id
ĠM arsh
Che ck
Ġp p
ĠE ag
ides pread
Ġbe ings
F T
Ġintrodu ction
ĠCh ange
AR D
Ġ1 10
ad ows
ier ce
Ġme al
a uthor
ĠB ang
lah oma
Ġr anks
201 1
?? ??
m ax
Ġcoll apse
Ġop ens
Ġe cho
Ġs oph
Ġrac ist
Ġenorm ous
Ġw aves
Ġt ap
Ġcomprehens ive
. --
ĠR oy
Ġfarm ers
Rel ated
a ired
ron es
ĠC rim
Ġproport ion
Ġdesign s
Ġnegoti ations
Ġvirt ually
ĠBat man
Ġwar n
Ġlegit imate
m ate
Ġcon vention
, ,
net ic
ĠS D
Ġconsist ently
Ġcompens ation
Ġpunish ment
Ġy e
Ġt ie
ĠB ureau
ir lf
ĠB u
ĠA ren
ĠPh ilipp
Ġkn ife
Ġmem ories
ĠR oss
Ġang le
Ġ8 6
ĠTh under
Ġre nd
ĠT our
Ġcount s
s ung
ĠIm p
Ġeduc ational
Ġaccess ible
C OM
Ġd rew
y er
G l
am ine
OR T
O B
I B
m aster
Ġtri als
og y
h ar
ĠTr ust
Ġprefer red
irlf riend
ĠN ev
Ġb in
Ġc ow
P age
Ġsign ature
ĠB L
7 00
Ġret ired
Ġby tes
Ġneigh b
ĠLeg end
Ġdev ast
Ġsuspect ed
is ons
ĠPokÃ© mon
sc ale
Ġcap abilities
Ġre vel
Ġche ese
d y
igr ant
Ġfail ing
b its
ĠHer oes
ĠG host
ĠS cient
Ġappoint ed
ur i
Ġinst itution
Ġexpand ed
g reg
Ġmonitor ing
Ġp odcast
Ġcoal ition
Ġ9 6
J o
Ġst olen
ĠS ab
Ġstop s
Ġhol iday
Ġint r
C ar
Bl ack
ĠL GBT
Ġwar ming
ĠAnd erson
Ġ8 9
Ġprodu cer
M ed
Ġaccur acy
ĠMar vel
iz abeth
ĠPat rick
m ony
Ġmin i
ac les
Ġover t
the y
Ġmembers hip
ĠV en
Ġex ch
Ġrem oval
ĠD ave
T Y
m ad
ĠF ind
Ġad equ
Ġe c
Ġte eth
Ġemot ion
Ġper m
Ġsole ly
d b
Ġextra ord
IG HT
c al
Ġgu idelines
Ġd ying
Ġsusp ended
ĠPrem ier
ĠAnth ony
el ve
Ġd ad
ĠE th
ĠFoot ball
Ġabandon ed
Ġ< <
Ġm arch
Ġhor ror
âĢ¦ "
Ġchild hood
Ġcampaign s
Ġl unch
ĠAl bert
bl ock
âĸĪ âĸĪ
ound ing
Ġb one
or gan
ad ers
ĠFl ash
ĠDri ve
Ġton ight
Ġw ars
ĠF L
Ġform ation
con st
New s
Ġcom pe
or ious
ĠSt aff
Ġdiscuss ions
ĠProt ection
ĠJ am
Ġcrit eria
Ġinstall ation
Ġaccompl ish
iz za
Ġpub lisher
Ġresc ue
ĠT ry
U LL
ĠS om
ĠH op
ore t
th s
ord on
Ġp ocket
ĠIn v
Down load
ĠCr ime
Ġb ene
ĠGu ide
ĠAs sembly
Ġparam eters
I E
ĠAlex ander
Ġconc ert
ĠSc he
Ġsh oes
Ġvis iting
Ġrec all
Ġb ub
Ġr ural
Ġconc rete
ĠR os
N ext
R uss
Ġlo ans
ĠSh ield
Ġtre m
hem at
k g
ĠHar ris
is ition
ĠM ove
ĠF C
Ġf ate
ĠCh o
Ġt ired
Ġprinc ipal
h ist
ien ces
ath y
Ġse vent
Ġm ood
Ġstrateg ic
Ġdise ases
Ġfor um
Ġtem por
Ġhead quarters
P ar
ig e
fl ix
Ġgu itar
Ġ9 4
On ly
Ġrele ases
ro ph
================ ================
Ġ6 00
ĠContin ue
ig ate
ĠC rit
sy stem
Ġdis abled
Ġunex pected
ith ub
Ġuncle ar
ĠE st
Ġcontr ad
Ġstrateg ies
vent ures
Ġpass age
AM E
Ġimpro ving
Ġreve als
Ġdecre ase
ov a
Ġann oy
ĠSh ort
ĠL ibrary
Ġcy ber
n ell
ĠH ur
ĠC B
Ġphot ograp
U I
Ġs ed
G e
Ġ8 7
Ġd iverse
Ġencour aged
Ġcons piracy
Ġbird s
Ġoper ator
Ġhand ful
Ġclass ified
? )
Ġdram atic
Ġinvestig ators
it o
Ġw idespread
ĠR oom
-------------------------------- --------------------------------
Ġcollect ive
Ġjournal ist
St ring
Ġtemper atures
il a
Ġgu id
Ġins pect
Ġmiss ile
ĠMay or
Ġman ual
Ġsim ultane
Ġrat ings
Ġsu ck
Ġ9 7
Ġunivers al
Ġph arm
Ġdis rupt
ian o
A V
Ġf t
Ġstat ist
old s
ĠWalk er
ph p
Ġunder t
ĠL as
ish op
nt il
res hold
ĠWhe ther
M s
Ġden y
ĠCl oud
Ġprov ider
Ġsurv iv
ĠUp date
h as
Ġmist akes
ch arge
pl ed
r ity
Ġn ode
ĠMass achusetts
ool s
lic ation
Ġf ails
em ale
or i
back s
Ġsh irt
Ġ' '
ĠN AT
Ġwat ers
els on
Ġe ase
Ġsc ar
Ġcont ents
m ind
Ġcont ribution
Ġsh r
Ġhand ed
Ġst ability
Ġtra ve
E m
Ġmir ror
12 3
Ġwe igh
Ġf iction
ou ver
ist ant
r ition
ĠF ed
Ġphys ically
Ġst ake
ĠArt icle
ĠAr c
ĠLew is
ĠM ind
Ġdemonstr ate
Ġprof its
v ision
om ic
ol id
Ġbatt les
Ġdri ves
Ġeas tern
ĠS ony
!! !
ar ation
v ard
ĠG L
port ation
Ġ9 2
Ġlaw makers
Ġprotect ing
ĠE PA
Ġy eah
Ġsh ame
ol ph
e ven
x it
Ġatt ach
Ġrepresent ing
Ġob s
ĠUt ah
iff s
ĠFre edom
Ã ³
A K
Ġinc idents
it age
Ġview ers
c d
Ġm ouse
Ġcl ar
Ġaccord ance
Ġb ot
c or
ĠSum mer
he ld
Ġinnoc ent
Ġiniti ative
ol s
________________ ________________
Ġsp ots
p ace
Ġconvent ional
Ġcorpor ations
Ġblock ed
H D
at tered
Ġref ers
Ġbu ck
ĠDig ital
12 0
Ġtop ics
T F
Ä ģ
br id
re ement
Ġunder lying
ĠM ember
Ġinvestig ating
Ġpregn ancy
Ġtouch down
ĠB and
ĠCall er
Ġinst ances
P P
w a
G ood
Ġ199 1
ĠC old
Ġfear s
Ġrem arks
Ĩ Ĵ
at al
Ġm it
Ġexper iments
i pt
Col or
ind u
Up date
Ġ9 3
A g
Ġ å
anc ouver
B oth
Ġjud ges
Ob ject
Ġst ere
umb n
Ġparticip ation
ĠSt ars
ĠJ ere
Ġweek ly
ĠB an
Ġconvers ations
ĠP itt
u z
ĠIndian a
ĠK ick
Ġinf ection
Ġhero es
Ġsett led
Ġstri p
Ġh al
Ġd ump
ĠS ci
Ġl es
Ġref erences
ĠU RL
ĠBr idge
Ġwant ing
For ce
Ġex clus
Me anwhile
m n
Ġg entle
m aker
sen al
ĠG ro
ou ri
ĠR ain
ĠAll iance
Ġl ift
el a
S D
ĠCle veland
Ġrank ed
Ġst adium
Ġdead ly
ä ¸
Ġr iding
ar ia
ĠAr mor
Ġdocument ation
ĠGree ce
ree k
Ġl ens
ĠS a
Ġg ross
ĠE mer
ag ers
ĠD ub
ĠR h
ĠAM D
Ġarri val
Ġdes ert
Ġsupp lement
ĠRes p
Ġkn ee
Ġmarg in
f ont
og g
201 0
ĠP ir
ĠP rom
iv als
Ġint ake
Ġdifferent ly
ug s
Ġb its
clud ed
Ġsearch ing
ĠD u
um ble
Ġfunction al
ĠBalt imore
ĠC ould
Ġdes ired
Ġcirc uit
ĠL yn
ĠG O
ĠF alse
re pre
' :
alt ies
Ġmin im
Ġdro ve
ĠSh ould
Ġh ip
Ġpro s
Ġut ility
ĠN ature
ĠM ode
P resident
o pp
r at
form ance
Ġconcent ration
Ġf ont
ĠB ud
Ġam id
Ġre vers
ĠM L
B ar
Ġinter action
Ġjur isd
Ġspell s
d ep
f il
Ġcivil ians
ut ter
ĠCo oper
ĠBel ow
Ġent rance
Ġcon vert
Ġcontrovers y
ow ered
Ġcontr ary
Ġar c
ĠExec utive
ĠOffic er
Ġpack ages
Ġprog ressive
w idth
Ġreserv ed
v ol
ĠSam sung
Ġprint ed
Ġcent ers
Ġintrodu ce
ĠKenn edy
Ġodd s
Ġsure ly
Ġindepend ence
Ġpass engers
repre ne
ĠBe h
Ġl oves
ĠESP N
Ġfac ilit
Ġident ical
Ġdo ct
Ġpartners hip
con f
ĠH ide
Ġconf used
ĠC ow
M en
Ġw rest
ĠIraq i
Ġh oles
ĠStud ies
Ġpregn ant
h ard
Ġsign als
I X
Ġpull ing
Ġgrad uate
Ġnomine e
D ate
Ġper mitted
Ġâ Ĥ¬
ĠOk lahoma
St art
Ġauthor ized
Ġal arm
ĠC os
v an
Ġgener ations
c ular
Ġdr agon
ĠSoft ware
ĠEd ward
Ġcontro ller
S en
ge red
ĠV ik
Ġappro ached
Th ank
Ġcan ce
Ġform ula
ĠSm all
Ġweak ness
Ġr amp
it udes
j ud
Ġbrill iant
Ġacc us
s ource
Ġ8 00
ĠE vil
S w
Ġhom eless
we ek
i ens
r ics
ĠTh ird
T O
Ġorgan ic
Ġpresent ation
ag h
ĠDown load
v ation
Ġas sembly
or able
hold ers
ĠBern ie
ĠHel p
Ġt ong
ĠF ight
Ġbe ach
B ook
ĠL ic
Ġr ush
ĠR ound
ou p
ĠMar x
Ġcalcul ated
ĠDe vil
ĠSar ah
Ġoccasion ally
Ġbul let
Av ailable
g ate
Ġ9 1
Ġh osp
Ġprom ises
ĠH IV
ĠSt adium
ĠSt ock
ĠCorpor ation
g age
N G
ĠC redit
Ġs ne
ib l
Ġacc um
s uch
Ġterror ists
Ġconscious ness
ĠZ h
Ġdram a
ool a
pir ation
Ġlab our
ĠN in
Ġut ter
Ġdemocr atic
Ġass ass
il ation
Ġg est
Ġab road
Ġmet ab
Ġs orts
Ġfl av
U B
Ġm g
ĠNot hing
ĠO d
Ġmus ical
200 9
Ġdro ps
oc ated
ater al
0000 00
Ġg re
Ġequ ality
Ġburd en
Ġv ig
ĠLe ader
-------- ----
Ġcere mony
Ġf ighter
Ġact ors
Ġ æ
am an
F i
Ġal ign
put er
Ġe lder
ĠN SA
Ġrepresent ation
ĠOnt ario
IT H
usal em
Ġharass ment
itz er
Ġsy mp
Ġbox es
ĠD R
Ġman ifest
at re
Ġ ^
Ġd ies
le ton
Ġmiss ions
et he
Ġres olve
Ġfollow ers
Ġas c
Ġk m
l ord
am med
Ġsil ent
ĠAssoci ated
Ġtim ing
Ġprison ers
ĠK ings
ĠF ive
Ġtow er
Ġappro aches
Ġprecise ly
Ġb ureau
ĠM other
ĠI ss
Ġkey board
it ual
Ġfund ed
Ġstay ing
Ġpsych ological
Ġm ile
ĠLe on
ĠBar b
w ill
Ġw ider
ĠAtl antic
Ġt ill
ĠR ome
ro t
Ġaccomp an
Ġfl our
ac o
W orld
ĠExp ress
ĠY u
C or
Ġple ased
part y
Ġpoint ing
Ġinf lation
Ġro y
Ġ ),
ain er
Ġwedd ing
orm on
Ġrequ iring
Ġqual ified
Ġse gment
EN D
Ġs izes
e als
Ġcor rupt
ass ador
Ġcele b
Ġdream s
ĠM ess
Ġcheck ing
ĠV ersion
Ġprep aring
Ġact ively
ĠD iff
Ġl ux
ĠW inter
act eria
ĠN E
Ġdep uty
Ġtrans gender
Ġsum mary
Ġin her
er ies
ch ar
ĠY an
Ġkn ock
ĠP ath
Ġl ip
roll er
Ġimp ression
Ġcelebr ate
Ġsl ide
Ġgu ests
Ġcl ip
F S
Ġsav ings
Ġcapt ain
Ġleg acy
ĠDen ver
Ġw ounded
tab oola
AC T
Ġpurs ue
Ġo xy
Ġ q
Ġsem i
ĠN eed
ĠAff airs
Ġob sc
Ġcheck ed
Ġd ual
C ode
ĠM D
le m
ult y
ĠÂ ©
ĠEl izabeth
Ġcent uries
ard ed
s rc
Ġev ident
enn is
at in
Ġunemploy ment
ĠMar io
Ġint im
Ch rist
Ġbi ological
Ġsold ier
ĠAdd ed
Ġm ath
ĠG il
Ġbi as
Ġd ating
ĠO cean
Ġm ice
M us
h ire
ĠT es
Ser ver
lim ited
S ize
Ġmet ers
Ġrock et
es see
Ġcertific ate
ĠIran ian
AS S
Ġgr id
D ec
Ġro lling
com mun
ĠSwed en
b ury
Ġtiss ue
Ġrac ism
ĠL ocal
Ġmyster y
Ġexam ine
Ġst em
Ġs its
Ġhop ed
ot ing
Ġdial ogue
Ġpers u
W atch
l ay
M AN
Ġch ronic
ĠPort land
mark et
ĠS EC
Ġparalle l
Ġsc andal
Ġcar ries
Ġphenomen on
h uman
ack er
ĠO x
Ġretire ment
tain ment
ov ie
ĠG ear
Ġd uties
Ġdo se
Ġsc roll
M B
in f
Ġsa uce
Ġland scape
red dit
ĠChampions hip
ĠRed dit
al id
Ġco in
Ġover s
Ġpost ing
ab out
Ġf el
and y
Ġb old
Ġfocus ing
e ffect
G R
Ġde emed
Ġrecommend ations
Ġste pped
Ġvot er
ĠDe ep
ĠInst agram
Ġmoder ate
ĠMary land
Ġrestrict ed
ĠM B
ĠCh all
Ġto b
Ġc ir
ĠO cc
ĠE ver
Ġcoll aps
IN FO
= -
ĠP ict
ĠAcc ount
n c
Ġo ught
Ġex port
Ġdr unk
( '
Ġw ise
ĠM ort
ne cess
Ġan cest
ĠInc re
Ġfrequ ent
m ir
Ġinterpret ation
Ġdepend ent
Ġco ins
ĠB ol
V ideo
ĠJust in
Ġfat al
Ġcook ing
Ġconf usion
ip her
Ġcust ody
ĠMor gan
om ach
ĠGovern or
Ġrestaur ants
el ing
Ġacknowled ged
Ġthe r
Ġgen es
ch ing
He y
Ġtact ics
ĠMex ican
Ġv end
Ġhe s
qu er
Ġnot ing
ĠCamer on
Ġtarget ing
ro ck
Ġcred its
Ġemot ions
Ġrepresent atives
new s
Ġlegisl ative
Ġrem oving
Ġtweet ed
ĠCar ter
ĠF ixed
Ġfor cing
Ġspeak er
Ġm ales
ĠViet nam
l ined
Ġconcept s
Ġvo ices
o ir
ĠT rib
W he
ĠJer usalem
ĠS ant
Ġc ul
Ġl ady
ĠHaw ai
Ġar ts
ĠIn n
ĠMach ine
ĠEm peror
Ġsl ot
g ly
ĠPro cess
II I
Ġathlet es
ĠTem ple
ĠRep resent
Ġpres c
Ġt ons
Ġgold en
Ġp unch
ĠG R
iver pool
Ġen act
Ġlob by
Ġm os
Ġpick ing
Ġlif etime
Ġcogn itive
E ach
z o
Ġd ub
Ġcons ists
ol n
Ġf estival
am ous
Ġint ellig
w ords
ĠSm art
Ġde le
Ġl apt
Ġmag ical
ĠS in
b us
ur ities
igh th
ĠRub y
ĠS ure
ol ving
Ġj un
O ST
Ġimp osed
Ġast ron
Ġcor rel
ĠN S
ĠK it
ĠF uture
b urn
Ġimm une
oc us
Ġcour ses
ĠSt ring
Ġle an
Ġg host
Ġout comes
Ġexp ense
Ġevery day
Ġaccept able
A h
Ġequ ipped
Ġor ange
F R
ĠD utch
Th ough
ĠR ank
Q U
ĠRober ts
wh at
re nd
Ġdisapp ear
Ġsp awn
ĠL am
o is
Ġdes erve
Ġmin imal
Ġnerv ous
ĠW ould
Ġro ok
ĠV ancouver
Ġres ign
sh ire
ĠW orks
ĠB uild
Ġafford able
ĠG ary
ĠAren a
Ġh anging
Ġimpl ications
ĠS ong
Ġmain taining
Ġgu ards
C ON
Ġder ived
Ġexecut ed
Ġthe ories
Ġqu oted
ĠAnd re
og a
sel ess
in fo
ĠBel g
Ġt ears
ĠSur v
Ġbirth day
ig ious
im mer
Ġspect rum
Ġarchitect ure
Ġrec ruit
arm a
T able
Ġmon sters
ĠG ov
Ġdest ination
Ġattract ive
Ġf oss
ĠMore over
Ġpres ents
TH E
Ġrep ly
pt on
Ġc um
Ġdel ight
Ġaffect s
Ġdon ations
ĠT oy
ĠH im
M ENT
Ġover come
it ched
ĠFant asy
ĠH at
ĠBe ast
b ott
Ġinvestig ations
R un
Ġhun ting
d i
f und
Ġs essions
est yle
Ġport ray
oid s
Y eah
Ġcommun icate
Ġcom edy
ĠY ang
Ġbel t
ĠMar ine
Ġpredict ed
Pl ay
Ġimportant ly
Ġremark able
Ġelim inate
D avid
Ġb ind
V ID
Ġadvoc ates
ĠG aza
im p
D B
ĠN a
ĠSim ilar
I ES
Ġchar ity
v as
m ath
Ġâ ĸ
ok er
nd um
Ġcap s
ĠH al
2 000
e an
Ġfle et
Ġrec re
R ight
Ġsleep ing
ij ing
k ind
Ġdesign ated
Ã ¤
Ġanim ation
ke e
ĠInt rodu
Ġ/ >
Ġdelay ed
Ġtrem end
Ġcur ious
U se
Ġle ct
d am
Ġinnov ation
ĠPoint s
Ġload ing
Ġdisp ute
ct ic
ird s
ĠB Y
Ġn urs
ĠVal ue
ION S
ĠH um
Ġtem plate
m ers
Ġappear ances
ĠEnter tainment
Ġtransl ation
Ġsa ke
Ġbene ath
Ġin hib
Ġe uro
abet es
Ġstud ying
ĠM as
Ġper ceived
Ġexam ined
Ġe ager
Ġco aches
Ġim per
ch i
Ġprodu ces
" ).
ĠEvery one
Ġm unicip
Ġg irlfriend
Ġh ire
ĠV ice
Ġsu itable
op y
Ġin equ
ĠD uke
f ish
f irst
ĠO bs
Ġinter ior
ĠBru ce
ĠR y
Ġanal ys
Ġconsider able
Ġfore cast
Ġf ert
ors hip
ĠD rug
ĠA LL
: "
th ur
ĠM ail
Ġball ot
Ġinst antly
ĠCh annel
Ġp icks
Ġ198 9
Ġt ent
ol i
Ġcivil ian
b ling
ell o
b u
Ġin ch
Ġlog o
Ġcooper ation
Ġwal ks
Ġinvest ments
Ġimp rison
ĠF estival
ĠK y
Ġleg ally
Ġg ri
ch arg
S l
Ġthreat ening
du ction
fl ow
Ġdismiss ed
ibr aries
c ap
e le
ĠMc G
ĠHar vard
ĠConserv ative
ĠC BS
p ng
Ġro ots
ĠH aving
umb led
ĠF un
\ /
ĠS earch
ple x
Ġdiscuss ing
Ġcontin u
ĠT ai
ĠW ik
F ree
f it
Ġref use
Ġmanag ing
Ġsy nd
ip edia
w alk
Ġprofession als
Ġguid ance
Ġunivers ities
Ġas semb
unt u
F inally
AS E
ĠAut o
ĠH ad
Ġann iversary
L D
ĠD ur
ĠUlt imate
ih ad
pro duct
Ġtrans it
Ġrest ore
Ġexpl aining
Ġass et
Ġtransfer red
Ġbur st
ap olis
ĠMag azine
ĠC ra
ĠB R
gg ed
ĠH E
M ich
b et
ĠL ady
yl um
erv es
Ġme ets
wh ite
L og
Ġcorrespond ing
Ġins isted
G G
Ġsurround ed
Ġt ens
Ġl ane
Ġco inc
h ome
Ġexist ed
ect ed
ĠDou ble
lam m
Ġske pt
ex p
Ġper ception
ie v
ĠBe ing
o ft
Ġadop t
. :
] ;
Wind ows
Ġsatell ite
AS H
Ġinf ant
d escription
ĠMe anwhile
c m
oc a
ĠT reat
act or
Ġtob acco
ĠN orm
em ption
Ġfl esh
Ġj e
o op
ĠHe aven
Ġbe ating
an im
Ġgather ing
Ġcult iv
G O
ab e
ĠJon athan
ĠSaf ety
Ġbad ly
pro t
Ġcho osing
Ġcontact ed
Ġqu it
Ġdist ur
Ġst ir
Ġto ken
D et
ĠP a
Ġfunction ality
00 3
s ome
Ġlimit ations
Ġmet h
b uild
con fig
N T
re ll
ble m
ĠM om
Ġveter ans
ĠH u
Ġtrend s
are r
ĠG iven
ĠCa ption
m ay
AS T
Ġwond ering
ĠCl ark
n ormal
Ġsepar ated
Ġdes p
st ic
b rew
Ġrel ating
ĠN ik
ĠF arm
Ġenthus i
g ood
d eb
Ġactiv ist
Ġm art
Ġexplos ion
ĠEconom ic
L ink
Ġins ight
Ġconven ient
Ġcounter part
su pport
ĠV irt
ag en
ĠTenn essee
ĠSim on
ĠA ward
OC K
ĠF igure
Ġoverse as
Ġpr ide
ĠC as
n ote
m g
C urrent
Ġdispl ays
cont ent
Ġtravel ing
Ġhosp itals
ĠFin ancial
ĠP ast
Ġdefend ant
Ġstream ing
m ble
ĠBer lin
uk i
Ġdist ribut
Ġant ib
Ġch ocolate
ĠCast le
Ġinter rupt
ĠR ow
Ġconvers ion
Ġbug s
ĠR ather
li est
L Y
ĠJe an
com mon
ak h
Ġ1 30
ot ton
ĠDe an
Ġam endment
Ġgame play
ĠWar ren
od a
Ġhigh lights
Ġir re
ĠNAT O
Ġball s
Ġdemand ing
U RE
ĠL uke
F igure
st op
on ia
z one
iz ers
ĠW R
Ġaward ed
Ġregul atory
ĠH art
ĠS N
pl ing
Ġs our
ĠP ixel
us ive
Ġf et
ĠS ent
Ġautom atic
Ġf er
vern ment
ĠKh an
T ON
f ather
Ġextraord inary
th rop
ĠP ython
ĠG PU
Ġsex ually
Ġdesk top
it ivity
ĠAnton io
Ġo rient
Ġe ars
ob by
ous es
vertis ements
Ġmanufacture rs
ic ient
min ute
Ġconv iction
Ġg arden
p ublic
Ġsatisf ied
f old
O K
Ġin hab
ĠTh ink
Ġprogram me
Ġst omach
Ġcoord in
Ġh oly
Ġth reshold
Ġr het
Ġser ial
Ġemploy ers
ĠEvery thing
ra h
Ġb other
Ġbr ands
Val ue
ĠT ed
ĠPlan et
Ġp ink
ĠFurther more
s a
P E
re ck
ĠUS D
ot te
Ġ& &
Ġland ed
g ets
Ġprodu cers
Ġhealth care
Ġdomin ant
Ġdest ro
Ġam ended
ch ron
Ġf its
ĠSy d
ĠAuthor ity
AT CH
Ġfight s
ĠL LC
Ġ-- -
ĠCor p
Ġtox ic
spe cific
ĠC orn
ĠChe l
Ġtele phone
ĠP ant
Ġmyster ious
aun ch
od ox
med ia
Ġwitness es
ag u
Ġquestion ed
ĠBre xit
ĠRem ember
ene z
Ġend orse
iat ric
ĠId ent
Ġridic ulous
1 10
Ġpr ayer
Ġscient ist
Ġ19 50
ĠA qu
Ġunder ground
ĠU FC
m are
ĠL ater
w ich
Ġsubsc rib
Ġhost s
Ġer r
Ġgr ants
ant om
Ġsum mon
ear ly
ĠC lear
ĠPr im
Ġsusp ension
Ġguarant eed
app er
Ġr ice
ĠSe an
ĠSh in
Ġrefere ndum
Ġfl ed
r ust
Ġ3 60
ter y
Ġsh ocked
B R
ĠO il
ĠAll ah
Ġpart ly
Ġign or
Ġtrans mission
Ġhom osexual
ivers al
Ġhop efully
ãĤ ¤
Ġless on
L eg
Ġ ..
Y et
t able
app ropri
re tt
Ġbo ards
Ġincor rect
Ġb acteria
ar u
am ac
Ġsn ap
.' "
Ġpar ad
t em
he art
Ġav ailability
Ġw isdom
Ġ( +
Ġpri est
ĠÂł ĠÂł
O pen
Ġsp an
Ġparam eter
Ġconv ince
Ġ( %)
r ac
Ġf o
Ġsafe ly
Ġconver ted
ĠOlymp ic
Ġres erve
Ġhe aling
ĠM ine
M ax
Ġin herent
ĠGra ham
Ġinteg rated
D em
Ġpip eline
Ġapp lying
Ġem bed
ĠCharl ie
Ġc ave
200 8
Ġcons ensus
Ġre wards
P al
ĠHT ML
Ġpopular ity
look ing
ĠSw ord
ĠAr ts
' )
Ġelect ron
clus ions
Ġinteg rity
Ġexclus ively
Ġgr ace
Ġtort ure
Ġburn ed
tw o
Ġ18 0
P rodu
Ġent reprene
raph ics
Ġg ym
ric ane
ĠT am
Ġadministr ative
Ġmanufacture r
Ġ vel
ĠN i
Ġisol ated
ĠMedic ine
Ġback up
Ġpromot ing
Ġcommand er
Ġfle e
ĠRus sell
Ġforg otten
ĠMiss ouri
Ġres idence
m ons
Ġrese mb
Ġw and
Ġmeaning ful
P T
Ġb ol
Ġhe lic
Ġwealth y
Ġr ifle
str ong
row ing
pl an
as ury
âĢ¦ .
Ġexpand ing
ĠHam ilton
Ġrece ives
S I
eat ures
ĠAn im
RE E
P ut
Ġbrief ly
ri ve
Ġstim ul
Ġ`` (
Ġ __
Ġch ip
Ġha z
Ġpri ze
ĠTh ings
AC E
ul in
d ict
ok u
Ġassoci ate
ock ets
y outube
St ory
ateg ory
Ġm ild
ail ing
ĠY e
O rig
ĠK a
or ig
Ġpropag anda
Ġan onymous
Ġstrugg led
Ġout rage
AT ED
ĠBe ijing
r ary
Ġle ather
Ġworld s
Ġbroad er
12 5
id al
ĠBet ter
Ġt ear
E xt
Ġpropos als
Ġit er
ĠSqu ad
Ġvol unt
m i
D id
ĠP u
p in
Ġspeak ers
Ġb orders
Ġfig ured
= '
Ġsimultane ously
aed a
Ġcharg ing
Ġur ged
Ġcon j
25 6
ĠG ordon
mer ce
Ġdocument ary
Sh are
it ol
ON E
ĠG arden
h att
ĠThom pson
ane ous
ap ore
Ġt anks
Ġless ons
tr ack
Ġout standing
Ġvolunte ers
Ġsp ray
Ġmanag ers
l arge
Ġcamp s
Ġart ificial
ĠR u
Ġb ags
th al
Ġcompat ible
ĠBl ade
Ġf ed
Ġarg ues
F I
Ġunf air
Ġcor n
Ġoff set
Ġdirect ions
Ġdisappoint ed
ĠCon vention
Ġview ing
M E
oc ity
Ġtown s
Ġlay ers
Ġro lled
Ġjump ed
Ġatt ribute
Ġun necess
inc oln
Ġsupp ose
ĠNet her
ch a
Ġbur ied
Ġsix th
B en
ress ing
OU R
Ġw ound
Ġcy cl
Ġmechan isms
Ġcongress ional
ĠE lement
Ġagre ements
Ġdec or
Ġclos est
ĠM it
Go ogle
} }
Ġm ixture
Ġflu id
S ign
ĠSch olar
Ġp ist
ask et
ab ling
Ġrac ing
he ro
ri el
ass y
Ġche aper
b en
Ġvert ical
amac are
ĠRead ing
g ments
Ġhelic op
Ġsacr ifice
ay a
p aren
V A
ĠL es
ĠStud io
Ġviol ations
ĠAn na
ac er
é ¾
ĠR at
ĠBe ck
ĠD ick
ĠA CT
Ġcomp osition
Ġtext ure
ĠO wn
Ġsmart phone
ĠN A
Ġfor b
im port
Ġdef ending
il st
re r
Ġo h
ĠJere my
Ġbank ing
cept ions
Ġrespect ive
/ .
Ġdr inks
ĠW i
Ġb ands
ĠL iverpool
Ġg rip
ĠB uy
Ġopen ly
Ġreview ed
per t
Ġver ify
ĠCo le
ĠW ales
M O
Ġun pre
Ġshel ter
ĠIm perial
Ġgu i
ĠD ak
Ġsuggest ions
Ġexplicit ly
Ġsl ave
Ġblock chain
Ġcompet ing
Ġprom ising
S ON
Ġsoc cer
Ġconst itution
4 29
Ġdist ract
ĠU ser
es ides
ĠMet hod
ĠTok yo
Ġaccompan ied
Cl ient
s ur
al og
Ġident ification
Ġinv asion
as ma
Ġindust ries
pp ers
Ġsub tle
ĠUn it
n atural
Ġsurv ived
Ġfl aw
ĺ ħ
ĠH oll
Ġdef icit
Ġtut orial
ĠCh ance
Ġarg uing
Ġcontem porary
Ġinteg ration
for ward
Ġt um
it is
Ġh iding
ĠD omin
ĠT an
ĠB uilding
ĠV in
Ġspokes person
ĠNot es
Ġemer ging
Ġprepar ation
Ġpro st
Ġsuspect s
Ġaut onom
D escription
Ġdeal t
ĠP ear
Ġstead y
Ġdecre ased
Ġso vere
ĠCl in
Ġgrad ually
ors es
ĠW AR
S erv
ãĤ ¢
h r
Ġd irty
ĠB arn
ĠB C
Ġd il
Ġcal endar
Ġcompl iance
Ġch amber
b b
Ġpass enger
ate ful
ĠT itle
ĠSyd ney
ĠG ot
Ġdark ness
Ġdef ect
Ġpack ed
ass ion
Ġgod s
Ġh arsh
IC K
le ans
Ġalgorith m
Ġoxy gen
Ġvis its
Ġbl ade
Ġkil omet
ĠKent ucky
Ġkill er
P ack
enn y
Ġdiv ine
Ġnom ination
be ing
Ġeng ines
Ġc ats
Ġbuff er
ĠPh ill
Ġtra ff
AG E
Ġtong ue
Ġrad iation
ere r
m em
ĠExpl icit
é¾ į
Ġcou ples
Ġphys ics
ĠMc K
Ġpolit ically
aw ks
ĠBl oom
Ġwor ship
e ger
ut er
ĠF O
Ġmat hemat
Ġsent enced
Ġdis k
ĠM arg
Ġ/ *
P I
Ġoption al
Ġbab ies
Ġse eds
ĠScott ish
Ġth y
] ]
ĠHit ler
P H
ng th
Ġrec overed
ing e
Ġpow der
Ġl ips
Ġdesign er
Ġdis orders
Ġcour age
Ġch aos
" },{"
Ġcar rier
b ably
H igh
ĠR T
es ity
l en
Ġrout es
u ating
F il
N OT
w all
s burgh
Ġeng aging
ĠJava Script
ore r
li hood
Ġun ions
ĠF ederation
ĠTes la
Ġcomple tion
ĠT a
Ġprivile ge
ĠOr ange
Ġne ur
paren cy
Ġb ones
Ġtit led
Ġprosecut ors
ĠM E
Ġengine er
ĠUn iverse
ĠH ig
n ie
o ard
Ġheart s
ĠG re
uss ion
Ġmin istry
Ġpen et
ĠN ut
ĠO w
ĠX P
in stein
Ġbul k
S ystem
ic ism
ĠMarket able
Ġpre val
Ġpost er
Ġatt ending
ur able
Ġlicens ed
ĠG h
et ry
ĠTrad able
Ġbl ast
à ¤
ĠTit an
ell ed
d ie
H ave
ĠFl ame
Ġprof ound
Ġparticip ating
Ġan ime
ĠE ss
Ġspec ify
Ġregard ed
ĠSpe ll
Ġs ons
own ed
Ġm erc
Ġexper imental
land o
h s
ĠDun geon
in os
Ġcomp ly
ĠSystem s
ar th
Ġse ized
l ocal
ĠGirl s
ud o
on ed
ĠF le
Ġconstruct ed
Ġhost ed
Ġsc ared
act ic
ĠIs lands
ĠM ORE
Ġbl ess
Ġblock ing
Ġch ips
Ġev ac
P s
Ġcorpor ation
Ġo x
Ġlight ing
Ġneighb ors
ĠU b
ar o
Ġbe ef
ĠU ber
F acebook
ar med
it ate
ĠR ating
ĠQu ick
Ġoccup ied
Ġaim s
ĠAdd itionally
ĠInt erest
Ġdram atically
Ġhe al
Ġpain ting
Ġengine ers
M M
ĠM ust
Ġquant ity
P aul
Ġearn ings
ĠPost s
st ra
ãĥ¼ ãĥ
Ġst ance
Ġdro pping
sc ript
Ġd ressed
M ake
Ġjust ify
ĠL td
Ġprompt ed
Ġscr ut
Ġspeed s
ĠGi ants
om er
ĠEd itor
Ġdescrib ing
ĠL ie
ment ed
Ġnow here
oc aly
Ġinst ruction
fort able
Ġent ities
Ġc m
ĠN atural
Ġinqu iry
Ġpress ed
iz ont
for ced
Ġra ises
ĠNet flix
ĠS ide
Ġout er
Ġamong st
im s
ows ki
Ġclim b
ne ver
Ġcomb ine
d ing
Ġcomp r
Ġsignific ance
Ġremem bered
ĠNev ada
ĠT el
ĠSc ar
ĠWar riors
ĠJ ane
Ġcou p
b as
Ġtermin al
, -
O H
Ġt ension
Ġw ings
ĠMy ster
ï¿½ï¿½ ï¿½ï¿½
ĠUn like
val id
viron ments
ĠAl i
Ġn aked
book s
ĠM un
ĠG ulf
Ġd ensity
Ġdim in
Ġdesper ate
Ġpres idency
Ġ198 6
h y
IN D
Ġun lock
im ens
Ġhand led
ĠE b
Ġdisapp eared
Ġgen re
Ġ198 8
Ġdetermin ation
St ream
ik o
ap ters
Ġacknow ledge
J an
Ġcapital ism
P at
Ġ20 20
Ġpain ful
Ġcur ve
Ġbom bs
st orm
ĠMet al
en cer
ĠF ig
ĠA aron
anc hes
Ġins piration
Ġexha ust
t ains
ash i
Ġdesc ript
Ġr itual
ĠChel sea
Ġpromot ion
ĠH ung
ĠW ard
iv a
ĠE T
Ġto ss
all ow
ĠFranc is
D ep
Ġhapp iness
ĠGl ass
Ġbet a
Ġstreng then
N E
o a
Ġbutt ons
ĠMur ray
Ġkick ed
Qu est
ĠT alk
ĠS everal
ĠZ ero
Ġdr one
ul k
Ġc am
ĠM obile
Ġprevent ing
Ġret ro
ĠA x
Ġcru el
Ġflo at
. ),
Ġfil ing
ĠGr ant
ĠB or
Ġr ib
Ġchampions hip
ĠM erc
Ġsty les
Ġc ake
Ġbuild s
ĠS elf
io x
Ġep ic
oy d
B el
ĠSt ew
. (
ah u
ĠBe yond
Ġout s
Ġsol o
ĠT ree
Ġpres erve
Ġt ub
AR E
ro c
ĠIm pro
ĠW right
Ġbu nd
Ġtr aged
Ġoccas ional
b ian
Sec ond
r ons
Ġinter actions
form ed
s ing
Ġown s
Ġh ockey
Gener al
Ġlog ical
Ġexp end
Ġesc al
ĠGr iff
ĠC rown
ĠRes erve
Ġsto pping
Ġexc use
sec ond
Ġoper ated
Ġre aches
ĠMal ays
Ġpoll ution
ĠBrook lyn
Ġde lete
Ġhas h
Bl ock
ah a
âĢ ³
Ġsh orter
p iece
> </
Ġh orm
ĠW at
ĠBre ak
Ġprohib ited
Ġint ensity
ĠAl an
Ġli ability
? !
and ed
Ġneigh bour
ĠCol lection
Ġf ires
Ġrevolution ary
f ly
ĠOr leans
Wh ite
ĠW rit
ĠD awn
Ġsett le
Ġexec ute
B M
Ġspokes woman
Ġlif estyle
Ġclick ing
ĠK ill
ĠLiber al
ĠN azi
Ġtra iler
Ġmount ains
Ġdam n
z es
p es
Ġpress ing
Ġb ail
ĠOrgan ization
Ġp ir
Ġth irty
Ġelect rical
Ġ1 15
ĠP oly
ĠR ap
ĠSt rike
ĠC ann
Ġdemand ed
Ġback ing
def ault
spe ed
ĠLeg isl
Ġmother s
ĠB ody
Ġvar iation
ced ented
p owered
le ading
N ever
Ġg rave
ĠAnt i
A W
Ġinterview ed
ĠG ab
ĠF at
Ġrook ie
u u
Ġdep os
ix on
Ġam pl
ret ion
ĠHe at
Ġpeace ful
S M
ie ve
Ġd iver
ĠVict oria
Ġm ic
p df
Ġst ating
Ġl ung
Ġcritic ized
Ġvacc ine
ĠLoad ing
ur se
T ake
ĠFr an
ĠS old
ĠRob in
Ġdetect ed
ĠSc ript
Ġadjust ed
Ġsen ator
Ġopp osing
Er ror
C ount
Ġconflic ts
Ġo w
ĠAr gent
Ġmatch ing
h h
ĠTre k
st arter
" ),
ĠA F
od er
xx xx
ĠAl t
ac re
ĠP ick
ĠSol ar
ĠD al
O ct
ĠB att
Ġs rc
Ġeng agement
Ġexecut ives
Ġliber ty
j ava
Ġtal ented
igen ous
Ġcon secut
.. ...
In fo
Ġhor rible
Ġsurprising ly
f eed
ic ating
ĠL ED
Ġfem ales
St ation
ell er
ĠOak land
Ġmechan ical
i ology
ĠV ar
Ġrob ust
ett ings
ott a
Ġthe oret
Ġret ain
k ward
Ġd a
Ġdeploy ed
d el
ĠAnd y
Ġsubsc ribe
we b
Ġn a
ĠMic hel
Ġpart ially
ĠCome y
Ġc rown
ĠM aj
ĠBl u
r ator
D ay
IN T
Ġdocument ed
ĠG DP
g i
che ll
Ġbrut al
ĠB ab
st ration
Ġthe ft
Ġt ube
@ @
Ġqu ery
ĠL incoln
Ġpublish ing
Ġw ore
or ical
Ġr ic
Ġnot able
Ġsubsequ ently
ne x
Ġobser ve
ĠB oe
Ġc odes
m ain
W H
ĠS L
Ġresident ial
av an
Ġm as
are st
ade on
OU T
Ġsoph istic
ant e
Ġc ens
Ġ **
Ġmort ality
Ġyour s
Ġoccas ions
Ġrec alled
ĠDri ver
Ġv ocal
Ġbath room
Ġsh ops
Ġcollabor ation
ĠOb amacare
ĠC ell
Ch ar
Su per
C re
Ġt ends
Ġt orn
Ġeconom ics
a very
ĠR aid
ĠS em
Ġshould ers
Ġexpect ing
Ġexam ination
en ame
ĠU I
i ability
ol as
ĠAm b
ĠD ra
Ġmid field
ĠI C
Ġlay out
Ġflo ating
f i
it ative
Ġtremend ous
Ġ Ð
Ġab und
W ork
ĠLight ning
Ġsimilar ly
Ġconserv atives
Ġpr ay
B E
iz arre
Ġt empt
Ġemphas is
ĠMet ro
Ġf ishing
Ġmar ry
ne g
ĠStud y
Ġrec k
Ġdis pos
on ing
bs ite
Ġsusp ic
Ġmer ch
ĠG ib
ĠDes cription
ĠD VD
w he
ĠY emen
Ġen vironments
oot ing
ĠMod ern
e u
Ġreflect s
Ġh oney
Ġanaly st
Ġg ut
d ec
A ction
Ġhousehold s
Ġst er
Ġtem ple
Ġreform s
Ġfavour ite
Ġdead line
ĠL E
Th ree
ĠWith in
A ug
Ġnight s
elt a
Ġinv alid
ĠEx change
ĠDel hi
w hen
inc ome
Ġ ðŁ
Ġwire less
sc ribe
ist a
Ġhost ile
Ġall y
Ġg ig
Ġout lets
ĠD or
EM ENT
Ġas h
Ġab stract
OR D
ĠMot or
Ġadv iser
ist le
Ġb ases
Ġcourt esy
Ġcross ing
Ġcle ared
Ġrefuge e
cos ystem
Ġthrow s
f un
bour ne
d ays
Ġdisag ree
ĠN ative
Ġreflect ed
ĠF ast
ĠY ellow
ĠSing apore
ĠR aven
Ġembr ace
ĠK u
ĠC hen
ĠEar ly
Ġappoint ment
ĠMin i
it ement
Ġpl acing
Ġb icy
S R
Ġwh is
S U
Ġinvestig ated
Ġphotograph s
g ithub
ĠBe at
ĠR ing
ig hed
i ar
Ġev olved
eral d
Ġd un
Ġh ub
I AL
Ġencour aging
ĠPr int
ĠD ays
Ġpro secution
Ġp ants
az y
l ive
Ġfoss il
ĠJ u
Ġro cks
ud ge
ĠR ace
Ġg reet
b ie
Ġf illing
ĠL en
Ġdi abetes
Ġfire arms
um ing
enez uel
ĠB B
Ġaccept ing
AT H
Ġres ort
Ġh unt
ri k
uck er
am ents
Ġsust ained
Ġcross ed
Ġbreak fast
Ġatt ributes
lect ed
at ile
Ġv ibr
ĠK al
ars on
op les
Ġtou ched
Ġdam ages
Ġimp ressed
ru p
Ġan ch
ĠAd ams
H el
ĠVict or
Ġmount ed
ĠC C
Ġdelic ious
sp an
ell a
Ġel abor
am ples
Ġdef ic
Ġconstit u
u ates
ĠM ission
ĠT her
ĠMon ster
b es
Re uters
ĠInd ones
h ill
mun ition
Ġconfirm ation
ĠCons ider
ac ent
Ġj et
ĠEm ploy
ĠGT X
n an
ĠSp ider
Ġprocess or
Ġpat ri
ĠPent agon
ĠRob inson
Ġreal istic
Ã ±
Ġappear ing
Ġp ipe
om ed
Ġf ru
Ġaw ful
Ġeval uation
Ġintellig ent
ĠC itiz
Ġfund ra
od ium
Ġtwe ets
Ġwor n
pr ing
Ġkid n
Ġreb els
ĠK am
ĠNether lands
ĠS W
Ġacqu isition
ĠM ale
ãĥ ª
omb ies
Ġtrad em
ĠStat us
B re
ĠTH IS
Ġad verse
ĠN EW
s ign
Ġorgan isation
en c
ĠHar per
ap or
ĠMem bers
ĠPe ace
ĠAir port
ĠOther s
Ġscr atch
ĠP il
Ġsens or
Ġadop tion
ĠHot el
ĠDr ag
Ġhonest ly
Ġy ard
ĠFor ces
Ġpat ent
Ġb ass
Ġquiet ly
Ġbreat hing
Ġp ose
i ors
ĠJ ess
st atic
IT E
O ffic
Ġj ew
w cs
Ġ14 0
Ġpre view
ipp i
Ġunf ortunately
oke mon
Ġh orn
Ġre ass
Ġpe er
ock er
Ġunt o
ĠGr ay
Ġclean ing
Ġattract ed
200 7
P oint
k ill
ĠAg reement
ur ches
Ġhor r
ĠMiss iss
Ġworth y
Ġfl owers
t own
d ll
Ġre actions
Ġde ce
Ġindic ating
M D
Ġpre ference
ĠM VP
ess ional
ĠT arget
g ence
ĠInd ians
Ġm isc
Ġfree ly
Ġmus cles
Ġline up
Ġimpact s
ous ing
om i
ac ular
Ġcontro lling
ag ine
c ery
he ll
Ġrank ing
ĠN ich
ĠA ve
12 8
Ġhigh way
Ġinc ons
Ġb inding
Ġstrugg les
ĠPitt sburgh
Ġgr ay
r in
Ġcom ics
ĠS port
Ġrel atives
Ġfr ight
Ġpro be
ĠPort ug
Ġv oc
Ġt u
ĠCor ps
Ġposs ibilities
Ġqual ify
wcs store
Ġl ibraries
Ġm igrants
Ġent ries
Ġconsecut ive
v als
ĠChair man
Ġh ill
IM E
ĠG ard
Ġinequ ality
f ox
ĠS ave
Ġc ort
claim ed
Ġtra its
Ġp our
Ġmiss iles
Ġess ence
Ġs ends
Ġall iance
Ġw ishes
ĠChrist opher
B ig
N Y
ĠJac ob
s an
ur red
ĠS O
ll y
Ġadvoc ate
ĠB ond
Ġ" /
Us ing
Ġdistrict s
ĠG ate
ĠB ir
r idge
ĠN az
ĠR s
bo ards
ĠG a
ĠRe agan
Ġinflu enced
1 000
ap y
Ġchalleng ed
Ġb arg
Ġfac ulty
ĠF if
Ġacqu ire
A c
Ġin sect
Ġinstr uments
Ġle af
th odox
M essage
Ġt ale
Ġthere by
Ġtra p
Ġstrong est
ĠMil itary
is ible
Ġ198 4
ethe less
Ġflex ible
Ġkill s
Ġfin ishing
ĠS ize
Ġredu ces
Ġep id
Ġorient ation
f ull
Ġtr ace
Ġl aser
Ġopp ose
Ġed iting
Ġmoment um
ä º
sh ow
V I
ĠL ad
Ġ198 5
Ġmurd ered
9 00
ut her
Ġprob ability
ĠP oll
Ġrel uct
ĠChe m
ĠMont real
Ġadequ ate
ĠPol and
ĠSher iff
um ph
Ġo k
Ġ 000
Ġ" [
Ġoper ators
ĠF er
Ġmod es
ĠE ve
Ġdiscipl ine
N ET
H and
Ġor al
ĠW E
em ail
J P
ĠPalestin ians
Ġhe nce
ĠL ess
Ġover l
d ig
Ġintim id
ĠCo al
Ġr anging
th a
Ġdist ant
Ġf ib
ĠInd ex
ĠW onder
ĠP el
hatt an
ĠH ug
Ã Ĺ
ra it
Ġwra pped
ĠR PG
Ġchemical s
ĠM oney
Ġfro zen
Ġind irect
ĠAgain st
E nd
Ġuncom fortable
ĠGall ery
ĠPost ed
Ø §
ond uct
Ġconsequ ence
Ġbit ter
Ġ198 7
p op
Ġcount less
ĠAl aska
ff ff
Ġdepart ure
Ġref und
ĠI an
i ated
Ġsee ks
Ġmechan ics
Ġjurisd iction
lyn n
Ġal ike
ĠH unt
ath on
Ġres olved
Ġc ache
Ġdist inction
d irect
Ġenc ount
ou b
be at
ĠCount ry
se arch
Ġcontin uous
Ġmod est
ĠR ail
th ood
1 30
B UG
Ġcrim inals
Ġindic ation
Ġencount ered
l ast
ĠW y
Ġide ology
ĠP DF
sec urity
] )
ĠJim my
ĠE N
Ġh iring
T em
Ġp ig
aun t
ĠCry stal
Ġpen alties
Ġcap ability
Ġp y
Ġproduct ive
Ġbal anced
ĠGe Force
cl ick
olit an
od s
Ġafter wards
Ġplay offs
ĠG ill
U ser
Ġback s
p ub
t ag
Ġabs urd
p iring
Ġc iting
Ġtr illion
Ġoblig ation
Ġmax im
ah oo
c f
um i
ĠAl pha
ĠN elson
Ġpursu ant
in itely
Ġf ract
ent ry
ber y
ĠTh or
Add ed
ĠD J
ĠG ene
Ġaw kward
St ud
Ġwal let
ĠDiv ine
ari os
Ġrele asing
Ġed ited
Ġaccompl ished
B est
Ġed ges
Ġplan es
Ġfeed ing
" },"
Ġdiscl osure
Ġgr ain
air y
o ons
ern and
V R
Ġreason ably
Ġdr um
Ġpart ial
Ġgraph ic
Ġunpre cedented
Ġadv ised
M icro
ĠAss ad
point s
sc ar
ĠZ one
tt es
Ġ7 00
v o
ĠH amp
Ġfix es
Ġca ution
Ġstr ings
Ġpan els
Ġle ak
Ġpr icing
row th
ĠEr ror
ĠS aints
f ix
Ġobserv ations
ĠA bs
Ġsuggest ion
ĠUkrain ian
Ġbar rier
Ġpain ted
B et
im ir
ĠS pect
p ot
orne ys
Ġcomp ound
Ġbe ars
ĠR ush
Ġlux ury
S um
Ġor bit
ĠMar c
Ġex empt
ĠTra il
ĠM O
ĠH ans
ĠWe apon
oc used
umin um
ĠJer ry
Ġb ust
ĠA G
ĠW iki
Ġend less
ĠV lad
ĠB ah
ĠR adeon
ke ys
ĠSur vey
ĠV iol
def ine
le an
Ġcomm od
Ġreven ues
Å į
Ġfurn iture
Ġcast ing
Ġdiplom atic
ĠPlay ers
ĠK illed
Ġmod ify
Ġinnov ative
ĠAb u
n or
Ġbond s
Ġcoach ing
M er
Ġmod ules
ĠPatri ots
Ġenh anced
Ġproceed ings
Ġteam mates
Ġ12 8
ard o
Ġcomprom ise
ĠM uch
Ġfle w
ĠEd ge
Ġunnecess ary
Ġdoct rine
re port
ĠOr lando
ĠProf ile
Ġplay off
friend ly
Ġcompl ain
ĠM C
ĠO pt
ĠG B
Ġbeat en
Ġg olf
Ġpl acement
B it
Ġnews letter
Ġ201 9
vis or
raw l
ĠiP ad
Ġact ed
Ġju ice
Ġdec ks
P N
su ccess
ĠH alf
Ġdele ted
Ġsec rets
Ġas ylum
M art
ĠAct iv
ĠGu y
ĠT s
Ġd ys
Ġassum ing
Ġman a
Ġsub ur
Ġ12 5
M edia
AR Y
r ide
c p
Ġdifficult ies
Ġcollect ing
Ġbank rupt
n on
Ġcomp osed
Ġvol t
Ġmilit ants
Ġ> >>
ĠM ormon
t or
Ġpartic les
ĠB art
ry ption
Ġad min
Ġsqu ee
VID IA
Ġcreat or
iam eter
ic ular
N BC
Ġgrab bed
Ġn odd
Ġr ated
Ġrot ation
Ġgr asp
Ġexcess ive
ĠE C
ĠWh it
Ġinvent ory
ault s
ĠF B
Ġe cosystem
Ġbill ions
Ġvent ure
n amed
Ġdef ender
out e
Inst ead
ir able
W ar
Ġassum ption
Ġb ite
Ġearth qu
t ail
sp ace
Ġgif ts
boy s
Ġinev itable
Ġstruct ural
Ġbenef icial
Ġcompe lling
h ole
erv ation
Ġco at
o j
inc arn
ĠY ears
Ġdetermin ing
Ġrhet oric
Ġbound aries
Ġwh ites
A nt
add y
) -
ra ham
eter min
Ġhar vest
ĠCon c
Ġlapt op
ĠM atch
Ġenjoy ing
cc a
oll ar
Ġtri ps
Ġadd iction
ĠS ak
Ġpow ered
Ġc ous
ĠRuss ians
ie re
Ġret rie
qu ality
Ġdiff er
Ġking dom
ĠL aur
ĠCap itol
Ġcon clusions
ĠAl tern
ĠN av
Ġtrans parent
B ER
G roup
ĠCom plete
Ġinf er
Ġint rig
Ġins ane
R O
oph ob
is en
qu al
Mich ael
Ġm useum
ĠP ope
Ġres et
r ative
f ive
Ġagg reg
itte es
osit ory
Ġcar b
ĠRec ord
Ġdec ides
ĠF ix
Ġexcept ions
ĠCommission er
un s
ĠEnvironment al
Ġlegend ary
ist ence
Ġtun nel
k m
Ġins ult
Ġt roll
Ġsh ake
Ġdet ention
qu es
ĠCh rome
ĠF iles
Ġsub t
Ġprospect s
Ġpro l
re nder
pro of
Ġperform ances
St r
Ġh ref
ern ame
Ġachieve ment
Ġf ut
F ull
ĠLe ban
go ogle
ãĥ Ī
amp a
May be
Ġproject ed
ĠE mb
Ġcol leg
Ġa wards
Ġâ Ķ
G old
ĠBl ake
ĠR aj
if ting
Ġp ending
Ġinst inct
Ġdevelop ments
Con nect
ĠM and
ĠW ITH
ĠPhilipp ines
prof ile
Ġalt ogether
ĠB und
ĠT D
oo oo
amp ed
ip h
Ġste am
Ġold est
Ġdet ection
ul pt
Ġ ç
ĠWay ne
200 6
f a
Ġcir cles
ĠF u
Ġdon ors
appropri ate
ĠDak ota
j amin
Ġmotiv ated
Ġpurch ases
ĠLouis iana
ĠS pl
Ġgl obe
Ġ10 5
z ip
c all
Ġdepart ments
Ġsustain able
10 5
ĠO P
if iers
Ġprevent ed
Ġinc omp
ĠComm ander
Ġdom inated
ĠÂ »
Ġinvest ed
Ġcomplex ity
Ġin cl
Ġens uring
Ġreal m
yn c
ĠInd ependent
r ained
ĠJ en
ĠFl ight
Ġat he
Ġspec ulation
ĠT E
oc ate
t ic
Ġpl aint
her ry
Ġto y
Ġ1 11
Ġpl ates
st atus
ĠIs a
Ġdev oted
C op
ĠE S
25 5
ur rency
M ain
Ġsl aves
Ġpe pper
Ġqu otes
Ġce iling
ĠF ish
Ġtrans formation
Ġfra ction
Ġadvant ages
Ġto ile
Ġstun ning
Ġmo ist
bre aking
s i
ĠL ocation
ĠMed ium
Ġtext s
Ġu gly
Ġb io
. âĢĶ
ĠB ased
Ġtr ains
ĠW ing
ĠAn cient
ĠRec ords
ĠH ope
Spe cial
ades h
ob i
[ /
Ġtempor arily
V er
h u
os er
Ġover night
Ġm amm
ĠTre asury
ĠV enezuel
ĠMeg a
Ġt ar
Ġexpect s
bl ack
or ph
\\ \\
Ġaccept ance
Ġrad ar
s is
Ġjun ior
Ġfram es
Ġobserv ation
ac ies
P ower
ĠAdv anced
M ag
olog ically
ĠMe chan
Ġsent ences
Ġanaly sts
augh ters
force ment
Ġv ague
Ġcl ause
Ġdirect ors
Ġeval uate
Ġcabin et
M att
ĠClass ic
A ng
Ġcl er
ĠB uck
Ġresear cher
Ġ16 0
Ġpoor ly
Ġexperien cing
ĠP ed
ĠMan hattan
Ġfre ed
Ġthem es
ad vant
Ġn in
Ġpra ise
10 4
ĠLib ya
b est
Ġtrust ed
Ġce ase
Ġd ign
D irect
Ġbomb ing
Ġm igration
ĠSci ences
Ġmunicip al
ĠA verage
Ġgl ory
Ġreve aling
Ġare na
Ġuncertain ty
Ġbattle field
ia o
G od
Ġc inem
ra pe
el le
ap ons
Ġlist ing
Ġwa ited
Ġsp otted
ke ley
ĠAud io
e or
ard ing
idd ing
ig ma
ĠN eg
Ġl one
Ġ ----
ex e
d eg
Ġtrans f
Ġwas h
Ġsl avery
Ġexpl oring
ĠW W
ats on
Ġen cl
l ies
ĠC reek
Ġwood en
Man ager
ĠBr and
um my
ĠAr thur
Ġbureau cr
Ġbl end
ar ians
F urther
Ġsupposed ly
Ġwind s
Ġ19 79
Ġgrav ity
Ġanalys es
ĠTra vel
ĠV eter
Ġd umb
Ġaltern ate
g al
Ġconsum ed
Ġeffect iveness
.' '
Ġpath s
ond a
L A
ĠStr ong
Ġen ables
Ġesc aped
Ġ" "
Ġ1 12
Ġ198 3
Ġsm iled
Ġtend ency
F ire
Ġp ars
ĠR oc
Ġl ake
Ġf itness
ĠA th
ĠH orn
Ġh ier
Ġimp ose
m other
Ġp ension
ic ut
bor ne
ic iary
. _
ĠS U
Ġpol ar
is y
eng u
itial ized
AT A
w rite
Ġexerc ises
ĠD iamond
ot ypes
Ġharm ful
on z
Ġprint ing
st ory
Ġexpert ise
ĠG er
Ġtraged y
ĠF ly
Ġd ivid
amp ire
st ock
M em
Ġre ign
Ġun ve
Ġam end
ĠProp het
Ġmut ual
ĠF ac
Ġrepl acing
H ar
ĠCirc uit
Ġthro at
ĠSh ot
Ġbatter ies
Ġto ll
Ġaddress ing
ĠMedic aid
Ġp upp
ĠN ar
ol k
Ġequ ity
M R
ĠHis pan
ĠL arge
m id
D ev
Ġexp ed
Ġdem o
ĠMarsh all
erg us
Ġf iber
Ġdiv orce
ĠCre ate
Ġsl ower
ĠPark er
ĠStud ent
ĠTr aining
Ret urn
ĠT ru
Ġc ub
ĠRe ached
Ġpan ic
Ġqu arters
Ġre ct
Ġtreat ing
Ġr ats
ĠChristian ity
ol er
Ġsac red
Ġdecl are
ul ative
et ing
Ġdeliver ing
est one
Ġt el
ĠL arry
Ġmet a
ac cept
art z
ĠRog er
hand ed
Ġhead er
Ġtra pped
ĠCent ury
Ġkn ocked
ĠOx ford
Ġsurviv ors
b ot
Ġdemon stration
Ġd irt
Ġass ists
OM E
ĠD raft
ortun ate
fol io
pe red
ust ers
g t
ĠL ock
Ġjud icial
ver ted
Ġsec ured
out ing
ĠBook s
Ġhost ing
Ġlif ted
l ength
Ġj er
Ġwhe els
ĠR ange
umbn ails
Ġdiagn osis
te ch
ĠStew art
ĠP ract
Ġnation wide
Ġde ar
Ġoblig ations
Ġgrow s
Ġmand atory
Ġsusp icious
! '
A pr
G reat
Ġmort gage
Ġprosecut or
Ġeditor ial
ĠK r
Ġprocess ed
ung le
Ġflex ibility
Ear lier
ĠC art
ĠS ug
Ġfoc uses
Ġstart up
Ġbre ach
ĠT ob
cy cle
ãĢ Į
ro se
Ġb izarre
ãĢ į
Ġveget ables
$ $
Ġret reat
osh i
ĠSh op
ĠG round
ĠSt op
ĠHawai i
ĠA y
Per haps
ĠBe aut
uff er
enn a
Ġproduct ivity
F ixed
cont rol
Ġabs ent
ĠCamp aign
G reen
Ġident ifying
Ġreg ret
Ġpromot ed
ĠSe ven
Ġer u
ne ath
aug hed
ĠP in
ĠL iving
C ost
om atic
me ga
ĠN ig
oc y
Ġin box
Ġem pire
Ġhor izont
Ġbr anches
Ġmet aph
Act ive
ed i
ĠFil m
ĠS omething
Ġmod s
inc ial
ĠOrig inal
G en
Ġspir its
Ġear ning
H ist
Ġr iders
Ġsacr ific
M T
ĠV A
ĠS alt
Ġoccup ation
ĠM i
Ġdis g
lic t
Ġn it
Ġn odes
e em
ĠP ier
Ġhat red
ps y
ãĥ ī
Ġthe ater
Ġsophistic ated
Ġdef ended
Ġbes ides
Ġthorough ly
ĠMedic are
Ġbl amed
arent ly
Ġcry ing
F OR
pri v
Ġsing ing
ĠI l
Ġc ute
o ided
olit ical
ĠNe uro
å ¤
Ġdon ation
ĠEag les
ĠG ive
T om
Ġsubstant ially
ĠLic ense
ĠJ a
Ġg rey
ĠAn imal
ĠE R
ĠU nd
Ġke en
Ġconclud e
ĠMississ ippi
Eng ine
ĠStud ios
P ress
o vers
ll ers
Ġ3 50
ĠR angers
Ġr ou
ert o
E p
iss a
iv an
Ġse al
ĠReg ist
dis play
Ġwe aken
u um
ĠComm ons
ĠS ay
Ġcult ures
Ġl aughed
Ġsl ip
Ġtreat ments
iz able
m art
ĠR ice
Ġbe ast
Ġob esity
ĠLa ure
ig a
Wh ich
hold er
Ġelder ly
Ġp ays
Ġcompl ained
Ġc rop
Ġpro c
Ġexplos ive
ĠF an
ĠAr senal
A uthor
ef ul
Ġme als
Ġ( -
id ays
Ġimag ination
Ġann ually
Ġm s
as ures
H ead
ik h
m atic
Ġboy friend
ĠCom puter
Ġb ump
Ġsur ge
ĠCra ig
ĠKir k
D el
medi ate
Ġscen arios
ĠM ut
ĠSt ream
Ġcompet itors
Ù Ħ
ĠStan ford
ĠRes ources
az ed
b age
Ġorgan is
ĠRe lease
Ġsepar ately
Ġha bits
Ġmeasure ments
ĠCl ose
Ġaccomp any
Ġg ly
Ġt ang
ĠR ou
Ġplug in
Ġcon vey
ĠChall enge
oot s
j an
Ġcur s
ĠRel ations
ke eper
Ġapproach ing
p ing
Spe aking
Ġarrang ement
ĠV I
are ttes
Ġaffect ing
Ġperm its
b ecause
Ġu seless
ĠH us
!! !!
Ġdestro ying
Un fortunately
Ġfasc inating
S em
Ġelect oral
Ġtrans parency
ĠCh aos
Ġvolunte er
Ġstatist ical
Ġactiv ated
ro x
We b
H E
ĠHamp shire
is ive
M ap
Ġtr ash
ĠLaw rence
st ick
C r
Ġr ings
EX T
Ġoper ational
op es
D oes
ĠEv ans
Ġwitness ed
P ort
Ġlaunch ing
ec onom
w ear
ĠPart icip
um m
cul es
ĠR AM
ĠT un
Ġass ured
Ġb inary
Ġbet ray
Ġexpl oration
ĠF el
Ġad mission
it ated
S y
Ġav oided
ĠSim ulator
Ġcelebr ated
ĠElect ric
¥ ŀ
Ġcl uster
itzer land
he alth
L ine
ĠN ash
at on
Ġsp are
Ġenter prise
ĠD IS
clud es
Ġfl ights
Ġreg ards
ĠÃ Ĺ
h alf
Ġtr ucks
Ġcontact s
Ġunc ons
ĠCl imate
Ġimm ense
N EW
oc c
ect ive
Ġemb od
Ġpat rol
Ġbes ide
Ġv iable
Ġcre ep
Ġtrig gered
ver ning
Ġcompar able
q l
Ġg aining
ass es
Ġ( );
ĠG rey
ĠM LS
s ized
Ġpros per
" ?
Ġpoll ing
Ġsh ar
ĠR C
Ġfire arm
or ient
Ġf ence
Ġvari ations
g iving
ĠP i
osp el
Ġpled ge
Ġc ure
Ġsp y
Ġviol ated
Ġr ushed
Ġstro ke
ĠBl og
sel s
ĠE c
,' '
Ġp ale
ĠColl ins
ter ror
ĠCanad ians
Ġt une
Ġlabor atory
Ġn ons
t arian
Ġdis ability
ĠG am
Ġsing er
al g
ĠSen ior
Ġtrad ed
ĠWar rior
Ġinf ring
ĠFrank lin
Ġstr ain
ĠSwed ish
Ġsevent h
ĠB enn
ĠT ell
Ġsynd rome
Ġwond ered
id en
++ ++
ig o
Ġpur ple
Ġjournal ism
Ġreb el
Ġf u
bl og
Ġinv ite
ren cies
ĠCont act
Is rael
ĠCont ent
Ġche er
Ġbed room
ĠEngine ering
ĠQue ens
Ġd well
ĠPlay Station
ĠD im
ĠCol on
l r
Ġoper ates
Ġmotiv ation
US A
ast ered
C ore
ĠTr uth
ol o
OS E
ĠMem ory
Ġpred ec
Ġan arch
Ġ19 20
ĠY am
Ã ¨
b id
Ġgr ateful
Ġexc itement
Ġtre asure
Ġlong est
ct ive
Ġdes erves
Ġreserv es
Ġcop s
ĠOtt awa
ĠEgypt ian
ank ed
Ġart if
Ġhypot hesis
: /
Ġpurch asing
Ġlove ly
H P
Ġdiv ide
Ġstrict ly
Ġquestion ing
Ġtaxp ayers
ĠJ oy
Ġroll s
ĠHe avy
Ġp orts
Ġmag netic
Ġinf lamm
Ġbr ush
t ics
â ĪĴ
Ġbott les
pp y
Ġp add
ãĤ ¯
m illion
Ġdevast ating
Ġcomp iled
Ġmed ication
Ġtw elve
ĠPer ry
Sp ace
im b
y our
Ġle aked
ĠT ar
Ġun ity
Ġinfect ed
Ġtravel ed
ID E
ĠMc Donald
t xt
ĠPr inc
Ġinter ven
ĠTai wan
ĠP ow
Ġbe aring
ĠTh read
Ġz ones
iz ards
un ks
Ch apter
ll or
ĠÂ ·
Ġw ounds
Ġdisc retion
Ġsucceed ed
ik ing
Ġicon ic
C all
Ġscreen ing
ĠM is
ict s
Ġmin isters
Ġsepar ation
Pl ayer
Ġb ip
Ġbel oved
Ġcount ing
ĠE ye
ar ound
ing ing
Ġtable t
Ġoff ence
in ance
h ave
ĠInf o
ĠNin ja
Ġprotect ive
ĠC ass
M ac
ĠQual ity
N orth
Ġ ic
ĠCub a
ĠChron icle
ĠPro perty
Ġfast est
ot os
ĠG erm
OW N
Ġbo om
ĠStan ley
ergus on
Ġcle ver
Ġent ers
m ode
ter ior
ĠS ens
Ġlin ear
AR K
Ġcomp aring
Ġpure ly
Ġsaf er
ĠPot ter
Ġc ups
R T
Ġgl uc
Ġatt ributed
Ġdu pl
ĠP ap
Ġprec ious
Ġp a
iction ary
ĠT ig
ĠTo o
ol utions
st an
Ġrob ots
Ġlob b
Ġstat ute
Ġprevent ion
w estern
16 0
ĠAct ive
ĠMar ia
h al
N one
ell ar
ĠK B
ĠPart ners
ĠSing le
ĠFollow ing
ang o
ac ious
Ġth ou
Ġk g
Ġinflu ential
ĠFriend s
S ur
ain ted
Ġfor ums
Ġst arter
Ġcitizens hip
ĠE lection
on ge
ot ation
os ph
;; ;;
ut ical
p ur
ere n
Ġaccus ations
bit ious
ab bit
ĠOr d
Post ed
ir k
Ġsens itivity
ic he
ĠAm y
ĠF ab
Ġsum mit
Ġped est
Ġrub ber
Ġagric ultural
Ġcan cel
A E
Ġin aug
Ġcont am
Ġfirm ly
i w
st age
ĠK an
Ġt ier
Ġinv ention
Ġtransl ated
ĠR ules
B ox
Tw itter
ID S
Ġp izza
Ġdeb ug
ĠD rop
v s
Ġh orses
b ig
Ġb oring
Ġh ood
ĠMcC ain
at ched
ĠBro s
Ġsk ip
Ġess ay
st at
ĠLeg ends
Ġam munition
au c
Ġshoot er
Ġun h
Ġsuppl ied
Ġgener ic
ĠS K
ib an
yr ics
Ġ25 5
Ġclim bing
Form er
Ġfl ip
Ġjump ing
Ġfrust ration
ĠTer ry
Ġneighborhood s
Ġmed ian
be an
Ġbr ains
Follow ing
Ġsh aped
Ġdraw s
Ġal tered
J ack
Ġrecip es
Ġsk illed
we alth
ach i
e lection
Ġbehavi ors
de als
ĠU ntil
F e
Ġdecl aration
mar ks
ĠBet ween
cel ona
Ġres on
Ġbub ble
Am ong
Ġim perial
G S
Ġfemin ist
200 5
ĠK yle
Ġaccount ing
ĠTe le
ĠT yr
Ġconnect ing
Ġre hab
ĠP red
s im
Ġmeant ime
Ġphys ician
M W
ĠCamp bell
ĠBr andon
Ġcontribut ing
ĠR ule
ĠWe ight
ĠN ap
Ġinter active
Ġv ag
Ġhel met
ĠCom b
f our
Ġsh ipped
Ġcomple ting
ĠP D
PD ATE
Ġspread ing
Ġsc ary
erv ing
ĠG as
Ġfr ank
s chool
Ġrom antic
Ġstab il
R ob
Ġaccur ately
Ġac ute
ĠH ann
Ġsymbol s
Ġcivil ization
ĠA W
Ġlight ning
Ġcons iders
Ġven ue
Ġ ×
Ġo ven
ĠS F
h is
Ġn u
ĠLear n
Ġpe oples
Ġst d
Ġsle e
Ġs lic
ĠStat istics
Ġcor ners
ĠB aker
Ġ: )
ment ation
ol ver
Ġlaugh ing
ĠT odd
ond e
ĠH ills
Ġn uts
ĠW oman
pl ane
Ġl iver
ĠIn side
S orry
Ġagre es
Ġfund ament
ĠF isher
Ġa uction
Ġthread s
gl as
ĠBas ic
ĠN at
Ġlack ing
Ġceleb ration
j u
Ġs illy
E uro
Ġt att
ight y
cont rolled
T est
ĠSing h
Ġr age
Ġrh yth
o ffic
ĠPh antom
Ġhead lines
Ġrespond ing
ĠMor ning
Ġvit amin
Ġboot s
ĠS ite
al in
p i
Ġvir al
ĠU C
D ER
ĠSe x
Ġst ocks
c urrent
Ġch urches
ĠR are
ĠMur phy
Ġden ial
ĠG aming
Ġtou g
Ġn ick
Ġm akers
ĠRon ald
Ġgener ous
ĠD oc
ĠMor ris
Ġtransform ed
ĠN ormal
Ġ10 4
ĠKick starter
ĠUp on
On line
ĠI RS
Ġw rap
Ġl oving
Ġarri ves
ĠD ue
Ġhe ter
ĠM ade
Ġrent al
Ġbelong s
Ġatt orneys
Ġcro ps
Ġmat ched
ul um
ol ine
10 9
Ġdis par
Ġbuy ers
ĠCam bridge
Ġeth ics
rou ps
Ġjust ified
Ġmarg inal
Ġrespect ed
win ning
Ġnodd ed
ĠSer ge
ĠForm er
C raft
######## ########
ĠWar ner
Ġd ash
et e
Ġent ert
ĠE scape
out heast
Ġkn ees
ĠB omb
Ġr ug
P ass
Ġatt itudes
go vernment
ĠPri or
Ġqual ities
Ġnot ification
ĠPh one
l ie
Ġanticip ated
ĠCom bat
ĠBar ry
Ġ198 2
Us ers
on er
Ġcomput ing
ĠConnect icut
Ġless er
Ġpe ers
ĠC u
Ġtechn ically
Ġsub mission
ĠUn iversal
Ġman ually
our ge
Ġrespond ents
ĠB TC
ĠH ost
Ġf are
ĠB ird
Ġrece ipt
al so
Ġj ack
Ġagric ulture
Ġsk ull
Ġ! =
Ġpass ive
ĠC I
Ġsoc ieties
Ġremind ed
Ġinter ference
B uy
Ġâ ľ
g on
Ġscrut iny
ĠW itch
Ġconduct ing
Ġ ãĥ
Ġexch anges
ĠMit chell
Ġinhab it
Ġtw ist
B D
Ġwhere ver
group on
Ġj okes
ĠBen jamin
ĠR andom
fr ame
ĠL ions
Ġhighlight ed
ĠArk ansas
E nt
Ġp ile
Ġpre lim
g s
mind ed
Ġfel ony
ĠG A
ĠL uck
Ġpract ically
ĠB os
Ġact ress
D am
ĠB ou
Ġvis a
Ġembed ded
Ġhy brid
Ġear liest
Ġsoon er
s ocial
ĠH A
Ġste ep
Ġdis advant
Ġexplo it
ĠE gg
ĠUlt ra
Ġnecess ity
L ocal
ie ge
Ġd ated
Ġmass es
Ġsubsc ription
pl ess
Ġan onym
Ġpresum ably
Bl ue
The ir
asket ball
ĠPhil ip
Ġcom ed
load ed
r ane
Ġref lection
Ch ina
Ġext ends
Ġform ing
Ġund ers
200 1
Ġgr at
Ġconcent rations
Ġins ulin
Ġsec ular
Ġwh ilst
Ġwin ners
Ad vertisements
Ġdeliber ately
ĠWork ing
Ġs ink
et ics
d ale
Ġmand ate
Ġg ram
Ġvac ation
Ġwarn ings
ri pp
ĠTH AT
Ġcomment ary
Ġint u
Ġa est
Ġreason ing
Ġbreak down
ĠZ ombie
Ġ-- >
ĠPolit ical
c ott
Ġthr ust
Ġtechn ological
Ġdec iding
Ġtraff icking
L ong
W elcome
pr ising
ĠCommun ications
Ġend ors
Ġsw ift
Ġmetab ol
co ins
res a
ĠHT TP
Ġen roll
ĠH appy
us r
int age
Ġ[ "
u ably
ĠM aterial
Ġrepe al
Se pt
k h
ĠMod i
Ġunder neath
ĠI L
sh ore
Ġdiagn osed
ace utical
Ġsh ower
au x
ĠSw itch
ĠStre ngth
Ġj ihad
n ational
Ġtra uma
uss y
on i
Ġcons olid
Ġcal ories
ĠF lynn
ag ged
16 8
ĠP ink
Ġfulf ill
Ġch ains
Ġnot ably
ĠA V
L ife
ĠCh uck
m us
ĠUr ban
ĠH end
Ġdep osit
ĠS ad
Ġaff air
OR K
ie val
ĠF DA
Ġt rop
ĠOver all
Ġvirt ue
Ġsatisf action
au nd
Ġl un
ĠSw itzerland
ĠOper ation
pro cess
Ġsh ook
Ġcount ies
le ased
ĠCharl otte
1 12
Ġtrans cript
Ġre dd
p ush
ĠHe y
ĠAn alysis
[ "
Ġaltern atives
ard less
Ġele ph
Ġpre jud
ĠLe af
H aving
ĠH ub
Ġexpress ions
ĠVol ume
Ġshock ing
ĠRed s
Ġread ily
Ġplan ets
ad ata
Ġcollaps ed
ĠMad rid
Ġir rit
i pper
ĠEn c
ĠW ire
Ġbu zz
ĠG P
ash a
Ġaccident ally
ur u
Ġfrust rated
ĠS A
Ġhung ry
ĠH uff
Ġlab els
ant o
ĠE P
Ġbar riers
) |
ĠBer keley
ĠJ ets
Ġp airs
ĠL an
J ames
ĠB ear
Ġhum or
ĠLiber ty
Ġmagn itude
Ġag ing
ĠM ason
Ġfriends hip
umb ling
Ġemer ge
Ġnewsp apers
Ġam bitious
ĠRich ards
atern al
Ġ198 1
Ġcook ies
Ġsc ulpt
Ġpur suit
L ocation
Ġscript s
p c
Ġarrang ements
Ġd iameter
Ġl oses
am ation
Ġl iqu
ĠJ ake
aret te
Ġunderstand s
ĠZ en
v m
Ġappro ve
Ġw ip
Ġult ra
Ġint end
ĠD I
asc ular
Ġst ays
ĠK or
ĠK l
Ġinvest ing
L a
Ġbelie ving
b ad
m outh
Ġtaxp ayer
ãĥ ĥ
ĠQue bec
Ġl ap
ĠSw iss
d rop
Ġdr ain
ir i
et c
ft en
ĠN ex
Ġst raw
Ġscream ing
Ġcount ed
Ġdam aging
Ġamb assador
cent ury
Ġpro x
Ġarrest s
u v
il ateral
ĠCh arg
Ġpresc ribed
Ġindepend ently
Ġf ierce
ĠB aby
Ġb rave
Ġsu its
= >
Ġbas eline
ĠR ate
Ġis lands
Ġ( (
g reen
ix els
Ġname ly
ĠVill age
th an
am y
V ersion
g mail
ential s
ĠS ud
ĠMel bourne
Ġarri ving
Ġquant um
e ff
rop olitan
T ri
Ġfun eral
ĠI R
ÃĥÃĤÃĥÃĤÃĥÃĤÃĥÃĤ ÃĥÃĤÃĥÃĤÃĥÃĤÃĥÃĤ
ĠC ob
it ably
Ġt urb
Ġcomb o
Re view
Ġdeploy ment
u ity
ĠB ott
Ġinv isible
Ġrender ing
Ġunl ocked
Ġa qu
ĠVlad imir
Ġp ad
ĠBr ain
ĠLeg acy
dr agon
ĠKurd ish
Ġsound ed
Ġdet ained
ĠD M
g ary
Ġd aughters
Ġdistur bing
uk a
ĠPar ad
Ġt ast
Ġunf ortunate
Ġu l
em in
Ġattend ance
tr l
Ġpar ks
ĠMem orial
ĠAl ice
oth y
gu ard
ĠD ise
ĠSh an
ĠFor um
R ich
Ġshif ted
ue z
Ġl ighter
ĠMag n
Ġc od
S ch
ham mad
P ub
3 50
ĠP okemon
Ġprot otype
Ġun re
B ase
ĠStud ents
ĠRep ly
ĠCommun ist
Ġg au
ĠTy ler
I Z
Ġparticip ated
Ġsup rem
ĠDet ails
Ġvessel s
ro d
Ġt ribe
ke ep
Ġassum ptions
Ġp ound
Ġcr ude
ĠAv ailable
Ġswim ming
Ġin clusion
Ġadv ances
c ulation
Ġconserv ation
Ġover d
ĠBuff alo
Art icle
ed ge
Ġaw a
ĠMad ison
Ġsid ew
Ġcat ast
ĠK rist
uc le
ĠHigh way
ĠTer ror
Ġactiv ation
Ġuncons cious
ĠSat an
ĠSus an
ill ery
Ġarr anged
i op
Ġrum ors
ur ring
th ink
ĠKe ith
ĠK ind
Ġavoid ing
by n
n ut
ĠSpe aker
r us
n ames
Ġgu ilt
ĠOlymp ics
Ġsa il
ĠM es
lev ant
ĠColumb us
a ft
C ity
S outh
ĠHar vey
ĠP un
S everal
Ġment ally
Ġimp ress
m ount
ĠUb untu
âĢĶâĢĶâĢĶâĢĶ âĢĶâĢĶâĢĶâĢĶ
ĠSuper man
ĠMP s
Ġintent ions
ĠR acing
Ġlike lihood
Ġ2 40
T otal
Ġto ys
ĠW atson
Ġur ge
L ear
ĠP aper
Ġoccur ring
ĠB eng
ĠC ert
Ġst ones
T im
ĠTw in
z b
ĠD ynam
Ġpolit ician
k ens
ĠEnter prise
UT ERS
Ġab ol
Ġref resh
Ġarbit rary
pe ction
Ġtrou bles
Ġ} );
t v
Ġpil ots
Ġdist ribute
Ġaud it
Ġp ause
orig inal
Ġr ivals
Â £
F ig
T L
ab il
ry ing
L in
ion ed
l on
Ġf ancy
Ġcr ashed
Ġt ract
Ġshe d
Ġcons ume
B ased
down load
in it
Ġvolt age
Int rodu
Ġcondem ned
ĠFin ance
res pect
Ġex cluded
Ġestablish ing
her ic
Ġher itage
Ġspect acular
Ġun st
ĠSnow den
ĠL ane
S an
Ġprotect ions
st ruction
inc inn
Ġmac ro
C ustom
ios ity
Ġes p
Ġfunction ing
Ġm ush
Ġp uzzle
Ġeth ical
M al
Ġgo verning
ĠF erguson
Ġrest ored
Ġst ressed
ĠCoun ter
ĠK as
cl ip
AN S
Ġse iz
U K
by ss
old own
ap i
Ġperman ently
oun ters
W est
Th rough
L ight
at oes
Ġne at
Ġc ord
ure r
Ġsevere ly
ĠA ven
Ġinter rog
Ġtri ple
G iven
N umber
Ġar ise
Ġs her
pl ant
Ġfl ower
ĠC ou
Ġat e
Ġnew er
b ul
Ġmean while
ĠL air
Ġadjust ment
ĠCop yright
Ġd ivers
i ological
Ġgam ers
o at
Ġhistor ically
Ġanal og
Ġlong time
Ġpres cription
ĠM ist
ĠHy per
ĠM aine
ĠDe ity
Ġmulti pl
ĠRe incarn
ĠH yd
ĠP ic
S il
r ants
ĠC ris
. ;
( {
epend ence
Ġrec y
ate ur
Ġqu ad
Ġgl ob
Ġcon ced
te am
Ġcapital ist
ĠL ot
Ġroy al
ĠCy ber
Ġblack s
met ic
ri v
ĠD anny
Ġsp o
ĠR O
Ġanim ated
rypt ed
ĠDep uty
Ġrend ered
F E
Ġstre ak
Ġcloud s
ĠDou g
~~~~ ~~~~
Ġdisc our
ĠVe h
Ġpsych ology
ĠJ ourney
Ġcry stal
ĠFro st
Ġsuspic ion
Ġrel ate
or us
ĠC rypt
ĠN VIDIA
com ed
ut ing
incinn ati
Ġvulner ability
ost ic
Ġisol ation
Ġcool ing
ĠCoal ition
Ġ1 19
F our
ĠDe al
Ġâ ī
se mble
ram ent
ĠBar celona
Ġ10 2
Ġcoc aine
ocaly pse
F eb
ogen ic
Ġmut ation
Ġcrypt oc
ĠK el
ĠG it
a is
Ġs isters
AN K
Ġactiv ate
T er
Ġd read
yl on
Ġprop ri
A ust
ĠDef ault
Ġout door
Ġshe er
ce ive
Ġg ently
Ð ¾
Pro gram
Ġâ ĨĴ
Ġve gan
ĠCr us
Ġrespons ibilities
ĠH R
OL D
Ġprev ents
Ġst iff
ĠW ere
Ġathlet ic
ĠSc ore
Ġ) :
Ġcolumn s
ĠL oc
av ailable
ĠF ram
ĠS essions
Ġcompan ion
Ġpack s
14 0
ĠKn ights
Ġf art
Ġstream s
Ġsh ore
Ġapp eals
ĠPer formance
h aul
ĠSt ra
ĠN ag
10 3
ĠTrans portation
B B
E v
z an
P ublic
Ġtw in
uls ion
M ult
Ġelect ro
Ġstat ue
ation ally
ĠN ort
Ġins pection
/ *
ig ue
Ġcomp assion
ĠT ales
ĠSte in
ĠSc reen
ĠB ug
ĠL ion
g irl
Ġwithdraw al
Ġobject ives
Ġblood y
Ġprelim inary
Ġj acket
Ġdim ensions
ĠC ool
ĠOcc up
Ġw reck
Ġdoub led
ank ing
Ġ19 75
Ġglass es
ĠW ang
pro v
P ath
connect ed
ĠMult i
ĠNor way
agon ist
Ġfe ared
Ġtouch ing
Ġarg uably
Â¯Â¯Â¯Â¯ Â¯Â¯Â¯Â¯
ĠNC AA
che m
Ġsp at
ĠW WE
ĠC el
ig ger
Ġattack er
ĠJo in
ob ject
ett a
Ġelim inated
d et
Ġdest ruct
ĠLuc as
ct uary
18 0
ĠBr ady
ĠBl ues
B ay
au kee
Ġtim eline
Ġdeleg ates
w ritten
uff icient
Ġsh apes
Cop yright
ou ble
serv ice
Ġp ione
Ġcolleg es
Ġrow s
Ġsp ite
Ġassess ed
3 60
Ġle ase
Ġconfident ial
ck er
ĠMan ning
ĠV oice
Ġse aled
Ġcalcul ate
N O
ĠAss istant
Ġteen ager
ul ent
ather ine
Ġm ock
Ġd iamond
Ġf est
Ġsw itched
Ġres ume
ĠPu erto
Ġl anes
ir ation
ĠSimilar ly
Ġro d
ĠS el
ĠPal ace
ĠLim ited
e ous
Ġvar iant
Ġw ard
Ġ) )
Sh ow
OO K
A lex
ĠN ep
br is
ĠWik ipedia
Ġexcept ional
Ġman ages
ĠD raw
Ag ain
Ġco pper
ut t
Ġex ports
Ġport folio
Ġelev ated
R ated
ĠOther wise
ĠT act
ĠShe l
ĠT X
" âĢĶ
Ġres ur
ĠW a
ven ant
Ġmon etary
pe ople
E mail
Ġfif ty
ĠS weet
ĠMalays ia
Ġconf using
ĠR io
ud a
uten ant
" );
Ġpra ised
Ġvol umes
t urn
Ġm ature
Ġnon profit
Ġpassion ate
ĠPriv ate
Ġ10 3
Ġdesc end
ç ¥ŀ
uff y
head ed
Whe ther
ri en
ze ch
be it
Ġch rom
ĠMc M
Ġd ancing
Ġe leg
ĠNot iced
11 5
Ġadvoc acy
ENT S
amb ling
ĠMin or
ĠF inn
Ġprior ities
Ġthere of
ĠSt age
ĠRog ers
Ġsubst itute
ĠJ ar
ĠJeff erson
Ġlight ly
10 2
ĠL isa
u its
ys ical
Ġshif ts
Ġd rones
Ġwork place
Ġres id
ens ed
ah n
Ġpref erences
ser ver
Ġdeb ates
d oc
ĠGod s
Ġhelicop ter
Ġhon our
Ġconsider ably
ed ed
ĠF emale
ĠAn ne
Ġre un
ĠF ace
ĠHall ow
ĠBud get
Ġcondem n
Ġt ender
Pro f
ocr atic
ĠTurn er
ĠAg ric
Ġ19 76
Ġa pt
d isc
ĠF ighter
ĠA ur
Ġgar bage
in put
ĠK arl
ĠOl iver
ĠL anguage
k n
N on
ĠCl ar
Ġtrad itions
Ġad vertisement
ĠS or
Ġarch ive
Ġvill ages
7 50
Ġimplement ing
w aukee
Ġdiet ary
Ġswitch ing
Rep ublic
Ġvel ocity
Ġc it
ĠA wards
Ġfin ancing
Ġlast ed
) ]
Ġrem inder
P erson
Ġprec ision
Ġdesign ers
ĠF ried
ĠB order
Ġtr agic
Ġw ield
Ġiniti atives
ĠT ank
w er
Ġjo ins
R o
in ery
Ġar row
Ġgener ating
found er
Ġsear ches
Ġrandom ly
A ccess
Ġb atch
Ġp osed
l at
Ġpursu ing
as a
Ġtest ified
form ing
ĠSh ar
w iki
ĠE ither
S ometimes
Ġsen ators
ĠJohn ny
ĠTal iban
ĠG PS
":" /
ãģ® å
Ġanaly zed
ĠRub io
ĠMove ment
op ard
ii i
St and
f ight
Ġign oring
i ang
ĠG N
so ever
ĠST AT
Ġref using
Ġswe at
Ġb ay
P ORT
ir med
ak y
Ġdis pro
Ġlabel ed
Ġ10 8
H ello
Ġple asant
ab a
Ġtri umph
Ġab oard
Ġinc om
ĠC row
le tt
Ġfol k
Ġch ase
` `
ĠBr us
Ġte ens
c ue
Ġter rain
h yd
il ight
OR Y
Su pport
ew s
ll i
rain ts
ĠC and
Ġab used
ach ment
l arg
B as
ĠC ancer
Ġ19 78
Ġsupp orter
ac cess
ĠTer min
ĠT ampa
ĠAN Y
Ġnew est
ĠCrim inal
ed u
Ġ19 30
Ġadm its
Ġend e
Ġfail ures
ur ate
ful ness
cy cl
ĠSub ject
Ġinf inite
th ree
W A
p it
ĠInst all
R ad
ili ation
G M
Ġcontin ent
Ġaccommod ate
ĠCl ay
Ġp up
ĠF unction
Ġham mer
ĠAlbert a
Ġrev ised
Ġminor ities
Ġmeasure ment
Con nell
Ġdis able
ĠM ix
In cre
Ġfor k
ĠR osen
Ġimpl ies
umb lr
AN G
Ġprote ins
Ġagg ression
Ġfacilit ate
S N
Ġilleg ally
u er
Ġacad em
Ġp uzz
ĠSh ift
p ay
oll o
Ġaud iences
B uild
Ġno ble
Ġsynt ax
â ĺħ
Ġbe am
ĠB ed
ĠA ld
Ġorig ins
v ideo
Ġ19 77
ĠAss ault
Ġgar age
Te am
Ġver dict
Ġd war
ĠVirt ual
e vent
Ke ep
Ġsent iment
Ġwild life
sh irt
Ġb urg
Ġrecommend ation
rep resent
Ġgall ery
own ers
Ġsch olar
Ġconven ience
ĠSw ift
Ġconv inc
C ap
Ġwar fare
ĠVis ual
Ġconst itute
Ġab ort
ĠWe ather
ĠLook ing
ĠH em
Ġmart ial
Ġinc oming
et ition
Ġtoler ance
ĠCre ated
Ġfl ows
ĠE lder
Ġsoul s
Ġf oul
ĠP ain
ĠC AN
Ġ2 20
b c
he nd
Ġgen ius
R eal
ĠW r
omet er
p ad
Ġlim iting
ĠS i
ĠL ore
ĠAd ventures
Ġvar ied
D isc
f in
ĠPerson al
Ch ris
Ġinv ented
Ġd ive
ĠR ise
Ġo z
ĠCom ics
Ġexp ose
ĠRe b
let ters
s ite
im ated
Ġh acking
Ġeduc ated
ĠNob ody
Ġdep ri
Ġincent ive
ãĤ ·
Ġovers ight
Ġtrib es
ĠBelg ium
Ġlicens ing
our t
Produ ct
ah l
ĠG em
Ġspecial ist
Ġc ra
ann ers
ĠCor byn
Ġ19 73
RE AD
Ġsum mar
Ġover look
ĠApp lication
Ġin appropriate
Ġdownload ed
Q ue
ĠB ears
Ġth umb
ĠChar acter
ĠReincarn ated
ĠS id
Ġdemonstr ates
s ky
ĠBloom berg
ĠAr ray
ĠRes ults
ĠFour th
ĠED T
ĠO scar
c end
Ġ10 6
ĠN ULL
ĠH ERE
m atch
ĠBr un
Ġgluc ose
ie g
eg u
Ġcert ified
Ġrel ie
Ġhuman itarian
Ġpr ayers
K ing
Ġn an
h ou
10 8
ul u
Ġrenew able
Ġdistingu ish
Ġd ense
ĠV ent
ĠPack age
ĠB oss
Ġedit ors
Ġm igr
T ra
ĠPet ers
ĠAr ctic
200 4
ĠC ape
Ġloc ally
Ġlast ing
Ġhand y
. ).
P an
ĠR ES
Ind ex
Ġt ensions
Ġformer ly
Ġide ological
Ġsens ors
Ġdeal ers
Ġdef ines
S k
Ġproceed s
Ġpro xy
az ines
ĠB ash
ĠP ad
ĠC raft
eal ous
Ġshe ets
omet ry
J une
cl ock
T T
ĠThe atre
ĠB uzz
Ġch apters
Ġmill enn
Ġd ough
ĠCongress ional
Ġimag ined
av ior
Ġclin ic
Ġ19 45
Ġhold er
ro ot
oles ter
Ġrest art
B N
ĠHam as
ĠJ ob
Ġor b
Ġr am
Ġdiscl ose
Ġtransl ate
Ġimm igrant
Ġannoy ing
Ġtreat y
an ium
ĠTe a
ĠLeg ion
Ġcrowd s
ĠB ec
ĠA er
oh yd
B ro
Look ing
Ġl bs
Ġagg ress
Ġse am
Ġinter cept
ĠM I
mer cial
act iv
ĠC it
Ġdim ension
Ġconsist ency
Ġr ushing
ĠDou glas
Ġtr im
Inst all
ick er
Ġsh y
10 6
Ġment ions
pe lled
ĠT ak
c ost
Ġclass room
Ġfort une
dri ven
Ġun le
ĠWhe el
Ġinvest or
ĠM asters
k it
Ġassoci ations
ĠEv olution
op ing
us cript
Ġprov incial
ĠWal ter
av i
S O
Ġun limited
Eng lish
ĠC ards
ĠEb ola
ne red
Ġreven ge
Ġout right
um per
Ġf itting
ĠSol id
Ġform ally
Ġproblem atic
Ġhaz ard
Ġenc ryption
Ġstraight forward
ĠA K
Ġp se
ĠOr b
ĠCh amber
ĠM ak
Cont ents
Ġloyal ty
Ġl yrics
ĠSy m
Ġwel comed
Ġcook ed
Ġmon op
Ġn urse
Ġmis leading
Ġe ternal
Ġshif ting
Ġ+ =
V is
Ġinst itutional
ill ary
Ġp ant
VER T
ĠA CC
ĠEn h
Ġinc on
ĠRE UTERS
Ġdon ated
âĢ¦âĢ¦ âĢ¦âĢ¦
In tern
Ġexhib it
Ġt ire
ĠR ic
ĠCh ampion
ĠMu hammad
N ING
ĠSoc cer
Ġmob ility
Ġvary ing
ĠM ovie
Ġl ord
o ak
F ield
Ġve ctor
us ions
Ġsc rap
Ġen abling
m ake
T or
. *
| |
ĠWe bsite
ĠN PC
Ġsocial ist
ĠBill y
ĠAdd itional
Ġc argo
Ġfar ms
ĠSo on
ĠPri ze
Ġmid night
Ġ9 00
se en
ĠSp ot
Ġshe ep
Ġspons ored
ĠH i
ĠJ ump
Ġ19 67
Micro soft
ĠAg ent
Ġch arts
d ir
Ġadj acent
Ġtr icks
Ġman ga
Ġex agger
/ >
foot ball
ĠF CC
G C
ĠT ier
and ra
OU ND
% ),
Ġfru its
V C
ĠA A
R ober
Ġmid st
â Ĺ
ank a
Ġlegisl ature
ĠNe il
Ġtour ists
" "
ĠWar ning
ĠNever theless
ĠOffic ial
ĠWh atever
Ġm old
Ġdraft ed
Ġsubst ances
Ġbre ed
Ġt ags
ĠT ask
Ġver b
Ġmanufact ured
com ments
ĠPol ish
Pro v
Ġdetermin es
Ob ama
k ers
Ġutter ly
Ġse ct
sc he
ĠG ates
ĠCh ap
Ġal uminum
Ġz ombie
ĠT ouch
ĠU P
Ġsatisf y
Ġpred omin
asc ript
Ġelabor ate
Ġ19 68
Ġmeas uring
ĠV ari
any ahu
Ġs ir
ul ates
id ges
ick ets
ĠSp encer
T M
oub ted
Ġpre y
Ġinstall ing
ĠC ab
re ed
re ated
Su pp
Ġwr ist
ĠK erry
10 7
ĠK le
ĠR achel
Ġc otton
ĠA RE
ĠE le
Cont rol
Ġload s
ĠD od
an as
b one
Ġclass ical
ĠReg ional
ĠInt eg
V M
Ġdes ires
Ġaut ism
support ed
ĠM essage
Ġcomp act
writ er
Ġ10 9
ĠHur ricane
c ision
Ġcy cles
Ġdr ill
Ġcolle ague
Ġm aker
G erman
Ġmist aken
S un
ĠG ay
Ġwhat soever
Ġsell s
ĠA irl
l iv
ĠO ption
Ġsol ved
Ġse ctors
Ġhorizont al
Ġequ ation
ĠSk ill
ĠB io
g ement
ĠSn ap
ĠLeg al
Ġtradem ark
Ġmake up
Ġassemb led
Ġsa ves
ĠHallow een
ĠVer mont
ĠFR OM
Ġfar ming
ĠP odcast
accept able
ĠHig her
Ġas leep
ull ivan
Ġrefere n
ĠLe v
Ġbul lets
ok o
H C
Ġst airs
Ġmain tains
ĠL ower
ĠV i
Ġmar ine
Ġac res
Ġcoordin ator
ĠJ oh
Ġcounterpart s
ĠBrother s
Ġind ict
b ra
Ġch unk
Ġc ents
H ome
ĠMon th
Ġaccording ly
if les
ĠGerm ans
ĠSy n
H ub
Ġey eb
âĶĢâĶĢ âĶĢâĶĢ
Ġr anges
ĠHoll and
ĠRob ot
f c
M ike
Ġpl asma
Ġsw ap
Ġath lete
ĠR ams
,' "
Ġinfect ions
Ġcor rid
Ġv ib
Ġpat ches
Ġtradition ally
Ġrevel ation
Ġswe ep
Ġgl ance
Ġin ex
200 3
ĠR aw
work ing
os ures
ĠD at
ĠLyn ch
Ġle verage
ĠRe id
Ġcorrel ation
ian ces
av ascript
Ġrep ository
ret ty
Ġ19 72
24 0
Ġo un
p ol
ĠRe ed
Ġtact ical
is ite
App le
ĠQu inn
Ġrap ed
ill o
Euro pe
Ġalgorith ms
ĠRod rig
i u
Ġill um
Ġf ame
Ġintrodu cing
Ġdel ays
ĠRaid ers
Ġwh istle
Ġnovel s
ĠRe ally
Ġder iv
Ġpublic ations
ĠNe ither
ĠCom merce
Ġa ston
l anguage
Not es
ĠR oth
ĠF ear
Ġm ate
Ġpar ade
ĠQ B
Ġman eu
ĠC incinnati
m itting
Ġwa ist
ĠR ew
Ġdisc ont
Ð °
Ġst aring
Ġal ias
Ġsec urities
Ġtoile t
ĠJ edi
Ġun law
v ised
//// ////
] (
ĠWe iss
Ġpre st
ĠComp an
Ġmem o
ĠGr ace
J uly
ĠEl ite
cent er
ĠSt ay
Ġgal axy
Ġto oth
ĠS ettings
Ġsubject ed
ãĤ ¦
Ġline back
Ġretail ers
ĠW ant
Ġd angers
A ir
Ġvolunt ary
ew ay
Ġinterpret ed
ot ine
Ã §
Ġp el
Serv ice
ĠEvent ually
Ġcare ers
Ġthreat en
Ġmem or
ĠBrad ley
anc ies
s n
ĠUn known
N ational
Ġsh adows
ail and
ĠD ash
Every one
izz ard
M arch
= (
Ġpull s
Ġstr anger
Ġback wards
ĠBern ard
imens ional
Ġch ron
Ġtheoret ical
k top
Ġw are
ĠInvest ig
ĠIn iti
ĠOper ations
o ven
oc ide
* /
Ġfl ames
ĠC ash
sh it
Ġc ab
ĠAn aly
ĠSe ah
Ġdefin ing
Ġorder ing
Ġimm un
Ġpers istent
AC H
Russ ian
m ans
Ġh ind
Ġphot ography
Â ©
Ġh ug
Ġ10 7
ĠH ence
i ots
ude au
Ġsubsid ies
Ġroutine ly
ĠDev ice
it ic
Ġdisg ust
land er
Ġ19 40
Ġassign ment
ĠB esides
w ick
ĠD ust
us c
struct ed
11 1
de velop
Ġf ond
Ġinter section
Ġdign ity
Ġcommission er
With out
re ach
Ġcart oon
Ġsc ales
ãĥ Ń
F IG
Ġsurve ys
ĠIndones ia
Ġart work
Ġun ch
Ġcy cling
un ct
au er
or ate
ĠOb viously
Ġcharacter ized
fe ld
Ġaff irm
Ġinn ings
Ġ é
Ġal iens
Ġcl oth
et ooth
ĠC ertain
Â §
Ġdig est
k now
ĠX L
Ġpredict ions
Ġd in
W AR
Ġafter math
Ex ample
ĠSu ccess
ĠTh r
IG N
Ġmin er
B us
Ġcl arity
heim er
ĠO UT
ĠS end
ĠCirc le
ĠD iet
Ġpron ounced
Ġcreat ors
Ġearthqu ake
atter y
ge ons
Ġo d
Ġlay ing
or p
U lt
pro ject
Ġunder min
Ġsequ el
S am
ĠDark ness
Ġre ception
b ull
Y S
ĠV ir
Ġsequ ences
ĠCo in
Ġout fit
ĠW ait
1 19
Ġdel ivers
.... ..
Ġbl own
ĠE sc
ĠM ath
per m
ĠU l
Ġgl im
Ġfac ial
Ġgreen house
Ġto kens
/ -
ĠAnn ual
ĠON E
Ġteen age
ĠPhys ical
ĠL ang
ĠC elt
Ġsu ed
ivid ually
Ġpat ience
ch air
reg ular
Ġa ug
in v
ex cept
ĠL il
Ġn est
f d
s um
ĠCh ase
Russ ia
ĠJenn ifer
Ġoff season
Over all
F ore
Ġr iot
A ud
form er
Ġdefend ers
ĠC T
iot ic
rib ly
Ġautom ated
Ġpen is
Ġins ist
Ġdi agram
ĠS QL
ĠG arc
Ġw itch
cl ient
ier ra
am bers
Ġrec ount
f ar
V ery
oster one
Ġappreci ated
ĠPer fect
S ection
Ġd oses
oca ust
Ġcost ly
Ġg rams
ĠSh i
Ġwrest ling
Ġ19 71
Ġtro phy
Ġn erve
ĠK az
ĠExper ience
Ġpled ged
Ġplay back
Ġcreat ivity
by e
Ġattack ers
Ġhold ers
ĠCo ach
ĠPh D
Ġtransf ers
Ġcol ored
ĠH indu
Ġd rown
Ġlist ened
ĠW A
ias m
P O
Ġappeal ing
Ġdiscl osed
ĠCh icken
ag ging
Ġple aded
Ġnav igation
ĠReturn s
Ġ[ [
R OR
E A
Ġphotograp her
ĠR ider
ipp ers
Ġsl ice
Ġe rect
Ġhe d
iss ance
ĠVik ings
ur ious
Ġapp et
oubted ly
Ch ild
Ġauthent ic
o os
ĠM aking
Ġannoun cing
Ġb od
Ġmet er
ĠN ine
ĠR ogue
Ġwork force
Ġrenew ed
Ġorganis ations
ac s
P LE
Sh ort
Ġcomp ounds
ĠVis it
Ġen velop
ear th
Ġsupport ive
gg le
ĠBrus sels
ĠGu ild
Cre ate
RE L
Ġaver aged
Ġ19 69
ri ages
Ġlength y
Ġforg ot
O kay
ĠE rd
Ġdeal er
Ġrec ession
D D
Ġdesper ately
Ġhun ger
Ġst icks
Ġm ph
ĠF aith
Ġintention ally
Ġdem ol
ue ller
ĠS ale
Ġde bris
s pring
Ġle ap
>> >>
Ġcontain ers
se lling
rane an
atter ing
Ġcomment ed
ĠC M
on ut
Ġwood s
es pecially
Ġorgan ize
iv ic
ĠWood s
ang a
s qu
Ġm aj
am on
Ġax is
Ġ19 74
ĠDen mark
Ġwar rior
ĠP and
Ġout lined
ĠB O
ins ula
z illa
eb ook
Ġd are
Ġsear ched
Ġnav igate
S n
writ ing
Ġun ited
J apan
ĠHe brew
Ġfl ame
Ġrel ies
Ġcatch ing
ĠSh o
Ġimprison ment
Ġp ockets
Ġclos ure
ĠF am
t im
ade qu
Act ivity
Ġrecru iting
ĠW ATCH
ĠArgent ina
d est
Ġapolog ize
or o
Ġlack s
Ġtun ed
ĠGriff in
Ġinf amous
Ġcelebr ity
ss on
Ġ ----------------------------------------------------------------
ĠIs is
ĠDis play
Ġcred ibility
Ġeconom ies
Ġhead line
ĠCow boys
Ġind ef
Ġl ately
Ġincent ives
but ton
ĠM ob
A ut
Ġres igned
ĠO m
c amp
Ġprof iles
Ġsche mes
olph ins
ay ed
Cl inton
en h
ĠY ahoo
Ġab st
Ġan k
su its
Ġw ished
ĠMar co
udd en
Ġsp here
ĠB ishop
Ġincorpor ated
ĠPl ant
11 4
Ġh ated
p ic
Ġdon ate
Ġl ined
Ġbe ans
Ġsteal ing
Ġcost ume
Ġsher iff
Ġfor ty
Ġint act
Ġadapt ed
Ġtrave lling
b art
Ġnice ly
Ġdri ed
Ġsc al
os ity
NOT E
ĠB h
ĠBron cos
ĠI gn
Ġint imate
Ġchem istry
Ġopt imal
D eb
ĠGener ation
Ġ] ,
ich i
ĠW ii
ĠYOU R
vent ions
W rite
Ġpop ul
un ning
ĠW or
V ol
Ġqu een
head s
K K
Ġanaly ze
op ic
ear chers
Ġd ot
leg raph
ast ically
Ġupgr ades
Ġca res
Ġext ending
Ġfree ze
Ġin ability
Ġorg ans
Ġpret end
Ġout let
11 3
ol an
ĠM all
ul ing
t alk
Ġexpress ing
ĠAl ways
ĠBe gin
f iles
Ġlic enses
% %
ĠM itt
Ġfil ters
ĠMil waukee
G N
Ġunf old
M o
Ġnut rition
pp o
B o
Ġfound ing
Ġunder mine
Ġeas iest
ĠC zech
ĠM ack
Ġsexual ity
ĠN ixon
W in
ĠAr n
ĠK in
ãĤ £
ic er
Ġfort un
Ġsurf aces
agh d
Ġcar riers
ĠP ART
ĠT ib
Ġinter val
Ġfrust rating
ĠSh ip
ĠAr med
ff e
Ġbo ats
ĠAb raham
in is
Ġsu ited
th read
i ov
ab ul
ĠVenezuel a
Ġto m
su per
Ġcast le
alth ough
iox ide
ec hes
Ġevolution ary
Ġnegoti ate
Ġconfront ed
Rem ember
Ġ17 0
S uch
Ġ9 11
m ult
ĠA byss
ur ry
ke es
spe c
ĠBarb ara
Ġbelong ing
Ġvill ain
ist ani
Ġaccount able
Ġport ions
ĠDe cl
U r
ĠK ate
g re
Ġmag azines
UC K
Ġregul ate
om on
ĠAl most
Ġover view
Ġsc ram
Ġl oot
ĠF itz
Ġcharacter istic
ĠSn ake
s ay
ĠR ico
Ġtra it
ĠJo ined
au cus
Ġadapt ation
ĠAirl ines
Ġarch ae
ĠI de
Ġb ikes
Ġliter ary
Ġinflu ences
ĠUs ed
C reat
Ġple a
ĠDef ence
ĠAss ass
Ġp ond
UL T
) "
Ġeval uated
Ġob taining
Ġdem ographic
Ġvig il
ale y
Ġsp ouse
ĠSeah awks
resp ons
ĠB elt
um atic
Ġr ises
run ner
ĠMichel le
Ġpot ent
r ace
ĠP AC
F ind
olester ol
IS S
ĠIntrodu ced
ress es
ign ment
O s
ĠT u
ĠDe x
ic ides
Ġspark ed
ĠLaur a
ĠBry ant
Ġsm iling
ĠNex us
Ġdefend ants
ĠCat al
Ġdis hes
sh aped
Ġpro long
m t
( $
ãĢ Ĥ
Ġcalcul ations
ĠS ame
Ġp iv
H H
Ġcance lled
Ġgr in
Ġterrit ories
ist ically
C ome
ĠP arent
Pro ject
Ġneg lig
ĠPriv acy
Ġam mo
LE CT
olute ly
ĠEp ic
Ġmis under
w al
Apr il
m os
path y
ĠC arson
Ġalbum s
ĠE asy
Ġpist ol
< <
Ġ\ (
t arget
hel p
Ġinter pre
cons cious
ĠH ousing
ĠJ oint
12 7
Ġbe ers
s cience
ĠFire fox
effect ive
ĠC abin
ĠO kay
ĠApp lic
Ġspace craft
ĠS R
ve t
ĠStr ange
S B
Ġcor ps
iber al
e fficient
Ġpreval ence
Ġeconom ists
11 8
Th read
ord able
OD E
ĠC ant
=- =-
if iable
ĠA round
Ġpo le
Ġwilling ness
CL A
ĠK id
Ġcomple ment
Ġsc attered
Ġin mates
Ġble eding
e very
Ġque ue
ĠTr ain
Ġh ij
Ġme lee
ple ted
Ġdig it
Ġg em
offic ial
Ġlif ting
Ð µ
Re qu
it utes
Ġpack aging
ĠWork ers
h ran
ĠLeban on
ol esc
Ġpun ished
ĠJ uan
Ġj am
ĠD ocument
Ġm apping
ic ates
Ġinev itably
Ġvan illa
ĠT on
Ġwat ches
Ġle agues
Ġiniti ated
deg ree
port ion
Ġrec alls
Ġru in
Ġm elt
I AN
Ġhe m
Ex p
Ġb aking
ĠCol omb
at ible
Ġrad ius
pl ug
ĠI F
et ically
Ġf ict
H ER
ĠT ap
atin um
Ġin k
Ġco h
ĠW izard
b oth
te x
Ġsp ends
ĠCurrent ly
ĠP it
Ġneur ons
ig nt
Ġr all
Ġbus es
b uilding
Ġadjust ments
Ġc ried
ibl ical
att ed
ĠZ ion
ĠM atter
Ġmed itation
ĠD ennis
Ġour s
ĠT ab
Ġrank ings
ort al
Ġad vers
Ġsur render
ĠG ob
ci um
om as
im eter
Ġmulti player
Ġhero in
Ġoptim istic
Ġindic ator
ĠBr ig
Ġgro cery
Ġapplic ant
ĠRock et
v id
Ex ception
p ent
Ġorgan izing
Ġenc ounters
ĠT OD
Ġjew el
S ave
ĠChrist ie
Ġhe ating
Ġl azy
ĠC P
Ġcous in
Con fig
Ġreg ener
Ġne arest
Ġachie ving
EN S
th row
ĠRich mond
ant le
200 2
Ġan ten
b ird
13 3
Ġn arc
r aint
un ny
ĠHispan ic
ourn aments
Ġprop he
ĠTh ailand
ĠT i
Ġinject ion
Ġinher it
rav is
Ġmed i
Ġwho ever
ĠDE BUG
G P
ĠH ud
C ard
p rom
Ġp or
Ġover head
L aw
Ġviol ate
Ġhe ated
Ġdescript ions
Ġachieve ments
ĠBe er
ĠQu ant
W as
Ġe ighth
ĠI v
Ġspecial ized
U PDATE
ĠD elta
P op
J ul
ĠAs k
oph y
Ġnews letters
ĠT ool
Ġg ard
ĠConf eder
ĠGM T
ĠAb bott
Ġimm unity
ĠV M
Is lam
Ġimpl icit
w d
Ġ19 44
rav ity
omet ric
Ġsurv iving
ur ai
ĠPr ison
Ġr ust
ĠSk etch
Ġbe es
ĠThe ory
Ġmer it
T ex
ch at
Ġm im
Ġpast e
ĠK och
Ġignor ance
ĠSh oot
Ġbas ement
Un ited
ĠAd vis
he ight
Ġf oster
Ġdet ain
in formation
Ġne ural
' ;
Ġprov es
all ery
Ġinv itation
um bers
Ġc attle
Ġbicy cle
z i
Ġconsult ant
Ġap ology
ĠT iger
Ġ12 3
99 9
Ġind ividually
r t
ig ion
ĠBrazil ian
Ġdist urb
Ġentreprene urs
Ġfore sts
cer pt
pl ates
p her
clip se
Ġtw itter
Ġac ids
ograph ical
h um
ĠB ald
if ully
Ġcomp iler
ĠD A
Ġdon or
as i
Ġtrib al
l ash
ĠCon fig
Ġapplic ants
Ġsal aries
13 5
Put in
ĠF ocus
ir s
Ġmisc onduct
ĠH az
Ġeat en
M obile
Mus lim
ĠMar cus
v iol
Ġfavor able
Ġst ub
ad in
ĠH ob
Ġfaith ful
Ġelectron ics
Ġvac uum
w ait
back ed
econom ic
d ist
Ġten ure
Ġsince re
ĠT ogether
ĠW ave
Ġprog ression
Ġden ying
Ġdist ress
br aska
th ird
Ġmix ing
Ġcolon ial
Ġpriv ately
Ġun rest
atern ity
Ġprem ises
ant i
greg ation
Ġlic ence
ĠH ind
ĠSam uel
Ġconvinc ing
ĠA ce
ĠR ust
ĠNet anyahu
Ġhand les
ĠP atch
orient ed
ah o
ĠG onz
Ġhack ers
claim er
Ġcustom s
ĠGr an
f ighters
Ġl uc
Ġman uscript
aren thood
Ġdev il
Ġwar riors
Ġoff enders
Will iam
Ġhol idays
Ġnight mare
Ġle ver
iff erent
St at
Ġexhib ition
put ed
ĠP ure
Ġal pha
Ġenthus iasm
ĠRepresent atives
E AR
ĠT yp
Ġwhe at
ĠAl f
Ġcor rection
Ġev angel
AT T
M iss
Ġs oup
Ġimpl ied
par am
Ġsex y
ĠL ux
Ġrep ublic
p atch
ab lish
Ġic ons
Ġfather s
ĠG ET
ĠCar ib
Ġregul ated
ĠCo hen
ĠBob by
Ġn er
Ġb ent
vent ory
ĠAl ong
ĠE ST
ĠWall ace
Ġmurd ers
r ise
ke ll
ĠCommon wealth
Ġn asty
et a
ĠM IT
Ġadminist ered
Ġgenuine ly
Ed itor
n ick
Ġhyd ro
**************** ****************
ĠB le
Ġfin es
Ġg orge
aus ible
r h
Ġapp le
ment ioned
Ġro pe
ot yp
H R
Ġdisappoint ing
Ġc age
n ik
Ġdoub ts
ĠF REE
print s
ĠM UST
Ġvend ors
ĠIn qu
Ġliber als
Ġcontract or
Ġup side
child ren
Ġtrick y
Ġregul ators
charg ed
l iter
Ġ ***
Ġreb ell
l ang
Ġloc als
Ġphys icians
Ġhe y
ar se
t m
ĠLe x
Ġbehavior al
success ful
F X
Ġbr ick
ov ic
Ġcon form
Ġreview ing
Ġins ights
Ġbi ology
ĠRem ove
ĠExt ra
Ġcomm itting
indu ced
ignt y
ig m
Ġat omic
Comm on
ĠE M
ĠP ere
ĠIt ems
e h
Ġpres erved
ĠH ood
Ġprison er
Ġbankrupt cy
Ġg ren
us hes
Ġexplo itation
Ġsign atures
Ġfin an
] ,"
ĠM R
Ġme g
rem lin
Ġmusic ians
Ġselect ing
Ġexam ining
IN K
l ated
H i
Ġart ic
Ġp ets
Ġimp air
ĠM AN
Ġtable ts
in clude
R ange
Ġca ut
Ġlog s
Ġmount ing
Ġun aware
Ġdynam ics
ĠPalest ine
ĠQu arter
ĠPur ple
Ġm a
ĠIm port
Ġcollect ions
ci ation
Ġsuccess or
Ġcl one
Ġaim ing
Ġposs essed
Ġstick ing
Ġsh aking
Ġloc ate
ĠH ockey
T urn
17 0
Ġfif teen
ĠHar rison
Ġcontinu ously
ĠT C
ĠVal ent
ĠRes cue
Ġby pass
am ount
Ġm ast
Ġprotect s
Ġart istic
Ġsomet ime
Ġsh oe
Ġshout ed
ific ant
et itive
ĠReg ister
ĠJ in
Ġconcent rated
ling ton
on ies
Ġgener ator
yr im
ĠAr men
Ġclear ing
id o
ĠT W
al ph
Ġlad ies
H ard
Ġdial og
Ġinput s
æ ľ
Ġpos es
Ġsl ots
ĠPrem ium
Ġle aks
Ġboss es
Ġ11 3
c ourse
A cc
ĠNew ton
ĠAust ria
ĠM age
Ġte aches
ab ad
Ġwe ars
Ġc yl
Ġcur se
ĠS ales
ĠW ings
Ġp sy
Ġg aps
ĠIce land
ĠP interest
Ġland lord
Ġdefin itions
ĠK er
Ġsufficient ly
ĠP ence
ĠArch itect
Ġsur pass
Ġ11 4
Ġsuper hero
ĠDise ase
Ġpri ests
ĠC ulture
Ġdefin itive
Ġsecret ly
ĠD ance
inst all
ch ief
ĠJess ica
W ould
Up dated
Ġlock er
ĠK ay
Ġmem orial
è ¦
f at
Ġdis gu
Ġflav ors
ĠBase ball
ĠRes istance
Ġk icks
Ġen v
Ġteen agers
D ark
ĠC AR
Ġh alt
ĠL G
ĠGab riel
Ġfe ver
Ġs atur
Ġm all
Ġaffili ate
ĠS leep
ĠSpe cific
ĠV el
Ġj ar
ĠSac red
ĠEd wards
ĠA CL
Ġret ained
ĠG iant
Ġlim itation
in ces
Ġref usal
ĠT ale
ĠBut ler
Ġacc idents
ĠC SS
Ġimport ed
ĠCop y
Î ±
ER T
z el
Ġdiv isions
h ots
ĠAl b
ĠD S
Load er
W ashington
at isf
ĠCreat ive
\ .
ĠAut om
red ict
Ġrecept or
ĠCarl os
Met hod
ok a
Ġmal icious
Ġste pping
, [
ĠD ad
Ġatt raction
ĠEffect s
ĠPir ate
ĠC er
ĠIndust ry
ĠR ud
Ġchar ter
Ġd ining
Ġins ists
Ġconfig ure
Ġ( #
ĠSim ple
ĠSc roll
UT C
17 5
ĠK on
Ġmarket place
Ġ ãĤ
Ġref res
Ġg ates
er red
ĠP od
Ġbeh ave
Fr ank
n ode
Ġendors ed
he tt
as ive
ĠHom eland
Ġr ides
ĠLe ave
er ness
Ġflood ing
A FP
Ġris en
Ġcontin ually
Ġun anim
ĠCont ract
ĠP as
Ġgu ided
ĠCh ile
b d
Ġsu cc
pt ic
Ġcomm ittees
ĠL uther
ĠAny one
Ġs ab
12 4
Ġp ixel
ĠB ak
ĠT ag
ĠBenn ett
En ter
sm all
ĠPresident ial
Ġp ul
Ġcontr ace
arch ive
Ġcoast al
ĠK ids
19 2
âĢ ²
ick y
ING TON
Ġw olf
ĠSt alin
T ur
id get
am as
ĠUn less
Ġspons or
Ġmor ph
ĠCho ose
Ġrun ner
Ġun bel
Ġm ud
ĠMan a
Ġdub bed
Ġg odd
ure rs
wind ow
Ġrel ied
Ġcelebr ating
os c
Ġ13 5
Ġlobb ying
Ġincom plete
Ġrestrict ion
Ġinc ap
it us
Ġexpect ation
ĠAp ollo
Ġint ens
Ġsyn c
G H
Ġmanip ulation
B Y
Ġspe ar
Ġbre asts
Ġvol can
il ia
M aterial
Ġform ats
ĠB ast
Ġparliament ary
Ġsn ake
Ġserv ants
ĠTr udeau
ĠGr im
ĠArab ic
ĠSC P
ĠBoy s
st ation
Ġprospect ive
ord e
in itialized
Ġb ored
AB LE
Ġaccess ed
Ġtax i
ĠShe ll
aid en
urs ed
in ates
ĠIns urance
ĠPet e
Sept ember
6 50
Ġad ventures
ĠCo ver
Ġt ribute
Ġsk etch
Ġem power
Ġ Ø
ĠGl enn
ĠD aw
= \"
ĠPolit ics
Ġgu ides
Ġd ioxide
ĠG ore
ĠBr ight
ĠS ierra
Ġval ued
c ond
Ġpo inter
Se lect
Ġrisk y
Ġabsor b
im ages
Ġref uses
Ġbon uses
__ _
Ġh ilar
ĠF eatures
2 20
ĠCollect or
F oot
Ġ19 64
cul us
Ġd awn
Ġwork out
ĠL O
Ġphilosoph ical
ĠSand y
ĠYou th
Ġl iable
A f
bl ue
Ġovert urn
less ness
ĠTrib une
ĠIn g
Ġfact ories
Ġcat ches
Ġpr one
Ġmat rix
Ġlog in
Ġin acc
Ġex ert
s ys
Ġneed le
ĠQ ur
Ġnot ified
ould er
t x
Ġremind s
Ġpublisher s
Ġn ort
Ġg it
Ġfl ies
ĠEm ily
Ġflow ing
ĠAl ien
ĠStr ateg
Ġhard est
Ġmod ification
AP I
ĠM Y
Ġcr ashes
st airs
n umber
Ġur ging
ch annel
ĠFal con
Ġinhabit ants
Ġterr ifying
Ġutil ize
Ġban ner
Ġcig arettes
Ġsens es
ĠHol mes
Ġpract ition
ĠPhill ips
ott o
Ġcomp ile
Mod el
ĠK o
Ġ[ ]
Americ ans
ĠTer ms
Ġmed ications
ĠAn a
Ġfundament ally
ĠNot ice
Ġwe aker
Ġ 0000
Ġgar lic
Ġout break
Ġeconom ist
ĠB irth
Ġobst acles
ar cer
ĠOr thodox
Ġplace bo
ĠC rew
asp berry
ĠAng els
Ġdis charge
Ġdestruct ive
11 7
ĠR ising
Ġd airy
l ate
Ġcoll ision
ĠTig ers
ean or
ocument ed
ĠIn valid
Ġd ont
ĠL iter
ĠV a
Ġhyd rogen
Ġvari ants
ĠBrown s
Ġ19 65
Ġind igenous
Ġtrad es
Ġremain der
Ġswe pt
ĠImp act
Ġred ist
Ġun int
grad uate
ãĥ ķ
ĠW ILL
ãģ® ç
ĠCrit ical
Ġf isher
Ġv icious
Ġrevers ed
Y ear
ĠS ox
Ġshoot ings
Ġfil ming
Ġtouchdown s
ai res
m el
Ġgrand father
Ġaffect ion
ing le
Ġover ly
Add itional
Ġsup reme
ĠGr ad
Ġsport ing
Ġmer cy
ĠBrook s
ount y
Ġperform s
Ġtight ly
Ġdem ons
Ġkill ings
Ġfact ion
ĠNov a
aut s
Ġund oubtedly
ar in
Ġunder way
ra k
Ġl iv
ĠReg ion
Ġbrief ing
s ers
cl oud
ĠM ik
us p
Ġpred iction
az or
Ġport able
ĠG and
Ġpresent ing
Ġ10 80
Â »
ush i
ĠSp ark
there um
Ġjust ification
ĠN y
Ġcontract ors
ming ham
ĠSt yle
å ħ
ĠChron icles
ĠPict ure
Ġprov ing
Ġw ives
set t
Ġmole cules
ĠFair y
Ġconsist ing
Ġp ier
al one
in ition
Ġn ucle
j son
Ġg otta
Ġmob il
Ġver bal
ar ium
Ġmon ument
uck ed
Ġ25 6
T ech
mine craft
ĠTr ack
Ġt ile
Ġcompat ibility
as is
Ġs add
Ġinstruct ed
ĠM ueller
Ġle thal
Ġhorm one
Ġor che
el se
Ġske let
Ġentert aining
Ġminim ize
ag ain
Ġunder go
Ġconst raints
Ġcig arette
ĠIslam ist
Ġtravel s
ĠPant hers
l ings
C are
Ġlaw suits
ur as
Ġcry st
Ġlow ered
Ġaer ial
Ġcomb inations
Ġha un
Ġch a
Ġv ine
Ġquant ities
Ġlink ing
b ank
Ġso y
B ill
ĠAngel a
Ġrecip ient
ĠProt est
Ġs ocket
Ġsolid arity
Ġâ Ĩ
m ill
Ġvar ies
ĠPak istani
Dr agon
Ġun e
Ġhor izon
ÂłÂłÂłÂł ÂłÂłÂłÂł
Ġprov inces
Ġfrank ly
Ġenact ed
not es
[ '
Ġ19 2
ocr acy
Ġendorse ment
Ġover time
Tr ue
L ab
lic ted
ĠD NC
Ġbe ats
ĠJam ie
15 2
ĠIN T
Cont act
Ġaccount ed
h ash
ĠPack ers
p ires
Ġles bian
Ġamend ments
Ġhop eful
ĠFin land
Ġspot light
Ġconfig ured
Ġtrou bled
Ġg aze
ĠCal gary
Ġrel iability
Ġins urg
sw er
b uy
ĠSk in
Ġp ixels
Ġhand gun
Ġpar as
Ġcateg or
ĠE L
ĠRe x
Ind eed
Ġkind a
Ġconj unction
ĠBry an
ĠMan ufact
y ang
Pl us
S QL
ish ment
Ġdom inate
Ġn ail
Ġo ath
Ġeru pt
ĠF ine
it bart
ĠCh ip
ĠAb d
ĠN am
Ġbuy er
Ġdiss ent
Le aks
Cont in
Ġr ider
ĠSome one
Ġill usion
c in
ĠBoe ing
Ġin adequ
ov ation
i ants
Ġreb uild
4 50
ĠDest iny
S W
ĠT ill
H it
ia z
ĠBang l
acher s
ĠRe form
Ġse gments
Ġsystem atic
d c
ĠConserv atives
Ġport al
h or
ĠDragon bound
Ġdrag ged
om o
Ġthe e
ad vert
ĠRep orts
ĠE t
Ġbarrel s
Aug ust
Ġcompar isons
Ġhe x
Ġan throp
" [
bor ough
ab i
Ġpict ured
play ing
ĠAdd ress
ĠMir ror
Sm ith
Ġt ires
ĠN PR
AA AA
Ġclass ification
ĠTh an
ĠH arm
ĠR A
Ġreject ion
min ation
Ġr anged
ĠF alls
D I
H ost
ãĤ ´
ĠEx ample
list ed
th irds
Ġsaf egu
br and
Ġprob able
Can ada
IT ION
ĠQ aeda
Ġch ick
Ġimport s
h it
l oc
W W
Ġble w
Ġany time
Ġwh oles
ik ed
Ġcal culation
cre ate
ĠO ri
Ġupgr aded
Ġapp ar
ut ory
ĠM ol
B rit
ĠJ ong
IN AL
ĠStart ing
Ġd ice
urt le
Ġre lying
cl osure
Ġprof itable
Ġsl aughter
ĠMan ual
c aster
Ġ" $
Ġfe ather
ĠSim ply
ie ves
Ġdeter ior
ĠPC I
Ġst amp
Ġfl aws
Ġsh ade
ham mer
Ġpass port
Ġcont ing
am el
Ġobser vers
Ġneg lect
ĠR B
ĠBrother hood
Ġskept ical
f amily
us k
Ġemotion ally
â Ļ
ĠBet a
ason able
id ity
ĠM ul
Ġkick ing
ĠC arm
oll ah
VERT IS
ĠAt hen
Ġlad der
ĠBul let
å £
00 01
ĠWild life
ĠM ask
ĠN an
R ev
Ġun acceptable
leg al
Ġcrowd ed
ag i
ĠC ox
j e
Ġmor ality
Ġfu els
Ġc ables
Ġman kind
ĠCarib bean
Ġanch or
Ġby te
ĠO ften
ĠO z
Ġcraft ed
Ġhistor ian
ĠW u
Ġtow ers
ĠCitiz ens
Ġhel m
Ġcred entials
Ġsing ular
ĠJes se
Ġtack les
Ġcont empt
Ġa fore
ĠSh adows
Ġn il
Ġur gent
app le
bl ood
Ġv on
Ġoff line
Ġbreat he
Ġj umps
Ġirre levant
ox ic
om al
import ant
J im
Ġgl oves
arm ing
dep th
Ġtal ents
ook ie
ĠS B
Ġpal m
uff s
est a
IG H
Ġcan on
ĠVer izon
ĠP le
Ġcou pled
vel t
Ġfundra ising
ĠGet ting
ĠD LC
Ġmathemat ical
ĠH S
ĠCard inals
te lling
Ġspons ors
Ġ Ï
ĠBull s
op tion
Ġprop ose
Ġmem orable
Ġembr aced
Ġdecl ining
He alth
ed a
Ġ} ;
Ġsp am
m ile
Ġpit cher
ĠE ight
Ġcar ing
ut ic
ro le
Ġair line
ernand ez
ĠAth let
Ġcert ification
ux e
rig er
Ġem pir
Ġsens ation
Ġdis m
Ġb olt
Ġev olve
H ouse
Ġconsult ation
ĠD uty
Ġtou ches
ĠN athan
Ġf aint
h ad
" (
ĠCons umer
ĠExt reme
Ġ12 7
ĠHer m
ĠSac rament
iz oph
Ġanx ious
ul ously
Ġsoc ially
ĠU TC
Ġsol ving
ĠLet ter
Hist ory
ed uc
Pr ice
) );
Ġrel oad
am ic
Ġp ork
Ġdisc ourse
Ġt ournaments
ai ro
ĠK ur
ĠCost a
Ġviol ating
Ġinterf ere
Ġrecre ational
uff le
Ġspe eches
Ġneed ing
Ġremem bers
Ġcred ited
n ia
f ocused
amer a
Ġb ru
um bs
ĠCub an
Ġpreced ing
Ġnons ense
ac ial
Ġsmart phones
ĠSt ories
S ports
ĠEmer gency
oun cing
ef ined
Ġb er
Ġconsult ing
Ġm asters
he astern
." [
ĠRun ning
Ġsus cept
ĠF eng
Americ a
pr ises
st itial
ĠWeek ly
ĠGreat er
mod ules
if ter
G raphics
ul er
Ġwho lly
Ġsupp ress
Ġconce aled
Ġhapp ily
Ġaccept s
ĠEn joy
Ġr ivers
ĠEx cept
2 25
ĠN HS
ĠMc Connell
Ġp ussy
fer red
ut able
Ġatt ain
Ġ> =
Ġdepos its
roph ic
Ġnot orious
ĠSh aw
il itation
Ġepid emic
all ic
Ġsmall est
ov ich
Ġaccess ories
per ties
Ġsur plus
ĠMe ch
Ġamb ig
ĠImm igration
Ġch im
ev al
Ġpract icing
ĠMyster y
Ġdom ains
ĠSil icon
app s
Ġkilomet ers
e a
ĠSm ash
Ġwarrant y
Ġn ost
s il
re v
J on
ĠDub lin
Ġtast es
Ġb out
g reat
er ror
Ġsw itches
ĠB apt
D O
ok i
Ġsour ced
pro du
Ġattach ment
ĠIss ue
ĠQuest ion
Jo in
Ġf itted
Ġunlaw ful
^ ^
ere k
Ġauthent ication
Ġst ole
Ġaccount ability
l abel
S earch
Ġal beit
atic an
fund ed
ĠAdd ing
ĠI Q
Ġsub mar
l it
a que
ĠLear ning
Ġint eger
M aster
ĠCh rom
Ġprem ier
O p
ĠLi u
Ġbl essed
ĠGl obe
ĠResp onse
Ġlegit im
ĠMer kel
Ġdispos al
Â ´
Ġgau ge
pe at
Ġindu ced
Ġquestion able
arth y
ĠV it
ĠF eed
U ntil
U t
worth y
R Y
ĠH erald
ĠHam mer
Ġmed al
ĠR ivers
ĠH ack
Ġclar ify
Ġtrack ed
Ġautonom ous
Ġten ant
ĠQ atar
er ie
Ġgr im
ĠMon itor
Ġresist ant
ĠSpe c
ĠWell s
N AS
14 8
Ġmin ers
iot ics
Ġmiss es
11 6
g ian
g it
ĠE yes
p res
Ġgrad uated
Ġang el
Ġsyn chron
Ġefficient ly
Ġtrans mitted
H arry
Ġglob ally
EN CE
ĠMont ana
r aged
ĠPre vention
Ġp iss
ĠL l
Ġshe lf
ĠB JP
ĠTest ament
ĠL ate
ik er
ĠH app
ĠJul ian
h all
Ġsp ont
Ġshut down
Ġincons istent
Ġsubscrib ers
Ġske leton
ĠNe braska
Ġins pire
ĠV oid
F eed
Ġang les
ĠSpr ings
Ġbench mark
Ġvacc ines
izoph ren
se xual
uff ed
Ġsh ine
ĠK ath
Ġgest ure
ine a
Ġr ip
Ġopp ression
Ġcons cience
b t
ĠL um
Ġinc idence
ĠF a
w r
Ġmin eral
ĠSp urs
alk y
Ġth under
Ġop io
Be ing
ĠPal m
Ġwas ted
Ġl b
i aries
ĠIniti ative
Ġcur ric
Ġmark er
ĠMc L
Ġext ensions
ĠP v
ĠAr ms
Ġoffer ings
Ġdef enses
Ġvend or
Ġcontrad ict
ĠCol in
Ġredd it
Ġper ipher
12 2
Ġs ins
E dit
IC T
So ft
ĠSh ah
Ġadministr ator
ĠT rip
Ġporn ography
Ġtu ition
in ence
ĠPro gress
Ġcat alog
Ġsu ite
Ġh ike
Ġreprodu ctive
eng ine
Ġd rought
ĠNo ah
Ġ2 30
Ġd ude
Ġrelax ed
Ġpart ition
Ġparticip ant
Ġtel esc
Ġfe as
ĠF F
own er
Ġswe eping
Ġl enses
Ġmatch up
ĠRe pl
ourn als
Ġcred ible
Ġgrand mother
Ġther mal
Ġsubscrib ing
Ġident ities
col m
U CT
Ġreluct ant
us ers
ĠC ort
Ġassist ed
OS S
ATION S
IS H
Ġpharm aceutical
ic able
ad ian
ĠSon ic
ĠF ury
ĠM ong
A H
ĠPsych ology
Ġph osph
Ġtreat s
Ń Ķ
Ġstead ily
ĠHell o
Ġrel ates
Ġcl ue
Ex pl
a uth
Ġrev ision
Ġe ld
os ion
Ġbr on
14 4
ri kes
Ġmin es
Ġblank et
ĠF ail
el ed
ĠIm agine
ĠPl anned
a ic
Re quest
M ad
ĠHor se
ĠEag le
Ġcap ac
15 7
Ġl ing
ĠN ice
ĠP arenthood
min ster
og s
ens itive
Not hing
Ġcar n
F in
ĠP E
Ġr ifles
ĠL P
S and
Ġgui Active
Ġtour ist
C NN
Ġunve iled
Ġpredec essor
} {
u ber
Ġoff shore
Ġopt ical
ĠR ot
ĠPear l
et on
Ġst ared
Ġfart her
at ility
cont in
ĠG y
ĠF oster
ĠC oc
ri ents
Ġdesign ing
ĠEconom y
ON G
W omen
ĠN ancy
er ver
Ġmas cul
Ġcasual ties
Ġ2 25
ĠS ullivan
ĠCh oice
Ġa ster
w s
Ġhot els
Ġconsider ations
Ġcou ch
ĠSt rip
ĠG n
Ġmanip ulate
l ied
Ġsynt hetic
Ġassault ed
Ġoff enses
ĠDra ke
Ġim pe
Oct ober
ĠHer itage
h l
ĠBl air
Un like
Ġg rief
Ġ4 50
Ġopt ed
Ġresign ation
il o
Ġver se
ĠT omb
Ġu pt
Ġa ired
ĠH ook
ĠML B
Ġassum es
out ed
ĠV ers
Ġinfer ior
Ġbund le
ĠD NS
ograp her
Ġmult ip
ĠSoul s
Ġillust rated
Ġtact ic
Ġdress ing
Ġdu o
Con f
Ġrel ent
Ġc ant
Ġscar ce
Ġcand y
ĠC F
Ġaffili ated
Ġspr int
yl an
ĠGarc ia
Ġj unk
Pr int
ex ec
C rit
Ġport rait
ir ies
ĠOF F
Ġdisp utes
W R
L ove
ãģ Ħ
ĠRe yn
Ġh ipp
op ath
Ġflo ors
ĠFe el
Ġwor ries
Ġsett lements
ĠP os
Ġmos que
Ġfin als
Ġcr ushed
ĠPro bably
ĠB ot
ĠM ans
ĠPer iod
Ġsovere ignty
Ġsell er
Ġap ost
Ġam ateur
Ġd orm
Ġconsum ing
Ġarm our
ĠRo ose
Ġint ensive
Ġelim inating
ĠSun ni
ĠAle ppo
j in
Ġadv ise
p al
ĠH alo
Ġdes cent
Ġsimpl er
Ġbo oth
ST R
L ater
ĠC ave
== =
Ġm ol
Ġf ist
Ġshot gun
su pp
Ġrob bery
E ffect
Ġobsc ure
ĠProf essional
Ġemb assy
Ġmilit ant
Ġinc arcer
Ġgener ates
Ġlaun ches
Ġadministr ators
Ġsh aft
Ġcirc ular
Ġfresh man
ĠW es
ĠJo el
ĠD rew
ĠDun can
ĠApp arently
s ight
ĠIntern al
ĠInd ividual
ĠF E
Ġb ore
ĠM t
Ġbroad ly
ĠO ptions
ount ain
ip es
ĠV ideos
20 4
Ġh ills
Ġsim ulation
Ġdisappoint ment
it an
ĠLabor atory
Ġup ward
Ġbound ary
Ġdark er
h art
Ġdomin ance
C ong
ĠOr acle
ĠL ords
Ġscholars hip
ĠVin cent
ed e
ĠR ah
Ġencour ages
ro v
Ġqu o
Ġprem ise
ĠCris is
ĠHol ocaust
Ġrhyth m
Ġmet ric
cl ub
Ġtransport ed
Ġn od
ĠP ist
Ġancest ors
ĠFred er
th umbnails
ĠC E
ON D
Ph il
ven ge
ĠProduct s
cast le
Ġqual ifying
ĠK aren
VERTIS EMENT
Ġmight y
Ġexplan ations
Ġfix ing
D i
Ġdecl aring
Ġanonym ity
Ġju ven
ĠN ord
ĠDo om
ĠAct ually
O k
ph is
ĠDes ert
Ġ11 6
I K
ĠF M
Ġinc omes
V EL
ok ers
Ġpe cul
Ġlight weight
g ue
Ġacc ent
Ġincre ment
ĠCh an
Ġcompl aining
ĠB aghd
Ġmidfield er
Ġover haul
Pro cess
ĠH ollow
ĠTit ans
Sm all
man uel
ĠUn ity
ĠEv ents
S ty
Ġdispro portion
n esty
en es
ĠC od
Ġdemonstr ations
ĠCrim son
ĠO H
Ġen rolled
Ġc el
ĠBre tt
Ġa ide
Ġhe els
Ġbroad band
Ġmark ing
Ġw izard
ĠN J
ĠChief s
Ġingred ient
Ġd ug
ĠSh ut
urch ase
end or
Ġfar mer
ĠGold man
12 9
15 5
Or der
Ġl ion
i ably
Ġst ain
ar ray
ilit ary
ĠFA Q
Ġexpl oded
ĠMcC arthy
ĠT weet
ĠG reens
ek ing
l n
ens en
Ġmotor cycle
Ġpartic le
Ġch olesterol
B ron
Ġst air
Ġox id
Ġdes irable
ib les
Ġthe or
for cing
Ġpromot ional
ov o
b oot
ĠBon us
raw ling
Ġshort age
ĠP sy
Ġrecru ited
Ġinf ants
Ġtest osterone
Ġded uct
Ġdistinct ive
Ġfirm ware
bu ilt
14 5
Ġexpl ored
Ġfact ions
Ġv ide
Ġtatt oo
Ġfinan cially
Ġfat igue
Ġproceed ing
const itutional
Ġmis er
Ġch airs
gg ing
ipp le
Ġd ent
Ġdis reg
ç Ķ
st ant
ll o
b ps
aken ing
Ġab normal
ĠE RA
å£ «
ĠH BO
ĠM AR
Ġcon cess
Ġserv ant
Ġas pir
l av
ĠPan el
am o
Ġprec ip
Ġrecord ings
Ġproceed ed
Ġcol ony
ĠT ang
ab lo
Ġstri pped
Le ft
to o
Ġpot atoes
Ġfin est
% ).
Ġc rap
ĠZ ach
ab ases
ĠG oth
Ġbillion aire
w olf
Ġsan ction
S K
Ġlog ged
P o
ey ed
un al
Ġcr icket
Ġarm ies
Ġunc overed
Cl oud
Ã³ n
Ġreb ounds
Ġm es
O per
P ac
Ġnation ally
Ġinsert ed
p ict
Ġgovern ance
Ð ¸
Ġprivile ges
G ET
Ġfavor ites
im ity
Ġlo ver
the m
em pl
Ġgorge ous
An n
Ġsl ipped
Ġve to
B ob
Ġsl im
u cc
ĠF ame
udden ly
Ġden ies
ĠM aur
Ġdist ances
Ġw anna
t ar
ĠS ER
Ġâ Ī
Ġle mon
at hetic
Ġlit eral
Ġdistingu ished
Ġansw ering
G I
Ġrelig ions
ĠPhil os
ĠL ay
Ġcomp os
ire ments
ĠK os
ine z
roll ing
Ġyoung est
and ise
ĠB orn
Ġalt ar
am ina
ĠB oot
v oc
Ġdig ging
Ġpress ures
Ġl en
26 4
Ġassass ination
ĠBir mingham
ĠMy th
Ġsovere ign
ĠArt ist
ĠPhot ograph
Ġdep icted
Ġdisp ens
orth y
Ġamb ul
int eg
ĠC ele
ĠTib et
Ġhier archy
Ġc u
Ġpre season
ĠPet erson
Ġcol ours
Ġworry ing
Ġback ers
ĠPal mer
ĠÎ ¼
Ġcontribut or
Ġhear ings
Ġur ine
Ġ Ù
ourge ois
Sim ilar
ĠZ immer
s omething
ĠUS C
Ġstrength s
ĠF I
Ġlog ging
As ked
ĠTh ai
in qu
ĠW alt
Ġcrew s
it ism
3 01
Ġshar ply
um ed
Ġred irect
r ators
In f
ĠWe apons
Ġte asp
19 99
L ive
ĠEs pecially
ĠS ter
ĠVeter ans
Ġint ro
other apy
Ġmal ware
Ġbre eding
Ġmole cular
ĠR oute
ĠCom ment
oc hem
Ġa in
Se ason
Ġlineback er
Ä «
ĠEconom ics
es ar
ĠL ives
ĠEm ma
Ġk in
ĠTer rit
Ġpl anted
ot on
ĠBut ter
ĠSp ons
P ER
Ġdun geon
Ġsymb olic
Ġfil med
Ġdi ets
Ġconclud es
Ġcertain ty
ĠForm at
Ġstr angers
form at
ĠPh ase
Ġcop ied
Ġmet res
ld a
ĠUs ers
Ġdeliber ate
Ġwas hed
ĠL ance
im ation
Ġimpro per
ĠGen esis
ick r
ĠK ush
Ġreal ise
Ġembarrass ing
alk ing
b ucks
Ġver ified
Ġout line
year s
ĠIn come
20 2
Ġz ombies
F inal
ĠMill enn
Ġmod ifications
ĠV ision
ĠM oses
ver b
iter ranean
ĠJ et
Ġnav al
ĠA gg
Ġur l
Ġvict ories
Ġnon etheless
Ġinj ust
ĠF act
ç ļ
Ġins ufficient
re view
face book
Ġnegoti ating
Ġguarant ees
im en
uten berg
Ġg ambling
Ġcon gr
Load ing
Ġnever theless
Ġpres idents
ĠIndust rial
Ġ11 8
Ġp oured
ĠT ory
Ġ17 5
Ġ: =
Sc ott
ange red
T ok
Ġorgan izers
M at
ĠG rowth
Ġad ul
Ġens ures
Ġ11 7
é¾į å
Ġmass acre
Ġgr ades
be fore
AD VERTISEMENT
ĠSl ow
ĠM MA
âĢĶ "
ĠV atican
Q aeda
Ġo we
66 66
ĠS orry
ĠGr ass
Ġbackground s
Ġexha usted
Ġcl an
Ġcomprom ised
ĠE lf
ĠIsa ac
ens on
In vest
IF A
Ġinterrupt ed
ãĥī ãĥ©
Ġtw isted
ĠDrag ons
M ode
ĠK remlin
Ġfert il
he res
ph an
ĠN ode
f ed
ĠOr c
Ġunw illing
C ent
Ġprior it
Ġgrad uates
Ġsubject ive
Ġiss uing
ĠL t
Ġview er
Ġw oke
Th us
bro ok
Ġdep ressed
Ġbr acket
ĠG or
ĠFight ing
Ġstri ker
Rep ort
ĠPortug al
Ġne o
w ed
19 9
Ġflee ing
sh adow
ident ified
US E
Ste am
Ġstret ched
Ġrevel ations
art ed
ĠD w
Ġalign ment
est on
ĠJ ared
S ep
Ġblog s
up date
g om
r isk
Ġcl ash
ĠH our
Ġrun time
Ġunw anted
Ġsc am
Ġr ack
Ġen light
on est
ĠF err
Ġconv ictions
Ġp iano
Ġcirc ulation
ĠW elcome
Ġback lash
ĠW ade
Ġrece ivers
ot ive
J eff
Ġnetwork ing
ĠPre p
ĠExpl orer
Ġlect ure
Ġupload ed
ĠMe at
B LE
ĠNaz is
ĠSy nd
st ud
ro ots
ri ans
Ġportray ed
Ġ ??
ĠBudd ha
s un
Rober t
ĠCom plex
Ġover see
Ġste alth
T itle
ĠJ obs
ĠK um
Ġappreci ation
ĠM OD
Ġbas ics
Ġcl ips
Ġnurs ing
Ġpropos ition
Ġreal ised
ĠNY C
Ġall ocated
ri um
ar an
ĠPro duction
ĠV ote
Ġsm ugg
Ġhun ter
az er
ĠCh anges
Ġfl uct
y on
Ar ray
Ġk its
W ater
Ġuncom mon
Ġrest ing
ell s
w ould
Ġpurs ued
Ġassert ion
omet own
ĠMos ul
ĠPl atform
io let
Ġshare holders
Ġtra ils
P ay
ĠEn forcement
ty pes
ĠAn onymous
Ġsatisf ying
il ogy
Ġ( '
w ave
c ity
Ste ve
Ġconfront ation
ĠE ld
C apt
ah an
ht m
ĠC trl
ON S
2 30
if a
hold ing
Ġdelic ate
Ġj aw
ĠGo ing
or um
S al
Ġd ull
ĠB eth
Ġpr isons
Ġe go
ĠEl sa
avor ite
ĠG ang
ĠN uclear
Ġsp ider
ats u
Ġsam pling
Ġabsor bed
ĠPh arm
iet h
Ġbuck et
ĠRec omm
O F
ĠF actory
AN CE
Ġb acter
H as
ĠObs erv
12 1
Ġprem iere
De velop
Ġcur rencies
C ast
Ġaccompany ing
ĠNash ville
Ġfat ty
ĠBre nd
Ġloc ks
Ġcent ered
ĠU T
augh s
or ie
ĠAff ordable
v ance
D L
em et
Ġthr one
ĠBlu etooth
Ġn aming
if ts
AD E
Ġcorrect ed
Ġprompt ly
ĠST R
Ġgen ome
Ġcop e
Ġval ley
Ġround ed
ĠK end
al ion
p ers
Ġtour ism
Ġst ark
v l
Ġblow ing
ĠSche dule
st d
Ġunh appy
Ġlit igation
ced es
Ġand roid
Ġinteg ral
ere rs
ud ed
t ax
Ġre iter
ĠMot ors
oci ated
Ġwond ers
ĠAp ost
uck ing
ĠRoose velt
f ram
Ġyield s
Ġconstit utes
aw k
Int erest
Ġinter im
Ġbreak through
ĠC her
Ġpro sec
ĠD j
ĠM T
Res p
ĠP T
Ġs perm
ed it
B T
Lin ux
count ry
le ague
Ġd ick
Ġo ct
Ġinsert ing
Ġsc ra
ĠBrew ing
Ġ19 66
Ġrun ners
Ġpl un
id y
ĠD ian
Ġdys function
Ġex clusion
Ġdis gr
Ġincorpor ate
Ġrecon c
Ġnom inated
ĠAr cher
d raw
achel or
Ġwrit ings
Ġshall ow
Ġh ast
ĠB MW
ĠR S
Ġth igh
Ġ19 63
Ġl amb
Ġfav ored
ag le
Ġcool er
ĠH ours
ĠG U
ĠOrig in
Ġglim pse
---------------- ----
L im
Ġche ek
Ġj ealous
- '
Ġhar ness
ĠPo ison
Ġdis abilities
ne apolis
Ġout look
Ġnot ify
ĠIndian apolis
Ġab rupt
ns ic
Ġenc rypted
Ġfor fe
reat h
Ġr abb
Ġfound ations
Ġcompl iment
ĠInter view
ĠS we
Ġad olesc
Ġmon itors
ĠSacrament o
Ġtime ly
Ġcontem pl
Ġposition ed
Ġpost ers
ph ies
iov ascular
v oid
ĠFif th
Ġinvestig ative
OU N
Ġinteg rate
ĠIN C
ish a
ibl ings
ĠRe quest
ĠRodrig uez
Ġsl ides
ĠD X
Ġfemin ism
Ġdat as
Ġb end
ir us
ĠNig eria
F ox
Ch ange
Ġair plane
ĠLad en
Ġpublic ity
ixt y
Ġcommit ments
Ġaggreg ate
Ġdisplay ing
ĠAr row
Ġ12 2
Ġrespect s
and roid
s ix
ĠSh a
Ġrest oration
) \
W S
oy s
Ġillust rate
with out
12 6
ĠâĶ Ĥ
Ġpick up
n els
Ġ ....
f ood
ĠF en
) ?
Ġphenomen a
Ġcompan ions
ĠW rite
Ġsp ill
Ġbr idges
ĠUp dated
ĠF o
Ġinsect s
ASH INGTON
Ġsc are
il tr
ĠZh ang
Ġsever ity
Ġind ul
14 9
ĠCo ffee
Ġnorm s
Ġp ulse
ĠF T
Ġhorr ific
ĠDest roy
ĠJ SON
Ġo live
Ġdiscuss es
R est
E lect
ĠW inn
ĠSurv iv
ĠH ait
S ure
op ed
Ġro oted
ĠS ke
ĠBron ze
Ġl ol
Def ault
Ġcommod ity
red ited
Ġliber tarian
Ġforb idden
Ġgr an
à ¨
Ġl ag
en z
dri ve
Ġmathemat ics
Ġw ires
Ġcrit ically
Ġcarb ohyd
ĠChance llor
ĠEd die
Ġban ning
ĠF ri
Ġcompl ications
et ric
ĠBangl adesh
Ġband width
St op
ĠOrig inally
Ġhalf way
yn asty
sh ine
Ġt ales
rit ies
av ier
Ġspin ning
ĠWH O
Ġneighbour hood
b ach
Ġcommer ce
ĠS le
B U
Ġentreprene ur
Ġpecul iar
ĠCom ments
f re
3 20
IC S
Ġimag ery
ĠCan on
ĠElect ronic
sh ort
( (
D ig
Ġcomm em
u ced
Ġincl ined
ĠSum mon
Ġcl iff
ĠMed iterranean
Ġpo etry
Ġprosper ity
ĠRe ce
Ġp ills
m ember
Ġfin ale
un c
ĠG ig
ä ½
Ġl od
Ġback ward
- +
ĠFor ward
Ġth ri
s ure
Ġso ap
ĠF X
R ES
ĠSe xual
oul os
Ġfool ish
Ġright eous
Ġco ff
terror ism
ust ain
ot er
Ġab uses
ne xt
Ġab usive
Ġthere after
Ġprohib ition
ĠS UP
Ġd ip
Ġr ipped
Ġinher ited
Ġb ats
st ru
G T
Ġflaw ed
ph abet
Ġf og
do ors
Ġim aging
Ġdig its
ĠHung ary
Ġar rog
Ġteach ings
Ġprotocol s
ĠB anks
à ¸
p ound
ĠC urt
." )
. /
Ġex emption
end ix
ĠM ull
Ġimpro ves
ĠG amer
d imensional
I con
ĠMarg aret
St atus
d ates
Ġint ends
Ġdep ict
Ġpark ed
J oe
ĠMar ines
chn ology
! ).
Ġjud ged
Ġwe ights
R ay
Ġapart ments
he ster
Ġrein force
Ġoff ender
occ up
Ġs ore
e pt
ĠPH P
ĠB row
Ġauthor ization
ĠR isk
ĠDel aware
ĠQ U
Ġnot ifications
Ġsun light
Ġex clude
d at
Ġm esh
ĠSud an
Ġbelong ed
Ġsub way
Ġno on
ĠInter ior
ol ics
ĠL akers
Ġc oding
Dis claimer
Cal if
O ld
Ġdis l
???? ?
Ġconfir ms
Ġrecruit ment
Ġhom icide
Cons ider
ĠJeff rey
ft y
} ;
Ġobject ion
do ing
ĠLe o
W ant
Ġgl ow
ĠClar ke
ĠNorm an
Ġver ification
Ġpack et
ĠForm ula
Ġpl ag
es ville
Ġshout ing
Ġo v
ĠR EC
ĠB ub
Ġn inth
Ġener g
Ġvalid ity
Ġup s
j ack
Ġneighbor ing
ĠN ec
ew orks
ĠH ab
are z
Ġsp ine
Ġevent ual
ĠLe aders
ĠC arn
Ġprob ation
Ġrom ance
ms g
ĠMechan ical
ER Y
R ock
Ġpart isan
N ode
ass ets
min ent
Ġforeign ers
Ġtest ify
ĠUs ually
l ords
ĠG ren
ĠPow ell
BI L
Ġs r
Ġadd ict
Ġshell s
Ġs igh
ĠY ale
tern ity
Ġ7 50
E U
ĠR ifle
Ġpat ron
em a
ĠB annon
an ity
Ġtrop ical
ĠV II
c ross
Every thing
ĠIS O
Ġhum ble
ass ing
ĠF IG
Ġupd ating
ys on
Ġcal cium
Ġcompet ent
Ġste ering
Pro t
ĠS Y
ĠFin als
ĠR ug
15 9
13 7
ĠG olf
Ġ12 6
Ġaccommod ation
ĠHug hes
Ġaest hetic
art isan
ĠTw ilight
Ġpr ince
ĠAgric ulture
ĠDis co
Ġpreced ent
Ġtyp ing
author ized
O ption
ĠA ub
l ishes
ach t
m ag
P eter
ĠU FO
mont on
ĠL ith
Ġa rom
Ġsec uring
Ġconf ined
priv ate
Ġsw ords
Ġmark ers
Ġmetab olic
se lect
ĠCur se
ĠO t
g ressive
Ġinc umb
ĠS aga
Ġpr iced
Ġclear ance
Cont ent
Ġdr illing
Ġnot ices
Ġb ourgeois
Ġv est
Ġcook ie
ĠGuard ians
ry s
in yl
Ġ12 4
Ġpl ausible
on gh
ĠOd in
Ġconcept ion
ĠY uk
ĠBaghd ad
ĠFl ag
Aust ral
ĠI BM
Ġintern ationally
ĠWiki Leaks
I ED
Ġc yn
Ġcho oses
ĠP ill
Ġcomb ining
Ġrad i
ĠMoh ammed
def ense
atch ing
Sub ject
ic iency
Fr ame
Ġ{ "
Ġche ss
Ġtim er
19 0
Ġt in
Ġord inance
emet ery
Ġacc using
Ġnotice able
Ġcent res
Ġl id
ĠM ills
img ur
Ġz oom
erg ic
Ġcomp ression
pr im
f ind
Ġsur g
Ġp and
ĠK ee
ĠCh ad
cell ence
oy le
Ġsocial ism
ĠT ravis
ĠM Hz
Ġgu ild
ALL Y
ĠSub scribe
ĠRel ated
Ġoccur rence
itch ing
Ġfict ional
Ġcr ush
ĠE A
c od
m ix
ĠTri ple
Ġretrie ve
Ġstimul us
Ġpsych iat
ĠDo or
Ġhomosexual ity
Ġelement ary
Ġcell ular
id ian
ĠL aun
Ġintrig uing
Ġfo am
ĠB ass
id i
its u
Ġass ure
Ġcongr at
Ġbusiness man
ĠBo ost
cl ose
Ġl ied
Ġsc iences
ĠO mega
ĠG raphics
Ġ< =
sp oken
Ġconnect ivity
S aturday
ĠAven gers
Ġto ggle
Ġank le
Ġnational ist
mod el
ĠP ool
ophob ia
V ar
ĠM ons
ator ies
Ġaggress ively
C lear
For ge
act ers
Ġhed ge
Ġpip es
Ġbl unt
Ġs q
Ġremote ly
W ed
as ers
Ġref riger
Ġt iles
Ġresc ued
Ġcompr ised
ins ky
Ġman if
avan augh
Ġprol ifer
Ġal igned
x ml
Ġtri v
Ġcoord ination
ĠP ER
ĠQu ote
13 4
b f
ĠS aw
Ġtermin ation
Ġ19 0
Ġadd itions
Ġtri o
Ġproject ions
Ġpositive ly
Ġin clusive
Ġmem br
19 90
old er
Ġpract iced
ink le
Ar ch
Ġstar ters
ari us
Ġinter mediate
ĠBen ef
ĠK iller
Ġinter ventions
ĠK il
ĠF lying
In v
Ġprem ature
Ġpsych iatric
Ġind ie
Ġcoll ar
ĠRain bow
af i
Ġdis ruption
ĠFO X
cast ing
Ġmis dem
c ro
Ġw ipe
ard on
Ġb ast
ĠTom my
ĠRepresent ative
Ġbell y
ĠP O
ĠBre itbart
13 2
Ġmess aging
Sh ould
Ref erences
ĠG RE
ist ical
L P
ĠC av
ĠC razy
Ġintu itive
ke eping
ĠM oss
Ġdiscont in
ĠMod ule
Ġun related
ĠPract ice
ĠTrans port
Ġstatist ically
orn s
Ġs ized
p u
Ġca f
ĠWorld s
ĠRod gers
ĠL un
ĠCom ic
l iving
Ġc ared
Ġclim bed
) {
Ġconsist ed
Ġmed ieval
fol k
Ġh acked
Ġd ire
ĠHerm ione
Ġt ended
ce ans
D aniel
w ent
Ġlegisl ators
Ġred es
g ames
Ġg n
am iliar
Ġ+ +
gg y
th reat
Ġmag net
Ġper ceive
Ġz ip
Ġindict ment
Ġcrit ique
g ard
ĠSaf e
ĠC ream
Ġad vent
ob a
Ġv owed
ous ands
Ġsk i
Ġabort ions
u art
Ġstun ned
Ġadv ancing
Ġlack ed
Ġ\ "
Ġsch izophren
Ġeleg ant
Ġconf erences
Ġcance led
ĠHud son
ĠHop efully
Ġtr ump
Ġfrequ encies
Ġmet eor
ĠJun ior
ĠFle et
ĠMal colm
ĠT ools
Ġ ........
Ġh obby
ĠEurope ans
Ġ15 00
ĠInt o
Ġs way
ĠApp ro
ĠCom pl
Comm unity
Ġt ide
ĠSum mit
ä »
Ġinter vals
ĠE ther
Ġhabit at
ĠSteven s
lish ing
ĠDom ain
Ġtrig gers
Ġch asing
Ġchar m
ĠFl ower
it ored
Ġbless ing
Ġtext ures
F ive
Ġliqu or
R P
F IN
Ġ19 62
C AR
Un known
Ġres il
ĠL ily
Ġabund ance
Ġpredict able
r ar
Ġbull shit
le en
che t
M or
M uch
ä ¹
Ġemphas ized
Ġcr ust
Ġprim itive
Ġenjoy able
ĠPict ures
Ġteam mate
pl er
ĠT ol
ĠK ane
Ġsummon ed
th y
ram a
ĠH onda
Ġreal izing
Ġquick er
Ġconcent rate
cle ar
Ġ2 10
ĠErd ogan
ar is
Ġrespond s
ĠB I
Ġelig ibility
Ġpus hes
ĠId aho
Ġagg rav
Ġru ins
ur ations
Ġb ans
Ġan at
sh are
Ġgr ind
h in
um en
Ġut ilities
ĠYan kees
Ġdat abases
ĠD D
Ġdispl aced
Ġdepend encies
Ġstim ulation
h un
h ouses
ĠP retty
ĠRaven s
ĠTOD AY
Ġassoci ates
Ġthe rape
cl ed
Ġde er
Ġrep airs
rent ice
Ġrecept ors
Ġrem ed
ĠC e
Ġmar riages
Ġball ots
ĠSold ier
Ġhilar ious
op l
13 8
Ġinherent ly
Ġignor ant
Ġb ounce
ĠE aster
REL ATED
ĠCur rency
E V
ãĥ ŀ
ĠLe ad
Ġdece ased
B rien
ĠMus k
J S
Ġmer ge
heart ed
c reat
m itt
m und
ĠâĢ ĭ
ĠB ag
Ġproject ion
Ġj ava
ĠStand ards
ĠLeon ard
Ġcoc onut
ĠPop ulation
Ġtra ject
Ġimp ly
Ġcur iosity
ĠD B
ĠF resh
ĠP or
Ġheav ier
ne ys
gom ery
Ġdes erved
Ġphr ases
ĠG C
Ġye ast
d esc
De ath
Ġreb oot
Ġmet adata
IC AL
Ġrep ay
ĠInd ependence
Ġsubur ban
ical s
Ġat op
Ġall ocation
gener ation
ĠG ram
Ġmoist ure
Ġp ine
ĠLiber als
Ġa ides
Ġund erest
ĠBer ry
Ġcere mon
3 70
ast rous
ĠPir ates
Ġt ense
ĠIndust ries
ĠApp eals
ĠN ear
Ġè£ı ç
Ġlo vers
ĠC AP
ĠC raw
Ġg iants
Ġeffic acy
E lement
ĠBeh avior
ĠToy ota
Ġint est
P riv
A I
Ġmaneu ver
Ġperfect ion
Ġb ang
p aper
r ill
Ge orge
b order
in ters
ĠS eth
Ġcl ues
ĠLe vi
ĠRe venue
14 7
Ġv apor
Ġfortun ate
Ġthreat ens
Ġve t
Ġdepend ency
ers ed
art icle
ĠBl izzard
Ġch lor
Ġmin us
ĠB ills
Ġcryptoc urrency
Ġmetabol ism
ter ing
Ġp estic
step s
ĠTre asure
ract ed
ĠConst ant
Ġtem p
13 9
ĠDet ective
ur ally
Ġrecover ing
Ġcort ex
Ġ14 4
cl osed
Ġprejud ice
aun ted
Ġstorm s
ĠN OW
Ġmach inery
Add ress
Ġcompe lled
27 0
Ġdesp air
b ane
Ġveget able
Ġbed s
Lear n
Ġcolor ful
Ġsp ike
Ġmarg ins
Ġsymp athy
Ġworks hop
ĠC BC
S at
Ġburn s
ĠG ender
Ġ12 9
ĠC able
Ġdeb ts
ĠThe resa
Ġreflect ing
Ġa irst
Ġr im
ram id
Ġweakness es
W rit
ogg le
t i
ĠCh arge
Ġwe ighed
Ġ( .
Ġl aughter
Ġrou ter
ĠDemocr acy
D ear
Ġhas ht
Ġd y
Ġhint s
run ning
Ġfin ishes
ar us
M ass
res ult
asc us
Ġv intage
Ġcon qu
Ġwild ly
ac ist
Ġl ingu
Ġprot agonist
st rom
te enth
ĠSol o
m ac
f illed
Ġre nown
it ives
Ġmot ive
ĠAnt ar
ĠM ann
ĠAd just
Ġrock ets
Ġtrou bling
e i
Ġorgan isms
ass is
Christ ian
Ġ14 5
ĠH ass
Ġsw all
Ġw ax
ĠSurv ival
V S
ĠM urd
v d
stand ard
Ġdrag ons
Ġacceler ation
r ational
f inal
Ġp aired
ĠE thereum
Ġinterf aces
Ġres ent
Ġartif acts
Å «
are l
Ġcompet itor
ĠNich olas
ĠSur face
c pp
ĠT ot
Ġeconom ically
Ġorgan ised
Ġen forced
in ho
Ġvar ieties
Ġab dom
ĠBa iley
id av
ĠSal v
p aid
Ġalt itude
ess ert
ĠG utenberg
are a
op oulos
Ġprofess ors
igg s
ĠF ate
he y
Ġ3 000
D ist
Ġtw ins
c ill
ĠM aps
Ġtra ps
Ġwe ed
ĠK iss
Ġy oga
Ġrecip ients
ĠWest minster
Ġpool s
ĠWal mart
18 8
ĠSchool s
att ack
ĠAR M
par agraph
W arning
j l
Ġself ish
anche z
ĠHe ights
F re
ĠS oph
Ġ --------------------------------
t ml
33 3
Ġraid s
Ġsatell ites
KE Y
Ġlast s
Ñ Ĥ
In s
ĠD ame
Ġunp redict
// /
gh ai
Ġart illery
Ġcru ise
Ġg el
ĠCabin et
Ġbl ows
ĠE sp
Ġprox imity
ot he
ĠSk ills
ĠU pper
ob o
ĠN DP
Ġenjoy s
Ġrepe ating
ĠConst ruction
ĠQuest ions
H illary
Ġu int
Ġprocess ors
ĠGib son
ĠMult iple
q a
ĠB om
ĠM iles
vent ional
Ġhur ts
s kin
ĠA IDS
Ġadvis ers
ĠR oot
Ġmethod ology
ĠD ale
Ġdet on
ĠKnow ledge
sequ ently
Ġ12 1
Ġconnect s
C y
ĠD anger
Ġcontribut ors
ĠB ent
Ġbr ass
ĠGun s
int o
ĠFort une
Ġbro ker
bal ance
Ġlength s
Ġv ic
Ġaver aging
Ġappropri ately
ĠCamer a
Ġsand wich
ĠCD C
Ġcoord inate
Ġnav ig
Ġgood ness
l aim
Ġbra ke
Ġextrem ist
ĠW ake
ĠM end
ĠT iny
ĠC OL
ĠR F
ĠD ual
ĠW ine
C ase
Ġref ined
Ġl amp
L ead
Ġb apt
ĠCar b
ĠS add
ĠMin neapolis
PD F
Ear ly
ĠH idden
I ts
ĠT IME
Ġp ap
Ġcommission ed
ĠF ew
ĠCol ts
ĠB ren
Ġbot hered
Ġlike wise
Ex per
ĠSch w
c ry
n n
ĠM itch
im on
M G
b m
UM P
r ays
Ġregist ry
Ġ2 70
ach ine
re lla
ant ing
00 000
Ġru ined
sp ot
Ġt a
Ġmaxim ize
Ġincon ven
D ead
H uman
En abled
ĠMar ie
Ġch ill
ĠParad ise
Ġstar ring
ĠLat ino
ĠProt ocol
ĠE VER
Ġsuppl iers
m essage
ĠBro ck
Ġser um
âĸĪâĸĪ âĸĪâĸĪ
Ġen comp
Ġamb ition
ues e
Ġar rows
And rew
Ġanten na
Ġ19 61
ĠB ark
Ġb ool
ãĤ ª
ĠSt orage
Ġrail way
Ġtoug her
ĠC ad
Ġwas hing
P y
' ]
em bed
ĠMem phis
ack le
Ġfam ously
ĠF ortunately
ov ies
Ġmind set
Ġsne ak
ĠD h
RA W
ĠSim pson
Ġliv est
Ġland mark
Ġc ement
L ow
Ġthr illed
ĠCour se
in el
Ġch uck
id ate
gl obal
Ġwh it
Ġ ï¿½
ad ays
s ki
ĠS V
Ġvir uses
30 6
ĠResp ons
Ġthe aters
ĠBr anch
ĠGene va
ĠM K
Ġunbel iev
Ġcommun ist
Orig inal
ĠRe ceived
ĠTrans fer
ĠAr g
In put
ĠStr ategy
Ġpal ace
the ning
D ri
Ġsent encing
umbn ail
Ġp ins
re cy
Ġs iblings
Get ting
ĠB U
ĠNorth west
Ġprolong ed
ĠSak ura
C omb
ĠB our
Ġinadequ ate
ĠK ash
Ġus ername
ĠImpro ve
Ġbatt ling
ĠM AC
Ġcurric ulum
Ġs oda
ĠC annon
Ġsens ible
sp ons
De cember
Ġw icked
ĠP engu
Ġdict ators
ĠHe arts
og yn
Ġsimilar ities
ĠSt ats
Ġh ollow
it ations
": [
Ġh over
ĠList en
s ch
S und
Ġc ad
ĠPar ks
Ġl ur
Ġhy pe
ĠL em
N AME
is ure
Fr iday
Ġshoot s
Ġclos es
Ġd b
ĠR idge
ĠDiff erent
Ġrepl ies
ĠBroad way
op ers
Ġint oler
ĠZe us
akes pe
Ġpropri etary
Ġrequest ing
Ġcontro llers
ĠM IN
im edia
be cca
Ġexp ans
Ġoil s
B ot
ĠCh and
Ġpr inter
Ġto pped
ĠP OL
ĠEar lier
S ocial
av in
Ġdecre ases
ĠSe b
Ġspecific ations
ĠBl ast
ĠK urt
Ġfre el
B rown
Ġdil ig
ro e
ĠPro blem
ĠQu ad
Ġdecent ral
ĠV ector
an ut
Ġplug ins
ĠGreg ory
Ġfuck ed
el ines
ĠAmb assador
t ake
Ġcle ans
ong yang
An onymous
st ro
" }
al ine
ĠO dd
ĠE ug
2 16
Ġbo il
ĠP owers
Ġnurs es
Ob viously
ĠTechn ical
Ġexceed ed
OR S
Ġextrem ists
Ġtr aces
ex pl
Ġcom r
ĠS ach
) /
Ġm asks
Ġsc i
B on
Ġreg ression
we gian
Ġadvis or
it ures
ĠV o
ex ample
ĠInst ruct
Ġs iege
Ġredu ctions
pt r
Ġstat utory
Ġrem oves
Ġp uck
red its
Ġbe e
Ġsal ad
Ġpromot ions
ĠJosh ua
with standing
ET H
ĠCh a
im us
Ġexpend iture
aun ting
Ġdelight ed
Ġ15 5
be h
Ġcar pet
ĠSp art
Ġj ungle
l ists
Ġbull ying
ĠNob el
ĠGl en
Ġreferen ced
Ġintrodu ces
se in
Ġcho pped
gl ass
ĠW rest
Ġneutral ity
Ġâ Ļ
Ġinvestig ator
Ġshel ves
Ġun constitutional
Ġreprodu ction
Ġmer chant
m ia
Ġmet rics
Ġexplos ives
ĠSon ia
Ġbod ily
Ġthick ness
Ġpredomin antly
ĠAb ility
Ġmon itored
IC H
Ġ] .
ĠMart inez
Ġvis ibility
Ġqu eries
Ġgen ocide
ĠWar fare
Qu ery
Ġstud ios
Ġemb ry
Ġcorrid or
Ġclean ed
com plete
ĠM H
Ġenroll ment
ING S
Ġimpact ed
Ġdis astrous
ĠY un
ĠCl aire
ĠBas ically
y t
uster ity
Ġindirect ly
w ik
Ġd od
ĠCar r
Ġam p
Ġprohib it
ĠIn itial
ĠR d
ij i
Ġeduc ate
c orn
i ott
ĠBeaut y
Ġdetect ive
ĠCon n
s ince
Ġst agger
Ġob ese
Ġb ree
olog ic
is se
walk er
Ġbl ades
Ġlaw ful
fun c
ĠBeh ind
Ġappet ite
Ġ( *
Ġt ennis
Ġoff spring
Ġj ets
Ġstruct ured
Ġafore mentioned
N ov
Ġsc aling
f ill
Ġst ew
Ġcur b
ĠStep han
ed In
S F
ob ic
é ŃĶ
ou g
ĠM M
Ġgen etically
ope z
13 6
Ġu mb
anc ers
Ġcoh ort
Ġmerch andise
Ġimp osing
ĠLegisl ature
ĠArch ive
iv ia
ĠN aval
Ġoff ences
Ġmir acle
Ġsn apped
Ġf oes
Ġextensive ly
ĠR af
Ġc ater
ed ience
K it
ĠB in
Ġrecomm ends
ĠC ities
Ġrig id
ĠRE AD
ĠNob le
ĠT ian
Ġcertific ates
ant is
o iler
ĠBudd hist
d id
Ġsurvey ed
Ġdown ward
Ġprint s
ĠMot ion
ron ics
ĠS ans
oss ibly
u ctions
Ġcolon ies
ĠDan ish
un it
Ġsp oil
Ġadvis ory
ber ries
Pl an
Ġspecific ation
op hers
ĠRes ource
Ġsh irts
prising ly
commun ications
Ġtriv ial
Ġmention ing
ise xual
Ġsupp lements
Ġsuper vision
B P
v or
Ġw it
Ġco oldown
Ġplaint iff
ĠReview s
ĠS ri
ĠM int
ĠSug ar
Ġafter ward
ĠPri est
ĠInvest ment
og ene
ĠT aking
Ġstretch ing
Ġinflamm ation
ĠTe hran
Ġl ining
Ġfree zing
ĠEnt ity
Ġins piring
spe cial
pr ice
Ġsu e
ĠP orter
oun ge
ET A
ĠD erek
ĠLu is
u o
ym ph
Ġex terior
ih il
ĠAsh ley
in ator
Ġnut rients
ĠTh rones
Ġfin ances
ĠIn spect
Ġspe cially
ĠRequ ired
ĠP TS
ĠViol ence
oint ed
sh ots
Ġex cerpt
co on
IN S
ĠG ri
Ġrecogn ised
We ek
You ng
Ġv om
is le
ĠCur ry
ĠBudd h
Ġnot ebook
Ġd urable
/ ?
ĠG ad
ĠP upp
Ġforg ive
p ark
Ġpersonal ities
an alysis
cl amation
Ġelev ator
Ġware house
ĠR ole
un n
Ġillust ration
ĠSc an
Ġatmosp heric
Im port
AN C
rict ed
f u
01 0
Ġar che
Ġreward ed
akespe are
Ġintern ally
ĠR BI
alk er
Ġeleph ant
ow itz
ĠP izza
Ġbip artisan
Ã© s
Ġslow ed
ĠSt ark
Ġover ride
OU S
Ġ3 20
undred s
ĠDe ck
ĠC ensus
be e
14 6
ot or
Ġ ip
Ġu b
oc ations
ĠBut ton
r ice
Ġc ripp
ff f
Ġorig inated
Ġoverwhel med
app a
Ġfore most
âĢ ĳ
ĠL EG
re lease
eat ured
at ches
Ġre ps
Ġl ending
ĠRe ference
ĠCl ient
16 5
vent h
Com plete
ĠPat rol
Ġsw orn
c am
Ġshut tle
ĠR alph
Ġh ometown
- ,
on al
ĠB P
å ı
Ġpersu ade
ĠAlex and
Ġcomb ines
Ġv ivid
ĠL ag
Ġenc oding
Ġsal vation
w en
ĠRec overy
i ya
Un iversity
ĠB iden
Ġbud gets
ĠTex ans
f its
Ġhon ored
Ġp ython
T D
## #
cl one
Ġbl ink
ĠL iquid
Ġunemploy ed
Ġcl ashes
ĠCoun sel
Ġdirect ing
Ġpun ct
ĠFal cons
Ġsh ark
ĠDam ascus
Ġje ans
Ġemb ark
Ġse ize
Ġup wards
2 80
ĠE z
ĠAny thing
Ġex otic
l ower
ĠCreat or
ĠU m
Ġsubur bs
ber ger
ĠW end
Ġm int
ĠX X
ĠD ro
Ġsuff ers
Ġher b
t ree
Ġfrag ile
Ġflood ed
ĠAl cohol
ole an
ny der
ĠK O
F ram
Ġ13 6
Ġow ed
ĠMe lee
ĠH ash
Ġwh isk
Ġsu do
r r
Qu ick
app ro
Ġi i
ĠEx amples
he e
Ġpromot es
per ature
k ar
ĠHon or
Ġs odium
ĠL if
ros so
intend ent
Ġcorrespond ent
F ound
sec ret
Ġident ifies
ag ne
Ġl ou
ĠP P
Ġcoinc idence
m ove
Ġmilit ia
Ġinf iltr
ĠPrim ary
Ġpitch ing
ĠI b
ĠGO OD
ãĤ ¸
ĠW izards
ir al
ĠVen us
R R
ĠâĢ ķ
ĠCase y
Ġsad ly
Ġadm ire
Ġembarrass ed
c b
M el
Ġtub es
Ġbeaut ifully
ĠQueens land
Bel ow
re z
qu et
ple asant
ĠÂ «
C amp
Ġdec isive
19 98
ĠL amb
ut ton
h n
ĠJ agu
au nder
ĠC ord
Ġcl erk
Ġca ffe
Ġwip ed
Ġre im
ĠMount ains
Ġimprison ed
Ġdevelop s
ĠP ra
Ġmodel ing
Any one
ance l
ĠS it
Ġshield s
Ġl awn
Ġcard iovascular
Ġdemonstr ating
Ġpar se
ĠIsrael is
Ġeuro s
14 3
Ġgl orious
ins ki
ec d
Ġcondition ing
Ġhel pless
Ġmicro sc
ĠHar bor
Ġst akes
Ġ2 60
Ġun equ
ĠFl oyd
Ġd amp
Ġappar atus
ĠLaw s
Ġcoun ters
Ġindu ce
at able
ĠAh med
Ġsl am
N ovember
Ġpers ist
Ġim minent
Ã¡ n
Ġsh red
Ġph ases
ĠEd monton
ĠArm strong
ĠMe et
ĠK itty
Ñ Ģ
c irc
ĠAd ult
Ġa rose
ĠX en
D an
g ow
Ġsuper f
ĠAd mir
Ġend ure
Ġkey word
yr us
Ġy arn
Ġpath way
ĠHop kins
mid t
Ġcens orship
d ependent
Ġinstruct or
S ources
Ġto e
Ġball oon
N ob
Ġsw ear
ĠCast ro
Ġgl oss
ĠK avanaugh
Ġremark ably
Ph otos
ĠN om
ĠS outheast
y ers
Ġvalid ation
Ġcann on
ĠVict ory
ĠPier re
Ġcaut ious
Aud io
Ġf etch
ĠG ift
ĠH yp
Ġrem edy
Z E
Ġsc ent
Ġbe ard
ĠR ut
- "
Ġpat ents
H y
Ġun just
Ġpot ato
Ġforth coming
Ġche f
ĠR ift
aff e
ĠR OM
ĠL aunch
Ġp ads
ĠNe o
Ġon set
Ġsquee ze
s afe
Ġpref ix
ĠT M
ĠN early
ĠClin ical
ĠM ental
ot iation
ĠUn ic
ant ry
ĠC ir
Ġep it
Ã ¦
Ġextract ed
verse ly
ri ad
Ġstr ains
Ġto ps
Ġpo em
ĠRand y
ĠMap le
TH ER
up iter
ĠSS D
ļ é
Ġun con
per ing
Ġsle pt
in ers
Ġunder water
ĠEv idence
g one
20 5
Ġhistor ians
Ġsynt hesis
Ġf rog
b asketball
Ġvibr ant
Ġsub ord
Ġ3 65
ĠD ial
Ġcooper ate
HA HA
Ġgreet ed
15 8
Ġj azz
Ġinto x
ĠWalk ing
Ġsuper visor
ĠF usion
ĠMer cedes
s end
H am
s d
n l
Ġtour s
ĠF IFA
Ġcul p
g d
30 4
Ġple as
Ġillust rates
ĠColomb ia
Ġhighlight ing
ĠSum mary
Ġexp osing
ĠD ru
Ġir ony
r itional
ĠCar roll
ĠEll is
P ict
ĠR apt
Ġad apter
Ġun m
Ġcor pse
Ġceleb rities
D en
at um
ĠAp ocalypse
ĠW ag
lin ing
Ġhorm ones
R ub
ĠX i
ĠV aults
20 8
alky rie
inos aur
Ġfeed s
v ity
Ġdefe ating
W ait
Ġemphas ize
ĠSteel ers
yr inth
le ys
ĠWhe never
Current ly
ĠCl ock
Ġcollect ively
any on
ĠJ P
Ġment ality
Ġdownload s
Ġsurround ings
ĠBarn es
Ġflags hip
Ġindic ators
Ġgra pp
Jan uary
ĠElement al
ĠAthen a
ib al
Ġs ights
Ġcap ita
ĠTreat y
Ġvo iced
ĠG az
let te
Ġy a
Ġexp ired
Leg end
H ot
n ature
Ġunst able
Ġ2 80
Ã º
Com ment
AL E
Ġquest s
Ġhand ler
n is
Ġvers atile
Ġconce al
enge ance
ĠInter active
Ġobs essed
ĠDog s
Ġcr acked
S ound
s v
ĠD ylan
ro ads
f x
ĠCath olics
ĠH ag
Ġsl ammed
Ġgl owing
s ale
Ġtiss ues
ĠCh i
ne e
Ġc her
s ic
ur rection
Ġb acon
ul atory
) ."
Ġir regular
FOR M
ass ed
Ġintention al
Ġcompens ate
ĠSpe aking
ĠS ets
15 3
Ġconvent ions
b ands
em ade
Ġe cc
ĠWin ston
ĠAssass in
ĠBelg ian
Ġdepend ence
Ġnic he
Ġb ark
ĠJ azz
Ġdisadvant age
Ġgas oline
Ġ16 5
çļ Ħ
ess a
mod ule
ang ular
O Y
ĠTreat ment
it as
ol ation
ĠArn old
Ġfe ud
ĠN est
Ġthe atre
ew ater
Ġmin ors
olic y
ĠH aven
div ision
Ġtr unk
F ar
ĠP ull
Ġcapt uring
Ġ18 00
ĠTe en
Ġex empl
Ġclin ics
ĠB urg
Ġsubst it
Ġpay load
ĠL av
ĠT roy
ĠW itness
Ġfrag ments
Ġpass words
Ġg ospel
ĠG in
Ġten ants
ol ith
S ix
Pre vious
ĠAg es
ĠDar win
Ġbl at
Ġem pathy
sm ith
b ag
ĠE cho
ĠC amb
ĠM add
ĠB oo
Ġred e
ĠBurn ing
Ġsmooth ly
ĠAd rian
ĠV ampire
ĠMon sters
ste am
Sty le
M a
re a
ĠD war
aly st
urs or
Ġelim ination
Ġcrypt o
ch t
ĠE ternal
âĢ¦ ]
ĠS orce
I ll
N ER
Ġu h
Con clusion
w age
Ġresp ir
Ġrem inis
het ical
Ġg y
Ġutil ized
ic idal
Ġ19 00
Ġhun ters
ĠSw an
ĠRe act
Ġvis itor
ĠThanks giving
30 8
Post s
Ġh ips
19 97
om ers
Ġkn ocking
ĠVeh icle
Ġt il
Ġ13 8
Ġm i
ĠInvest igation
ĠKen ya
Ġcas ino
Ġmot ives
Ġreg ain
re x
Ġweek ends
Ġstab bed
bor o
Ġexplo ited
ĠHA VE
ĠTe levision
c ock
Ġprepar ations
Ġende av
ĠRem ote
ĠM aker
ĠPro du
ĠEv an
Ġinform ational
ĠLouis ville
15 4
ĠDream s
Ġpl ots
ĠRun ner
Ġhur ting
Ġacad emy
ĠMont gomery
n m
ĠL anc
ĠAl z
2 10
el ong
Ġretail er
Ġar ising
Ġrebell ion
Ġbl onde
play ed
Ġinstrument al
C ross
Ġret ention
Ġtherape utic
Ġse as
Ġinfant ry
ĠCl int
Ġprompt ing
Ġbit ch
Ġst ems
ĠK ra
Ġthe sis
ĠB og
ru ed
Ġk ings
Ġcl ay
ific ent
ĠY ES
ĠTh ing
ĠCub s
vey ard
els h
in arily
ĠE y
ĠRoll ing
Ġev olving
Ind ia
Ġrecogn izes
Ġgrad uation
is ers
Ġfert ility
ĠMil an
Comm and
Ġbox ing
Ġ19 43
Ġgl uten
ĠEm ir
Ġid ol
Ġcon ceived
ĠCre ation
Mer it
udd y
uss ions
ĠLie utenant
iet al
Ġunch anged
ĠSc ale
ĠCrime a
ball s
ator ial
Ġdepth s
Ġempir ical
Ġtrans m
Ġuns afe
miss ible
com fort
15 6
Ġmechan ic
00 2
l ins
Ġsm oked
P os
Ġslow ing
Ġl av
Tex as
Ġche ating
ĠMet ropolitan
eth yl
Ġdiscover ing
as se
Ġpen cil
ĠPy ongyang
Ġclos et
ĠShe et
ĠEnt ry
ou stic
Ġmy st
er ate
ari at
Ġminer als
Ġmusic ian
ĠP ul
ĠM az
24 9
Ġper missions
Ġ iv
en ary
ick ers
ĠB ing
he a
en able
Ġgri ev
Ġassert ed
ĠColon el
Ġaff idav
w o
Ġse ated
ĠR ide
Ġpaint ings
ĠP ix
Ġ13 7
ish i
umb ai
g otten
ĠEar l
Ġin ning
Ġc ensus
Ġtrave lled
ĠCons ult
18 5
b ind
Ġsimpl icity
Ġoverlook ed
ĠHelp ful
Ġmon key
Ġoverwhelming ly
Bl ood
ĠFl int
ĠJ ama
ĠPres ent
ĠR age
ĠT A
pt ive
Ġturn out
w ald
ĠD olphins
ĠV PN
Ġon ion
Ġcraft ing
m ma
ĠMerc ury
Ġarr ange
Ġalert s
ĠO T
zb ollah
Ġg ases
ĠRichards on
s al
l ar
Ġfro st
Ġlower ing
Ġacc laim
Ġstart ups
ĠG ain
ess ment
Ġguard ian
äº º
ĠP ie
ĠL inks
Ġmer its
Ġaw ake
Ġparent al
Ġexceed s
Ġid le
ĠPil ot
Ġe Bay
ĠAc cept
ipe g
C am
ĠK ot
Ġtrad ers
olit ics
unk er
ĠP ale
os i
an mar
Ġ19 47
ĠF ell
est ial
it ating
G F
ĠS r
if ted
Ġconnect or
ĠB one
ill es
2 60
h ma
Ġoverl ap
ĠGit Hub
Ġclean er
ĠBapt ist
ĠW AS
Ġlung s
Ñ ģ
ĠB UT
Ġc ite
Ġpit ched
reat ment
Ġtro phies
ĠN u
38 6
ĠPr ide
Ġattend ees
[ ]
17 9
Ġspat ial
Ġpri zes
ĠRel igion
Ġshow case
ĠC ategory
vid ia
T arget
Pro perty
? ,
Ġf usion
p ie
ĠU CLA
Ġsound track
Ġprin cess
ĠC aval
sh ould
Ġlim bs
Back ground
Ġlone ly
Ġc ores
ĠT ail
she et
Ġ13 2
R a
ãĤ «
ĠB olt
Ġbook ed
Ġadmin ister
Ġequ als
w y
Ġobserv ing
ĠBar on
ĠAd obe
Ġv irgin
ĠSocial ist
M ove
gh azi
ĠLind a
2 12
Ġbre wing
Ġmerch ants
bur se
Ġdiv or
Ġmet als
ĠN er
Ġsum s
ĠEn emy
Ġen vision
Ġgrant ing
ĠH oney
ĠSk yrim
Ġsoc io
gr aded
Ġselect ive
W ASHINGTON
Ġ19 48
ĠSir ius
ĠG ross
act ivity
ĠI van
Ġfur ious
BS D
ĠPre vious
Ġrespons ive
Ġchar itable
Ġle aning
ĠP ew
Ġviol ates
\\\\ \\\\
ĠCom ing
w ire
Ġpo et
Ġres olutions
comm and
ĠPortug uese
Ġnick name
Ġde af
Feb ruary
Ġrecogn ise
Ġentire ty
Ġseason al
pl aced
ĠTe legraph
Ġmicro phone
our ing
Ġgr ains
Ġgovern ed
Ġpost p
ĠW aters
in ement
Ġund ocumented
ĠCom cast
Ġf ox
Ġassault s
re on
man y
ĠJen kins
ĠAny way
Ġassess ments
Ġdown s
ĠM ouse
Ġsuper b
k t
ĠD ow
Ġtax ation
4 01
Ġsm iles
Ġundert aken
Ġex h
Ġenthusi astic
Ġtw ent
Ġgovernment al
Ġautonom y
ĠTechn ologies
ĠCh ain
Ġpreval ent
f b
Ġnic otine
og ram
j ob
Ġawa iting
ĠMen u
Ġdep uties
k ov
ish ops
But ton
ĠShan ghai
Ġdies el
ĠD uck
R yan
ĠPC s
N F
j ury
ent e
Ġinacc urate
edd y
Wh atever
Ġshow c
ĠN ad
od us
et r
Ġplaint iffs
ĠW OR
ĠAss ange
Ġpriv at
Ġpremium s
Ġt am
UR L
Ġel ites
ĠR anger
otten ham
ĠH off
ĠAt hens
Ġdefin ite
Ġs ighed
Ġeven ly
2 11
ĠAm ber
ak ia
Ġmail ing
Ġcr ashing
ĠConfeder ate
ru gged
W al
ĠDep ths
Ġjuven ile
Ġreact or
Introdu ction
ĠDel uxe
19 95
ĠS anchez
ĠM ead
iv able
: -
ĠPlan ning
ĠT rap
qu in
ĠProt ect
ve red
In formation
Ġkid ney
inn amon
l as
Ġpolic ing
Ġtoler ate
ĠQ i
Ġbi ased
F ort
ĠK i
s ave
Ġprivile ged
Ġbe asts
ĠGl as
ĠC inem
Ġcome back
Sund ay
Ġext inction
h ops
Ġtrans mit
Ġdoub les
ĠFl at
16 7
Ġdis puted
Ġinjust ice
f oo
V ict
role um
ĠJul ie
Con text
ĠR arity
iss ue
Comp onent
Ġcounsel ing
an ne
d ark
Ġobject ions
u ilt
Ġg ast
Ġpl ac
Ġun used
ãĥ ĩ
ĠT rial
ĠJ as
hed ral
ob b
Ġtempor al
ĠPR O
ĠN W
ĠAnn iversary
L arge
Ġther m
Ġd avid
Ġsystem ic
ĠSh ir
m ut
ĠNe pt
add ress
Ġscan ning
Ġunderstand able
Ġcan vas
C at
ĠZ oo
Ġang els
L O
ĠStat ement
ĠS ig
ov able
ĠA way
sh aring
ocr ats
st ated
Ġweigh ing
N or
w ild
B ey
Ġaston ishing
ĠReyn olds
Ġop ener
Ġtrain er
Ġsurg ical
p n
Ġadjust ing
whe el
Ġf rown
erv ative
Ġsusp end
With in
te in
Ġobst acle
Ġliber ties
ym es
Ġur anium
ans om
an ol
ub a
ĠL oss
Ġa rous
ĠHend erson
W ow
s pl
c ur
ĠÂ Ń
Ġtheir s
Dam age
Ġdownload ing
Ġdisc ern
ĠSt o
ĠFl a
Ġh ath
ĠA j
Ġun pleasant
Europe an
exp ensive
Ġscreens hot
ĠU V
Ġall ied
ĠPers ian
Ġmonop oly
Ġat om
ĠReds kins
"> <
Ġcan cell
Ġcinem a
13 1
f air
ĠAlf red
Ġd uck
arg s
22 3
ĠIS I
Ġsign aling
in ar
Ġlaugh s
Ġfor wards
Ġreck less
Ġlisten ers
at ivity
Ġvast ly
n ant
L ess
ĠHun ting
ĠScient ific
IT ED
Ġkn ight
ĠH TC
us a
t mp
Ġr ude
ĠLegend ary
Ġar ises
B ad
ĠCl aim
pe g
Ġreal ities
Th ink
ĠÂ °
Ġro de
Ġstri ve
Ġan ecd
Ġshort s
Ġhypot hes
Ġcoord inated
ĠGand hi
ĠF PS
R ED
Ġsuscept ible
Ġshr ink
ĠCh art
Hel p
Ġ ion
de ep
rib es
ĠK ai
ĠCustom er
Sum mary
Ġc ough
w ife
Ġl end
Ġposition ing
Ġlot tery
ĠC anyon
Ġf ade
Ġbron ze
ĠKenn y
Ġbo asts
ĠEnh anced
rec ord
Ġemer gence
Ġa kin
ĠB ert
it ous
âĸ ĳ
Ġst ip
Ġexch anged
om ore
als h
Ġreserv oir
Ġstand point
W M
Ġiniti ate
Ġdec ay
Ġbrew ery
Ġter ribly
Ġmort al
lev ard
Ġrev is
N I
el o
Ġconf ess
ĠMS NBC
Ġsub missions
Cont roller
Ġ20 2
ĠR uth
} );
ĠAz ure
Ġ ."
20 6
ĠMarket ing
Ġl aund
ien cies
Ġrenown ed
ĠT rou
ĠN GO
ble ms
Ġterr ified
Ġwar ns
Ġper t
Ġuns ure
4 80
ale z
ult z
ĠOut side
Ġst yl
ĠUnder ground
Ġp anc
Ġd ictionary
Ġf oe
rim inal
ĠNor wegian
Ġj ailed
Ġm aternal
Ã© e
ĠLu cy
c op
Ch o
Ġuns igned
ĠZe lda
ĠIns ider
ĠContin ued
Ġ13 3
ĠNar uto
ĠMajor ity
16 9
ĠW o
ãĤ ĵ
Ġpast or
Ġinform al
Ð ½
an throp
jo in
ãģ Ĺ
it ational
N P
ĠWrit ing
f n
ĠB ever
19 5
Ġy elling
Ġdr astically
Ġe ject
Ġne ut
Ġth rive
ĠFre qu
ou x
Ġpossess es
ĠSen ators
ĠD ES
ĠSh akespeare
ĠFran co
ĠL B
uch i
Ġinc arn
Ġfound ers
F unction
Ġbright ness
ĠB T
Ġwh ale
ĠThe ater
m ass
ĠD oll
S omething
Ġecho ed
ĠHe x
c rit
af ia
Ġgodd ess
Ġele ven
ĠPre view
ĠAur ora
Ġ4 01
uls ive
ĠLog an
in burgh
ĠCent ers
ĠON LY
ĠA id
Ġparad ox
Ġh urd
ĠL C
D ue
c ourt
Ġoff ended
Ġeval uating
ĠMatthew s
Ġto mb
Ġpay roll
Ġextra ction
ĠH ands
if i
Ġsuper natural
ĠCOM M
] =
dog s
Ġ5 12
ĠMe eting
Rich ard
ĠMax imum
Ġide als
Th ings
m and
ĠReg ardless
Ġhum ili
b uffer
L ittle
ĠD ani
ĠN ak
Ġliber ation
ĠA be
ĠO L
Ġstuff ed
ac a
ind a
raph ic
Ġmos qu
Ġcampaign ing
Ġoccup y
S qu
r ina
ĠW el
ĠV S
Ġphys ic
Ġp uls
r int
oad ed
ET F
ĠArch ives
Ġven ues
h ner
ĠTur bo
Ġl ust
Ġappeal ed
que z
il ib
ĠTim othy
Ġo mn
d ro
Ġobs ession
ĠSav age
19 96
Gl obal
J es
2 14
Ġsl iding
Ġdisapp ro
ĠMag ical
Ġvolunt arily
g b
ane y
Ġprop het
ĠRe in
ĠJul ia
ĠW orth
aur us
Ġb ounds
ie u
)) )
Ġcro re
ĠCitiz en
S ky
Ġcolumn ist
Ġseek ers
ond o
IS A
ĠL ength
Ġnost alg
Ġnew com
Ġdet rim
ent ric
3 75
ĠG E
Ġaut op
Ġacadem ics
App Data
ĠS hen
Ġid iot
ĠTrans it
Ġteasp oon
W il
K O
ĠCom edy
> ,
Ġpop ulated
W D
Ġp igs
ĠO culus
Ġsymp athetic
Ġmar athon
19 8
Ġseiz ure
s ided
Ġd op
irt ual
L and
ĠFl oor
osa urs
... ]
Ġl os
Ġsubsid iary
E Y
ĠPart s
ĠSt ef
ĠJud iciary
Ġ13 4
Ġmir rors
Ġk et
t imes
Ġneuro log
Ġc av
ĠGu est
Ġtum or
sc ill
ĠLl oyd
E st
Ġcle arer
Ġstere otypes
Ġd ur
not hing
Red dit
Ġnegoti ated
---------------- --------
23 5
Ġfl own
ĠSe oul
ĠRes ident
ĠS CH
Ġdisappear ance
ĠV ince
g rown
Ġgrab s
r il
ĠInf inite
ĠTw enty
Ġpedest rian
Ġjer sey
ĠF ur
ĠInf inity
ĠEll iott
Ġment or
Ġmor ally
Ġob ey
sec ure
iff e
Ġantib iotics
ang led
ĠFre eman
ĠIntrodu ction
J un
Ġm arsh
ic ans
ĠEV ENTS
och ond
W all
icult y
Ġmisdem eanor
Ġl y
Th omas
ĠRes olution
Ġanim ations
ĠD ry
Ġinter course
ĠNew castle
ĠH og
ĠEqu ipment
17 7
Ġterrit orial
Ġarch ives
20 3
Fil ter
ĠMun ich
Ġcommand ed
ĠW and
Ġpit ches
ĠCro at
Ġrat ios
ĠM its
Ġaccum ulated
ĠSpecific ally
Ġgentle man
acer b
Ġp enn
Ġa ka
ĠF uk
Ġinterven e
ĠRef uge
ĠAlz heimer
Ġsuccess ion
oh an
d oes
L ord
Ġsepar at
Ġcorrespond ence
Ġsh iny
P rior
Ġs ulf
Ġmiser able
Ġded ication
( ).
Ġspecial ists
Ġdefect s
ĠC ult
ĠX ia
Ġje opard
ĠO re
Ab ility
Ġle ar
Ġamb itions
ĠB MI
ĠArab s
Ġ19 42
Ġpres ervation
ific ate
Ġash amed
l oss
ĠRest aur
Ġrese mble
Ġen rich
ĠK N
ĠCl an
fl oat
Ġplay able
IT T
Ġharm ony
arr ison
ĠWe instein
w ere
Ġpoison ing
ĠCom put
ĠWord Press
m ajor
ĠVal ve
F an
ĠTh row
ĠRom ans
ĠDep ression
ad os
Ġtort ured
Ġbal ancing
bott om
Ġacqu iring
ĠMon te
ard i
Ġa ura
Ġ# #
ĠStand ing
ĠAtl as
C F
Ġintr ins
ĠBen ghazi
Ġcamp ing
Ġt apped
bl ade
st rous
ĠR abb
ĠW ritten
t ip
ĠNe igh
ster dam
ĠAll ow
ĠHe aling
ĠR hod
n um
Ġcaffe ine
ĠPer cent
Ġbo o
Ġapp les
30 5
Ġwel coming
Ġappl aud
Ġa usterity
Â ±
ĠRe ality
ef e
å ®
Ġsu cks
Ġtab s
ĠPay Pal
Ġback pack
Ġgif ted
abul ary
ĠSc out
ir teen
Ġch in
Ġo mitted
Ġnegative ly
Ġaccess ing
ĠE arn
Ġambul ance
Ġhead phones
Ġ20 5
ĠRef resh
p resident
ĠKit chen
ĠEnt ered
ĠS nyder
00 5
om ical
Ġborrow ed
ĠN em
Ġav iation
Ġst all
rim ination
Ġuniform s
it ime
ĠSim mons
ener gy
ab lished
y y
qual ified
Ġrall ies
ĠSt uart
fl ight
Ġgang s
r ag
Ġv ault
lu x
ĠCom par
Ġdesign ation
20 9
ĠJ os
d ollar
z ero
Ġwell s
30 3
Ġconstitu ents
Ġhe ck
Ġc ows
Ġcommand ers
Ġdifferent ial
ĠC atherine
29 9
Ġval ve
Ġbr ace
Ġperspect ives
c ert
f act
icular ly
ĠMc N
pl anes
Ġint ric
Ġpe as
ov an
Ġtoss ed
ret ch
ĠL opez
Ġunf amiliar
de ath
ĠA part
ĠCh ang
Ġrelie ved
rop he
Ġair ports
Ġfre ak
ut il
M ill
ĠCh in
ĠOw en
m ale
ĠBro ken
ĠWind s
ro b
r ising
Ġfire fighters
Ġauthor itarian
Ġ14 8
Bit coin
ex ternal
Ġbrow sers
iche ver
or ian
Ġun b
Ġpo ke
ĠZ ot
M id
ĠPop ular
Ġco vert
Ġcont ributes
Ġ6 50
Ġcont ention
G ate
Ġcons oles
Ġchrom os
ĠI X
Ġvis ually
ĠE isen
Ġjewel ry
Ġdeleg ation
Ġacceler ate
ĠR iley
Ġsl ope
Ġind oor
it ially
Ġhuge ly
Ġtun nels
Ġfin ed
Ġdirect ive
Ġfore head
ustom ed
Ġsk ate
Mus ic
g as
Ġrecogn izing
am bo
Ġover weight
ĠGr ade
Ù Ĭ
Ġsound ing
Ġlock ing
ĠR EM
St ore
Ġexc av
ĠLike wise
ĠL ights
Ġel bow
ĠSupp ly
w ic
Ġhands ome
19 94
C oll
Ġadequ ately
ĠAssoci ate
Ġstri ps
Ġcrack down
Ġmar vel
ĠK un
Ġpass ages
@@ @@
ĠT all
Ġthought ful
names e
Ġprost itution
bus iness
Ġball istic
person al
c ig
iz ational
R ound
ĠÂłĠÂł ĠÂłĠÂł
ĠCole man
Ġadm itting
ĠPl ug
Ġbit coins
ĠSu z
Ġfair ness
Ġsupp lier
Ġcatast rophic
ĠHel en
o qu
M arc
ĠArt icles
g ie
Ġend angered
Ġdest iny
ĠVol t
ol ia
ax is
Ġche at
Ġun ified
IC O
qu ote
30 2
ĠS ed
Ġsupp ression
Ġanaly zing
Ġsqu at
Ġfig uring
Ġcoordin ates
Ġch unks
Ġ19 46
Ġsub p
Ġw iki
ĠFor bes
ĠJ upiter
ĠE rik
im er
ĠCom mercial
\ )
Ġlegitim acy
Ġd ental
ĠMe an
Ġdefic its
5 50
Orig inally
ĠHor ror
Ġcontam ination
ll ah
Ġconf isc
ĠCl are
T B
ĠF ailed
an ed
Ġrul er
ĠCont roller
Ġfemin ists
F ix
g ay
20 7
Ġr abbit
Th ird
ownt own
Ġgl ue
Ġvol atile
Ġsh ining
Ġf oll
Ġimp aired
Ġsup ers
æ Ī
Ġcl utch
ļé ĨĴ
Ġpro let
Ġ( !
Ġy elled
ĠK iev
ĠEr n
ĠSh ock
K B
Ġsit uated
qu ery
ĠN as
Ġan nex
char acter
ĠHol iday
Ġautom ation
ĠJ ill
ĠRem astered
Ġl inem
Ġwild erness
ĠHor izon
ĠGu inea
A Z
Ġmain land
Ġsec recy
LE ASE
Ġp unk
ĠProv ince
( ),
Spe ed
Ġhand ing
ĠSeb ast
S ir
r ase
Ġj ournals
Ġcon gest
ĠT ut
ir rel
Ġschizophren ia
Ġmis ogyn
health y
I ron
Ġreact ed
- $
25 2
Ġpl ural
Ġpl um
Ġbarg ain
Ġground ed
f inder
Ġdis se
ĠL az
O OD
Ġat roc
F actory
Ġmin ions
Ġo ri
ĠB rave
ĠP RE
ĠMy anmar
ĠH od
Ġexped ition
Ġexpl ode
ĠCo ord
Ġext r
ĠB rief
ĠAD HD
Ġhard core
feed ing
Ġd ile
ĠF ruit
Ġvacc ination
ĠM ao
osp here
Ġcont ests
- |
Ġf ren
isp here
R om
ĠSh arp
ĠTre nd
Ġdis connect
âĢ¢ âĢ¢
Ġper secution
Ear th
Ġhealth ier
38 4
Ġc ob
ĠTr inity
OW S
AN N
Ġspecial ty
Ġg ru
Ġcooper ative
wh y
Start ing
ĠIss ues
st re
ens or
Ġ18 5
Ad v
! ?
ĠRe vel
em ia
ĠH ulk
Ġcelebr ations
ĠS ou
ra ud
ĠKle in
Ġun real
con text
Ġpartners hips
Ġadop ting
t ical
Ġspl ash
ĠHe zbollah
c ategory
cycl op
xt on
ĠD ot
urd y
t z
Ġenvelop e
ĠN L
â ķ
Ġwhere in
Spe c
18 4
Ġte lev
al iation
Ġmyth s
å °
Ġrig orous
Ġcommun icating
Ġobser ver
Ġre he
ĠW ash
Ġapolog ized
ĠT in
Ġexpend itures
work ers
d ocument
Ġhes itate
ĠLen in
Ġunpredict able
Ġrenew al
cl er
ok ia
ĠCON T
Ġpost season
Tok ens
Ġex acerb
Ġbet ting
Ġ14 7
Ġelev ation
W ood
ĠSol omon
19 4
00 4
out put
Ġredu nd
ĠM umbai
Ġp H
Ġreprodu ce
ĠD uration
MA X
Ġb og
C BS
ĠBal ance
ĠS gt
ĠRec ent
Ġc d
Ġpo pped
Ġincomp et
pro p
ay an
g uy
Pac ific
Ġty r
Ġ{ {
ĠMy stic
ĠD ana
Ġmast urb
Ġge ometry
Ã ¢
ĠCor rect
Ġtraject ory
Ġdistract ed
Ġf oo
ĠW elsh
L uc
m ith
Ġrug by
Ġrespir atory
Ġtri angle
Ġ2 15
Ġunder graduate
ĠSuper ior
ch anging
_ -
Ġright ly
Ġrefere e
Ġluc rative
Ġun authorized
Ġresemb les
ĠGN U
ĠDer by
Ġpath ways
ĠL ed
Ġend urance
Ġst int
Ġcollect or
F ast
Ġd ots
Ġnational s
ĠSec urities
Ġwh ip
Par am
Ġlearn s
M agic
Ġdetail ing
m oon
Ġbroadcast ing
Ġb aked
26 5
hol m
ĠS ah
ĠHus sein
ĠCourt esy
17 4
Ġ14 6
Ġge ographic
pe ace
Ġjud ging
ĠS tern
B ur
Ġstory line
G un
ĠSt ick
24 5
30 7
ãĤ´ ãĥ³
ĠAdminist rator
Ġbur nt
Ġp ave
ch oes
Ex ec
Ġcamp uses
Res ult
Ġmut ations
ĠCh arter
Ġcapt ures
Ġcomp ares
Ġbad ge
S cient
Ġer ad
ier y
o i
ett es
ĠE state
Ġst rap
Ġproud ly
Ġf ried
Ġwithd rawn
ĠV oy
ph ony
It ems
ĠP ierce
b ard
Ġann otation
ant on
ill on
Im pro
... )
Ġhapp ier
---- --
ad just
Ġstaff ers
Ġactiv ism
Ġper f
Ġal right
N eed
Ġcomm ence
Ġopio id
ĠAm anda
E s
ĠP ars
ĠK aw
W orks
24 8
Ġind o
t c
end ant
ĠM oto
Ġlegal ization
OT E
Ġtask ed
Ġt sp
ĠACT IONS
16 6
Ġrefres hing
ĠN R
ĠPere z
Ġinfring ement
S Y
List en
in ning
k u
Ġrot ate
pro gram
ar ah
Des ign
Ġ( Â£
Ġst oring
Ġwar rants
Ġjud gement
ĠB rist
us ually
ph oto
ĠR an
ĠP ine
Ġoutrage ous
ĠValent ine
lu ence
ĠEvery body
Al tern
Ġrele vance
Ġtermin ated
Ġd essert
Ġfulf illed
Ġprosecut ed
ĠW ords
Ġm igrant
Ġcultiv ation
ÃĥÃĤÃĥÃĤÃĥÃĤÃĥÃĤÃĥÃĤÃĥÃĤÃĥÃĤÃĥÃĤ ÃĥÃĤÃĥÃĤÃĥÃĤÃĥÃĤÃĥÃĤÃĥÃĤÃĥÃĤÃĥÃĤ
idel ity
ĠV ern
ĠLog in
Ġmetaph or
ĠT ip
Ġrecru its
ĠP ig
rib ing
Ġenthusi asts
ex per
Ġfright ening
ĠH air
ans on
str ate
Ġh i
He ight
Ġown ing
n one
Ġdis like
Ġkn ives
pher d
Ġloud ly
ĠAP Is
Dis play
ĠL ac
ĠUS S
ab l
ver ages
J ew
Ġ17 2
ĠHist orical
at oon
ĠPhys ics
in tern
Ġwarm th
Ġto pp
D M
Ġgun man
Ġem peror
od i
ãĥ £
in atory
ĠR ib
Ġ13 1
ĠSat urn
ĠSh ining
Ġw aking
Qu otes
Ġcomed ian
en berg
Â ½
Ġbelie vers
Ġpaper work
c ustom
Ġle v
Ġl ament
Ġpour ing
22 2
p olitical
ĠSupp lement
m aid
Ġcruel ty
Ġt read
ys ics
A w
rit es
Ġmod ifier
ĠP osition
Ad am
l b
ub s
Ġimper fect
Ġcl usters
ĠEngine er
ĠC herry
Ġinaug uration
ĠS au
Ġembod iment
ĠUn cle
Ġover r
Ġexplos ions
c ule
ĠPrinc eton
ĠAndre a
Ġincorrect ly
Ġearn est
Ġpil gr
ĠS print
Ġslee ve
Ġhe ars
ĠAm azing
Ġbrow sing
ag in
Ġhom eland
Ġha w
Ġd iving
ist ered
17 8
Ġbarg aining
ĠArc ade
Ġdeleg ate
ters on
................................ ................................
ĠJackson ville
27 5
Ġst agn
Ġad am
ĠSher man
C B
Ġsub urb
ĠFood s
Ġconver ting
ĠAr ist
Ġch ambers
l ove
Ġam ino
ĠG an
Ġmad ness
m c
ĠUS E
def ined
Ġul tr
ind ust
Ġw olves
l ance
Add itionally
Ġcr acks
as ia
ĠRe ason
ĠP ump
Ġaccident al
ĠL aser
ĠR id
Ġinitial ized
ell i
Ġun named
Ġn oun
ĠPass ed
Ġhost age
ĠEth iop
sh irts
Ġun rel
ĠEmb assy
Ġ19 41
Ġat oms
Ġpur ported
16 4
ĠF i
Ġgall ons
ĠMon ica
Ġp g
en ment
Ġsort ed
ĠG ospel
Ġhe ights
Ġtr aced
Ġunder going
She ll
Ġs acks
Ġproport ions
Ġhall uc
F ont
ac et
Ġwar mer
ĠIN TER
Ġgrab bing
Pl ug
Ġreal ization
ĠBur ke
Ġen chant
AT ER
ĠSe ed
Ġabund ant
F M
Ġc ivic
V s
is i
Ġv ow
Ġre per
ĠPartners hip
Ġpenet ration
Ġax e
Ġsh attered
ĠZ ombies
Ġv inyl
ĠAl ert
e on
Ġoblig ed
ĠIll ust
ĠPl aza
ĠFront ier
Ġdavid jl
ĠSer ial
ĠH av
ĠNut rition
B i
Ġâĸ Ī
ĠJ ays
lin ux
Ġhur ry
Ġv oy
Ġhop eless
ĠSte alth
Ġ ãģ
ess ors
tt le
b org
ĠSaf ari
f ell
Ġw ary
d ue
ĠAb ove
H a
E LL
Ġnot or
ĠW on
T oo
Ġoccup ations
Ġposs essions
Ġinv iting
Ġpred ators
Ġacceler ated
Ġ15 7
uter te
ĠC ube
e ast
acc ount
G ive
Ġtrans plant
red ients
id able
Ġscreens hots
ĠG und
ĠF S
Ġtravel ers
Ġsens ory
ĠF iat
ĠRock ets
İ ĭ
_ {
F riend
Ġchar ming
AL S
Ġenjoy ment
m ph
Ġ5 000
ĠRE G
Ù Ĩ
b ia
Ġcomp ilation
ro st
ĠV P
ĠSch ne
201 9
Ġcop ying
M ORE
ĠFl ore
f alls
2 15
t otal
Ġdis ciples
d ouble
Ġexceed ing
Ġsm ashed
Ġconcept ual
ĠRom ania
ĠB rent
ĠI CE
ĠT ou
Ġg rap
Ġn ails
18 9
ãĥ ĺ
Ġproc ure
e ur
Ġconfir ming
ĠC ec
aw i
ĠEd en
Ġn g
Ġengine ered
at ics
Ġhook ed
Ġdisgust ing
ĠMur der
ãĤ ¿
L ibrary
Ġ16 8
Al most
hem atic
Men u
ĠNot re
ĠJ ur
Ġkidn apped
Ġhack er
ĠJ ade
Ġcreep y
Ġdraw ings
ĠSpons or
Ġcycl ists
ĠGob lin
Ġoptim ized
Ġst aged
ĠMc D
bet ween
A ge
en o
S ex
ĠW ide
n ings
av is
Ġincap able
ĠK ob
Ġreward ing
ĠL one
oles cent
Ġcontract ed
Ġstick y
J ose
B all
f est
ĠIn put
ĠRec ently
Ġto mat
squ are
App lication
Ġnit rogen
Ġdupl icate
ĠRec on
ĠD ear
L ondon
Ġint ra
Ġd ock
Ġout reach
ĠM illion
Ġmamm als
am pton
V AL
Ġsn aps
Ġd os
ĠWh ole
ĠRead y
T ry
ĠWinn ipeg
ear ance
Ġinc urred
ren ched
ĠNS W
il ot
rain e
Ġc ube
g ot
Ġrun way
etermin ed
ĠHaw ks
Ġsurviv or
ĠW ish
ĠD in
ĠDE F
ĠV ault
18 7
Ġmush rooms
Ġcris p
be y
ĠDisco very
Ġdevelopment al
Ġparad igm
Ġcha otic
ĠT su
Ġ3 33
b ons
Ġbacter ial
Ġcomm its
Ġcos mic
Ġme ga
oc ative
ĠP aint
ophob ic
Ġv ain
Ġcar ved
ĠTh ief
ĠG ul
ows hip
Ġc ites
ĠEd inburgh
Ġdimin ished
Ġacknowled ges
ĠK ills
Ġmic row
ĠHer a
Ġsen iors
Ġwhere by
H op
at ron
Ġun available
ĠN ate
Ġ4 80
Ġsl ated
ĠRe becca
ĠB attery
Ġgram mar
Ġhead set
Ġcurs or
Ġex cluding
any e
aunder ing
eb in
Ġfeas ible
ĠPub lishing
ĠLab s
ĠCl iff
ĠFerr ari
Ġp ac
vis ible
mark ed
pe ll
Ġpol ite
Ġstagger ing
ĠGal actic
Ġsuper st
Ġpar an
ĠOffic ers
ãĢ ģ
Ġspecific s
ul us
23 9
ĠP aste
AM P
ĠPan ama
ĠDe lete
angu ard
rest rial
Ġhero ic
ĠD y
Ø§ ÙĦ
Ġincumb ent
Ġcr unch
t ro
Ġsc oop
Ġblog ger
Ġsell ers
ure n
Ġmedic ines
ĠC aps
ĠAnim ation
ox y
Ġout ward
Ġinqu iries
22 9
Ġpsych ologist
ĠS ask
ev il
Ġcontam inated
ãĤ ¨
he rence
Ġbrand ed
ĠAbd ul
z h
Ġparagraph s
Ġmin s
Ġcor related
er b
Ġimp art
Ġmil estone
ĠSol utions
ot le
Ġunder cover
Ġmar ched
ĠCharg ers
f ax
ĠSec rets
Ġr uth
we ather
Ġfemin ine
Ġsh am
Ġprest igious
igg ins
Ġs ung
hist ory
ett le
gg ie
Ġout dated
ol and
Ġper ceptions
ĠS ession
ĠDod gers
u j
ĠE ND
D oc
Ġdefic iency
Gr and
ĠJ oker
Ġretro spect
Ġdiagn ostic
Ġharm less
Ġro gue
ĠA val
E qu
Ġtrans c
ĠRoberts on
ĠDep ending
ĠBurn s
iv o
Ġhost ility
F eatures
ĵ ĺ
Ġdis comfort
ĠL CD
spec ified
ĠEx pect
3 40
Ġimper ative
ĠReg ular
Ch inese
Ġstate wide
Ġsy mm
Ġlo ops
Ġaut umn
N ick
Ġsh aping
Ġqu ot
Ġc herry
ĠCross ref
è¦ ļéĨĴ
Stand ard
he ed
ĠD ell
ĠViet namese
Ġo st
ĠV alkyrie
O A
Ass ad
Ġreb ound
ĠTra ffic
pl aces
æ ĺ
ĠB uc
17 2
Ġshel ters
Ġins isting
ĠCertain ly
ĠKenn eth
ĠT CP
Ġpen al
ĠRe play
he ard
Ġdial ect
iz a
ĠF Y
it cher
ĠD L
Ġspir al
Ġquarterback s
Ġh ull
Ġgo ogle
Ġto dd
ĠSter ling
ĠPl ate
Ġsp ying
mb ol
ĠReal m
ĠPro ced
ĠCr ash
Ġtermin ate
Ġprotest ing
C enter
gu ided
Ġun cover
Ġboy cott
Ġreal izes
s ound
Ġpret ending
ĠV as
19 80
Ġfram ed
Ġ13 9
Ġdesc ended
Ġrehab ilitation
Ġborrow ing
ĠB uch
Ġbl ur
R on
ĠFro zen
en za
Ch ief
ĠP oor
Ġtransl ates
M IN
Ġ2 12
J ECT
Ġerupt ed
Ġsuccess es
S EC
Ġpl ague
Ġg ems
d oms
Ġstret ches
ĠSp y
Ġstory telling
C redit
ĠP ush
Ġtra ction
Ġin effective
ĠL una
Ġt apes
Ġanaly tics
erc ise
Ġprogram mes
ĠCar bon
Ġbeh old
he avy
ĠConserv ation
ĠF IR
Ġs ack
ter min
ric ks
Ġhous ed
Ġunus ually
I ce
Ġexecut ing
ĠMor oc
ed ay
Ġed itions
Ġsm arter
ĠB A
Ġout law
Ġvan ished
ib a
AL SE
ĠSil va
23 8
C ould
Ġphilos opher
Ġevac uated
Sec ret
14 2
Ġvis as
ãĤ ¬
ĠM alt
ĠClear ly
ĠN iger
ĠC airo
ĠF ist
3 80
ĠX ML
aut o
it ant
Ġrein forced
Rec ord
ĠSurviv or
G Hz
Ġscrew s
parent s
Ġo ceans
ma res
Ġbra kes
vas ive
Ġhell o
ĠS IM
rim p
Ġo re
ĠArm our
24 7
Ġterr ific
Ġt ones
14 1
ĠMin utes
Ep isode
Ġcur ves
Ġinflamm atory
Ġbat ting
ĠBeaut iful
L ay
Ġunp op
v able
Ġr iots
ĠTact ics
b augh
ĠC ock
Ġorg asm
ĠS as
Ġconstruct or
et z
G ov
Ġant agon
Ġthe at
Ġde eds
ha o
c uts
ĠMc Cl
Ġu m
ĠScient ists
Ġgrass roots
ys sey
"] =>
Ġsurf aced
Ġsh ades
Ġneighb ours
Ġad vertis
oy a
Ġmer ged
Up on
Ġg ad
Ġanticip ate
Any way
Ġsl ogan
Ġdis respect
I ran
ĠT B
act ed
Ġsubp oen
medi ately
OO OO
Ġwa iver
Ġvulner abilities
ott esville
ĠHuff ington
J osh
ĠD H
M onday
ĠEll en
K now
x on
it ems
22 8
Ġf ills
ĠN ike
Ġcum ulative
and als
I r
Ġ ì
Ġfr iction
ig ator
Ġsc ans
ĠVi enna
ld om
Ġperform ers
P rim
Ġb idding
M ur
Ġlean ed
ĠPri x
al ks
Ġ[ âĢ¦]
ĠTw itch
ĠDevelop er
ĠG ir
Ġcall back
Ab stract
Ġacc ustomed
Ġfreed oms
ĠP G
ur acy
Ġl ump
is man
,, ,,
19 92
ĠR ED
Ġwor m
M atch
ĠPl atinum
I J
ĠOwn er
Tri via
com pl
Ġnew born
Ġfant as
O wn
Ġ19 59
Ġsymp ath
Ġub iqu
Ġoutput s
Ġal lev
Ġpr ag
K evin
Ġfav ors
Ġbur ial
Ġn urt
so lete
c ache
Ġ15 6
Ġunl ocks
te chn
M aking
Ġcon quer
ad ic
æ ĸ
Ġel f
Ġelect orate
ĠKurd s
ĠSt ack
ĠSam urai
Ġâ ĺħ
Ġ{ }
ĠS aid
ĠFall out
Ġkind ness
ĠCustom s
ĠBou levard
Ġhelicop ters
ot ics
ĠVe get
com ment
Ġcritic ised
Ġpol ished
ĠRem ix
ĠC ultural
Ġrec ons
Ġdo i
at em
Sc reen
Ġbar red
Com ments
ĠGener ally
Ġsl ap
7 20
V ari
p ine
Ġem pt
Ġh ats
ĠPlay ing
l ab
a verage
form s
ĠC otton
Ġcan s
ĠD ON
ĠSom alia
C rypt
ĠIncre ases
E ver
mod ern
Ġsur geon
3 000
Ġrandom ized
================================ ================================
B ern
im pl
ĠC OR
Ġpro claim
th ouse
Ġto es
Ġam ple
Ġpres erving
Ġdis bel
gr and
B esides
Ġsil k
ĠPat tern
h m
Ġenter prises
Ġaffidav it
ĠAdvis ory
Ġadvert ised
ĠRel igious
se ctions
psy ch
ĠField s
aw ays
Ġhasht ag
ĠNight mare
Ġv ampire
Ġfore nsic
rosso ver
n ar
Ġn avy
Ġvac ant
ĠD uel
Ġhall way
Ġface book
ident ally
ĠN RA
Ġm att
Ġhur ricane
ĠKir by
ĠP uzzle
Ġsk irt
ou st
du llah
Ġanal ogy
in ion
Ġtomat oes
ĠN V
ĠPe ak
ĠMe yer
Ġappoint ments
Ġm asc
Ġal ley
re hend
Ġchar ities
Ġund o
Ġdest inations
ĠTest ing
"> </
Ġdest ined
Ġimp lements
ĠHar old
RE CT
Ġoptim ization
Ġkilomet res
Ġc md
Ġimpair ment
Ġun successful
Ġswift ly
ĠGlas gow
art en
ĠSh ares
ĠAn swer
ĠAl bum
Ġnut ritional
ãĥ ĸ
ĠF ut
Ġbl oc
ĠN FC
Ġwholes ale
ĠC W
Ġneg lected
Ġlaun cher
Ġannounce ments
OU LD
com b
Ġrot ating
Ġrest s
ĠT icket
ched el
L ou
ĠV ic
Ġ" '
Ġtem plates
Ġrepl aces
Ar c
:: ::
ĠGil bert
Ġillness es
Ġsched ules
Ġheter osexual
L INE
Ġhere in
Ġco erc
Ġdecre asing
Ġde portation
s udo
ĠInd igenous
Ġweigh s
Al ong
' );
ĠBeng als
70 7
Ġjoint s
ver ts
Ġ14 9
na ire
Ġsimpl est
Ġl ore
10 80
f iction
ĠDat abase
Ġreserv ation
Ġs ou
Ġsan ctuary
aud io
ap le
Ġveget arian
Ġanticip ation
m icro
Ġend uring
Ġdepart ed
Ġsidew alk
Ġprohib its
ĠF ont
Ġcomp ute
ĠS ect
Ġ15 8
B attle
Ġbom ber
Ġdist raction
Ġend ured
Ġpractition ers
Ġdistur bed
Ġdr ank
ord ered
Ġsurpr ises
se at
Sec urity
ĠW isdom
og o
Ġsub paragraph
ĠPen insula
ĠOrig ins
ire n
ĠP av
igg le
Ġgrat itude
ĠG ravity
over ty
im an
ct r
ĠCa esar
c ould
g em
Ġsk ies
Ġch amp
Ġagree ing
F amily
D iv
17 6
Ġmess y
um ption
F ederal
ern o
ĠCh at
Bey ond
Ġdev ote
ĠW alsh
Ġdump ed
Ġaccum ulation
st ad
hib ition
Ġsm okers
Ġinspect or
F rench
iss an
ĠV ita
Ġresearch ing
R AM
ĠCelt ics
Ġcl oak
ĠTer ra
M ary
so ld
ĠD OM
mod s
Int el
Ġmult itude
ĠImpro ved
Ġrel iance
Ġartif act
Ġalarm ing
P rom
h on
T ION
med ium
Ġref lex
ĠEx cel
Ġweaken ed
16 3
2 24
Ġcost umes
Ġunique ly
Ġs orrow
Ġm ansion
w p
Ġsal v
ĠGro ve
bs p
ĠSn iper
ĠSh ipping
ĠP OW
Ġund is
Ġbrand ing
G irl
ĠAh mad
ĠL akes
ĠCore y
Ġinherit ance
ener y
Ġpack ing
ĠP rest
D est
F W
Ġregul ator
l ocked
Ġcont ested
ĠMel issa
ĠD uc
Ġunpop ular
Ġst acked
Ġ19 17
Ġyear ly
Ġst are
Ġassess ing
Ã ¸
Ġbe verages
Ġcompet itions
Ġstreng thening
al ong
ĠL ud
Ġmel ted
stan bul
Ġb ounty
EN C
ĠL ands
Ġdecl ares
Ġcustom ize
Ġcomp osite
ãĥ ¬
C M
ograph ics
ĠTem p
Ġcont ender
Ġins ign
ĠL AN
Ġdis asters
ins pired
Ġjud gments
ustain able
urs ion
Ġvar iance
ĠUlt imately
Ġ --------
u ador
ĠR X
Ġmel ting
ĠExt ended
ĠT we
M ajor
ĠB il
Ġsy rup
qu ick
ĠHold er
Ġinnoc ence
U LE
ĠM ight
99 99
Ġf al
Ġcontinu ity
Ġ19 53
ĠB S
st ill
L at
ĠAb use
Ġun supported
xxxx xxxx
Ġinst itute
Ġfrag ment
ĠP ep
W estern
ĠC ause
ĠFr ag
ĠAr s
à ¥
ast ics
Ġb ishop
Ġcross es
Ġ15 4
ĠUp grade
Ġmit igate
ĠRay mond
Mod s
Ġtom ato
Ġst umbled
Ġdiff ers
In itial
ĠR aspberry
Ġign ores
Ġt ant
Ã ł
Ġrel ay
Ġb isexual
Ġconf ession
Ġd ement
in as
ĠHe ather
pl atform
dri ving
bour g
ĠM ush
Ġhy ster
Det ails
Ġdr ift
ĠW ald
ĠLuck ily
or f
Ġexp ire
ĠP unch
zy me
g old
Ġunp aid
ĠT rent
Ġun armed
Ġill icit
ĠT ottenham
Ġsm ash
Intern ational
ink er
Ġst ing
ĠSadd am
ĠAR T
Ġtruth s
b irth
Ġso ber
ĠN it
Ġ ib
Ġus able
Ġst acks
ĠSy lv
Ġnort heast
Ġdom ination
ĠM our
EN SE
ĠMe asure
Ġprogram mer
Ġ< -
18 2
ĠCond ition
Ġback yard
ir ling
ĠJ eb
ĠCre ed
ĠH ang
ĠCOM P
F ER
ĠIs h
Ġdetect ives
------------ ---
ĠMess enger
Ġlo oph
Ġgate way
15 1
ĠMaterial s
ĠD T
Ġdo omed
od o
Ġslic es
Ġemail ed
ĠPer l
Ġren ov
UT H
ody nam
ĠSouth west
get ic
ĠT PP
Ġoptim ism
ĠT ow
ul ators
prot ected
y les
Â «
Ġex ile
en v
P rop
ĠZimmer man
Ù İ
C a
om aly
ãĥ Ĩ
Ġrail road
L ee
23 2
Ġrepl icate
Ġcomfort ably
act ly
Ġr av
Ġtelesc ope
Ġhonest y
ĠPe pper
ĠBr ing
Ġric hest
Ġout doors
Ġh alls
Ġcont end
IS E
Ġsub mitting
Ġna ive
ar ations
Ġ14 3
Ġpo ised
respons ible
Ġsoc ks
ĠSk ull
Quest ion
Ġdiscover ies
Jo ined
ĠEn emies
ĠWire less
ĠRe venge
Ġpuzz les
Ġce ased
29 0
cript ions
ĠCon sole
Ġbo iling
Ġdisc rep
Ġded uction
Ġar senal
XX XX
ĠAm sterdam
rox imately
ĠSh ane
Ġpos ing
ĠACL U
ĠCompan ies
Ġthe ology
ĠU g
qu arter
ĠH ank
Co in
ĠL v
Ġalleg ation
ĠAv oid
Ġindef initely
Ġcommod ities
Ġbr ig
ĠMan it
Ġt enth
met hod
ĠKn icks
ĠâĢ İ
Ġinv oked
D ial
AR A
Ġc aucus
22 7
ĠJ ab
Ġoun ces
b ay
Ġbud dy
f an
23 4
ĠH il
ad h
ĠT Y
ĠIN D
Ġ19 39
Ġiter ation
ĠGonz alez
ĠV ert
ĠI O
em b
re ra
en ch
ĠRequ irements
ĠW ins
Ġlivest ock
h ours
" âĢ¦
b ral
M arg
ĠD one
Ġwas ting
ing ed
g roups
Ġw ishing
ĠT umblr
Ġt apping
Ġnational ism
ĠB yr
Ġsqu ares
ĠAct ions
ãĥ ¥
In side
deb ug
Ġapp end
Ġstub born
ĠC ind
T ell
Ġt earing
ĠRe y
or c
ĠDay ton
ĠN H
ĠMad ness
Ch arl
ĠMor rison
fil ter
Ġacc use
Ġ. /
Ġtor rent
Ġdecl ines
g allery
M ine
Ġneg otiation
ĠBash ar
op ia
19 93
em ort
ĠNo vel
ĠF ang
ers ive
ĠInst ant
Ġroll er
A round
ĠElect ions
G ames
Ġin expensive
Ġwor s
Ġv ul
ĠH ole
Ġunbeliev able
Ġn ause
Ġent r
bo at
ĠST E
Ġbus h
ĠHass an
Ġw o
Ġpa used
ĠM ig
l ived
Ġsc out
Ġl ith
Pub lished
du ino
c ool
Ġcirc ulating
id as
ĠP am
viol ent
ĠCraw ford
udd le
ĠLet ters
Gu ard
mor ph
Ġwand ering
Ġsoph omore
Ġque er
ĠBl ind
r ue
ĠMar riage
D om
Ġpadd ing
Ġfold ers
Ġmeaning less
Ġcandid acy
af ort
Ġwhistle bl
ĠIdent ified
Ġcig ar
Ġh id
ĠDub ai
Ġpost ure
Ġh iking
ĠTermin al
Legend ary
ĠT P
ĠAT K
ĠStar bucks
ĠR iot
19 91
ĠBott om
e ffic
ĠEug ene
ĠWy oming
ĠRock y
Ġsal mon
Ġmet ro
Ġb ilateral
Ġcelebr ates
L ength
b illion
B at
Ġre leg
Ġpse udo
D T
ĠRh ode
P arent
ple tion
Ġatt ribut
Ġtun ing
ĠNOT E
ĠRe bel
ic us
F und
Ġcock tail
Ġ5 01
Ġsp oon
Ġbrut ality
Ġun ite
Ġmicro bi
ĠRe ich
pos itive
Ġam azed
ĠN T
D esc
ECT ION
Ġfalse ly
ĠHigh lander
ĠC rist
ĠVictor ian
Ġdistribut ions
the ir
ĠE instein
Ġp od
Ġepid em
Ġhe ap
ĠR anch
Ġan them
Ġre app
ĠAub urn
Ġconc urrent
ĠThrough out
ĠP OST
â ĺ
Ġhom emade
k ick
B eg
Ġch assis
c ounter
Ġmer ger
Ġl aps
2 17
un ion
ĠTr igger
Ġdeb ated
Ġsil ently
Ġrest raint
B al
0000 000
Ġform idable
ĠFil ip
Ġsacrific es
F ood
Ġdwar f
ĠSe qu
in ian
More over
Ġtang ible
ops is
ĠMine craft
ĠRegist ration
o an
Ġrepresent ations
Ġth irst
Ġcor p
ire ment
M ade
l oe
> "
c ats
* .
Ġgest ures
gener al
Le ague
Ġpack ets
ĠInspect or
ĠBer g
Ġfraud ulent
Ġcritic ize
F un
Ġbl aming
nd ra
Ġsl ash
ĠE ston
Ġpropos ing
Ġwh ales
Ġtherap ist
Ġsub set
Ġle isure
EL D
ĠC VE
ĠAct ivity
Ġcul min
sh op
ĠD AY
is cher
ĠAdmir al
ĠAtt acks
Ġ19 58
Ġmem oir
Ġfold ed
Ġsex ist
Ġ15 3
ĠL I
Ġread ings
Ġembarrass ment
ĠEmploy ment
w art
ch in
Ġcontin uation
l ia
Rec ently
Ġd uel
Ġevac uation
ĠKash mir
Ġdis position
ĠR ig
Ġbol ts
Ġins urers
4 67
M ex
Ġret aliation
Ġmis ery
Ġunre asonable
r aining
I mm
ĠP U
em er
Ġgen ital
ãĤ ³
ĠC andy
Ġon ions
ĠP att
lin er
Ġconced ed
Ġf a
Ġfor c
ĠH ernandez
ĠGe off
deb ian
ĠTe ams
Ġc ries
Ġhome owners
23 7
A BC
Ġst itch
Ġstat istic
Ġhead ers
ĠBi ology
Ġmot ors
ĠG EN
ĠL ip
Ġh ates
Ġhe el
S elf
i pl
ED IT
ort ing
Ġann ot
ĠSpe ech
old emort
ĠJ avascript
ĠLe Bron
Ġfoot print
Ġf n
Ġseiz ures
n as
h ide
Ġ19 54
ĠBe e
ĠDecl aration
ĠKat ie
Ġreserv ations
N R
f emale
Ġsatur ated
Ġb iblical
Ġtroll s
Dev ice
ph otos
Ġdr ums
ãĥīãĥ© ãĤ´ãĥ³
N ight
f ighter
ĠH ak
ri ber
Ġc ush
Ġdiscipl inary
ba um
ĠG H
ĠSch midt
ilib rium
Ġs ixty
ĠKush ner
ro ts
Ġp und
ĠR ac
Ġspr ings
Ġcon ve
Bus iness
F all
Ġqual ifications
Ġvers es
Ġnarc iss
ĠK oh
ĠW ow
ĠCharl ottesville
ed o
Ġinterrog ation
ĠW ool
36 5
B rian
Ġâľ ĵ
Ġalleg es
ond s
id ation
ĠJack ie
y u
Ġl akes
Ġworth while
Ġcryst als
ĠJud a
Ġcomp rehend
Ġfl ush
Ġabsor ption
ĠO C
Ġfright ened
ĠCh ocolate
Mart in
Ġbu ys
Ġbu cks
Ġapp ell
ĠChampions hips
Ġlist ener
ĠDef ensive
Ġc z
ud s
ĠM ate
Ġre play
Ġdecor ated
Ġs unk
ĠV IP
ĠAn k
Ġ19 5
aa aa
Nob ody
ĠMil k
ĠG ur
ĠM k
ĠS ara
Ġse ating
ĠW id
Tr ack
Ġemploy s
Ġgig antic
AP P
ãĤ §
in ventory
Ġtow el
at che
l asting
ĠT L
Ġlat ency
Ġkn e
B er
me aning
Ġup held
Ġplay ground
Ġm ant
S ide
Ġstere o
Ġnorth west
Ġexception ally
Ġr ays
Ġrec urring
D rive
Ġup right
Ġab duct
ĠMar athon
Ġgood bye
Ġal phabet
h p
Ġcourt room
ring ton
ot hing
T ag
Ġdiplom ats
Ġbar bar
ĠAqu a
18 3
33 33
Ġmat urity
Ġinst ability
ĠAp ache
Ġ= ==
Ġfast ing
ĠGr id
Mod Loader
Ġ15 2
A bs
ĠOper ating
ett i
Ġacqu aint
Don nell
ĠK em
ĠFor ge
Ġarm ored
M il
Ġphilos ophers
in vest
Pl ayers
â Ī
Ġmy riad
Ġcomr ades
R ot
Ġremember ing
Ġcorrespond s
Ġprogram mers
ĠLyn n
Ġo lig
Ġco herent
yn chron
ĠChem ical
Ġj ugg
p air
post s
E ye
ĠIn ner
Ġsem ester
ott est
ĠEmir ates
ric anes
or ously
m its
ĠW is
Ġd odge
l ocation
Ġf aded
Am azon
ĠPro ceed
ĠIN FO
j ournal
ĠTru ck
T en
Ġ2 17
Ġstat utes
m obile
ĠT ypes
Rec omm
b uster
pe x
Ġleg ends
Ġhead ache
f aced
ĠWi Fi
if ty
ĠH ER
Ġcirc uits
ER ROR
22 6
ol in
Ġcyl inder
osp ace
ik ers
P rem
Qu ant
Ġconflic ting
Ġslight est
Ġfor ged
ion age
Step hen
ĠK ub
ĠOpp ortun
ĠHe al
Ġbl o
Ġrul ers
Ġh uh
Ġsubmar ine
f y
ass er
Ġallow ance
ĠKas ich
ĠT as
ĠAustral ians
Forge ModLoader
ĠâĨ ĳ
ĠMat rix
am ins
Ġ12 00
[...]
